[UNK]
[CLS]
[SEP]
[PAD]
[MASK]
!
"
#
$
%
&
'
(
)
*
+
,
-
.
/
0
1
2
3
4
5
6
7
8
9
:
;
<
=
>
?
@
A
B
C
D
E
F
G
H
I
J
K
L
M
N
O
P
Q
R
S
T
U
V
W
X
Y
Z
[
\
]
^
_
`
a
b
c
d
e
f
g
h
i
j
k
l
m
n
o
p
q
r
s
t
u
v
w
x
y
z
{
|
}
~
¡
¢
£
¤
¥
¦
§
¨
©
ª
«
¬
®
¯
°
±
²
³
´
µ
¶
·
¸
¹
º
»
¼
½
¾
¿
À
Á
Â
Ã
É
Ñ
Ó
×
Ø
Û
Þ
ß
à
á
â
ã
ä
å
æ
ç
è
é
ê
ë
ì
í
î
ï
ð
ñ
ó
ô
õ
ö
÷
ø
ú
ü
ý
ā
ă
ą
ć
č
đ
ę
ě
ğ
ı
ł
ő
Œ
œ
ř
ś
ş
š
Ÿ
ż
ž
ƒ
ư
ǀ
ə
ˆ
˜
́
Α
Ε
ά
έ
ή
ί
α
β
γ
δ
ε
η
θ
ι
κ
λ
μ
ν
ο
π
ρ
ς
σ
τ
υ
φ
χ
ω
ό
Ђ
Ѓ
Ѕ
І
А
Б
В
Г
Д
Е
З
И
К
Л
М
Н
О
П
Р
С
Т
У
Ф
Х
Ч
Ь
Я
а
б
в
г
д
е
ж
з
и
й
к
л
м
н
о
п
р
с
т
у
ф
х
ц
ч
ш
щ
ъ
ы
ь
э
ю
я
ё
є
ѕ
і
ї
ј
ґ
ա
ն
ב
ה
ו
י
ל
ע
ר
ת
،
ء
آ
أ
إ
ئ
ا
ب
ة
ت
ث
ج
ح
خ
د
ذ
ر
ز
س
ش
ص
ض
ط
ع
غ
ـ
ف
ق
ك
ل
م
ن
ه
و
ى
ي
ً
ٍ
َ
ُ
ِ
ّ
ْ
ٰ
ٱ
پ
ک
گ
ہ
ی
ے
ۡ
ँ
ं
ः
अ
आ
इ
ई
उ
ऊ
ऋ
ऍ
ऎ
ए
ऐ
ऑ
ऒ
ओ
औ
क
ख
ग
घ
ङ
च
छ
ज
झ
ञ
ट
ठ
ड
ढ
ण
त
थ
द
ध
न
ऩ
प
फ
ब
भ
म
य
र
ऱ
ल
ळ
ऴ
व
श
ष
स
ह
़
ऽ
ा
ि
ी
ु
ू
ृ
ॄ
ॅ
ॆ
े
ै
ॉ
ॊ
ो
ौ
्
ॐ
॑
॒
॓
॔
क़
ख़
ग़
ज़
ड़
ढ़
फ़
य़
ॠ
ॢ
।
॥
०
१
२
३
४
५
६
७
८
९
॰
ॲ
ॽ
ং
ক
ত
দ
ন
প
ব
ম
য
র
ল
স
া
ি
ু
ে
্
৷
ਜ
ਦ
ਨ
ਪ
ਬ
ਰ
ਲ
ਹ
ਾ
ਿ
ੀ
ੇ
ੰ
ગ
જ
ત
ન
મ
ર
વ
ા
ી
ુ
ે
ો
્
க
ச
ட
த
ன
ப
ம
ய
ர
ல
ழ
வ
ா
ி
ு
ை
்
ం
క
గ
ట
డ
త
ద
న
ప
మ
య
ర
ల
స
ా
ి
ు
ె
ో
్
ಕ
ಗ
ಡ
ನ
ರ
ಾ
ಿ
ು
ೆ
್
ം
ക
ട
ത
ന
പ
മ
യ
ര
റ
ല
ള
ാ
ി
ു
െ
്
ก
ค
ง
ด
ต
ท
น
บ
ป
ภ
ม
ย
ร
ล
ว
ษ
ส
อ
ะ
ั
า
ิ
ี
เ
ไ
่
้
ạ
ả
ế
ệ
‒
–
—
‘
’
‚
“
”
†
‡
•
…
‰
′
″
‹
›
⁄
€
₹
⃣
℃
№
™
←
↑
→
⇒
⇝
−
⋆
━
■
▪
▬
▭
▶
►
▼
◆
○
●
☀
★
☆
☝
☺
♥
♦
⚜
✅
✉
✍
✓
✔
✳
❤
➖
➡
➤
⠀
、
。
「
」
【
】
〡
あ
い
う
お
か
が
き
く
け
こ
さ
し
す
た
だ
っ
て
で
と
な
に
の
は
ま
も
や
よ
ら
り
る
れ
を
ん
ア
イ
カ
ク
コ
サ
シ
ス
タ
ッ
ト
ド
ナ
フ
プ
マ
ラ
リ
ル
レ
ロ
ン
・
ー
一
三
上
下
不
世
东
个
中
为
主
么
之
乐
九
也
买
了
事
二
五
亚
交
京
人
今
代
以
件
会
体
作
信
光
免
入
全
公
六
内
准
出
分
划
利
到
前
加
动
势
北
区
十
单
南
博
双
发
可
台
号
合
吉
名
后
和
品
四
国
图
在
地
场
址
坛
城
多
大
天
奖
女
好
如
姐
娱
婚
子
学
安
官
定
宝
宴
家
富
小
少
工
巧
市
平
年
广
库
店
度
开
式
录
彩
影
心
必
快
怎
性
情
成
我
所
手
技
投
报
拍
挂
推
播
数
文
料
新
方
无
日
时
明
是
最
月
有
期
本
术
机
杀
来
林
果
欧
款
正
水
江
河
法
波
注
洲
流
海
港
澳
爱
片
版
牌
物
特
狗
玄
王
玩
现
理
生
用
电
画
白
百
的
直
相
看
真
码
神
票
福
科
站
简
算
管
精
红
线
经
结
网
美
老
者
肖
能
自
色
行
表
西
要
规
视
解
語
计
记
论
说
财
费
资
赌
赛
赢
走
跑
车
软
载
通
道
部
重
金
门
青
音
频
香
马
體
高
黄
龙
국
기
어
의
이
한
️
％
（
）
，
：
ﾥ
￼
🇮
🇳
🌷
🌹
🎯
🏻
👇
👉
👌
👍
💐
🔥
😀
😁
😂
😉
😊
😍
😎
😘
😜
😝
🙂
🙏
🚩
##4
##9
##8
##c
##च
##े
##न
##्
##द
##र
##ी
##ल
##त
##ि
##प
##ं
##ब
##ा
##व
##आ
##इ
##ट
##ु
##ज
##ण
##ध
##य
##ग
##ह
##ळ
##ै
##म
##स
##क
##ो
##फ
##़
##छ
##श
##o
##f
##e
##h
##u
##s
##ई
##थ
##ॉ
##ष
##ए
##ू
##ड
##ओ
##i
##n
##d
##❤
##3
##5
##0
##2
##भ
##ौ
##ृ
##अ
##ख
##a
##m
##t
##l
##ι
##λ
##ο
##δ
##ε
##ί
##и
##ш
##е
##झ
##r
##b
##с
##к
##о
##р
##т
##л
##D
##7
##Z
##ऱ
##घ
##९
##k
##p
##6
##º
##C
##w
##x
##ठ
##G
##W
##g
##1
##v
##y
##I
##B
##M
##०
##३
##ä
##ः
##७
##_
##N
##K
##ज़
##ऊ
##ö
##ँ
##á
##A
##फ़
##ï
##ख़
##í
##j
##红
##坛
##ङ
##'
##)
##;
##ढ
##X
##E
##P
##V
##O
##S
##Y
##а
##H
##F
##â
##य़
##J
##U
##औ
##ऐ
##ड़
##–
##—
##-
##н
##в
##ь
##姐
##T
##R
##उ
##१
##海
##大
##学
##公
##生
##时
##个
##月
##了
##物
##官
##L
##ü
##ॊ
##॔
##ॅ
##z
##।
##Ó
##б
##д
##м
##论
##网
##.
##@
##Q
##२
##ц
##の
##を
##あ
##る
##と
##è
##π
##ω
##ς
##م
##ا
##ش
##گ
##ر
##美
##黄
##色
##频
##视
##小
##说
##片
##َ
##ت
##ذ
##ك
##ّ
##ُ
##و
##ن
##é
##🚩
##财
##宝
##彩
##图
##॓
##ی
##ہ
##ک
##ل
##ه
##क़
##ﾥ
##г
##у
##з
##ऑ
##č
##ढ़
##ञ
##に
##け
##て
##コ
##ン
##サ
##ー
##ト
##加
##入
##者
##定
##料
##信
##ऩ
##æ
##œ
##"
##[
###
##&
##%
##С
##イ
##娱
##乐
##平
##台
##ż
##爱
##的
##q
##ي
##ج
##î
##利
##北
##京
##赛
##车
##年
##中
##国
##市
##场
##现
##软
##や
##が
##な
##人
##は
##의
##女
##玄
##机
##ऋ
##ॆ
##世
##行
##事
##果
##内
##く
##ч
##ق
##🙏
##й
##ø
##ë
##ł
##५
##港
##马
##报
##开
##奖
##新
##计
##划
##神
##ॄ
##ರ
##ಡ
##ು
##金
##有
##体
##期
##技
##能
##上
##=
##/
##波
##ã
##?
##॒
##ะ
##บ
##ழ
##८
##ऍ
##◆
##Þ
##”
##п
##‘
##я
##ਨ
##ਹ
##ж
##ы
##票
##方
##记
##一
##澳
##ੇ
##ਲ
##ٰ
##ِ
##ാ
##മ
##ു
##ക
##ി
##യ
##ട
##െ
##会
##す
##ą
##好
##博
##快
##号
##码
##η
##κ
##α
##王
##光
##シ
##っ
##’
##४
##么
##不
##щ
##υ
##τ
##έ
##ρ
##,
##(
##ค
##ภ
##เ
##і
##ऽ
##ん
##か
##さ
##出
##分
##६
##د
##ْ
##ն
##э
##ب
##ग़
##正
##福
##്
##ى
##ß
##😂
##\
##重
##是
##真
##!
##部
##ç
##在
##电
##子
##ğ
##ı
##ٍ
##>
##三
##直
##播
##ā
##ś
##多
##也
##¸
##址
##ض
##ع
##动
##赌
##城
##站
##ز
##х
##ć
##ة
##É
##³
##我
##少
##和
##}
##อ
##า
##ม
##ব
##ন
##্
##দ
##র
##স
##ত
##ə
##ð
##ऎ
##👍
##👌
##ъ
##ス
##情
##西
##工
##区
##ф
##成
##で
##$
##ó
##॥
##家
##合
##お
##き
##ま
##ν
##θ
##س
##ف
##à
##二
##来
##ٱ
##ર
##્
##વ
##ી
##ئ
##カ
##う
##た
##件
##江
##双
##肖
##ю
##ל
##ו
##*
##µ
##ё
##Р
##Ѕ
##є
##ա
##心
##水
##⃣
##门
##Т
##О
##库
##地
##结
##خ
##走
##势
##百
##度
##±
##ح
##代
##理
##特
##挂
##牌
##注
##К
##У
##»
##ન
##ા
##ે
##十
##无
##下
##载
##|
##手
##Ф
##画
##×
##:
##Â
##ુ
##👉
##ら
##σ
##ు
##ల
##్
##香
##五
##天
##如
##日
##资
##リ
##洲
##可
##经
##ロ
##れ
##し
##い
##り
##录
##🏻
##آ
##相
##名
##以
##为
##¶
##ό
##…
##算
##ư
##レ
##ன
##்
##த
##ો
##¥
##简
##单
##式
##ę
##<
##林
##数
##μ
##最
##А
##Д
##こ
##ú
##玩
##法
##本
##今
##全
##线
##看
##自
##ル
##✓
##用
##流
##י
##ת
##白
##版
##跑
##狗
##道
##ї
##😘
##ş
##ऴ
##ص
##ॢ
##六
##性
##ạ
##ര
##ñ
##Ã
##Ÿ
##免
##费
##作
##ে
##া
##ప
##ా
##య
##投
##要
##高
##´
##管
##☆
##★
##青
##ệ
##所
##安
##ি
##Ђ
##ѕ
##І
##ב
##ட
##ு
##亚
##+
##买
##发
##后
##ா
##ம
##龙
##巧
##പ
##ല
##ế
##南
##~
##フ
##મ
##ਾ
##ੀ
##ă
##Б
##ő
##`
##杀
##ě
##ά
##П
##科
##ત
##χ
##ア
##も
##😝
##之
##前
##ള
##ـ
##赢
##ਿ
##ੰ
##ਦ
##Н
##И
##Г
##ক
##ਰ
##ท
##Ѓ
##ª
##ラ
##婚
##غ
##明
##だ
##أ
##Л
##Я
##이
##宴
##ന
##ř
##ி
##ை
##ய
##ல
##ர
##வ
##க
##店
##河
##ਜ
##😍
##解
##品
##プ
##ু
##š
##ط
##®
##“
##¹
##ž
##ً
##γ
##✍
##🇳
##🌹
##🌷
##✔
##😎
##推
##到
##音
##ッ
##ク
##õ
##影
##🇮
##డ
##ి
##В
##Е
##ം
##]
##文
##ऒ
##న
##ర
##한
##^
##{
##款
##主
##表
##怎
##Х
##Û
##老
##ॽ
##通
##إ
##ث
##ے
##ء
##Ε
##ή
##기
##术
##್
##交
##మ
##క
##ో
##💐
##ј
##ý
##ร
##ง
##ย
##ก
##广
##·
##吉
##้
##น
##ê
##●
##四
##」
##å
##欧
##规
##精
##ॲ
##准
##😜
##ল
##よ
##જ
##タ
##ナ
##ド
##👇
##○
##ґ
##富
##マ
##Ñ
##拍
##•
##东
##⠀
##½
##ম
##°
##М
##β
##Ь
##Ч
##З
##ۡ
##ה
##Á
##ಿ
##ట
##ר
##ગ
##′
##）
##†
##ả
##ƒ
##ం
##ద
##॑
##©
##য
##➖
##త
##ô
##റ
##ത
##প
##φ
##ì
##ע
##స
##😊
##😉
##어
##ೆ
##ಾ
##ಗ
##（
##¬
##́
##ப
##ং
##ಕ
##ನ
##ਪ
##ਬ
##¼
##Α
##🙂
##語
##پ
##九
##ॐ
##ิ
##ด
##ต
##่
##ษ
##ె
##గ
##ส
##ี
##ป
##ั
##😁
##ॠ
##♦
##體
##必
##￼
##😀
##☝
##ไ
##‡
##✅
##²
##¾
##☺
##ว
##ล
##À
##§
##→
##॰
##。
##【
##ச
##♥
##£
##ǀ
##：
##⇒
##Ø
##►
##、
##■
##¤
##🔥
##‚
##➡
##đ
##¯
##✳
##국
##₹
##¨
##「
##−
##️
##«
##➤
##ˆ
##Œ
##・
##¡
##，
##▪
##№
##↑
##÷
##″
##⚜
##،
##˜
##▬
##¦
##━
##‰
##¿
##‹
##€
##™
##】
##←
##৷
##¢
##›
##‒
##✉
##☀
##℃
##🎯
##▶
##〡
##⁄
##⋆
##▭
##▼
##ार
##ें
के
##्र
है
##या
में
##ों
##ने
की
को
##र्
##ान
से
##ता
कि
कर
का
##्य
##ना
##िक
##ाल
पर
और
ने
प्र
##िल
##स्
##ही
इस
##क्
हो
##हा
हैं
##ित
##ते
जा
##िया
##िए
##ाम
##िय
##वा
भी
##ंग
##ड़
##्या
##के
##ती
वि
##न्
##ला
बा
स्
##त्र
##ले
##ेश
##री
##हीं
##से
एक
सा
रा
##रा
##नी
##ति
लिए
##कर
अप
नहीं
सम
##गा
सं
##िन
##सी
##का
मु
##कार
दे
##िस
ले
हु
##ोग
ही
##ली
##ुर
##ां
##त्
##्ट
##क्ष
रह
किया
##वार
##ंद
तो
##की
##ाय
नि
पह
था
##्म
कार
यह
##ारी
##ियों
कहा
##ुल
गया
##न्ह
आप
##ास
करने
##दी
##मा
साथ
##ंड
##िला
उन
##रे
##ाह
सि
उस
उन्ह
##कि
कु
हम
राज
वाल
##्री
सु
अध
पू
##भा
##सा
बाद
##गी
अन
##ंत्र
##िर
##ल्
या
##दा
रहे
सक
##ंच
सर
##ाज
दो
जो
लोग
##्रे
##स्त
अपने
##टी
भार
##भी
##देश
दिया
##्व
तक
मै
##गे
20
सी
थी
पा
##स्ट
##ानी
##च्
मह
##ओं
चु
हुए
मा
ला
##जी
मे
सरकार
रहा
##पी
बी
##तर
##ोज
##द्
##गर
##ढ़
##वी
##ाना
##ेल
##ोंने
##वि
##पा
मिल
रही
##्त
बार
##्ष
जी
##ष्ट
##किन
बता
##था
##ौर
##जा
गई
उन्होंने
##टर
लेकिन
जिस
##में
दी
##बर
##ूर
बना
थे
##िव
कम
##ार्
##ये
##ेट
मो
वह
##ीन
##िश
जब
तर
##ंत्री
##ाई
##रो
##द्र
कुछ
लगा
अधिक
बात
उप
##र्म
##को
बै
पहले
##ुप
##ंप
अब
##ंध
##हां
जाए
वर्
सब
##शन
इन
पी
##ंह
होने
चाह
##खा
##नों
पुल
##ंक
ये
दिन
हि
##हर
मौ
##बा
लोगों
वे
देश
कोई
भारत
सो
वाले
##िंग
बह
स्थ
अपनी
करते
पुलिस
बे
##र्व
कार्य
बि
गए
##ून
201
कह
इसके
साल
##ोट
##धान
रू
प्रति
सिंह
अनु
किसी
##ड़ी
##र्ट
##ोल
आज
##्स
टी
जान
##क्त
##च्च
##ाप
साम
पार
कै
दिल
##्ल
विश
निर्
##चार
काम
##ाइ
##क्र
##ोक
##ूल
देख
##कों
मैं
##वर
फिल
तरह
हर
माम
##िम
दू
दु
##बी
##ड़ा
परि
हुआ
समय
रुप
##्यों
##ुत
##मान
उत्
लेकर
##वे
##चा
क्ष
बताया
भा
##वं
मुख
##ंस
##द्ध
पि
कई
##्वार
व्य
##जे
##्रेस
उनके
##मार
##स्थ
जन
हुई
##क्षा
अम
##िका
##मंत्री
##िप
ना
शुर
द्वार
विक
लग
##्टी
##ंट
##00
आय
करें
##ारा
रख
##्ली
जै
पहु
##्यू
##ष्
नाम
स्ट
द्वारा
##डी
फिल्म
##ंत
रूप
##क्स
उन्हें
गु
##ड़े
##बंध
##नाव
सभी
##िट
जाता
##वाल
गां
फिर
खिला
##तीय
##ेत्र
दि
चल
होता
##..
करना
पहुंच
##ारे
बढ़
##च्छ
कांग
दौर
जाने
सू
##एस
हाल
शिक
आई
बन
होगा
खु
##ोर
सकता
मुख्य
##जार
जु
पु
पै
##ेंद्र
##पुर
बु
मान
सह
क्षेत्र
प्रदेश
दूस
ग्र
दिल्ली
बहुत
##दार
##वन
##जन
दर्
##म्
कंप
हा
कांग्रेस
##ेर
##ीड
लिया
सकते
##म्म
##ाने
क्या
##दि
वर्ष
##र्थ
##यर
##ध्य
##श्
महिला
लि
##धार
यु
घर
##णा
##फी
चुनाव
राज्य
एवं
##मी
##्यादा
सबसे
जर
पास
दौरान
भारतीय
##एं
##ब्
##एम
##ोड़
##शी
बच्च
रो
वो
##धी
आरो
शुरू
राष्ट
अभ
टीम
##दे
फै
नी
कारण
उसके
निक
अव
##्रीय
##र्स
वाली
स्व
बीच
शाम
तथा
##जर
##क्ट
##हत
क्यों
उनकी
पार्टी
##in
##सर
ज्यादा
##जू
क्र
चाहिए
तीन
##ंब
##क्ति
##ियां
उसे
##कारी
##्ञ
यहां
##सार
##आई
बद
अल
##सान
दोनों
अगर
मन
##ेज
##गत
ऐसे
मामले
जि
मोदी
##र्ड
##पर
##वाद
आपको
बैठ
##ाला
##्ड
श्री
##योग
अग
##ाली
##ेंगे
##भाव
##ूर्
10
बो
##न्न
##लय
##ताओं
सुर
स्क
चौ
अपना
##दान
##ूम
होती
भाज
देने
कप
##ची
##ीस
##चे
गो
##टना
##नि
##ृत
खिलाफ
अन्य
##ज़
अध्य
##भाग
##ोजना
तै
अच्छ
19
##िये
##लों
एस
स्थित
##ुक
##टा
पिछ
##सभा
पूर्व
रुपये
ट्र
##स्था
भाजपा
अं
##दर्
वा
##ियो
कॉ
बारे
##द्य
मांग
इं
##ैन
##वाई
##स्तान
##ूं
डॉ
प्रधान
इससे
लाख
##लो
ऐसा
पद
अस
छा
##ेत
##प्र
##मु
##स्प
किए
...
##त्म
मंत्री
##हार
वहीं
##ोन
आर
इसी
कुमार
##ोष
शु
##ेड
राम
ली
काफी
शामिल
##वास
उठ
जाएगा
ओर
पत्र
##ंबर
##ोर्ट
##झे
आरोप
##त्व
गांव
जारी
दर
##ांच
##er
##णी
अध्यक्ष
वै
लोक
जानकारी
##धा
##ुरु
##निया
##ामी
##चना
##ताब
जैसे
मार्
##त्या
करता
इंड
##्ला
##यी
शिक्ष
इस्
शा
कंपनी
##वान
दा
##ar
##त्रा
##वल
महा
विभाग
##ज्ञ
##ेंद
##पाल
पाकि
ब्र
करी
##दन
निय
करोड़
मुख्यमंत्री
##क्टर
होगी
समझ
##ेशन
इसे
##ीर
##क्रम
तैय
अलग
पिछले
सामने
संग
##रण
##an
जग
यू
##िज
याद
गिर
चार
योजना
आम
##तिक
अनुसार
##लिए
विकास
डी
सकती
##्यालय
संबंध
##ष्ठ
अभी
##ेष
टे
##ोध
विश्व
12
मुझे
आने
बल्
सफ
प्रश
जिला
पूरी
क्योंकि
हों
नई
अधिकार
आए
होते
##तों
##माण
विध
##ेंट
##जूद
##र्फ
प्रा
खा
##्रा
चे
##कर्
खेल
भर
बंद
15
कर्म
##स्ता
##तार
जाती
##प्
##at
बैंक
##िता
##म्मी
##इन
##चित
आह
##न्द
पानी
जबकि
उनका
करे
नेता
परिवार
लड़
अला
तब
घटना
दर्ज
##es
बनाने
सद
##ूट
पाकिस्तान
जांच
करीब
मैच
इसमें
स्वा
##बाज
##बाद
प्रधानमंत्री
दूसरे
जहां
कभी
##on
मत
आगे
##धिक
शर्
इला
जिन
##ंगे
जिल
##जह
आयोज
इसलिए
##सल
उम्मी
##ाप्त
मीड
हजार
राष्ट्र
उम्मीद
##ायत
योग
सुन
बस
उसकी
जिसमें
अलावा
मीडिया
तु
##or
एन
दिए
जीवन
जीत
##ासन
##ड़ी
रुपए
किसान
स्कूल
मिले
रे
##डे
फीस
व्यव
हालां
ता
हालांकि
डि
वजह
व्या
##ुक्त
शहर
बेह
शिव
##बू
स्प
समाज
इत
आधार
11
##ंगल
दिख
चला
फैस
दें
राजनी
##वरी
पांच
हाथ
सच
आया
बॉ
मिला
##न्द्र
बाहर
##फ्त
##र्य
कान
न्या
##र्क
इसका
##ैंड
विशेष
रिप
##ेम
ऑफ
आपके
जगह
कहना
अधिकारी
केंद्र
##तन
गा
उत्तर
मद
हमारे
अर
##्यान
##मेंट
पं
##शा
##स्क
##ड़ा
मुताब
कोर्ट
##ियर
प्रदर्
##ायक
ची
व्यक्ति
कल
तैयार
दिनों
मही
##ताल
विरो
कार्यक्रम
##वेश
##ंदी
मज
करा
##ार्थ
##जय
नौ
मुताबिक
कुल
सर्व
##त्य
##ियन
##इट
स्थान
अमेर
##करण
वाला
##माल
##आर
##ख्या
पता
दुनिया
नजर
जाते
##मत
पत्
शे
सौ
##हन
##श्य
जनता
आदि
मार
पो
कृ
##स्या
शर्मा
##en
##पूर्
##मुख
राह
तहत
हूं
##ायर
पूरा
मेरे
गांधी
पढ़
वहां
खुद
पे
##शत
डे
##ड़े
मौत
आग
पड़
जरूर
200
दूर
डा
छात्र
##ंदर
बैठक
उसने
विधान
परी
रिपोर्ट
सिर्फ
सम्म
वित
सुरक्षा
##ेद
रात
मंद
##क्षण
घोष
एम
बच्चों
यदि
पहली
##श्म
सेवा
फीसदी
##al
देते
हिस्
सदस
##पति
बिल
##त्री
आत
रन
राष्ट्रीय
##ल्प
##ात
बाजार
करके
वीड
दल
##टे
करती
जिसके
##हरा
संघ
भाग
रहने
प्रदर्शन
बिज
करेंगे
##पूर्ण
##शि
प्रो
मदद
##काश
दिव
##ठी
##बार
समस्या
लाल
##ुआ
बड़ी
##ालय
खान
सवाल
लगे
##स्थान
##दों
##यान
18
मंत्र
सीट
खबर
नर
2018
##ुट
तरफ
##di
वीडियो
##ैल
रंग
लिख
##ल्ड
ते
रिक
##ेंस
मिली
30
##राज
कोश
##षा
अफ
##ंज
मंदिर
##र्च
प्राप्त
आद
ऐसी
##र्चा
धर्म
सुब
नगर
इसकी
बर
जम
मैंने
नए
लेने
##हित
##त्ता
पूछ
चि
शिक्षा
लिये
बाल
प्रकार
##र्ष
तौर
आस
मध्य
प्रतिशत
माल
जे
केवल
25
##श्व
##रि
इंडिया
युव
अह
जिससे
खरी
##वीर
##यन
##काल
यादव
स्तर
##तेमाल
पेश
प्रमुख
इस्तेमाल
##ीय
##जेपी
जल्
##ंगा
पंच
गुरु
विधानसभा
स्थिति
पुर
##ंडी
डाल
##तम
मि
##ंका
अस्प
महीने
रवि
विचार
गै
कोशिश
##एल
##धि
आहे
##र्ज
##शल
बीजेपी
मी
निर्माण
हमें
उठा
जिले
ध्यान
##ंबई
##राब
##नाथ
पूरे
14
##भव
##ियम
##om
##नल
बजे
उसका
##कान
##र्ण
जवा
जाएगी
##ण्या
##ग्
##ेस
विदेश
लाभ
भूम
प्रभाव
सुबह
हे
अंतर
##दम
व्याप
##लर
जाना
यही
##ग्र
कौ
मामला
##िन्न
संख्या
##चान
होना
गिरफ्त
विरोध
मां
##षण
बढ़
न्यू
खास
ट्रे
गयी
श्र
##डा
##िति
गि
उपल
ज़
मौजूद
##भग
पिता
वाप
मुंबई
क्रिक
कैसे
##सू
चुके
बड़े
माह
सके
अधिकारियों
मौके
##फा
सरकारी
##बल
शादी
राहुल
बज
##ूप
##्ले
16
दूसरी
##वासी
समर्थ
सै
निर्देश
रेल
रोक
जल
##हाँ
13
उत्पा
नोट
रखा
##ोह
कश्म
बिजली
हत्या
छो
धन
गेंद
उपलब्
ति
##ित्र
##िश्
दिखा
शाह
लगभग
##द्यालय
##लि
##टक
अस्पताल
विभ
बिना
##लब
होंगे
उम
अच्छा
अख
##गढ़
परीक्षा
##्वी
बल्कि
युवा
सफल
##मे
मूल
बयान
##्प
चाहते
##वाह
जय
##ुन
50
चलते
##ठन
सूचना
करवा
##ंद्र
अद
सोम
##द्योग
लगाया
##लाई
शेयर
गल
##ूब
प्रया
व्यवस्था
त्या
##ीक
बदल
मंगल
##्क
लगातार
बचा
मेरी
तरी
प्रशासन
आदेश
शी
##वादी
देखा
फर
हरिया
बने
रोज
गं
##जों
पीछ
##it
सही
राशि
##ing
शुक्र
##ad
मुद्
कंपन
लगी
थीं
कहते
कश्मीर
17
उच्च
अभि
सहित
भग
महिलाओं
##मो
##ic
तेज
आव
विभिन्न
##ॉर्ड
##टन
चुकी
सांस
बनाया
कार्र
##ष्य
पत्रकार
खे
जन्
रु
##st
##पन
सेना
जवाब
बड़ा
संप
फैसला
##ूँ
उपलब्ध
वाह
##ूरी
##ायल
चीन
शरी
घंट
कार्रवाई
विधायक
मिलने
अति
ब्ल
वृ
भाव
महत्व
छोट
रै
उपयोग
लक्ष
पंजा
##ेंड
##ृति
चर्चा
##स्थ्य
पत्नी
परेश
दौ
हास
फोन
##िकी
किसानों
लगता
बेट
अमेरिका
शिकायत
देखने
मना
पक्ष
फ़
##प्री
यात्रा
##रिक
पोस्ट
##फ़
बिहार
##रों
क्रिकेट
हरियाणा
प्रयास
बच्चे
माध्य
शनि
एक्स
रखने
गये
आतंक
##िटी
सदस्य
समा
##श्च
##वेदन
##रात
सामान
##गल
इंटर
##ूत
लिखा
##ांत
आख
##मन
एज
##तु
##र्या
##हास
##िस्ट
##क्शन
वन
स्वास्थ्य
##च्या
न्याया
##बंधन
संय
अंक
आयोजित
भाई
##बे
##गार
शुरुआ
माध्यम
सोमवार
##ण्ड
अंत
##ोस
हासिल
देव
##ंख
पक
यून
चा
##काब
##चल
कानून
तस्
##राव
##ॉल
गिरफ्तार
##किल
किस
बुध
पीछे
चुका
बोर्ड
अच्छी
सित
##इल
जिसे
कमी
अवसर
##थम
##ार्ड
##ांस
बोल
##दारी
प्रकाश
टै
##श्यक
##लिया
सम्मान
पट
##ुड
##ॉप
##भीर
##ष्ण
राष्ट्रपति
सड़
##le
##गू
सचिव
कीमत
कट
##एफ
अहम
नियम
पस
##एन
वक्त
##ज्ञान
तय
नंबर
टेस्ट
##हाय
बनाए
##ियान
मिश
सुवि
पाल
विकेट
जरूरत
स्था
सोच
रि
##नर
##गम
लोकसभा
ठीक
माना
पहुंचे
कित
##चर
उम्मीदवार
##ामीण
निकल
##र्ती
बच
विप
##रान
शुक्रवार
बढ़ा
ग्रामीण
##भर
जन्म
आपकी
नागर
तीस
21
कहीं
जिम
छोड़
क्ल
आरोपी
पंजाब
वालों
##ील
24
##तंत्र
जाये
थो
2019
##सि
जून
##र्जी
शो
##तिहास
नार
##तरा
करो
पेट
##कल
अप्र
जल्द
निवेश
दिस
हाई
कार्यकर्
कारो
राय
नरेंद्र
##ूक
##िली
##रल
आवश्यक
मुकाब
##रिया
##सम
विष
फाइ
फोट
भाषा
गंभीर
वी
देशों
दक्ष
##ार्म
घोषणा
100
अंग
जमा
बुधवार
लो
##लेज
##हरी
सप
##धन
##कु
##पित
मंगलवार
आर्थ
##यों
##re
राजनीतिक
##ल्स
##तियों
##ोरी
##ाले
##द्धि
पीएम
लौ
##खंड
नही
सुविधा
##तरी
तेल
##्रम
##किंग
आयोग
ख़
भारी
देना
##िकल
##वें
##करी
##स्थित
सात
होकर
बेहतर
वरि
तस्वीर
विवाद
भु
जनवरी
तम
समिति
शि
शरीर
हमारी
बदला
रिकॉर्ड
),
##लू
रहते
##ेशा
रविवार
नेताओं
##र्ग
नागरिक
वरिष्ठ
##ांड
##त्ति
गुज
मिन
##ंडल
कदम
नव
शब्
धो
आर्थिक
##ion
राजनीति
सीमा
##त्मक
मार्च
##व्य
##हाल
2017
##टल
शनिवार
ताकि
खरीद
ज्ञ
##चाल
अदाल
लॉ
##्यो
##ूह
##मता
##ेक
सहाय
##बाजी
सोशल
हिस्सा
भगवान
इतना
गौर
चाल
मोह
##यू
केंद
साह
स्वी
##ou
साफ
##ंदा
थाना
चुन
जिन्ह
##ग्री
##दाय
##तृ
अर्
लेख
सुप्री
केंद्रीय
22
##वुड
दोस्त
##डल
ऊपर
ठा
##क्रिया
वर्ग
##ुओं
उसी
वापस
##ीत
दक्षि
भे
देर
##ृह
नया
मृत
हिंद
##िशा
रण
##क्षित
बल्ले
##धर
मजबू
हमेशा
समर्थन
##वीं
कंपनियों
##क्ता
जेल
प्रक्रिया
in
##ानि
##ew
##धे
अगले
पति
##ंभ
##दीप
हार
देखते
##ांति
मश
सहयोग
अभियान
मेरा
वोट
##am
बाव
##ानीय
अर्थ
सल
आयोजन
शुरुआत
गण
मंत्रालय
##स्ताव
मॉ
बनी
एयर
##पु
पाए
मुला
विद्य
##ंगी
स्थानीय
##तिम
निर्ण
पसंद
लड़
लाइ
प्रस्ताव
अश
निकाल
कर्मचार
घंटे
##ामा
भेज
पहचान
##ंसा
##म्प
##नेट
अदालत
लगाने
फाय
##्ब
जिम्म
तला
देता
##लाइन
प्रेम
हमला
लागू
##ियल
##ोप
ग्राम
नुक
वित्त
अगस्त
कला
ड्र
##कट
बेहद
##कत
नीचे
एल
सें
##बाइल
तुम
##लीवुड
बल
##फ्
##ed
##स्कार
##शनल
फ्र
हूँ
अंदर
##ूबर
मं
##ष्ट्रीय
संस
##्रीन
खो
जमीन
##विद्यालय
पहला
खूब
निश
सुप्रीम
प्रयोग
##लाह
राजस्थान
जुलाई
बावजूद
लें
समु
##्तान
महत्वपूर्ण
हमने
##ल्या
जाएंगे
निवासी
##पक
##स्ती
प्रदान
आवेदन
कर्मचारियों
उल्
अंतिम
संगठन
##ध्यक्ष
आता
##त्रों
संत
उससे
उद
प्य
खत्म
##मार्ट
भर्ती
##खी
##चारी
मोबाइल
छोटे
संभाव
##रीज
परिव
यूपी
दुर्
##्रोल
एड
चै
##ष्टि
यानी
भू
वेब
सांसद
##ेन
##झा
23
नुकसान
भूमिका
टाइ
##नीय
किये
धी
फोटो
##षि
व्यापार
##िक्ष
हिंदी
छह
##घा
अपरा
बेटी
##रु
प्रभ
उम्र
##रीब
##यं
40
अप्रैल
संस्था
##स्ल
मई
उद्
रेलवे
##बीआई
##र्न
##ड़ों
छात्रों
गति
##तक
कर्
##फ्ट
##हण
जरूरी
पड़ा
जैसी
##ोलन
##शिया
कौन
दक्षिण
कारोबार
##ष्ट्र
निजी
कार्यालय
मिनट
##्यु
निगम
पूर्ण
त्र
000
मार्ग
##वरण
बारिश
एंड
##ौल
रहता
दिवस
पंचायत
घायल
##टने
आठ
सुधार
प्रव
##सत
##indi
##धिकार
पैसे
पाया
गुजरात
##वाज
26
साब
बनने
पूजा
पढ़
न्याय
चिक
तेजी
प्रत्य
##ौती
खर्च
पश्च
सत्ता
सुना
##वत
आते
28
##खन
देवी
सर्
दृ
पश्चिम
##ड्ड
उद्योग
रोड
निर्णय
युवक
सड़क
दिसंबर
एक्ट
##केट
##ाजिक
##as
आश
महारा
##मति
##चीत
कराने
कहानी
हॉ
ऑन
आन
बातचीत
कार्ड
कवि
दबा
##म्बर
गुरुवार
पाठ
सीएम
देकर
आंद
##न्ना
##is
संबंधित
##फे
..
उनसे
##णाम
दुकान
भ्र
टिक
तरीके
बॉलीवुड
##राने
हमले
आपका
##पे
गलत
##साय
दरअ
वार
दिखाई
राज्यों
आदमी
दरअसल
किलो
दावा
करेगा
##ज्
विजय
परिष
बदलाव
##स्ट्रे
घा
##िक्स
न्यायालय
पैदा
शाय
##स्व
संब
गठ
##न्स
आत्म
##ैनिक
जित
मुश्
ट्रेन
कर्मचारी
##जल
##ंता
सामाजिक
समेत
साइ
27
##स्तव
##्यास
प्रभावित
कराया
पहुंचा
अच्छे
शान
##्वर
चले
बिक
##्ता
वही
व्यक्त
शुभ
##ंघ
मुस्ल
##कर्म
##वंबर
अभिने
परेशान
नवंबर
विषय
जता
##ay
##्टर
अरब
दस
सार
##साद
ओवर
##्रो
फैसले
##हरे
##et
मुस्लिम
असर
पुरु
##ेंसी
कप्तान
लेते
##ठा
संयुक्त
##ूर्ति
क्षेत्रों
##्यता
मुश्किल
##ब्ल
##पास
##ॉक
##जीत
##ोधित
##वारी
##स्ट्रेलिया
##तृत्व
मगर
##मारी
सामना
गर्
##क्षक
##कम
##ैया
बंग
##फर
रहेगा
##नो
##प्ता
तत्
रहती
उत
पुरुष
गाय
सितंबर
तुल
##म्ह
इतिहास
कपूर
##थि
सजा
सिद्ध
##धानी
भवि
जम्म
##ec
साबित
संभावना
##ro
##देव
दिशा
वैसे
पर्या
सामान्य
##सों
##ews
2016
परिणाम
##स्ते
##20
##क़
##ंदगी
धर
जम्मू
महाराष्ट्र
विश्वविद्यालय
दिला
31
##ंकी
डॉलर
##il
##चन
नेतृत्व
गृह
प्यार
##ंतर
खुश
यहाँ
##कृत
##ent
फॉ
मिलेगा
भविष्य
श्रे
##कारा
सिर
##दू
गुप
##ॉय
नौकरी
##ूड
माता
विपक्ष
रज
मैदान
ट्वी
शायद
स्वयं
मजबूत
पड़े
जाय
मुकाबले
##ाब
याच
समार
सभा
पड़
इलाके
##उन
विरा
विस्त
करोड़
बजट
कोह
लखन
विश्
इम
घु
##हान
प्ले
स्पष्ट
##id
##प्ताह
बेटे
इन्
##णे
‘‘
समारोह
##सन
##साइट
##जाम
प्ल
एफ
प्रवेश
##ित्व
संस्थान
##त्ती
जरिए
##ियोग
शक्ति
##शील
सिल
आंदोलन
परिय
पल
सारे
फरवरी
स्क्रीन
करेगी
आंक
मौसम
##ोजन
टा
परियोजना
भ्रष्ट
##जरी
##el
##सेना
सफलता
खुला
जुड़े
कैम
बर्
##उट
चिकित
इंग
जाकर
अने
डॉक्टर
खिलाड़ी
संचाल
उपाय
फी
##रिक्त
इन्ह
ट्वीट
##ैक
कमा
दूसरा
जानते
आइ
स्मार्ट
रोग
नीति
आती
##ापन
खराब
हिमा
बहु
तुम्ह
केस
अतिरिक्त
याचिका
टीवी
यां
जोर
समी
एच
##ॉन
खाने
विश्वास
समूह
कही
29
35
रक्षा
परिषद
चैन
लक्ष्य
##साह
दोष
##तील
##खे
अक्ट
##ंव
##िरी
लंब
वायर
निदेश
अपराध
##त्त
##ंकर
डाय
##एच
जिसका
हाद
लखनऊ
##ंडा
चरण
अक्टूबर
शव
##ियार
मौका
चुना
##िद
कॉलेज
पोल
##कात
##ूरत
अमेरिकी
रिली
कृषि
कोहली
##nd
तारी
##र्जा
##ाचार
इनमें
पार्ट
इंत
##he
अग्र
छात्रा
देखकर
##तमान
हल
तभी
संस्क
गर्म
प्रचार
##ण्यात
मुह
हिन्द
उपस्थित
अमित
##ार्क
बड़ी
##कीय
##ंटी
लगाए
मर
चाहता
ठाक
वेबसाइट
तकनी
##ac
जवान
##स्टर
##फल
##धरी
199
विमान
धीरे
##ot
बताते
गुण
प्रतिनि
##फोन
चंद्र
सूची
लड़की
पारी
आयु
##ur
फिलहाल
उसमें
सप्ताह
विदेशी
जैसा
इंग्ल
संजय
##वाही
गौ
सूत्रों
मल
इलाज
सलाह
आईपी
2014
मात्र
##केश
##्वि
मामलों
पर्य
ऑनलाइन
##्हा
हल्
सलमान
सुनवाई
##यात
शै
टिकट
वर्तमान
चयन
नियंत्र
वाहन
##नगर
Hindi
##ow
हिमाचल
वृद्धि
मुद्दे
हरा
##िकता
अली
स्टार
नदी
जिसकी
साध
प्रत
उत्पादन
##ंची
##श्न
##ाइल
रिश्
गुर
प्रसाद
##वर्
प्रिय
तैयारी
##उंड
राहत
##ol
स्थापित
पुत्र
सुख
भुगत
##नियर
आखिर
राजधानी
##थी
मानस
शब्द
##मक
ठाकुर
शासन
दश
शानदार
अखिल
##बीर
##तीश
बाबा
रिज
##थे
देती
इतनी
घोषित
निभा
मानव
मिलता
कोल
सीरीज
साहित
इस्ल
धारा
अनेक
उपा
पहुंची
योगी
पुन
##त्मा
##राह
गोल
##ध्या
##विध
समान
फ्ल
##मेश
पढ़ें
वास्तव
मेड
पेट्रोल
इंद
##लेख
शांति
##सूस
पौ
साहित्य
##जनों
अंग्रे
कब
दम
स्वीकार
बातें
छोटी
करनी
##राष्ट्रीय
बनाकर
तमाम
स्टेशन
##ळे
##श्वर
##टो
##ांक
भो
ग्राह
खोल
शराब
हमारा
दर्द
स्वतंत्र
विराट
गैर
##ॉट
भूमि
पृ
##ार्ज
संसद
##ट्ट
वर्षों
राजा
##स्त्र
श्रद्ध
मुलाकात
##खर
ज्ञान
गोली
सुपर
क्षमता
युद्ध
मतदान
##लेट
सुनी
##सीसी
##दर
PM
तुर
हालत
##डि
##धिकारी
बनाई
##वाइ
आपने
पाने
फिल्मों
##रेट
##जु
रखी
##णार
गरीब
इनके
ताज
##काम
दाख
सत
चाहती
अनुभव
बिग
##मीटर
##तौर
##ri
रखते
##लोड
बल्लेबाज
लेना
##बत
सदस्यों
##क्कर
नो
बेच
विकल्प
##रावट
##ियत
##ानों
##पू
##कियों
गिरावट
काल
हथ
सीटों
चिंता
केन्द्र
भ्रष्टाचार
बाइ
##कू
60
फेस
##भार
##्मी
फायदा
मंच
##शाला
बड़े
हिस्से
जाति
चाहे
##फिक
##ंतु
डिग्री
चौधरी
ती
विद्यार्थ
सेक्स
##ित्य
पूछा
देंगे
हट
फा
इच्छ
कार्यकर्ताओं
टिप
कथ
प्रतियोग
निर
##िले
एक्सप
##र्तन
समाप्त
News
स्म
महसूस
बुला
आनंद
##वां
संघर्ष
पुरस्कार
##उस
##्राम
दाम
##ag
भीतर
परिस
वाय
उनको
##्ह
##ैर
पैसा
##न्दी
प्रत्या
##ोधन
##ायी
संश
संभव
प्राथम
##ंदाज
अध्या
##ुल्क
शीर्ष
दलित
कब्
कठ
##म्मद
लै
हिस
रेड
दबाव
मिलकर
बैठे
संर
अनुमान
##बुक
##द्द
इंग्लैंड
सत्र
मतलब
##र्गत
केजरी
##त्कार
भेजा
In
##बारी
रिलीज
प्रशिक्ष
##स्टम
बाकी
##ियाँ
हेत
डर
जागर
लाइन
##यम
केजरीवाल
ताल
सार्व
##उंट
पहल
घरे
##शु
संबोधित
सीबीआई
##मैन
मौजू
सालों
तुलना
अक्ष
##णि
आसान
अथ
उल
##त्तीस
2015
संभ
आजा
##तलब
मौजूदा
मात्रा
##्रह
मनु
महान
समाचार
500
##वाना
माँ
##ाये
प्रत्येक
मस
##ड़ने
चंद
##बंदी
##ोत्
प्रण
ब्रिट
##चानक
छत्तीस
)।
लाने
उत्तरा
संवि
रैली
अचानक
पीड़
बंगाल
गुप्ता
पॉ
भुगतान
निर्धार
हेतु
##म्ब
अंतरराष्ट्रीय
तीसरे
##वधान
##ेय
क़
री
##स्म
सारी
वर्षीय
45
आंख
विद
##वाला
अवै
प्रस्त
एजेंसी
भवन
बू
##नात
कृष्ण
आतंकवाद
ऑस्ट्रेलिया
##क्सर
समझौ
प्रथम
##ेंज
##्रेट
चढ़
प्रबंधन
उत्पाद
घट
चीज
भावना
निदेशक
##ुण
स्वागत
कमे
##वती
##क्सी
एशिया
दूध
जू
##ड़ियों
##िड
तत्काल
##विंद
ऑफिस
खाना
लु
##प्रदेश
दोस्तों
अवधि
संवाद
रोजगार
मिलेगी
##द्दी
##ेदारी
आये
आवश्यकता
दोप
लं
कमज
सम्
मुसल
गौरतलब
इले
##ँच
सहायता
##सव
पुराने
##वनी
हिंसा
वेतन
##दाता
##साइ
##न्तु
तुरंत
##द्रा
##जनिक
##शे
अमरी
अज
गठबंधन
##नेस
अका
विस्तार
##िश्चित
शौ
उतर
उल्लेख
हटा
##सित
चुनौती
घरेलू
अवैध
नै
समुदाय
##ेलन
पटेल
प्राइ
मैने
पदों
सुरक्षित
##ve
आतंकी
##ेक्ट
##िटल
सार्वजनिक
खुल
##टका
फल
विल
महास
मिस
प्ला
बिक्री
कमेटी
लॉन्
क्रम
प्री
वीर
##बाल
मालिक
##ायण
किर
दर्श
##िब
संपर्क
तलाश
मू
हिन्दी
चुनावों
मूल्य
किताब
##oo
फुट
कर्ज
सिक
प्रार
##ome
चली
##ak
आउट
थाने
अशोक
डिप
ईरान
ऊर्जा
आधारित
लंबे
##यल
मजद
##्याण
इन्हें
प्रभारी
जिंदगी
##स्तानी
उपभ
सेक्टर
37
आरोपियों
खि
##्याज
सपा
बीते
70
##डर
##रीन
हिंदू
हित
टाइम
वायरल
गे
अपील
नेशनल
किन
32
जिन्हें
ग्रुप
किलोमीटर
हाथों
किश
मॉडल
अय
मुसलमान
सत्य
पाई
विद्यालय
रखे
##वै
##पट
वार्
प्रवक्ता
पां
मुक
राजी
धार
दवा
सफाई
प्रेर
##ap
##त्रियों
##गो
##ूनी
##वस्था
##दिन
##श्वास
यूर
चोरी
सम्मेलन
बहा
##ab
रिट
सां
मशीन
बड़ा
अनुमति
मानना
द्व
जिनमें
शिकार
आवाज
दोपहर
##वाली
बढ़ाने
टैक्स
सन
##िवर्स
जल्दी
स्वर
धम
युवाओं
अक्सर
आसानी
प्रश्न
डेट
इंस
जमकर
##hi
छुट
##नु
परिजनों
डाउन
गैस
मेडिकल
तीनों
संके
##तः
जिन्होंने
स्कूलों
फेसबुक
उन्
##स्तक
हाउस
नती
लौट
आसपास
##दाबाद
आखिरी
जायेगा
नेट
संविधान
##पना
विवाह
बोले
रखना
##्यून
कविता
सूर्य
##लैंड
रहें
##--
##ेन्द्र
पूर्
कार्यकर्ता
##ामद
##दारों
रिश्ते
##नाक
संस्कृति
चीनी
लागत
रहेगी
चैनल
##फ्र
शिम
रहेंगे
दलों
##ौन
भरो
बहन
##एसपी
प्रेस
हालात
इतने
##ळी
हवा
तह
##साठी
उनमें
##रत
##सु
मीटर
##oad
सीधे
सुल
अनिल
मोहम्मद
##दर्श
##िनी
धोनी
चंडी
चां
##वाले
महार
चर
विरोधी
परेशानी
रखें
कोच
शिक्षक
छूट
कल्याण
जिम्मेदारी
अमर
अफ्री
##ut
प्रतिक
ठे
बांग
##शिप
मिलती
##कारों
पड़ता
80
कर्ना
##गु
##ज्ञानिक
खाते
##कृति
com
पटना
घोट
चेहरे
मंजू
सैनिक
फाइनल
लगाई
##बि
बैंकों
अंब
बीमार
धार्म
##कोर्ट
प्रियंका
पूछता
गीत
बांध
आकर्
फूल
दर्शन
राव
उद्देश
उधर
##कां
स्वामी
प्रतियोगिता
विज्ञान
##्तीय
शुल्क
झार
उपभो
रस
दीप
बाइक
प्लान
##न्ध
##मित
भले
मास
##्यूटर
##्न
##एसटी
माइ
जैन
मकान
शही
आकर
सवार
नियंत्रण
खोज
माहौल
##कारात्मक
प्रतिबंध
झू
धार्मिक
अजय
खंड
लगने
##सिंह
चलने
मिट
आल
##पत
##पो
##न्त
शिमला
##ोद
##राम
##नाम
भोपाल
बंध
ट्रंप
हथियार
मित्र
रोहित
सोने
वित्तीय
विज्ञ
लॉन्च
जाप
मस्
कर्नाटक
बीमारी
##क्का
नक
मुक्त
एप
संदेश
रोकने
नाराज
चित्र
आहेत
प्रबंध
सिस्टम
तनाव
##चार्य
अखिलेश
##्रेड
शोध
वकी
सहायक
##ज्ज
##ेदार
शूट
##अप
मंडल
मध
समाधान
गाँ
चोट
कीम
रचना
अर्ज
रास्ते
चौहान
अंदाज
अके
घे
इस्ती
##्ति
इंडियन
निर्म
जाह
##ंदन
निर्धारित
##पोर्ट
सुंदर
अखबार
छोड़
श्रील
मनो
संगीत
कले
##कोर
संकट
##ch
##विल
##कृ
पर्व
मारे
खुलासा
मैचों
##टिंग
##कल्प
न्यूज
सच्च
यूनिवर्स
##िवार
प्रमाण
नीतीश
##प्रिय
विभा
##ंजी
संबंधी
आदित्य
##ul
निस
पहा
गी
कार्यों
वर्मा
##ेंशन
होटल
प्रकाशित
खाली
गईं
प्रती
तू
भोजन
अध्ययन
मंडी
बांग्ला
मेह
पत्रकारों
डो
पूछताछ
##नै
##पथ
वस्त
जनरल
##ठे
कथित
यांनी
सम्ब
ज्यो
##un
तोड़
श्रीलंका
गेंदबाज
हादसे
देखें
हां
कितना
फे
##ation
टूट
##एँ
आलो
उठाया
चुनावी
बरामद
##िक्र
36
कंट
##ir
इंतजार
##पाद
भूल
कक्षा
ग्रामीणों
परिवर्तन
डाउनलोड
मनी
##ोषण
दौरे
##गढ़
''
समस्याओं
##पूर
हिसाब
##सेज
##र्द
होनी
मध्यप्रदेश
##ंजन
##ख्त
निर्मा
खुशी
198
Home
कमजोर
शास
सुनिश्चित
उतार
to
नोटिस
Re
इंटरनेट
प्रता
बचाने
##र्श
निशाना
नाग
##लान
पहुंचने
इनकी
रणनी
कड़ी
##मर
आगामी
पाकिस्तानी
##न्हा
ताप
विकसित
टिप्प
33
##प्त
##्रिया
आरक्षण
एका
##यां
अंतर्गत
अध्यक्षता
इलाकों
##्रिक
सर्वे
##वेज
जुड़ी
ट्रै
##लाल
संगठ
##बारा
स्थापना
ज्यादातर
संकेत
##गंज
जबर
##श्चित
स्वच्छ
सेवन
##चु
गंगा
##चिव
2013
मेहन
प्रशिक्षण
उद्देश्य
पहन
##est
प्रत्याशी
प्रस्तुत
मंजूरी
बेहत
ट्वि
##नम
##us
हाईकोर्ट
##स्ट्री
कहने
तैनात
##्द
अथवा
नवी
वार्ता
अक
मार्केट
फसल
जीएसटी
इंजी
स्मार्टफोन
सकें
वैज्ञानिक
शख
क्ला
मुद्रा
##वाने
महिलाएं
साथी
योजनाओं
एसपी
खड़े
पैर
जला
काट
बें
सेक
##काता
##व्यवस्था
##िरा
लगाकर
बढ
वार्ड
चेयर
इका
क्लिक
असम
आवास
व्यवहार
ड्राइ
रहना
##वासियों
चलता
##वाय
दाय
##िमिट
झारखंड
##थर
छि
चौक
जाएं
स्थल
##गन
कॉल
समीक्षा
वर्ल्ड
मजदूर
खूबस
ज्योति
शहरों
रास्ता
विशेषज्ञ
करार
इलेक्ट
यूनिवर्सिटी
घूम
लूट
##धुन
##कुमार
गुल
बांग्लादेश
##्रिय
उम्मीदवारों
पदा
निरा
खी
निश्चित
लोकप्रिय
##ोतरी
उचित
दिये
माया
ट्रांस
##ोग्राम
जेट
##ंटर
सिटी
बजाय
चंडीगढ़
##ct
मुंह
कोलकाता
##्मा
राजीव
प्रस
##चि
फ्री
सॉ
हवाई
नयी
उपाध्यक्ष
जिलों
पंड
##ोने
योगदान
फंड
रोम
##ाहरण
लिहा
समझा
75
दब
तारीख
खेत
वेस्ट
आईपीएल
##ॉम
मनुष्य
अफसर
इच्छा
नज
##धीश
सक्रिय
प्रसार
##राबाद
##िएशन
उत्तराखंड
राज्यपाल
काले
##्डी
अर्थव्यवस्था
##ॉग
##ig
संपत्ति
वनडे
करियर
बच्ची
##ment
सड़
केरल
वॉ
सका
बरा
कहां
##नान
हफ्
तिवारी
बीएस
मुझ
अनुर
कॉन्
शिवसेना
##भाष
इस्लाम
चू
उदाहरण
फो
सम्मानित
##पुरी
अफ्रीका
##एंगे
##pp
स्टेट
परिसर
ट्विटर
पालन
##ंचाई
प्रतिनिध
of
हड़
सेंटर
##ंसर
##िल्म
##ट्स
मिश्रा
घुस
दीपक
34
ब्रे
पदक
मनाया
शख्स
बातों
आणि
माने
गांवों
##क्के
क्व
##ेंडर
जाम
ऐप
प्रदू
इंजीनियर
बुरा
बेहतरीन
शब्दों
सब्
##जिए
बनाना
गठन
पुरानी
अग्रवाल
रिल
कमल
कमरे
बध
बोला
वापसी
सीख
मेहनत
निर्वा
परंतु
90
कीमतों
##सीय
इंसान
धमकी
##्मण
जनस
##ांसी
पर्यावरण
अभिनेता
प्रि
पड़ी
बाग
हिन्दू
अंध
उपचार
महासचिव
चेता
ऐलान
सारा
इरा
##दु
झा
##चक
कैप
वैश्व
##गाह
निरी
भीड़
देगा
निष्
सुनील
जहाँ
ओपन
छत्तीसगढ़
##िग
##घटना
घरों
नक्स
कराई
उक्त
##ड्डा
कम्प
गुस्
55
जीव
महाराज
##टील
##न्दर
अंग्रेजी
हफ्ते
देखना
प्रोज
वाहनों
##दियों
##वेट
जयपुर
##har
बोली
##माश
कमाई
जीतने
चिकित्स
##भू
प्रावधान
दिखाया
गाड़ी
टू
##ारों
जिनके
मिलते
राजेश
चालक
डायरे
कू
जंग
किरा
छाप
एसोस
300
इज
##िमिटेड
दस्ता
##han
नम
श्रेणी
गुजर
the
वायु
संशोधन
कोरिया
##मल
पावर
नये
स्कोर
वाज
तमिल
ज़र
##दाताओं
##शाली
किरदार
##माने
विधाय
दोषी
नियमित
दुर्घटना
फें
कने
##ंडे
आपूर्ति
प्रभा
रूस
भरा
डीजल
बिल्क
खेले
सचिन
कन
मृत्यु
कितने
##्यूट
एक्सप्रेस
उड़
##वेद
भरोसा
##बूर
साहब
बिल्कुल
कामया
##पात
##देन
दुष्
##तिहासिक
करवाया
ट्रक
मिलाकर
गतिविध
##ai
विशाल
वैश्विक
##छा
2012
##बादी
##हाबाद
लाखों
हजारों
प्रतिक्रिया
रजिस्ट
प्रसि
श्रम
##ore
जिसने
##ेड़
पुस्तक
नियमों
##ंकिंग
खुले
तस्वीरें
रनों
सामग्री
डिज
फार्म
##ज़र
##ST
प्रे
हैद
##दिक
जिम्मेदार
जगत
गाने
कितनी
शहीद
स्पी
दृष्टि
##गज
##ग्राम
##स्कृत
प्रणाली
लालू
वर
नियुक्त
मानते
दरवा
ब्रह
ताकत
रहीं
आवा
##्यां
करवाने
पव
##पल
##ुरा
टन
पीने
खार
गर
जस्ट
खड़ा
पार्क
##्सा
वकील
जताई
केले
रद्द
यात्रियों
खतरा
काला
इश
##माही
##घु
डाला
##रेन्द्र
ग्राहकों
##हल
कार्यवाही
##इड
##दास
विज
उत्साह
मिश्र
##तें
ममता
भाषण
अट
आँ
अभिनेत्री
गणेश
##os
लगती
बला
पर्
प्रोजेक्ट
खेलने
##ध्ये
##डु
##ल्ल
##ess
खाद्य
लंबी
खिलाड़ियों
लिस्ट
##og
सौं
अना
48
मान्यता
and
पकड़
##गांव
जाहिर
बधाई
शर
मुद्दों
पाक
गू
पृथ
हैदराबाद
##ंडर
##ter
परंप
सिने
##्लो
##ैट
होम
##ाजी
आना
ग्रहण
रिस
प्रोड
मंज
सुझा
##ांच्या
##त्रि
चलाने
##िशन
स्टूड
आधुन
पीठ
##ra
गुणव
बसपा
उपकरण
##घाटन
कैंसर
गेम
##स्त्री
अत्य
मजबूर
अरविंद
##वली
##ानु
##स्थिति
चेयरमैन
लेखक
##ेप
चेन्न
तत्व
स्वतंत्रता
फैला
रेट
व्यवसाय
##दर्भ
##निक
ऐतिहासिक
परंपरा
शूटिंग
फायदे
विधायकों
दूरी
मुद्दा
हस्त
ऋण
##ांश
##न्व
आलोचना
दोबारा
रोल
##हूर
टूर्
##पत्र
2011
विवे
शपथ
कॉम
मुख्यालय
धूम
चारों
आकर्ष
आशंका
सोना
कथा
हरी
।’
##ंती
##हत्या
##फाइ
##्रत
स्थानों
पीड़ित
उसको
मनोज
लोगो
##क्षी
गुणवत्ता
बेर
##जर्स
##मुळे
मोटर
राजस्व
पदार्थ
##वंत
क्लब
##मती
विन
38
ब्ला
टिप्पणी
बुरी
जागरूक
महज
एसडी
आशा
ऑटो
##दीय
लड़ाई
अक्षय
चेतावनी
चाय
##डि़
##खों
उत्प
सौंप
दिक
लिमिटेड
सैन
अंजाम
##्वा
##ुक्ति
##पुरा
कालेज
फरार
दान
आले
लड़कियों
मिशन
##ंचा
197
##कर्ता
सीटें
##वानी
##नामेंट
##जीव
##दल
भि
वहाँ
मशहूर
##बद्ध
पांडे
अल्प
बदमाश
सकेंगे
लेंगे
दशक
चिकित्सा
नारे
##नेश
##नन
छोटा
न्यायाधीश
मुकाबला
##eb
##सील
हिंदु
अल्
टूर्नामेंट
प्रदूषण
फर्जी
नाही
अकाउंट
सपना
अधी
त्व
##जिद
##im
बताने
शिक्षकों
दह
संगठनों
रक्त
कंप्यूटर
युवती
इंस्ट
शिविर
##ासा
वर्ण
नेपाल
दाखिल
सेट
खारिज
फायर
##th
दिमा
##ंख्य
लगते
बौ
बचाव
काउ
कंपनियां
##ोध्या
##द्दीन
किशोर
तापमान
जरिये
नवीन
सीजन
##पीट
हुये
इनका
इस्तीफा
स्टेड
बढ़ा
संपाद
सैक
सेल
##ate
संसा
00
गोर
ब्रिटेन
अटल
चेन्नई
अयोध्या
##अल
जीता
##हारी
पुष्टि
##धिकारिक
##पंच
##पूर्व
नारायण
दिक्क
स्टेडियम
समाजवादी
माय
अरुण
उठाने
संरक्षण
नील
प्रतिष्ठ
विजे
##वर्क
हिरा
स्ट्र
जस्टिस
अभिन
नोटबंदी
##्राष्ट्रीय
##ंच्या
भक्त
##्लाई
##oading
करण्यात
##वेयर
तिमाही
कां
##एसएस
##र्डर
##गरी
##ोश
खून
##युक्त
पोलिस
##ंदे
##कृतिक
##ers
गत
65
नामक
प्रग
दौरा
दास
लगाते
##मोहन
##ब्र
##em
बीमा
on
सिंग
तकनीक
त्वचा
42
आधिकारिक
बदले
पढ़ाई
पेंशन
लोकतंत्र
ईश्वर
हिरासत
संभाल
प्रसिद्ध
रणनीति
##ल्ट
सोनिया
आत्महत्या
चोर
टेक्
##िनियम
निधन
जुट
एसोसिएशन
पंजी
मानसिक
कानूनी
चैंप
अमरीका
आशी
दायर
:-
शुक्
रकम
सऊ
टॉप
पर्यटन
टक्कर
राज्यसभा
दावे
अहमद
डिजा
रुख
आजादी
वितरण
##र्त
खरीदने
##ेक्षा
##म्भ
दर्शकों
खेती
थोड़ा
##ूंगा
सुरेश
रेप
तहसील
दिग्
##बिनेट
सुझाव
##ऩे
एक्ट्रेस
##op
विद्युत
निप
##ाइट
खबरें
बेस
सिंध
सिया
परिवहन
##पद
##्याम
बढ़ती
परीक्षण
ताजा
बदलने
ग्रे
नौकर
पर्याप्त
विधेय
##तल
विरु
मेट
पोर्ट
39
वजन
नियुक्ति
बल्लेबाजी
उद्घाटन
##ex
लाइफ
पाते
##ब्ल्यू
##क्ताओं
लक्ष्मी
कैमरा
बढ़ोतरी
इंडस्ट्री
आईटी
निकाला
रिश
प्राथमिक
हंग
टेली
सांग
सड़कों
बच्चा
कपिल
##ंश
कार्यकाल
जोड़
##पेट
तथ
##टरी
मोहन
लीग
2009
प्लेट
2010
##स्टिक
##ग्ध
फॉर्म
दुख
पड़े
##um
बलात्कार
सिलस
विश्ले
होंगी
##ाफ
##िको
##ंथ
ओम
विज्ञापन
परमाण
फिट
अनुप
तृ
##स्फ
##साई
विद्यार्थियों
अभिय
##पण
मजा
कच्च
##गीय
बहस
##द्वार
असल्या
##रेज
महीनों
##रानी
ब्याज
सर्वश
2020
##ढ़ी
आयुक्त
इनकार
##ज़ा
प्रताप
पड़ेगा
मारपीट
खूबसूरत
सऊदी
##फिया
कहती
##जात
केली
पूंजी
##बान
यूनिट
उल्ल
नेहर
निर्यात
##मेल
##ha
अफग
इमरान
उल्लेखनीय
##ुरी
##फॉ
डांस
सिनेमा
##त्न
सदन
##लोनी
टाटा
लाया
आतंकियों
##ब्लिक
स्वर्ण
##दय
व्यापक
हटाने
लीटर
साझा
जेटली
बॉक्स
यश
##....
स्त्री
तकनीकी
गेट
##ताना
यौन
तिथि
मरी
परमाणु
प्राकृतिक
आतंकवादी
बाढ़
मंड
##शनी
प्रतिभा
अधीक्षक
एटी
भारती
मचा
##डीए
##द्योगिक
ढंग
##डेट
शिल
##ानिस्तान
लिंक
’’
आबादी
शुरु
पीसी
राकेश
कस
एनसी
रमेश
विधेयक
मोर्चा
विरुद्ध
रेखा
जापान
कैबिनेट
##क्षम
##ंचे
सड़क
शर्म
##ूली
अधिनियम
51
किनारे
जितना
सर्विस
विपक्षी
शतक
रुक
योग्य
हाइ
##ेंगी
मायावती
महत्
दिमाग
आला
बाय
##ide
49
साइट
बम
##हीन
जवानों
अब्द
##वक
शक
तरीका
रॉय
प्रगति
41
बालों
##ेगा
सफर
जानने
##लन
##स्टी
44
परन्तु
##णु
घटनाओं
सकारात्मक
बढ़कर
पृथ्वी
मक
गोल्ड
आदित्यनाथ
##जनक
बांट
शारी
चेक
लंदन
हनु
जानी
##गण
पथ
##हो
परिवारों
जॉ
गिरफ्तारी
खेलों
संतोष
##ड़ों
##डियो
गिरा
इंदौर
गूगल
गैंग
पत्थर
##ंघन
ग़
आदर्श
भरी
##000
लंड
47
नरेन्द्र
रानी
बीज
डिजाइन
दिलच
रिजर्व
मांगी
बराबर
##केशन
प्रारंभ
कैंप
गहरा
समक्ष
आधुनिक
##्यूटी
आंध
##ain
##मानत
यूनियन
##ेश्वर
शह
##ाप्ति
St
मुफ्त
जिक्र
##भूम
आकार
##लिंग
##दाई
ब्रांड
हक
मुसलमानों
मैन
डिजिटल
##राग
##कुल
संसदीय
भरे
##स्कृतिक
खबरों
##व्यू
बजा
सहमति
सर्वा
आराम
सक्षम
अमिता
संग्रह
नागरिकों
सन्
ब्लॉग
चीफ
खेला
##िती
गलती
आंखों
व्हा
ओल
##क्षर
##ुति
गतिविधियों
शहरी
43
##पेयी
##स्य
देगी
##म्मत
सिन्हा
रूपये
मस्जिद
अंतर्राष्ट्रीय
जबरद
क्रिया
##मेश्वर
बताई
99
शारीरिक
गर्मी
जर्म
##दमा
चार्ज
हज
अगली
प्राइवेट
निर्वाचन
ताला
अश्व
बेटा
##्रेष्ठ
इकाई
सूर
पड़ा
न्यून
उल्लंघन
सांस्कृतिक
##फो
##ुल्ला
##्रमण
देखी
जंगल
दैनिक
मरा
##्वान
ब्य
कं
##ूस
जाल
##ord
पार्
स्पेश
##्याल
##ेंट्स
लिखे
जोशी
टॉ
औद्योगिक
संचालन
सिविल
आफ
##्यात
साज
रिकॉर्डर
नेटवर्क
न्यूजी
बुल
....
##चीन
लिखी
46
इसीलिए
लुक
खतर
सम्प
कौर
09
##oc
छोड़कर
##मंडल
तलाक
##डम
इंच
##ub
बच्चन
सुनाई
हस्ता
निर्भर
चम
बग
हद
निकट
क्लास
सेंट
01
न्यूजीलैंड
असे
दिली
गाँव
##वाणी
मारने
##बीसी
##ज़ा
सैन्य
दीपिका
लेता
##ik
निर्माता
पश्चिमी
##धारा
पंडित
प्रतिमा
राजकीय
शाखा
कोड
वारदा
न्यूनतम
तीसरी
##ंगाई
उठाए
बिजनेस
##टों
अमिताभ
तार
एक्
##ंखला
मुहैया
##मार्
05
अकेले
डेटा
विनो
रवाना
उत्पादों
मृतक
यात्री
सागर
##स्कर
##ोई
पुणे
##स्तर
संकल्प
##ष्णु
##िमंडल
थोड़ी
परम
कटौती
अनिवार
गुना
##स्वी
।”
चक्र
चूत
जस
घोटाले
सुभाष
हार्
##फ्तार
परमेश्वर
विधि
सर्वश्रेष्ठ
नजदी
2008
##फार
निकालने
कुर्
समझौते
सोनी
पेज
##यत
मुना
संदर्भ
खत
आर्ट
कौशल
बढ़त
पार्ष
इलाहाबाद
##स्करण
नागरिकता
##ांज
आयात
नेहरू
##कृष्ण
औसत
##करे
##ंबा
बनाये
ध्व
जात
काली
विद्या
शुद्ध
##धारण
अदा
नवा
अधिकांश
कब्जा
##ितीय
संस्कार
##कांत
नाय
व्रत
##ल्ला
क्षेत्रीय
तमिलना
स्वरूप
आरोपों
मेल
08
आजकल
ब्लॉक
##ob
##्टन
##ंडीज
कायम
पवित्र
सख्त
##ep
भोज
बढ़ने
उत्पन्न
अधि
शिवराज
इसको
परिस्थित
##फान
##घ्र
सर्वो
टो
लेन
##परेशन
ज़्यादा
कल्प
सांप
##डिया
##जान
ब्राह
##काने
पत
##मंद
किंग
ग्रह
##भूमि
ठहरा
##ive
##वरों
इधर
##क्षेत्र
##बो
जानिए
##ांकन
तिल
फैल
सोन
मिट्टी
दिवसीय
विजेता
फ्रांस
मधु
पिछली
##सेस
चौथे
हरि
चालू
##्यूब
सहारा
##संख्य
मुकदमा
आएगा
जगहों
##याल
अर्जुन
52
यानि
पूर्वी
श्रद्धाल
##ढ़े
भागी
##हे
जरुर
यमु
##स्ट्र
सीमित
सकी
आश्वास
जुर्म
छु
वाक
प्रकृति
सेहत
सश
जज
हनुमान
सौर
शांत
##टीवी
अर्था
##ायंस
##षेक
छात्राओं
बनकर
कलेक्टर
196
##ाव
निकलने
आक्र
नक्सल
उपायुक्त
भरने
चीजों
निकले
फिल्में
डायरेक्टर
##करार
अतिथि
##ेटर
महेंद्र
चैंपियन
अपडेट
आएंगे
कपड़े
##गाव
हेड
मुआ
##tt
तमिलनाडु
प्रमो
विनोद
बट
सीसी
##कोट
शाहरु
व्यक्तिगत
हड़ताल
##कर्मियों
##ंनी
भड़
अवि
केन्द
इंटरव्यू
आधा
##संग
##स्फोट
बतौर
चतु
##देह
IST
शुरूआ
for
रॉ
महि
फांसी
लव
असल
##त्ते
प्रतिनिधि
अज्ञ
झटका
बर्फ
##डीपी
पत्रिका
शेर
धोखा
##वट
गले
शेष
धन्य
##क्की
##od
बुलाया
मनोर
म्
##बु
##शाह
##ंपिक
##ग्रहण
##त्साह
स्वस्थ
##धारी
मुकेश
महंगाई
लोन
कुलदीप
हिस्सेदारी
जिनकी
##डू
बेचने
##लाइ
##सुर
##चंद
प्रौ
##ॉजी
सेवाओं
st
##िफिक
जमानत
गोद
राजद
शोर
अंडर
ठेके
तारीफ
नींद
नु
छवि
दिग्गज
नीर
विस्फोट
यूजर्स
##ine
गोवा
न्यूज़
केन्द्रीय
##ल्थ
वाजपेयी
कारोबारी
##वाया
##मध्ये
घाटी
सृ
उर्फ
##ind
पात्र
56
कुर
सहयोगी
बढ़ावा
इमार
##dia
चुने
##ळा
##ंत्रित
वादा
##ृंखला
शौच
शिर
अक्त
##फ्रेंस
छू
मुलायम
भंड
पहुँच
##पक्ष
##प्रीत
कठिन
केला
##सास
एजेंस
##घर
दीवार
##कीन
##कता
##ोम
प्रोत्साह
झु
बेंगल
अफगानिस्तान
मुज
रावत
##कर्मी
पर्स
पहुंचाने
समझने
एंटी
सुनने
टक
##श्चा
##ौली
शंकर
54
पवार
शुरुआती
##तो
दिनेश
आश्वासन
##फारिश
##पै
पाएंगे
अक्तूबर
##न्यास
गेह
##vi
धरती
सम्बन्ध
ऑपरेशन
पवन
प्राचीन
असली
##रोध
अभ्यास
बचपन
तल
इंट
समझौता
आत्मा
मेट्रो
कर्मियों
##सेंस
शेयरों
मुझसे
##नेशनल
म्हण
उदय
जियो
तीसरा
सिफारिश
150
##एमसी
प्रभु
भट्ट
##कश
एकता
अस्थ
कहता
टुक
अनिवार्य
##रक
रखता
चाहिये
खिल
##ost
सीनियर
दुष्कर्म
##ायतों
##ist
आवं
गौरव
व्यापारी
##तरीय
बचने
रिकार्ड
##फ्टी
भेद
##**
समर्
बेरोज
लड़की
तिर
मास्टर
फरी
अन्ना
नज़र
##and
##श्त
##प्रकाश
तत्कालीन
##hat
##ज़ार
क्यू
सोचा
लिप
Read
मरीजों
जिनका
युवकों
संबंधों
धमा
चौकी
महात्मा
सैनिकों
##कन
धु
सॉफ्ट
कन्या
रिसर्च
जानें
##दायिक
शाहरुख
पत्रकारिता
##ेदी
फं
पेपर
बीसीसी
गार्ड
गौतम
ईमान
बनाते
गिल
राणा
दिखाने
गड
यो
माफी
रफ्तार
शीघ्र
भौ
स्टाफ
सबको
वस्तु
मेले
ट्रेड
डालने
अमृत
सुनकर
पब्लिक
##िणी
##एडा
एडम
खिताब
पीड़
स्तरीय
अस्त
स्टैंड
मंत्रियों
रोजाना
साउ
मनमोहन
बुजु
चेहरा
वेस्टइ
इलेक्ट्र
एयरपोर्ट
दौड़
धवन
भरपूर
झेल
इंदिरा
##क्षेप
##ुलर
07
##रीय
सेवाएं
ज्ञापन
रिलायंस
हृ
रखकर
कानपुर
##ारण
##ृत्ति
डालकर
अन्
गेंदबाजी
सरपंच
##टिल
अत
##आरपी
गोयल
बॉस
तंत्र
सर्वोच्च
जोड़ी
अजी
मांगों
##ख्
##आईटी
स्पेशल
ढां
बुजुर्ग
डूब
लापर
आजाद
अधिकतर
ढेर
उपभोक्ता
##भाग्य
गोरख
##सद
चीजें
गायब
अपेक्षा
64
मालूम
प्रेरित
दर्जन
एंड्र
हंस
विविध
सेमी
बैठा
कारणों
रिजल्ट
वाता
गोपाल
पढ
##्रीम
सीधा
लम्
चिंत
नित
##our
बाप
गुला
##लीय
सीरिया
निल
195
##ामु
फेंक
पार्टियों
पड
तर्क
खतरनाक
##धिकारियों
क्रिकेटर
टेक्न
##गरानी
खाता
पिट
बहुमत
खींच
मेक
##...
जहा
पृष्ठ
बारी
##र्मी
##राय
दूसरों
घाट
संदीप
मेर
दिलाने
400
देखे
इंजन
आग्रह
कामयाब
मिळ
एंट
आस्ट्रेलिया
##दुर
फ़िल्म
पारित
##कालीन
पुरुषों
प्रोग्राम
अनुसू
गुस्सा
निगरानी
चुप
आपत्ति
इजा
गेंदों
निरीक्षण
चोप
##यक
व्यस्त
करण
कैमरे
फि
ग्राहक
फाइल
प्रकरण
झाल
उपभोक्ताओं
विभागों
##ेडकर
नोएडा
किस्
##ोसी
अभ्य
##ब्दी
##ड़ने
##कियां
बनर्जी
कच
लेती
वास्तविक
##्रेशन
सकेगा
कमांड
##ff
अनुक
मनोहर
53
कलाकार
##ग्न
नामांकन
मनीष
हप्र
आकाश
यूरो
कनेक्शन
साजिश
##art
##िष्ट
निच
सर्वाधिक
स्मृति
##जो
हैरान
##्वे
##कै
अत्या
इंटरनेशनल
वारा
पुष्
युग
अज्ञात
लाइट
लगेगा
जीते
जन्मदिन
पाता
बीसीसीआई
ब्राह्मण
मुक्ति
हार्दिक
आएगी
##एगा
##प्शन
धरना
58
उद्य
टाइम्स
मंग
दाल
रूम
डाक्टर
मारा
त्रि
नीतियों
##ce
मछ
किरण
मानी
06
सफेद
##प्पा
रोह
बेल
मद्
संदि
##स्पति
खड़ी
वेस्टइंडीज
बहर
वाइ
कोय
आरएसएस
##ोत्सव
किन्तु
सूत्र
##ांतर
कहान
सभ
शास्त्री
##्ढ
चक्कर
##सेक्स
वातावरण
शिखर
ब्रह्म
राजकुमार
जुल
प्रार्थ
प्रभावी
##णसी
यांच्या
##वड
पायल
एग्
##्वाल
कल्पना
##ज़र
करण्या
##ँग
संदिग्ध
व्याव
सिम
हीरो
कंट्रोल
प्रशासनिक
##द्योगिकी
बाब
मच
आरंभ
194
सिख
माइक्र
##़ा
बुनिया
##रीत
लीड
अंकों
पढ़े
विद्यार्थी
भेजे
##धव
संस्करण
वाराणसी
प्रतिदिन
पशु
खट
##मेर
##्यूज
02
प्रेरणा
जायेगी
अभिषेक
ऑफर
57
धन्यवाद
गीता
बाह
संस्थानों
वस
कार्यकारी
##one
निवेशकों
##फेसर
लाइसेंस
प्रीम
मौल
साझे
सिक्
##धिकरण
##ht
##शित
पेड़
##कर्ताओं
एफआई
शरण
##विक
अल्पसंख्य
सबके
अवश्य
प्रजा
भूप
आईए
जानकार
असून
##se
ससुर
##ईओ
04
टीमों
मद्देन
##पाई
समस्त
लल
बिल्ड
भेजने
जुड़े
मेगा
##फॉर्म
घेत
##ip
ऑल
##मूल
अपमान
संचालित
##दर्शन
सैल
पेय
जयंती
आदिवासी
द्र
सितम्बर
गुरू
##्तिक
अधिकतम
##िसू
##एसआई
होली
डाटा
##्षिक
जबरदस्त
##ast
बिहारी
वारदात
सरल
मुआव
व्यक्तियों
##प्ति
झाले
गेल
लिखित
सुष
बरसा
भय
सूरज
ब्रिटिश
बाजारों
##ैक्ट
सुविधाओं
हिस्सों
धान
##ग्रस्त
##र्धा
विचारों
तेंद
समुद्र
अम्ब
इने
साउथ
साव
##ांनी
निम्
ज़र
एव
##नाल्ड
आमिर
छुट्टी
72
द्वितीय
हवाले
बरकरार
##ार्ट
साई
बादल
कार्यक्रमों
गेहूं
पूछे
##िंट
##थल
##ेयर
संपन्न
कब्जे
85
##ेब
##ृत्य
प्रोफेसर
संपादक
##मात्र
##ya
आंकड़ों
फैंस
##ॉड
आर्य
##ंना
निशान
##ूण
##वीय
##श्री
फर्
समृ
अनुरोध
##ोड
##पूर्वक
##अर
झग
##खार
डॉक्टरों
मुठ
एशियाई
कैश
मुर
प्रौद्योगिकी
जुड़ा
##आरसी
##नस
श्रीमती
मूर्ति
रिया
शरद
ड्यूटी
##ूरो
##िडी
##यें
पोस्टर
मलिक
’,
स्टोर
निर्देशक
सीए
यहीं
##चय
हंगामा
##ोलॉजी
चांदी
##ेबल
सुर्
विट
##शिक
चिट
संवेदन
नाबाल
##ग्रह
करवाई
मूर्
पार्टनर
दिवाली
##ंगों
लापरवाही
##tion
कोर
हस्ताक्षर
आमतौर
हल्का
तुम्हारे
सर्ज
काबू
##कीम
अनुकूल
जुर्माना
जाया
एक्सच
लिखने
##ाइम
लड़के
03
बोलने
हृदय
##ly
फरीदाबाद
##निर्
##क्रमण
रायपुर
##ust
मरीज
पुराना
अनुस
शोषण
गह
सब्स
##डून
वार्षिक
चम्म
ऑप
खोलने
ओलंपिक
नवम्बर
कोत
मैनेज
एसडीएम
दायरे
गाज
उच्चतम
इनेलो
देरी
परियोजनाओं
एकत्र
सालाना
##ov
AM
ब्लैक
मकसद
शुरूआत
जितनी
उतना
##न्ट
आली
बुक
विष्णु
##हरण
चम्मच
##age
यूरोप
निपटने
हुड्डा
सुरू
##सीन
59
प्राय
##ंसिल
चलाया
एक्टर
##इयों
बाहरी
संसाधन
##क्चर
प्रतीक
##पालिका
##तियां
गाना
आगरा
राजन
सरकारों
##धीन
विवरण
##ापुर
##ैस
##जिये
नष्ट
जोख
व्यापारियों
पीड़िता
##्योर
##ोली
##लेस
अनुसूचित
स्टो
देखिए
जिसमे
प्रसन्न
पड़ता
हराया
कामका
त्यामुळे
##स्थल
##विटी
जताया
आयी
सुविधाएं
हेम
मुखर्जी
श्याम
##काया
चलती
अगु
##end
खासकर
लाई
स्वच्छता
##र्चे
ठाकरे
आंध्र
सत्
एसटी
क्ली
दत्त
होश
आश्च
दरों
हादसा
##फाइनल
प्रार्थना
रुपया
मतदाता
##ail
धर्मशाला
जाएंगी
स्टॉक
नशे
ड्राइवर
##मंत्र
##िफ
प्राप्ति
##चारिक
.’
नाथ
दां
##सैन
कार्यरत
खतरे
##हाई
किमी
स्रो
##भूत
२०
सराह
नाबालिग
##वों
आश्चर्य
पुनर्
।"
##ort
डीएम
देशभर
साढ़े
मिड
Loading
विशिष्ट
प्याज
मद्देनजर
प्रदीप
फैक्ट
बनता
सवालों
2000
स्थिर
जोखिम
Com
कोर्स
डाली
गंभीरता
उन्हीं
सैकड़ों
वसू
व्
कराए
राजनाथ
##्लू
परा
योग्यता
##शियों
पार्षद
चन्द्र
झूठ
दुश्म
प्रेमी
तथ्य
प्रकट
दिक्कत
##भाल
विपरीत
##ित्त
ढूं
तुम्हें
गुम
बिंद
##देवी
ब्रा
संवाददाता
सेंसेक्स
##मार्ग
त्यो
प्राथमिकता
दस्तावेज
##ant
पाय
लह
संसार
कहे
पदाधिकारी
काब
मानें
चावल
बढ़ी
जोरदार
लाइव
सपने
##्तों
जानता
##बीन
विस्तृत
पेशे
##प्प
हाँ
##मीन
कस्
अफसरों
जर्मनी
अधिसू
आतंकवादियों
पाइ
जनजा
##जित
##बली
##्तर
महेश
विवेक
##लै
बुद्ध
इंजीनियरिंग
बलों
त्योहार
जूझ
अनुसंध
बृह
राजेंद्र
भूख
याता
स्वि
प्लास्टिक
दर्जा
चूं
लोह
सिखा
##डब्ल्यू
अधिग्रहण
##्रल
तट
बीमारियों
फॉर
असा
आइए
वर्षा
62
##ेक्टर
कव
दुर्गा
लगाना
यातायात
प्राधिकरण
सिंचाई
मुठभ
मेज
##मेट
निकला
2007
समर्थकों
उत्तरी
माध्यमिक
पश्चा
अभ्यर्थ
निर्द
##ंसी
हिंदुस्तान
जीबी
प्रय
पढ़ने
बाबू
##ंसक
उत्सव
बंट
##ोग्रा
आजम
कार्तिक
सीर
नमक
पीट
चमक
सच्चाई
उज्ज
उद्ध
खेली
##सिन
संस्कृत
##GB
श्रीनगर
एक्शन
डॉक
##ियंस
##वर्ती
##ंचित
##ियस
सहज
##ौज
बचे
मिलेंगे
वें
##iv
देहरा
ब्यूरो
कीमतें
करेंगी
बेस्ट
डेढ़
गुड
##चर्स
भूक
अनुसंधान
एकदम
साथियों
छेड़
दोहरा
इजाफा
घंटों
बोलते
एटीएम
नाकाम
##घाट
68
बदमाशों
लिहाज
कच्चे
##मूर्ति
चूंकि
सदर
कोट
आपस
फु
##पीय
एसी
अध्यापक
जिंदा
सुर्ख
ग्लो
संचार
निकाय
दिसम्बर
63
##रीबी
मजबूती
श्रृंखला
मोट
चांद
चढ़
वेद
##रू
मुस्क
संवेदनशील
ट्रेनिंग
चिकित्सक
##ऊन
मध्यम
95
बढ़ते
चपेट
बिता
निलंब
पूजन
अभाव
##ांजलि
उछ
##एससी
बिलास
स्टी
सलाहकार
चो
नॉ
उत्पी
##==
अपहरण
स्पिन
##मानी
एह
मीटिंग
##ice
बैक
एकमात्र
गठित
हुईं
ठंड
मनोरंजन
धा
उन्होने
बाधा
पाप
दिलचस्प
नतीजे
मिलना
आयकर
अमरीकी
बहरहाल
खनन
कंग
##----
##्वीप
रवी
अनुश
खर
मिथ
प्रस्तावित
बुनियादी
दफ्
एक्सचेंज
##टके
विंड
##ity
सैनी
भाग्य
।'
67
##्टा
##धानिक
सेल्
पाटील
आश्रम
##ोगी
सुशील
बैंकिंग
हिन्दु
##पीसी
सबूत
##वास्तव
##ड्डे
71
रिम
##कलन
मैसेज
आमंत्रित
बनना
गोरखपुर
किल
बहादुर
सामूह
अधिव
निकाली
आरबीआई
##चुनाव
रोका
जब्त
….
लिंग
स्टील
क्रेड
आह्वान
[…
बिलासपुर
निवास
is
मेन
ख़ु
इंस्टा
##िक्
आकर्षित
आईसीसी
##ांट
हुसैन
##मार्टम
बौद्ध
चेत
[…]
##पि
पश
##वर्ष
विम
सांसदों
##्यूल
जुड़
कैसा
दफ्तर
दृष्ट
परिस्थितियों
चोपड़ा
##पता
आपसे
##बानी
क्षति
मनाने
सौंपा
##नैतिक
##शंकर
जायेंगे
काग
##बॉल
बुद्धि
##द्घ
##निस
गरीबों
पोस्टमार्टम
इत्या
संस्थाओं
ग्रीन
सॉफ्टवेयर
संजीव
करोड़ों
रियल
सप्लाई
##ia
सामूहिक
##हिता
गिरने
ट्रैफिक
बुर
प्रोफ
##ष्का
पहुंचाया
शौचालय
एफआईआर
इंस्प
##दाद
दलितों
##ॉर्ट
##्ठा
समर्थक
शुभार
अभिनय
पाठक
विवादित
##टीआई
66
##िना
##भारत
##केज
प्लांट
हर्ष
आपदा
##षी
सेल्स
उड़ा
श्रीवास्तव
##कामना
##ज्ञा
रांची
##टकों
नर्स
##nl
विशेषज्ञों
##ks
##न्नी
त्याग
##aj
##ीरपुर
##ोजक
मजदूरों
गर्व
##ांना
पापा
लड़ने
यूं
जनपद
निराश
मरने
पंक
पाउ
शुक्ला
##ated
क्रेडिट
स्नान
स्कीम
कैद
अंधे
मैनेजर
ब्रेक
डेस्क
भेंट
##रियर
अहमदाबाद
अर्थात
सूच
फस
Up
लक
राजनैतिक
##टीन
मण
##वात
##वाड़ा
पलट
डिवाइ
##ah
चिल
उपचुनाव
##फ्फर
आपसी
Me
शिक्षण
##ालों
स्टाइल
##टेल
##पं
तीर्थ
##्लील
शर्त
विटाम
##ary
##वो
आंकड़े
नजदीक
काय
उपस्थिति
सरदार
दर्शा
सब्जी
बृहस्पति
बोझ
दुल
##वेल
रोशन
##तीत
संहिता
ग्रा
बाज
मेला
##राण
##ाजत
परिचाल
अवस्था
##स्वामी
73
हिट
सीईओ
निफ्टी
बैग
##बंद
मतदाताओं
वास
##ेगी
##्रेसी
भगत
अंतरिक्ष
निर्मित
सुषमा
स्वराज
संतुल
##स्वर
मासूम
1000
##न्ड
कैप्टन
इत्यादि
##प्पी
टी20
शैली
पठ
अन्त
निरंतर
फंस
##लपुर
##वार्ड
तुलसी
अश्लील
अस्तित्व
साक्षा
मांगा
जमी
रणवीर
बताए
सेमीफाइनल
पेर
##्याने
##गें
##ंगन
खाम
##ard
लघु
##if
विषयों
##वालों
बाई
##द्व
जाओ
पाठ्य
कुश
निया
##ोंग
डु
##नामा
##कारियों
वाम
नाटक
अधिकारों
वाई
##इस
शुभकामना
लिहाजा
वाण
जौ
फीचर
##दून
अवगत
##ee
##ड़ियों
महत्त्व
जूनियर
पेशकश
##र्वाद
##नक
क्रांति
69
कोतवाली
साइकिल
वॉल
इंस्टाग्राम
क्रिस
##च्छेद
आईं
कलाकारों
लक्षण
##यु
दृश्य
हेल
##ुलकर
पाना
इक
अर्ध
##ूद
भूकंप
पैमाने
##बरा
##ष्णा
निवड
कमर
रूपए
##ायती
##ंचल
नज़र
शत्र
##स्टल
',
जागरण
##रेली
##ग्रा
पढ़ा
##गेट
चिद
ठोस
महाविद्यालय
##वार्
##सो
##ाइयों
पेयजल
घटा
##िज्य
हरकत
##ext
उभर
##तून
लहर
कैला
आस्था
भोजपुरी
पिटाई
##तिथि
अनाज
##णीय
##भूषण
बिलकुल
साहिब
आड
गज
हसन
प्रतिस्प
समर्पित
प्रत्यक्ष
छत
रिटर्न
##खण्ड
##ideo
अरे
कामकाज
जर्
प्रांत
विक्रम
एकज
इन्हीं
जेएन
##्यानंतर
##ुसार
फुल
भव्य
रघु
##ग्व
सीता
साझेदारी
काही
देहरादून
शेत
##ug
लाह
##मै
##स्को
अपर
स्थायी
जाग
अनुष्का
उड़ान
स्पीड
निंदा
वंचित
गरीबी
लाग
दीपा
रखती
##आइ
##कांक
अमीर
मुजफ्फर
रात्रि
ट्रॉ
गिरी
##सीआई
Pr
##सं
फूड
मानने
कहकर
चिप
##नीत
विचारधारा
अधिसूचना
प्रयासों
पंत
##र्की
पहना
करून
##लाइट
पहुंचकर
एकजुट
बॉडी
जाट
ड्रेस
पच
##शिंग
##र्वेद
##ंवर
फैशन
प्रवी
##ड्डी
परिजन
नकारात्मक
एससी
सूरत
उतरे
##िमा
सिद्धार्थ
मौजूदगी
उन्न
तालाब
##ont
ट्रेलर
##लक
##पकों
भारतीयों
डाक
वाणिज्य
संदेह
##्रीट
विटामिन
अमे
निपट
सतीश
प्रशांत
बनती
दोस्ती
उपरा
पहुँ
घाय
##ज़ार
##reen
प्रदर्शित
दिखने
रिश्ता
##विंग
धूप
##ंगिक
साधारण
हमीरपुर
मात
61
##र्टी
##दायक
कमाल
रूट
दुर
आचार्य
##एसई
फोर
डेब
जॉन
कहाँ
भागीदारी
दै
क्रमश
##पाठी
##ish
चरित्र
ओब
ऋषि
##ीकरण
नरेश
परिचय
##डिय़
गर्ल
##ber
कमेंट
आधे
##लेल्या
कलर
पीड़ित
सीबी
असफल
गुप्त
##दृ
##फेल
##ite
ओड
फायरिंग
जख
पक्षों
##काय
मेरठ
##है
खेलते
झाली
मारकर
##हाद
पदाधिकारियों
##फ़ी
सैम
बीत
##खल
समस्याएं
संस्थापक
##्यांक
##हि
नकदी
न्यायिक
##भाषा
##विश्वास
##िकाओं
##टाला
डोनाल्ड
फर्क
हॉट
हेल्थ
रोहत
सर्क
कना
मजाक
शरीफ
प्रिंस
समीप
जीतकर
##नियों
मुखिया
हराकर
सेन
आशीर्वाद
एचडी
##दरी
हरे
##ाइक
बैटरी
रुचि
अंबानी
लांच
##पंथी
पंकज
अतः
महानि
भाभी
गंग
जवाहर
##नाश
कवर
इंद्र
विश्लेषण
अनुरूप
अपराधियों
मंत्रिमंडल
##ार्थी
हमलों
##av
एजेंसियों
जुटा
):
##ंधे
सर्वेक्षण
बूथ
##भुत
##चंद्र
78
##वारा
दिना
##रात्रि
जागरूकता
खड़े
श्रद्धांजलि
छोड़ने
रोटी
आधी
सनी
##ार्थियों
स्तन
ढूंढ
##रेटर
##िथ
एकल
दुकानों
##वर्ड
##फार्म
##ष्म
##राइ
UP
##तान
एडी
ट्रैक
दुब
भीम
बेश
नसी
लड
किलोग्राम
हिम
देवता
समझते
मले
राजप
पढ़े
घायलों
##ल्ले
चौटाला
अनुच्छेद
गहरी
वर्क
गार
उद्यम
फ्ला
बैठकर
जिल्हा
ज्व
आसमान
यूजर
अत्यंत
पायलट
फेड
चलेगा
जगा
अजीब
मोटरसाइ
गड़
##क्क
शेख
हिम्मत
आसार
##ुली
फार
##दमी
मिर्च
विफल
फायदेमंद
तेलंग
इंस्पेक्टर
श्रद्धालुओं
ट्रस्ट
प्रबंधक
पन
यूरोपीय
भक्ति
लड़ा
हैंड
इट
##ud
जानना
##ttp
रैंकिंग
नाबाद
आर्मी
निकली
##्ठी
फते
##बाई
सीपी
आयुर्वेद
##वेळी
दिव्या
गर्भ
रोशनी
सिलसिला
सदा
फेल
सब्सिडी
पाती
##ाइन
गुट
84
घटनाएं
लंबा
इजाजत
बसों
अवार्ड
सत्या
##//
लड़कियों
नक्सलियों
चौथी
##छाड़
Rec
ब्लड
##धित
##विड
सेवान
ईरानी
##ook
76
डीसी
राजने
##पान
श्रेय
धारण
लापता
##वादियों
प्राण
आदत
अभिभाव
##़ी
मसले
74
आहार
##ure
202
निशाने
Al
250
##ष्क
सीसीटीवी
##्यौ
तेलंगाना
उजा
जितने
Ch
कुंड
गाँधी
स्वभाव
##ंबरम
##व्र
जद
रिकॉर्डिंग
##थन
नग
पांड
##क्ष्य
चिन्ह
झाला
सेवानिव
##ाइड
77
##फ्रेंड
मिसाइल
http
हितों
वैज्ञानिकों
##ंत्रिक
दंड
डिप्टी
रिश्तों
चिदंबरम
##कांड
##िकों
शिश
##चरण
##ुश
कुल्लू
##बन
सब्ज
सूचकांक
##ड्र
आपात
कट्टर
##िने
राजपूत
##ंद्रा
##वाहा
पाउडर
##रीबन
राफेल
प्रोडक्ट
##ण्यासाठी
एंट्री
तोड़
केंद्रों
संचालक
pro
येथ
##वर्धन
##स्वरूप
##लत
त्रिपाठी
पीडि़
नृत्य
##धाम
चरम
पड़ोसी
##णार्या
##all
##देशक
अधीन
सियासी
##स्वती
रेडियो
कॉर्
##लिये
उपन्यास
कृष्णा
आपरा
बचत
##ण्य
लाश
नहर
अंश
ऊंचाई
रेस
##पोरेट
जरा
नैतिक
देन
सेंट्रल
##टिया
इंकार
कृपा
://
##स्टार
लेखन
##ैम
न्यायमूर्ति
आंतर
कांग्रेसी
ख़िला
##कडे
मैनेजमेंट
डिफ
बिन
अपराधी
नीला
रोमांच
औष
##पोर
मुनाफा
##लेश
कुमारी
कैलाश
भेदभाव
ओडिशा
पैकेज
श्रद्धा
सतर्क
छत्तीसगढ़
फंसे
डाले
नतीजा
व्यावसाय
##झी
साधा
नवाज
आपराधिक
##स्पिटल
स्त
मेहता
##ध्याय
अन्दर
रौ
##न्दगी
हवाला
सरस्वती
रावण
खोला
संयंत्र
पकड़
शिवा
हस्तक्षेप
##लील
अवतार
पड़ती
ख्याल
छीन
प्रका
मांस
मांगने
नाक
##वण
आखिरकार
कमान
##ेंच
हॉकी
इंतजाम
बोर
आकर्षक
रोष
काटने
पाठ्यक्रम
##ies
खाद
पान
रजनी
इंस्टी
अद्
आलोक
जाधव
बड़
लड़के
थाम
देनी
इकट
##चार्ज
हौ
घो
ढाई
डिस्प
राष्ट्रवादी
आरा
करीबी
##रेन
कराना
फीसद
बहाने
##स्सी
कमलनाथ
बरसात
पॉल
रणबीर
यकीन
छिपा
मेघ
विमर्श
पाये
अभिव
##शर
##विजन
खुली
फाउंड
जड़
इशारा
ग्लोबल
अब्दुल
दोग
इस्लामी
साक्षात्कार
सुरेंद्र
##शान
शुभारंभ
नारेबाजी
कांड
##जिट
पंचायतों
ग्वाल
बढ़ता
पाणी
देवेंद्र
लू
नाइट
गुर्
सर्च
पॉलि
अनुबंध
पुज
औप
पीछा
##कूला
जश्न
##तू
##सेवक
बटन
किस्म
टेक्नोलॉजी
इच्छुक
##nt
भास्कर
##ID
दस्तावे
मिठ
भेजी
केंद्रित
केदार
##ith
##ोटा
डीजी
पांडेय
शोक
पंचकूला
##र्चित
गली
रामदेव
##ायें
दरवाजा
स्वीकृति
##केल
##डन
##संच
वस्तुओं
बनाता
दादा
अशी
अमल
महोत्सव
##ट्र
2006
ढा
शत्रु
व्यक्तित्व
पैरों
फेर
##स्पी
प्रशास
स्रोत
re
बढ़ाकर
सम्बंध
370
##द्रोह
हाला
घेर
12वीं
पारिवार
##रेशन
फसलों
संभावित
इलेक्ट्रॉन
कृप
टेनिस
##कॉम
India
राशन
म्यूज
##पीठ
तुम्हारी
##ष्कार
##ानिया
##तालों
रोहतक
बनेगा
##ne
मोटरसाइकिल
##ख्यात
रच
##भेद
एनडीए
वरु
निलंबित
पकड़ा
##ूष
##िकोण
प्रतिबद्ध
बलि
मामूली
तेजस्वी
जिलाधिकारी
##क्षणिक
जनसं
चैम्प
उज
चुनौ
##द्दा
तेंदुलकर
नियंत्रित
कैच
भला
##न्ने
नाराजगी
मथ
तप
स्टूडेंट्स
लैंड
कुरु
दरवाजे
पंप
ऊना
सौदे
पारिवारिक
आलू
लेवल
वृक्ष
##िपल
##log
अनुमानित
अकबर
टु
ऋष
काँग
सपोर्ट
##वला
उपयोगी
पंजाबी
ऊंची
निर्देशन
संपूर्ण
क्राइम
तां
##rt
मांगे
प्रतिनिधित्व
खेतों
वसूली
जेएनयू
बगैर
##राई
No
जोन
120
कार्यकार
अनुराग
तत्वों
##50
पौधे
अरो
##gle
टीमें
प्रसारण
##ous
मुठभेड़
Upd
जना
सौदा
स्टोरी
फ़िल्म
रिक्त
##ार्टमेंट
अस्पतालों
प्रवीण
सिलसिले
अगुवाई
ख़िलाफ़
82
समन्व
लिखकर
##ww
अत्याचार
th
##क्या
कुशल
तूफान
##ामक
##cc
डिवाइस
बाला
खड़ा
##जिन
टेक
लगाएं
युवराज
मासिक
तालु
पटा
जिलाध्यक्ष
छाया
अद्भुत
मोर
आशीष
देखभाल
##EO
तकरीबन
अटक
संतु
किंतु
धरने
भीषण
चट
डील
##ड़न
##ोजित
##तिर
##प्पल
हेली
##ick
##िएट
##णवी
##ौरा
बढ़ाया
##ल्हा
शैक्षणिक
स्वाद
रिव
गड़ब
दिग्व
तुर्की
घी
##एगी
भीड़
मेहमान
क्वि
हथियारों
##मंड
मानवा
यमुना
वेल
गिन
उठाते
अकादमी
कमिश्
मुआवजा
काउंसिल
##मरी
##िजय
##झाने
##रस
काँग्रेस
आंतरिक
टेल
पोषण
सोसाय
##वश
बकाया
##रन
मंजूर
अल्पसंख्यक
दिलीप
##्वत
पालिका
##कप
हिल
रहस्य
पंजीकरण
क्वार
माग
वरुण
नीलामी
होत
थोड़ा
समापन
##्नि
व्यावसायिक
आंगन
दिग्विजय
भावनाओं
##रित
##ear
संयोजक
जेडी
न्यूय
भिन्न
धात
एबी
सदस्यता
तस्वीरों
डिली
एके
##िंटन
##आउट
सस्ता
साय
कॉलोनी
छान
##ंसल
गढ़
नितिन
##त्तियों
##ॉयड
बनते
प्रकाशन
येथील
##व्या
मारी
##ासाठी
आंकड़ा
81
##टेन
##्यांकन
इमारत
राइ
गिरोह
लीक
चौंका
शाहिद
जीने
घुट
##मपुर
##्वाइ
चढ़ा
गायक
किराए
कृपया
86
रहकर
मानवाधिकार
##ोदय
अभिव्य
उत्स
पड़ने
विश्लेष
श्रीराम
माइक्रो
राजमार्ग
सशक्त
##आईए
##ंजा
बीस
साहस
कुर्सी
बैठी
बृहस्पतिवार
मानसून
एरिया
##डोर
अल्लाह
Pro
##hot
इमाम
##ॉस
फ्रंट
##ब्बत
बर्बाद
बैन
लायक
अलर्ट
##न्त्र
सुन्दर
##गणना
##वाड़ी
अनुवाद
83
##साइड
परिचालन
2004
##िक्सल
##्टे
लक्ष्मण
जनसंख्या
करत
गणतंत्र
94
रजत
शता
डेवल
##ग़
चौके
ओबामा
##ाराम
सौंपी
मजे
ग्रो
पश्चात
ज्योतिष
रम
प्रिंट
ललित
##ile
तीव्र
!!
बढ़ाने
दिनांक
##are
##इंग
किराया
जिसको
राठ
उठाकर
उपलब्धि
नंद
##िफिकेशन
बारह
पौध
दीक्षित
माहिती
घूमने
##इंट
तसे
हॉल
मल्टी
ग्वालियर
पड़ी
त्यांनी
कार्यकारिणी
2005
www
जरुरत
अध्यापकों
ससुराल
##गारी
साइंस
More
दुस
आलिया
आॅ
##ory
हाज
भोग
##जीवन
##टीसी
बुलंद
##रेगा
व्ही
नाज
टीचर
अड्डे
एसएसपी
सरा
खिलाड़ी
जिल्ह
उजागर
##ial
##ैश
मंदी
रत्न
स्पोर्ट
उर्
फ्लैट
सिद्धू
##ृत्त
अनंत
##ुरू
जेब
##र्टर
निचले
##किट
अतिक
एकड़
चौथा
पर्यटकों
दुर्भाग्य
लड़कियां
फाइन
लीजिए
##esh
##up
##ंधा
कबीर
इन्होंने
श्रेष्ठ
चीज़
बालक
आरती
##ोंक
जनसभा
जोध
पैनल
स्कू
पोर्टल
धोखाध
##ज़ी
##JP
आभार
##डनी
समझना
##संचार
मिलियन
600
##नाल
उतनी
##ack
प्रॉ
टेबल
आवंटन
##oogle
हॉस्पिटल
नगरी
१९
##स्तु
कालोनी
##याम
##कृष्ट
##बाग
##धीर
जगदी
##स्टेबल
माफ
इर
पारंप
98
सचिवालय
कर्मी
##वेंट
खैर
##शियन
##वार्थ
##ang
तन
मुल्
भूत
दोषियों
ऑडियो
राधा
##ुणा
उठाना
धमाके
माल्या
##शेखर
सीन
साधना
सहमत
व्हाट्स
##10
शमी
##्रु
एग्जाम
सबका
दायित्व
सोसायटी
##लांग
Sc
पॉलिसी
बॉल
हाफ
कुरुक्षेत्र
वाढ
पाइप
ख़बर
संतान
अमृतसर
##शास्त्र
डू
गर्भव
##ज़ी
घोटाला
दोन
टूर
करीना
88
भक्तों
विडियो
बिर
##ेमारी
सेंसर
सूबे
कंगना
हकी
##भद्र
गृहमंत्री
टाइगर
जुटे
सोचने
जुटी
आक्रोश
दिखे
क्वाल
नारी
योजनाएं
##18
गेंदबाजों
कामयाबी
भाषाओं
कमिश्नर
धर्
##kar
घात
शक्त
अनुदान
चैनलों
अत्यधिक
छापेमारी
शुक्ल
##BI
सिद्धांत
महंगा
##डो
अर्चना
आर्
ठिका
##िंदगी
खुफिया
##िवेदी
हिसार
बैल
दार
##भूति
शिरकत
अंस
आकलन
##out
पैदल
सदी
मूल्यांकन
अर्पित
स्कूली
अफवाह
अनशन
कोयला
गरम
##पर्य
रिपोर्ट्स
वायरस
इसने
बैठने
पारंपरिक
साधन
विवादों
केश
##िमान
पद्ध
मंदिरों
आध्या
चाइ
सराहना
पीढ़ी
##पोरेशन
अनदे
गोप
कॉन्फ्रेंस
##एक्स
कनाडा
थोड़ी
कठोर
बोल्ड
छक्के
इंस्टीट
अनो
क्षण
सदस्यीय
फीट
मेड़ी
##पने
स्वाभाव
कहला
इक्
##ँह
##्वल
कीजिए
##मय
डॉकटर
प्रत्याशियों
##खाने
And
मेडल
##गित
प्रशंसा
बल्लेबाजों
मेड़ीसिन
दुबई
मेकअप
##स्ड
युक्त
##्यूशन
App
##ॉप्टर
सैफ
जॉब
स्किन
सिरे
करनाल
गर्भवती
##ंटल
हमे
जोधपुर
##ंकार
##ून्य
##रेप
ज़्यादा
बेटियों
दूरसंचार
##डऩे
गवाह
जादू
फू
गुलाब
##पीएस
काशी
अंदाजा
इलेक्ट्रिक
कम्पनी
सांप्र
आलम
जगदीश
माला
##एफसी
ठेकेदार
##ुष
वोटर
रिश्वत
नारा
##शिंगटन
आडवाणी
उत्तम
मायने
कमीशन
##बाबत
##म्परा
##द्वाज
सेकेंड
आध्यात्म
आकर्षण
कोटा
लीला
92
सीतार
पुष्प
##एमएस
नकली
पैसों
जोड़ा
मुर्
राजू
ऑड
विभागीय
प्रयत्न
टाल
दीपावली
##तांत्रिक
सास
##ईडी
87
सोचते
ईद
उद्योगों
तसेच
एसिड
गणित
डेविड
##सेट
##गठ
##ill
दृष्टिकोण
फट
भौतिक
छेड़छाड़
##क्ल
सेक्सी
स्मिथ
इसलिये
सस्ते
डीएसपी
रथ
##ानुसार
उपयुक्त
आवेद
कहें
परम्परा
कार्ब
ज्ञात
BJP
उतारा
मदर
##शाही
बेव
##माज
नम्बर
##ौदा
भूषण
चलाई
क्वार्टर
दीन
कॉर
पार्किंग
मथुरा
रजिस्ट्रेशन
शॉप
विस
कूद
800
भ्रम
फील्ड
me
पर्दे
प्रतिनिधियों
सुनते
##िकेशन
de
डिट
पीजी
बेन
प्रचल
तैयारियों
by
मार्क
##ect
लिखते
माओ
पांव
पद्म
रमन
ट्रॉफी
##नामी
ईमेल
राउंड
आन्द
पैट
##टेक
अतिक्रमण
जोड़ने
असल्याचे
नायडू
महाप
उड़
अभियंता
आरोपित
खाल
##न्वयन
##वीएम
कष्ट
देह
ग्ल
Ad
कुत्ते
वोटों
खुलकर
तहसीलदार
हकीकत
ट्रम्प
गोलीबारी
##पाही
अश्विन
##भि
बहू
गाड़ी
##hone
यूपीए
##ue
Bh
बेंच
बताना
मित्रों
96
सुर्खियों
नायक
शास्त्र
91
फोटोग्रा
ऐंड
आचार
##ियर्स
मदन
प्रमोशन
##कीपर
भारद्वाज
मतभेद
एनडी
रंजन
देखता
कर्त
##बैक
पेमेंट
##ारस
मकर
चैल
भरत
सेल्फी
कार्या
येथे
सुल्तान
बजर
##करों
आईडी
छिप
दोगु
नीरज
सिपाही
संवै
निरीक्षक
नाते
आब
उमेश
कामों
किशन
फॉलो
कड़ा
स्क्र
कारोबारियों
दक्षिणी
##ांतिक
कॉपी
##सला
उपाध्याय
गुस्से
पीस
प्रतिष्ठित
##ियाना
फोर्स
शून्य
विभागा
बनाएं
##ण्याची
डॉट
एनजी
).
लौटने
मानक
दर्शक
तले
कुंभ
छुटकारा
सलामी
अग्नि
##ाध्यक्ष
##श्यप
पकड़े
मुख्या
##ver
गर्ग
##िरो
##द्री
मय
ऐश्व
संप्र
##सनीय
##पेक्ष
स्ना
कांगड़ा
##me
पड़ेगा
The
विदेशों
झील
वायुसेना
IP
पॉप
रेंज
##ौलत
तरीकों
चैंपियनशिप
झटके
पहने
फाउंडेशन
बंदर
कैसी
##्तानी
छे
औरत
##lect
##लिटी
193
##ूनों
घटनास्थल
##पिंग
जीवित
पदार्थों
##हाना
##जवान
79
बैनर
सहकारी
सोनम
दुश्मन
##्वाइंट
कामना
##ख़
निदेशालय
उमर
यूएस
वसूल
बदौलत
एथ
बीती
मछली
बक
प्लस
उग्र
धाम
93
##ंधन
##नेश्वर
शासकीय
##ress
Pre
##ुद्ध
ट्रांसफर
##बै
##ीरी
मान्य
##ंडों
उभ
##ोगे
।’’
पुनः
97
वृद्ध
पद्मा
निम्न
स्वाभाविक
विनय
##िंक
घटकर
सुश
प्रदर्शनकारियों
Ex
मीना
फुटबॉल
सीधी
कप्तानी
##ियाबाद
##कला
नर्म
चूक
रेड्डी
संवैधानिक
क्यो
##ight
आईएएस
वर्णन
##परी
बरत
हनी
##्रेन
."
सोलन
पहलवान
##प्रति
##ंठ
मैक्स
खरीदी
अजीत
मोर्चे
स्पेस
खातों
##भावना
यंत्र
##दिव
निभाई
ठिक
जरुरी
प्रदेशाध्यक्ष
##ans
##माइ
गवर्
प्रोत्साहन
यूट
प्रको
मील
उत्साहित
##िटीज
##roid
ठहराया
89
स्ट्राइक
वोटिंग
दाग
गुड़
कोने
##षित
तर्ज
माफिया
खरीदा
##गुरु
एहसास
फैलाने
.....
सूचित
कारों
बस्ती
प्रश्
वंश
कोण
अन्यथा
साहू
##्युनि
प्रोत्साहित
##ढ़ी
दशकों
ईमानदारी
किस्मत
चक
पसी
सिंगापुर
मुहिम
असह
##पासून
अन्न
##ैली
बेरोजगार
जबरन
फंसा
##ेंटी
संरचना
पेंट
टोल
##िएंट
##धाना
पुण्य
गैंगरेप
अवॉर्ड
दिखाते
कारा
बहाल
शताब्दी
##जुए
तबाद
गला
डालें
नौजवान
माध
तृण
शुभकामनाएं
चाचा
बताती
राखी
##िप्त
पहलू
अहसास
बाँ
धीमी
वीरेंद्र
##क्व
त्रिप
वैसा
आँखों
##डेजा
पराज
मूल्यों
सीरियल
सर्दी
##विदा
##सीम
वसु
मसल
मज़
नियामक
एजेंट
उत्पीड़न
एजें
##िंदर
##्राज
बेंगलुरु
गुहार
किंग्स
कड़ी
पुलिसकर्मियों
##सनी
पासपोर्ट
उन्हे
रसोई
स्थगित
भंग
##आम
##गाई
सेल्सियस
लाना
##ॉर्क
जाएँ
जोश
कक्ष
भै
घंटा
ब्लाक
##वेस्ट
अब्दुल्ला
गारंटी
राज्यमंत्री
उर्दू
असिस्ट
##क्टेयर
दुखी
रामपुर
पुरूष
more
##िस्ट्रेट
ट्रेनों
चिंतित
दया
Mar
स्पेन
##इए
पाँच
तहरी
प्रोट
##स्टेट
भाजप
##क्सा
अपलोड
रतन
##्बा
स्टार्ट
सीआरपी
##SL
##ूरती
अंकित
स्थलों
एमपी
इनसे
दहेज
डेम
उत्कृष्ट
##ownl
रित
##गरेट
##००
लौटे
स्थानांतर
घुसपै
अभय
लाठी
मस्ती
रेटिंग
##SC
व्यय
खोले
##िम्म
##लोत
दिलाया
वरना
चैम्पियन
सोल
एम्स
चुदाई
सस्ती
##रलैंड
जमाने
लैस
##ेक्स
ग्रंथ
मुकदम
मैथ
निधि
कश्यप
##ुद्दीन
तृणमूल
##हीर
सहारे
##धनों
हत्य
ऑर्डर
एजु
दुः
आन्दोलन
अफ़
##तिष्क
##ंपल
घुसपैठ
बिल्डिंग
ज़रूरत
भुव
परेशानियों
शौक
गंवा
निभाने
loading
)-
पहाड़ी
बनाम
पुत
##यात्रा
जाँच
नक्सली
सज
दोनो
व्याख्या
सोनू
पिच
एकाद
अड
हाईवे
वादे
दुबे
रोचक
गवर्नर
or
जोकि
चंबा
स्वीकृत
वैध
##ष्ठा
खेलना
##यो
जानवरों
##डिय़ों
नान
कम्प्यूटर
##निर्माण
मुँह
##नाइट
गांग
##स्करी
सिक्योर
तैयारियां
शिशु
किम
स्पीकर
##बों
पठान
चरणों
जडेजा
प्रारूप
खरीदारी
##वळ
बुकिंग
##रिटी
लाए
स्ने
रोगों
दिलाई
दरबार
इन्फ
सावधान
साइबर
तृतीय
देखो
##डीसी
##ांची
हिमाल
फिटनेस
##त्तर
सर्जरी
##एप
##सेन
त्यौ
जानकर
डेरा
फर्म
बाघ
Updated
खां
news
हल्के
शहद
मॉड
##ढ़ा
##बिल
##्तार
आत्मविश्वास
पैन
जोड़
##ana
##ब्बे
##ass
बजाए
भागने
फ्लाइट
दवाओं
##ownload
##सह
ट्यूब
सौंद
रिश्तेदार
लंबित
श्रीकृष्ण
हड़
रिहा
ब्रांच
विरासत
सम्पूर्ण
##्याचे
अम्बाला
##बिया
प्रारंभिक
प्रवाह
##लीफ
आमद
जटिल
नाला
तोह
मानता
दुर्ग
एयरटेल
एमबी
सावधानी
धूल
मोड़
##ोषित
ट्व
तड़
सांगित
##ारायण
खन्ना
app
वाकई
##ult
डिम
उपकरणों
##क्षीय
दाखल
शहरा
कांस
##फुल
प्रीमियम
पाण्ड
उदयपुर
##म्बई
आंस
लड़कों
##कोण
##ree
##rtic
एपी
##वामा
अवकाश
पहनने
सटी
##राबरी
महल
जिनसे
कॉले
धारणा
बया
##न्दा
निकाले
अकाली
देसी
कुलपति
नाल
पृष्ठभूमि
2002
साक्षी
एकत्रित
तरंग
मम्मी
जबलपुर
##ोत्तर
पाव
मोटा
##राज्य
##जाने
राशिफल
राग
दुनियाभर
##हू
इस्र
पूछने
छुट्ट
कश्मीरी
##वाग
##कने
महागठ
2003
कैथल
Sh
भागवत
महानिदेशक
दशा
सेव
विभाजन
फड
पांचवें
आवाज़
डिस्प्ले
बर्फबारी
सबक
नदियों
यज्ञ
##ng
चर्चित
आँख
मस्तिष्क
प्रधाना
उठता
डबल
##ru
राजेन्द्र
##ेली
दर्जनों
वीजा
पुलवामा
पुलिसकर्मी
##ऊंगा
##कर्ष
प्रतिद्व
##बिन
##्हन
##दाश्त
टर्म
बीबी
हत्याकांड
प्रोटीन
साइड
रूसी
पला
गाल
जौहर
लौटा
शार
प्लेटफॉर्म
गडकरी
10वीं
अंसारी
गहलोत
पसंदी
इटली
सीखने
सिस
मंजिल
ख़बर
पेट्रोलियम
स्ल
ब्रह्मा
ke
नाह
ईंधन
ग्राउंड
दही
##ft
हिंसक
बुरे
क्विंटल
महत्त्वपूर्ण
##वाड़
अखबारों
लैपट
तस्करी
लोकप्रियता
पुरी
ईडी
निगाह
चैलेंज
##्याय
##सागर
ad
घाटा
##सें
##िके
##सेल
ईवीएम
डेब्यू
महागठबंधन
बहि
al
पसंदीदा
##बूत
##ram
मोड
गुर्जर
टिप्स
##ट्रिक
बराबरी
##udi
##ूर्त
सत्तार
##बर्ग
मल्
##ry
पुस्त
चर्च
भटक
लाज
##iz
हरीश
जहर
इस्लामिक
जहाज
कल्
कम्युनि
##चुअल
जोड़े
अगला
उछाल
शॉट
दिव्य
##िप्ट
गांगुली
##्यातील
##लीला
लोकतांत्रिक
कनेक्ट
आईएस
रोगी
अजमेर
त्यौहार
उतरने
##णियों
अभिव्यक्ति
स्मार
गुलाम
रिटायर
सरो
प्रतिष्ठा
फूट
अर्धशत
जनजाति
हाथी
##वून
शशि
मिश्रण
तालिब
संतुलन
देशभ
फिल्मी
नहा
मुसी
वरीय
ट्रैक्टर
पादु
कमाने
एमएस
ओमप्रकाश
##ari
केम
बिल्ली
##टू
झलक
नक्ष
ऑयल
##पाली
##चित्र
बुखार
गंदगी
फोक
लेट
कोष
दबंग
##टित
नामों
संक्रमण
गोलियां
नाव
पूर्वा
ऑफिसर
यूट्यूब
##ह्न
सिर्फ़
श्रीदेवी
##pl
फेम
पाकर
लगाये
कस्बे
घटनाक्रम
त्यांच्या
हमसे
##ेल्या
हैरानी
##मिन
भजन
सेकंड
इकट्ठा
hindi
निराशा
बहनों
##ुपयोग
##ौरी
संसाधनों
##IDEO
कॉमर्स
विमानों
##्पा
##ेशर
चाकू
सई
बख
राजे
##पुट
जातियों
पाह
सिंधिया
इंस्टीट्यूट
स्पर्धा
भाइयों
जनहित
सहवाग
उर्व
108
रैम
सना
टैग
##बरी
धोखाधड़ी
##uc
धातु
##तिया
फेस्ट
डिस्
##सरत
खुदरा
गाजियाबाद
अमन
सिंधु
##चाप
रहीम
संवाददाताओं
##वृ
दीदी
Google
प्रतिरोध
##मान्य
पुत्री
सेब
बिगड़
व्हाइट
आईजी
काव्य
##डेंट
रॉयल
##ell
Video
वेर
गौरी
##संघ
De
प्रस्तुति
##ढे
इनाम
बोतल
देवताओं
ढांचे
वाद
##ata
हार्ट
खासतौर
पर्यटक
##णवीस
शोभा
शक्तिशाली
नारियल
प्रतिबंधित
##****
##ुलेंस
मेयर
दीजिए
##ुम
आंखें
फीचर्स
##तात
##नानगर
पर्दा
लड़ाई
दुल्हन
बंधन
ex
कैल
##ie
##डिंग
ब्राज
इनकम
अभ्यर्थियों
##जना
निकालकर
ब्लू
पानीपत
नवीनतम
द्वीप
##विंदर
तादाद
ग्रेड
बताता
चतुर्थ
परे
जीती
तलवार
झां
नेहा
सुमित
##ath
कमजोरी
##कुछ
नोटों
शिवाजी
एसबीआई
सुपरस्टार
सृजन
गणना
भंडार
कड़े
वितरित
कमांडर
an
एंब
करूंगा
हेक्टेयर
पीर
अधिवक्ता
फिरोज
खासी
लेनी
सार्थ
इवेंट
मानो
VIDEO
छोड़ा
बीएसई
असिस्टेंट
शिफ्ट
##मण
पढ़ें
##ाया
हल्की
ऐश्वर्या
पिला
##पीएफ
हल्दी
##ंबू
छठ
चाहें
##ैव
पर्सनल
परिचित
जीडीपी
निर्दलीय
दलील
स्टोरेज
##न्ग
स्पिनर
समूहों
संतुष्ट
बादशाह
अनुपात
पैक
शेट
उद्धव
##वायु
बालिका
दरें
वचन
be
संध्या
बेरोजगारी
##िकरण
मरम्मत
चित
मप्र
मानवीय
बैडम
सीओ
तलाशी
बरस
यांना
ढांचा
अंग्रेजों
लोकल
सनसनी
##ाहिर
विहार
बदलते
शत
मोटी
सम्पन्न
टाइप
पशुओं
सांगितले
##ल्ली
संशोधित
दांव
एनएस
जायजा
##बलों
स्नातक
सैमसंग
लाकर
संवेद
सांप्रदायिक
डब्ल्यू
खरा
गाइड
##श्ती
बढ़ने
##ानिक
खूबसूरती
जेपी
हिर
सकेगी
##नायक
##र्जन
हटाया
गेम्स
दस्तावेजों
##ताप
##नाती
वाट
मानसिकता
प्रमोद
कृत
rec
पग
डें
अंबाला
##ख्ती
दीर्
कस्टम
कॉलेजों
चयनित
रेत
पाएगा
हरिद्वार
अटैक
मराठी
##ption
एनआरसी
पेशेवर
उठे
दखल
मलेशिया
##ालन
श्रा
##ोनेशिया
कांस्य
रुझ
##पीए
साफ़
भुवनेश्वर
##ank
सैय
##शक्ति
मेगाप
पूनम
महानगर
निवेशक
शीत
मृ
पेड़
##घात
##्राज्य
##गोल
दिखता
निश्च
स्पोर्ट्स
नवन
उलट
फ़ैस
जताते
एंटर
##पमेंट
कन्
तुम्हारा
सिंघ
निवार
मेजबान
मार्गदर्शन
हिन्दुस्तान
##orm
नर्मदा
##वले
##फरी
कार्यशाला
किशोरी
नागपुर
नतीजों
यमुनानगर
गाली
प्रतिनिधिमंडल
लेटे
700
.'
मिसाल
वय
खपत
##वाट
बाबत
संज्ञान
एनसीआर
##ख्ता
निर्माताओं
सीएए
##ss
##वाहित
गहरे
पटरी
शेड
पढ़ाई
आध्यात्मिक
##एनएस
##डि़यों
बर्थ
बैडमिंटन
महादेव
भती
एनएच
परिप
फैन
उतरी
सेले
अनुभ
##AR
समृद्धि
with
एनसीपी
##कपा
बघ
सर्ट
सूखे
बेशक
संभालने
औपचारिक
मजदूरी
हालिया
निर्मल
सामु
प्रीमियर
विलय
मजिस्ट्रेट
गुरुग्राम
प्रतिस्पर्धा
##्रार
सहन
##ूर्ण
निष्पक्ष
##ढा
आदिवासियों
गिनती
एजुकेशन
पीएच
वर्गों
##्ठ
बहुजन
पादुकोण
बवाल
परीक्षाओं
इंफ
दुकानदार
निर्देशित
पीटा
रेश
चिल्ला
तंग
मीन
अकेला
उपरांत
चीज़
कुंडली
पीयू
##स्पद
लैपटॉप
##दर्शी
अग्रणी
##ोरियल
महामंत्री
##साफ
##ब्स
मन्द
टेलीविजन
सक्
ठंडा
##ानून
बिख
ch
##ियमित
चिकित्सकों
एआई
दरम
प्रखंड
विद्यालयों
खासा
विशेषता
फैम
पर्वत
स्वर्ग
सिलेंडर
लेगा
रखेंगे
##लोक
पूर्णिमा
ग्री
भैया
हॉलीवुड
जलवायु
चिन्
बढ़ती
प्रारम्भ
यावेळी
अनिश्चित
लता
बरेली
सियासत
बाहु
चालान
खाई
मसू
सभ्यता
लम्बे
छुपा
बनाती
सीआरपीएफ
तोड़ने
जदयू
सरकारें
बाधित
##कालिक
पट्टी
##िज्म
भरोसे
अरोड़ा
##िगे
जानती
मानवता
ईसाई
दीं
चोरों
चेतना
मूवी
हिंदुओं
सवा
##able
##णाल
प्रॉप
घन
सातवें
जोग
शिवपाल
कारगर
पित
फूलों
कचरा
बृ
चलाते
अपनाने
महिंद्रा
##बूझ
पत्रों
धक्का
सीमेंट
मालिकों
पराम
फ्रेंच
पहलुओं
##्की
प्रथा
ताना
निजात
बीपी
मधुर
फडणवीस
खट्टर
महीना
हज़ार
मंे
विलियम
you
रिलेशन
निका
हार्ड
इंडोनेशिया
##rticle
थर
##क्ष्म
##ge
फतेह
##ोही
##ँकि
एलईडी
सव
सिंगल
पासवान
##ग्स
##प्रधान
##ुकता
बाजी
घाटे
पदो
चंद्रशेखर
चंद्रमा
बिछ
अजित
टोक
नोक
Th
##हमी
अख्तर
गहराई
महंगी
##ण्डल
गाव
शाही
##नाने
तैनाती
कन्ह
लटका
तकलीफ
##ष्ठी
बुम
कूट
फैक्ट्री
विश्वसनीय
मारुति
इको
पटिया
दिलचस्पी
टकरा
अनुभवी
मेगापिक्सल
रोजी
##ुल्लाह
शैल
भिव
बनारस
सद्
##िख
गोपनीय
##ड्स
आवंटित
कवाय
नोटिफिकेशन
##ood
##वारे
##िशियल
विंडोज
वीं
अग्रिम
लड़का
##आईपी
जुटाने
रोडवेज
वाटर
##ोत
पंजीकृत
समृद्ध
एंड्रॉयड
वायदा
नौसेना
##ईल
वास्तु
इतर
##क्षिक
समू
न्यूयॉर्क
सेवानिवृत्त
सुधारने
कर्तव्य
निर्मला
हमलावर
परिवर्त
लियो
कारवाई
##वाहिक
ओपी
सुरक्षाबलों
एक्टिंग
##ूबी
अनदेखी
आंसू
उपमंडल
125
##मेडी
मेजर
चश्म
##्यार
##ments
एमसी
ड्राइव
##पादन
##जीसी
##ोच
इनको
##हद
उपर
##कांक्षा
##ड़िया
२०१
सुमन
टैंक
मोहित
केन
मीरा
गों
ताक
ऑप्शन
शम
##कंप
##लेक्स
कंड
ओबीसी
दुरु
निकासी
कैफ
म्यूजिक
उपहार
##भाई
गिरकर
तब्दी
##ash
चौराह
शॉर्ट
उमेद
फोकस
गुरुद्वार
उज्जैन
स्टूडेंट
ओवरों
दमदार
##ामुळे
बसे
##ric
फिस
संवेदना
फ्रेंड
सबकुछ
पुराण
बंसल
उपज
द्विप
##ोरेंस
आमदनी
##िस्तान
##लीन
सीडी
आगा
लेफ्ट
सुनाया
इंडेक्स
##िटर
##पर्यंत
साधु
कागज
मुम्बई
आईआईटी
मिज
कांस्टेबल
बुलेट
रजिस्टर
आदी
सख्ती
वस्त्र
बचाओ
##ER
सज्
##शीट
पागल
पाली
समित
शीर्षक
टमा
बीए
हजारे
शेट्टी
रव
##िमी
##ंधर
महाभारत
सईद
तौ
बीबीसी
फेस्टिव
केल्या
up
ख़ु
हिला
आईसी
अलगाव
छापा
सौरभ
श्रद्धालु
दुःख
रेस्ट
##शय
पड़ोस
रसाय
टॉस
चुप्पी
गिफ्ट
चलना
बर्तन
हानि
चूस
मुल
लाहौर
##मस
टमाटर
##ँस
##ong
सैलरी
चलिए
बदली
बेसिक
घबरा
सम्बंधित
गुफा
##cri
इलेक्ट्रॉनिक
तेरे
कन्न
##नपुर
आगमन
वेट
जानवर
##ld
जूते
हलचल
बंदूक
बॉय
शिंदे
न्यूज़
विकेटकीपर
कवायद
वकीलों
राइट
दंप
##गना
##30
##पाट
साम्राज्य
मौलाना
ब्राजील
ka
संतृ
सेलि
ईयर
शुगर
पेस्ट
नस
मुरली
क्लीन
लुध
सेबी
##थित
महबू
कोटी
परामर्श
विक्रे
प्रिया
बनवा
व्ह
प्रॉपर्टी
बुमराह
नकद
हज़
किले
देवर
##ान्यास
##पंथ
##प्ट
दामों
ब्रिज
गोविंद
बिस्तर
काे
चहल
##व्हा
सौभाग्य
ऊपरी
नीम
##मेन
##स्त्रों
भूपेंद्र
विजयी
द्विपक्षीय
छोड़कर
अग्न
##किया
##ामाबाद
##ach
वैल
प्रवृत्ति
सीआई
डायल
कलेक्शन
निर्भ
##वाडी
इकाइयों
सुक
संल
##ोर्टर
##पतियों
##भु
बयानों
शेतकर्
##ण्याचा
##सीबी
चारा
सुधीर
पकड़ने
सत्तारू
प्रदर्शनी
डायरेक्ट
##माया
कंस
बुलाई
##विन्द
फैमिली
बनेगी
शिलान्यास
आरक्षित
इलेवन
छठे
दुआ
सौंदर्य
आक्रामक
मूड
##लिस्ट
दिखी
अन्तर
चुनौतियों
##ma
पौधों
स्टडी
##ंबल
जितेंद्र
##ib
##ानंद
समुद्री
मन्दिर
##ारक
बैंड
बागी
रोज़
फिज
पहुंचते
पाठकों
मुसीबत
Cam
उपरो
##बर्ट
महासंघ
इक्विटी
पीडि़त
सलाम
किन्न
##ओसी
संबोधन
बगल
##दिष्ट
##राशि
आश्व
चलकर
पचास
हू
अनूप
डालर
कन्हैया
मिर्जा
पण
##सेवी
लिव
विवि
##पर्स
ऊँ
सम्बोधित
कर्ण
आज़ा
सबकी
##कोश
कॉमेडी
परिस्थिति
दहशत
बहिष्कार
192
कण
##साइज
लोकपाल
अनुशासन
पाठशाला
पार्टियां
हेमंत
लेनदेन
##मौर
To
छानबीन
##धना
साइन
ट्रेंड
##ब्बल
काढ
दिले
नशा
कड़
जुड़ी
प्रच
.”
फर्स्ट
दुकानदारों
##ूँगा
यथ
प्रतीत
तिलक
भागा
मार्केटिंग
डालते
मुख्यातिथि
सूक्ष्म
जेम
प्राचार्य
ग्रैंड
मर्
##र्ध्य
आक्रमण
##ैनी
अन्तर्गत
सिगरेट
नक्षत्र
क्री
उपरोक्त
कटा
हेलीक
##ष्टमी
##्यांना
हता
बढ़े
अंबेडकर
##्यांनी
टि
इजरा
अनियमित
सस्प
बेकार
बन्द
##udio
##AT
आभूषण
##ासना
महापौर
टुडे
प्रसारित
अन्याय
हाश
##िविटी
मुस्लिमों
##गान
##low
काफ़ी
अतीत
मसी
आएंगी
अमेठी
##गिरी
##ेशनों
करवाए
इराक
एंज
वीक
लेगी
गूं
तथ्यों
##यास
RGB
तुमने
डीजीपी
##india
अभिभावकों
नमू
पिक
कंटे
तंज
फौज
जातक
प्रवर्तन
##िवेश
##िपुर
रंगों
##नाइटेड
निर्धारण
HSL
मददगार
टीका
फैन्स
नींबू
हालाँकि
##प्रतिनि
##ise
##मुख्य
मिठाई
सटीक
जैक
##ube
2001
##जेशन
होणार
व्यायाम
किताबें
##रूप
राजनेता
##्रेम
झूठे
स्वदेश
पहुँचा
चालकों
ईस्ट
##र्ति
आण
nm
हल्कापन
नाट
चौंकाने
फ़िल
संयोग
नाच
थम
सोनीपत
असुर
ज़रूरी
##ोब
गहन
##लाद
दिखाए
Tim
संतृप्ति
कांट
बजकर
फुटेज
दैर्ध्य
महासभा
छी
थोक
##rom
इस्तीफे
##तिन
##क्षकों
तब्दील
##ड़ियां
हैक्सा
मुहर
sh
येत
गर्दन
अनी
##ांव
##ार्स
दादी
त्रिपुरा
अरुणा
मोन
##खास्त
कलम
An
अतुल
उमा
सतह
तालिबान
Android
चलो
Previ
सदैव
कठिना
##qu
मतदार
##डेसी
समानता
चिट्ठी
मोटे
महंगे
आश्र
समलै
राउ
निरस्त
महेन्द्र
##ंकि
मागणी
##ूला
गीतों
काफ
गिरि
##ौफ
ऑफ़
रिक्
कामगार
उदार
मुरा
नाई
समन्वय
धड़
प्रां
फिक्स
महाजन
रैना
##पेपर
लुधियाना
प्रभावशाली
##डेसीमल
##ase
क्योकि
--
हैक्साडेसीमल
##hats
शिकायतें
##11
##श्योरेंस
फ्लोर
डेंगू
सिरसा
मिनी
सब्जियों
##एनएल
पूर्वोत्तर
##गाम
##तावास
रिंग
कोचिंग
कोविंद
नवरा
.......
सील
खुर
बचाया
##िलाई
अपनाया
जरूरतों
##ष्मान
##ND
जंगलों
##ढ़े
असं
सोया
प्रचलित
प्रवासी
##शहर
बीवी
बर्दाश्त
सुरु
कहानियों
निवारण
प्वाइंट
वैकल्प
रिपोर्टर
कारख
वाशिंगटन
बँ
शैक्षिक
सर्वि
##ET
।[
निर्देशों
कौशिक
वैकल्पिक
##ोत्तम
।।
आईपीएस
सार्थक
मतों
नॉन
Ka
प्लेस
वीरभद्र
##ाइजी
##णात
सुप्रीमो
नौकरियों
##mp
राख
व्यास
इस्लामाबाद
संन्यास
##फेक्ट
##फाई
बेड
प्रतिभाग
भ्रमण
सुनीता
ध्रु
नू
मुकदमे
आयुष्मान
ओवै
पदोन्न
कॉफी
दुरुपयोग
पोष
##ट्टा
अंकुश
##कार्प
बनेंगे
प्रोफेशन
रहमान
शिकायतों
व्यंग
##ंगाबाद
शासित
तहरीर
सामुदायिक
##ाजनक
एलान
##——
भगा
सभाग
विशेषकर
दूतावास
स्टूडियो
छप
प्रतिद्वंद
जापानी
बाली
पारा
पढ़ने
स्नै
Des
गड्ढ
डिस्क
सिक्योरिटी
आइडिया
घातक
##िफिकेट
उलझ
##ebs
कतार
ऑस्ट्रेलियाई
##नाई
म्हणून
बिंदु
##ंगली
एक्सपर्ट
##दीन
सोचना
##्क्ष
लोका
रहाणे
##्ग
शॉपिंग
Qu
बसा
प्रशंस
उसमे
अर्जी
मनरेगा
आएं
ट्रिब
भट
बदनाम
##ंधरा
जावेद
अर्धशतक
##बोट
जजों
गव
##ूंगी
निवडणु
उबर
चलन
गांड
लकड़ी
दुकानें
बैच
बाहुबली
शाल
अर्जित
##गीर
रेग
मुहम्मद
पद्धति
खड़ी
##लभ
एस्टेट
नास
विंग
झड़
कराते
संजी
संभावनाएं
पहाड़
होंठ
उपमुख्य
##थान
तालमेल
फ्लिप
फीड
कंधे
कत
नूर
रवैया
शहीदों
शू
ओवैसी
अनू
1999
उठी
मृतकों
##निर
मस्त
##िगेड
##मेंस
रिटेल
तरक्की
यमन
मातृ
दिखाकर
एनर्जी
ड्रा
##na
पक्का
##शुदा
मराठा
पाबंदी
प्रोडक्शन
ईमानदार
पार्थ
##्ये
भागों
##चौ
त्यांना
नफर
##ount
जलाने
नाले
म्हणाले
##जेक्ट
पड़ेगी
ऑफ़
मच्छ
##्वती
कसा
बर्खास्त
सिंगर
जहरी
केशव
दलाल
रविंद्र
##सुन
ऑपरेट
पत्ते
स्वार्थ
##ंगत
महावीर
सर्टिफिकेट
गार्डन
स्मारक
##स्तरीय
पूर्ति
##अंदाज
हुयी
डाॅ
ट्राई
जींद
##्यूम
अखा
यम
उठने
बसें
##विधि
अपराधों
गर्लफ्रेंड
##ौला
स्टेज
भिवानी
माननीय
##कार्ट
इंडस्ट्रीज
रियो
रोमांचक
नकार
देखेंगे
विक्र
##ल्डर
##विद
##िस्ती
चोद
पोट
उतारने
निष्कर्ष
##काउ
उन्नाव
शर्तों
दौड़
##िन्यू
क्रांतिक
आक
जख्मी
##ैग
नगरपालिका
मजेदार
वैदिक
पार्वती
चंदन
क्षतिग्रस्त
डिमांड
मसलन
##दयाल
शिल्पा
दूंगा
धीर
##सवाल
ताब
गिराया
म्यां
किडनी
घड़ी
आइये
पटियाला
##टकी
उत्पादक
उपायों
विद्रोह
सैयद
वक़
आंदोल
##निवास
Previous
##आन
शासक
Pl
समझाने
स्वत
असल्याने
फाल
तेरी
स्टेशनों
##ामे
द्विवेदी
##ech
क्रीम
ट्रायल
मार्क्स
बची
चलाए
शर्ट
कुप
##गिल
##रेस्ट
##रज
दवाइ
hai
लम्बी
##act
##app
कपड़ा
Sp
कॉमन
उठाई
##====
ब्रिगेड
##dit
चिर
sc
नफरत
केदारनाथ
दवाई
काज
ब्रॉड
स्पा
रिमांड
##ire
क्रोध
##मेंद्र
बढ़ोतरी
##लेन
##ake
तरुण
विश्वविद्यालयों
आंब
##माव
##िंग्स
गम
निर्व
##जनी
विवेकान
धनराशि
रिश्तेदारों
षड
##डे़
सपनों
स्टैंडर्ड
##धियों
##च्छा
परीक्ष
सूट
सड़कों
देण्यात
मुश्किलें
You
##कायदा
##dic
##धारणा
##मुक्त
.)
##जेक्शन
##टरीना
टैक्सी
समग्र
समिती
मित्त
मंशा
##ॉइड
हेल्प
किताबों
##pur
भांति
विश्वकप
तोमर
मनाली
वां
आदर
ख़ुद
त्वर
आईएसआई
##दायी
##ोरा
लिखना
पड़ताल
अभ्यर्थी
##त्तों
चुक
##्यर
करवाना
कैटरीना
डिपार्टमेंट
खातिर
रामलीला
रिहाई
प्रेशर
कहानियां
##ुप्त
आरटीआई
##दर्शिता
##लीस
##माला
प्रोड्यू
फलों
वाणी
पिल
कुश्ती
एल्
अभियुक्त
टकराव
सेवक
साध्वी
एकादशी
प्रबल
##लीम
प्रीति
स्वयंसेवक
##ॉरिटी
Next
पेरिस
गर्मियों
खिलाड़ियों
##मारियों
तारा
इराक़
यी
अधू
पों
चार्ट
उदा
##ाईल
##ारोप
ट्रिब्यून
कहर
बंदी
रणनीतिक
स्ट्रीट
कम्युनिस्ट
कांफ्रेंस
किसे
इन्द्र
नकल
धै
मौर्य
रुका
लां
निर्णायक
##देही
Aug
IPL
समावेश
मित्तल
त्वरित
राघ
पलायन
ब्रो
म्यांमार
दस्त
सृष्टि
दरम्यान
महक
दंगों
##स्पर
गुणों
भव
पंचायती
डॉन
ऑक्सी
उपमुख्यमंत्री
हेलीकॉप्टर
लैब
##्ज
शब्दकोश
##क्ती
##ंडन
अपन
थोड़े
##स्थापित
May
मैक
##ave
वध
विरू
##वासीय
प्रसंग
सहार
##कडून
टूटने
##सेव
त्रिव
कोल्हा
घटने
डिलीवरी
कुशवाहा
##ala
लगीं
पेन
रस्त
##घन
यशवंत
##महल
ग्रेजुए
एमडी
##IC
##ान्त
फेस्टिवल
##िडेंट
फास्ट
##णन
परिश
सहकार
##एसी
नीरव
अधिकृत
जूस
सीने
संक्र
##ॉफ
गोला
इंग्लिश
मुजफ्फरनगर
ज़मीन
नेगी
##लोग
गोदाम
##ड़की
अवधारणा
##त्रिक
##लेशन
दुरुस्त
किसने
बजाज
##ट्टे
रहेंगी
स्का
1998
se
तीर
Cl
स्वप्
रुझान
##बेल
##िनल
##करा
##यिक
दत्ता
##वाकर
झंडा
##बीटी
लेटेस्ट
शेखर
शर्मनाक
##शैली
##AN
जुलूस
ग्ला
##ance
डेली
मोटर्स
बंधक
आमने
थाई
##ुराम
डाक्टरों
ब्रज
कबड्डी
कैदियों
लालच
लुट
सुध
फाइबर
144
टाई
##मीत
शीला
मौलिक
pl
##आईसी
आफिस
क्रे
बस्तर
आपत्तिजनक
##सोस
##लेवा
##SS
धैर्य
जनप्रतिनि
प्रज्ञा
रामनाथ
पराजित
किराये
फुटबाल
भां
यथा
आर्टिकल
हीरा
इसरो
अशा
पाटिल
ज़रूर
मनाई
रोमांट
##िकन
रवींद्र
बाध्य
प्रिंसिपल
लेखा
असंत
##टु
कीर्ति
परेड
ठहर
Ap
लगाम
बोस
कविताओं
##एचओ
सता
मर्या
##ुए
पलवल
इस्पात
वग
कमलेश
इंश्योरेंस
निः
माँग
कर्नल
ठप
उपक्रम
बंगला
नाना
अमरनाथ
##त्वा
घेरे
##oin
वॉलपेपर
सोह
येणार
##घरों
डिप्लो
चेन
##शियम
पुजारी
पक्षी
बदलकर
##याव
आवासीय
युगल
##धारकों
रेज
पुख्ता
खरे
दिखती
प्रावधानों
जानबूझ
लहसुन
जानकारियां
##रर
रोमांटिक
आनन्द
साड़ी
पायदान
निकलते
हेयर
सानिया
देशी
नक्
1990
धाराओं
टुकड़े
##askar
##दिया
स्कूटर
एजेंसियां
गुजरा
pr
आदेशों
गड़बड़ी
गुन
विश्राम
स्कॉ
फ़ोन
##ेक्षित
सहयोगियों
मोहाली
१०
मीणा
##दूर
अक्षर
##कक्ष
प्राइमरी
##्यावर
पेटी
##र्वेदी
##ायन
महत्वा
प्रेमिका
बॉन्ड
डायब
स्पॉट
चुनने
सावन
##िंद्र
मुक़
##जेडी
समाप्ति
कपड़े
व्यापारिक
##ंजलि
article
##IT
ओला
असलेल्या
Hind
सुमार
वैन
##ज्जत
##शीद
नेताजी
कपड़ों
मुजफ्फरपुर
वास्तविकता
ख़ास
परमा
con
चीख
पाण्डेय
क्रियान्वयन
रवै
##जोत
आचरण
विविधता
Off
स्पेक्ट
नाश्
##निज
##दित्य
एडमिशन
मौन
अंतरिम
वॉट
##कीत
ड्रोन
प्या
लख
##पती
राजग
भावुक
दुप
वक़
##जद
शांतिपूर्ण
##99
उपलब्धता
चतुर्वेदी
##र्पण
आगाज
##होत्रा
मुल्क
कैंपस
रचनात्मक
बढऩे
##लल
लहरा
रैल
सर्जिकल
टाउन
चैट
भयान
##पुरम
समझे
नल
पेड
सरसों
खेम
ध्वनि
फोरम
वाड
सच्चा
राध
##oft
सकल
cl
##थियों
प्रभार
अंधेरे
राष्ट्रमंडल
##मुच
डिस
कैरियर
भिड़
विद्वान
रामायण
बुराई
मेष
मिथुन
अंगू
जेम्स
इरफान
मानकर
द्रवि
पीप
बजरंग
व्याप्त
परिणामों
फ्लिपकार्ट
सम्मिल
डीए
पांड्या
लाभकारी
धूमधाम
##ोहित
##्वित
बापू
बताकर
तलब
##__
क्वालिटी
खिलाडिय़ों
##रेख
थक
##ऊं
काटकर
सेठ
सड
##ैं
ट्रोल
##dian
हिमालय
हाजिर
##घ्न
Post
मॉल
##ारिया
##ebook
कानूनों
चुरा
गेस्ट
ऊंचे
वक़्त
रविशंकर
परत
उत्ते
##यराम
##हात
##र्षि
वेरिएंट
गन्ना
##ंगर
##ड़िया
##्वरी
110
यार
धूमल
भयानक
बताएं
बरी
##लें
जर्मन
बघेल
एनजीओ
झंडी
दावेदार
बृज
##io
बांस
सूख
विपणन
चलेगी
रोगियों
बढ़ेगी
.’’
वहीँ
##काउंटर
संजू
##ब्रे
मजबूरी
##atest
खुलने
नसल
उपनि
विनाश
##वोकेट
गाड़ियों
सर्वस
##फ़ी
गोग
जिंद
बिमारियों
गुजार
डीलर
शिकस्त
Record
स्त्र
एमएल
##ौजी
टेंडर
##फ़ा
##ंटा
विश्लेषकों
वसुंधरा
##्ढr
##कथित
विमानन
हैंडल
##acebook
स्वाम
संगम
बलिदान
दयाल
##लाइंस
गरि
विदाई
समीकरण
अछ
आईएम
भरपाई
......
वन्य
प्लेटफार्म
your
चाहेंगे
##काव
निर्भया
कृति
मेहर
##ब्ब
सीबीएसई
##वरील
इमेज
रेफर
सचमुच
##ebsite
सहारनपुर
केके
विगत
रुके
##ओवर
बांटने
##ीकृत
मतगणना
प्रोसे
##मेह
##फेयर
इसपर
##ink
आमदार
मानकों
पीना
बचना
साधते
सत्तारूढ़
##प्पू
मानती
¤¾
##शियल
त्यागी
वान
वेश
जर्नल
##60
तथाकथित
##ऐप
बिगा
कार्ट
##ock
असताना
##िकेश
उम्मीदें
##हिया
महम
##बन्ध
श्रमिकों
लोकार्प
कोस
कोषा
अवश
##ौड़
कोलि
गतिविधि
महबूबा
350
##लाने
पथराव
ठगी
अल्पसंख्यकों
सुलझाने
पीयूष
##चेत
बाबरी
##ical
##ण्याचे
शिक्षित
जमीनी
लिट
##िन्दगी
नींव
अपडेटेड
साहेब
उनपर
बढ़ेगा
नमाज
ऑपरेटर
चौराहे
प्रगतिशील
कदर
पोषक
बाढ़
चाली
चलें
##शंस
##परि
सिल्वर
##िनेशन
900
बचें
समझता
वक़्त
जानलेवा
कीं
जयराम
##ंदों
जिनको
प्रयाग
##ांचा
सोलर
कैम्प
रियर
kar
मुस्त
अकसर
नॉर्थ
एशियन
##्लीकेशन
##ॉक्स
डिव
हंसी
कास्ट
पायी
शीतल
प्रभात
छावनी
लीजिये
दिव्यांग
सर्दियों
खण्ड
प्रशिक्षित
केबल
समझाया
##तरफा
ठेका
##जीर
हावी
एनकाउंटर
विनिर्माण
सितारे
मणिपुर
दस्तक
गेल्या
##दिवसीय
चमत्कार
कपास
##ड्डू
##indow
महंत
सम्पर्क
Jan
##िर्
सुहा
हिंदुत्व
##काउंट
आल्या
##12
ज्वा
दिनभर
##--------
परिदृ
केयर
##ल्फ
एडवोकेट
130
कास
हरभ
आभ
पीएन
ज्या
चिंतन
जालंधर
बोध
राजदूत
999
कहेंगे
मज़
##ित्री
अर्थात्
निभाया
लेखकों
उजाला
आहत
मशीनों
खज
लगेगी
सम्मिलित
##्लिकेशन
यूज
##ंझ
CA
प्रोफाइल
शिवलिंग
स्पेक्ट्रम
आश्वस्त
##ैड
आओ
मिक्स
घटी
एसआईटी
परिभाषा
जं
डॉक्ट
##गर्
ट्रेडिंग
अफ्रीकी
अस्थायी
बॉर्डर
मल्होत्रा
विराम
अनुपम
विरोधियों
Download
घास
##गोपाल
##जीन
नैन
टॉय
##दत्त
##IM
##tern
विकल्पों
##ॉज
सितारों
##द्धा
##द्घि
करिश
मुन्ना
उपवास
तिरंगा
सूखा
हैक
घेऊन
डिफेंस
मामा
एकदिवसीय
मोती
उन्नत
at
सीएन
बीएसपी
सिग्
मुख्यमंत्र
खरीदे
शुक्रिया
मुहूर्त
190
एडमिट
डीआर
##िसोड
सर्विसेज
इरादा
बेदी
गुमराह
परवाह
खाया
ग्रोथ
##ूज
##वीपी
कैदी
##क्टी
एसएमएस
ब्लास्ट
##कोष
##वृत्ति
प्रवास
ऊंचा
जानकारों
##विधा
योगेश
अब्ब
आंधी
##दगी
प्रैक्ट
##बाड़ी
वर्जन
##िंदा
टायर
घटाने
त्रास
रोहिंग
sp
पुकार
अवध
प्रधानाचार्य
रैंक
us
मुफ्
प्रतीक्षा
##व्यापी
बंटवारे
डाइ
##क़े
भाटिया
संभाला
गाया
प्रतिभागियों
मुकाम
##ोसिस
कत्
लोकार्पण
ख़ास
ईंट
128
सशस्त्र
खदान
निवेदन
इलाका
##रजेंसी
पाच
##वंशी
विधवा
जीरो
काबिल
कोमल
रिए
##ame
##हारिक
##ईस
1500
परंपरागत
बताये
##रां
सवर्ण
ढी
##क्य
एक्टिव
सेटिंग
अय्यर
रोज़
जैविक
आरम्भ
उठकर
https
गिरे
गुलाबी
उपलब्धियों
बच्चियों
आसन
सुसाइड
सीतारमण
नालागढ़
लश्
##कानेर
औस
यूनाइटेड
निर्दोष
सच्चे
हं
शक्तियों
भरकर
##िमय
ज्वाइन
ख़बरें
अदरक
झगड़ा
##वाड़ा
रचा
पोर्न
##नरी
जीवा
निश्चय
कैपिटल
##खला
जया
बीएसएफ
##mail
योगा
यद्य
दांत
अलीगढ़
जीना
प्राथमिकी
टच
एपिसोड
कोलिन्स
पीएस
आईफोन
##साथी
डोर
##्यूमर
उक
साख
One
ऋतु
होस्ट
संभावनाओं
##यंकर
##सराय
प्रयोगशाला
दाह
यद्यपि
##किम
नेत्र
हरभजन
##ध्द
सदियों
Res
##ication
दीर्घ
रसायन
##ोवा
##ुतोष
धर्मेंद्र
शुमार
ग्यार
दुसरे
रंज
उपप्रधान
देवगन
##टेनमेंट
घुटने
##स्टन
भगवा
नवभारत
डिस्काउंट
कारक
लाभदायक
वर्षो
उत्तरप्रदेश
प्रदेशों
फैली
व्यंग्य
अब्बास
नैशनल
कार्यालयों
परमात्मा
माज
##फोड़
महाप्र
##ainik
निर्वाचित
##per
लोहे
तबी
##ैशी
बताओ
नाख
##anc
बीकानेर
राब
स्थितियों
चढ़कर
180
कद
Bhaskar
छूने
हानिक
कूल
CM
रोहिंग्या
समलैंगिक
गवर्न
##aw
पीड़ा
जीवनसाथी
रिक्शा
##खलन
रोबोट
##erv
साकार
……
##ali
प्रतिबद्धता
कलाम
Phot
जुड़
##ार्द
##मिया
एमए
##नें
विज्ञप्ति
सवारी
पड़ते
एफडी
उपग्रह
पासवर्ड
खुलासे
सुखद
नवजात
होट
सुरेन्द्र
##गढ
देसाई
कृष
समेट
##म्बे
भड़
पहनकर
दंगल
बुलाकर
परिदृश्य
सूजन
झुक
मुनाफे
##साइटी
##नीर
आशुतोष
##ांचे
##पिता
##ांशु
फटकार
कोठ
टैब
पैटर्न
औसतन
उपयोगकर्ता
चिह्न
नवरात्र
##ace
आति
अजहर
क़ानून
व्हाट्सएप
Comp
Hai
दीवाली
##ैलरी
##दानी
भत्ता
रोट
पढ़ा
Jul
मंथन
प्रश्नों
भयंकर
ट्रिन्यू
पाचन
सोसाइटी
गन्ने
असाम
डाइट
##्राट
क्रूर
मर्द
ख्वा
आवाज़
##te
बारात
मसाला
आसाराम
गरिमा
आरके
रेख
पारदर्शिता
दाऊ
##ेला
बान
ठिकानों
विद्व
राठौर
इश्
उपेक्षा
मक्
जुड़ा
समीर
पोलिसांनी
श्रीकांत
एंबुलेंस
कोशिशों
जोड़कर
तालुक्या
##नोई
तात्
कराकर
जनक
नजदीकी
दावों
##ere
##कालत
जायें
पका
Un
चव्हा
##फिट
##पेश
एक्सर
##ांकित
##40
मधुमेह
लटक
सेरे
विधा
हिन्दुओं
अंडे
गुरूवार
अविश्वास
##सेंजर
कतई
##ोक्रेट
वर्च
समाय
सक्सेना
राशिद
मुक्के
मानद
For
##छित
तबीयत
स्त्रियों
पीले
##हाली
comp
##थाम
Mo
MP
स्नेह
डां
##ज़न
##वर्ग
प्रणब
रत्
##ल्ज
प्रशंसकों
झंडे
बंबई
अरुणाचल
झालेल्या
पीटीआई
वोडा
##ener
सच्ची
इल
मुफ्ती
बोलना
विनिमय
ब्लॉ
टेक्स
पुरा
वकालत
##कुशी
संशय
झुल
पीड़ितों
##गमन
##िखित
##मास
##ल्हे
##हरों
हानिकारक
विरूद्ध
साप्ताह
पप्पू
क्रिसमस
नुस्
,’
संरक्षक
साहित्यिक
तेरा
बख्
##निष्ठ
##कांक्षी
ख़ान
##ोला
Dainik
प्रोसेसर
संग्राम
माई
बखूबी
प्लानिंग
रिलेशनशिप
टिका
यूथ
##नाइ
पड़ती
मार्ट
##orn
माइकल
परिवर्तित
घोर
दर्शाता
##ष्यों
पशुप
विराज
##क्कड़
मुन
##टॉप
ज़िम्म
सीखा
खाकर
एसएस
यादगार
##ऊँ
प्रहार
##स्फी
ग्रेटर
साफ़
छोर
बढ़कर
आपातकाल
##गार्ड
##बाही
अहि
निहित
केक
##वंश
##कुमारी
5000
मूंग
##वाए
अध्यादेश
समर
##पों
##धक
चुकाने
मोहल्ले
स्टेप
होल
सेक्शन
पटक
बेबी
दबाने
##लता
संगी
चार्
1996
Jun
रुग्
लड़ने
चौकीदार
डकै
##ustan
वरदान
ग्यारह
ज़ोर
दिलों
नवरात्रि
SC
जिम्मा
##जि
ऐक्ट
##उड
तान
टार
’।
सरोज
महाराजा
अराज
मैर
जेडीयू
स्थिरता
साप्ताहिक
डिपो
तोहफा
##कमान
##स्तों
मिलन
कथन
तबाह
##हम
रवैये
नौकरियां
विवेकानंद
##lish
उबाल
जेई
नाहन
झांसी
##ओल
साहित्यकार
क्रमांक
स्थानांतरित
मर्यादा
##ोज़
वामपंथी
सोचता
बनायी
ऋषभ
Shi
##ोगा
औरतों
सटे
छल
रजनीकांत
चव्हाण
पिछड़े
##ायर्ड
नजरअंदाज
कमला
1984
पीड़िता
संगठित
वाणिज्यिक
Con
ब्यूटी
देखिये
##्यव
क्ले
सर्किट
वर्दी
##षे
नाश
बोनस
##निरपेक्ष
##नामे
ट्रांसपोर्ट
डिप्लोमा
दमन
गम्
श्रमिक
गयीं
सम्बन्धित
वापिस
मिर
this
मिनिस्ट
जैश
हॉस्टल
ऋतिक
कार्बन
पाटी
इमरजेंसी
संग्रहालय
देखती
सीमाओं
वर्चस्व
##ोरेंट
बिठा
##ईटी
Screen
ध्वस्त
रग
Whats
मिस्र
##ढी
पूल
तबादला
लश्कर
विवश
बाज़ार
दसवीं
नबी
कसर
सरे
संयम
लोहा
##्युन
स्थाई
##eal
निकलता
##मह
मोठ
बुजुर्गों
अमी
देशमुख
थीम
##स्थी
Am
प्रतिपक्ष
उंगली
पार्षदों
##ual
उतने
##ेने
धर्मनिरपेक्ष
##ौनी
नीलम
कों
एप्लीकेशन
Cont
डब
अथॉरिटी
सतर्कता
श्वे
रोने
एनटी
चावला
घृ
रोकथाम
उम्मीदों
कब्र
इकबाल
##िरे
कुक
##uk
##त्स
कर्क
स्टीव
en
आंबेडकर
गतिविधियां
न्यायपालिका
विस्फोटक
इंसाफ
बढ़ते
दिखाना
गिलास
वाड्रा
तोड़ा
समर्पण
##ction
आपल्या
क्रॉस
क्रांतिकारी
पाट
शवों
मार्जिन
खोजने
मज़ा
बेंगलुरू
सुचार
तुला
दाखिला
रेणु
कीजिये
उगा
मैट
हड्ड
पीरिय
दशहरा
ग्रस्त
ब्लै
पदोन्नति
अड्डा
लगेंगे
चंदा
##ंे
##किर
तपास
ग्रहों
टीन
##ापे
गणमान्य
छत्र
##ट्
यथार्थ
तबाही
बदलना
शिष्य
##वर्गीय
धरो
##जीवी
बढ़ाई
##िसा
Hindustan
देखरेख
##कांना
आंटी
##AP
शाहज
लोकेशन
Ar
##हु
बंदरगाह
हलके
एप्पल
चित्त
रीति
वारंट
वोडाफोन
मोहल्ला
मुबार
धनु
New
प्रमाणपत्र
ठिकाणी
मुगल
समुदायों
प्रोसेस
उप्र
जीप
छिड़
इन्वेस्ट
आंत
तरफ़
##शीलता
दुर्लभ
रहित
Ke
जिम्मे
वैद्य
कुरैशी
रासाय
##रीज़
सम्राट
##धील
अल्ट
लीडर
आलेख
ब्राउ
मोम
सुग
इरादे
आपूर्
##वादा
स्टेन
कच्चा
नैनी
##र्ता
अबतक
क्वाली
##ens
फीफा
खौफ
क्षमा
स्वप्न
श्वेता
##तोड़
ख़त्म
कुचल
संतुलित
पिताजी
मूलभूत
पाएगी
किग्रा
स्टे
ki
##बरू
##वेन
खिस
##लाइड
##जली
##ोदिया
भेजकर
एकीकृत
ट्रा
सिरमौर
शिया
बेचा
##स्ट्रक्चर
छक्का
##बुल
घुसकर
जाव
एनआईए
नशी
जिया
आरजेडी
पूज
मैग
सावंत
अरूण
आजतक
बनवाने
भुला
##वटी
भंस
##ुरप्पा
कॉरपोरेट
पॉवर
अध्याय
होशियार
सोड
##बस
##न्हे
हटाए
##म्बा
खरीदना
##वरून
आयाम
##मीड
##विचार
##मुखी
##थरूम
मरे
असमर्थ
##ध्यापक
##नाह
केन्द्रों
विर
IS
निम्नल
बढ़ावा
फोटोग्राफी
मसला
रोमांस
##एनए
त्यानंतर
NE
खिलौ
इंचार्ज
##CC
दर्दनाक
असंभव
##IN
एंड्रॉइड
स्वाभ
मर्डर
##िं
द्रविड़
चाहा
वृद्घि
पुजारा
थकान
मूर्ख
पालक
सतपाल
कपल
लंबाई
##ाजीपुर
इंडियंस
##जीबी
एम्ब
स्क्
हड़ताल
जुन
फेडरेशन
रक्तदान
##सिया
चलाना
डेवलपमेंट
##24
गम्भीर
पीटर
भंसाली
पिछड़ा
कारखाने
सफलतापूर्वक
##फोर्स
चढ़ाव
डायबिटीज
ङ्क्ष
ईंटर
##्मीकि
##न्ही
दिक्कतों
बरतने
सत्ताधारी
परिसंप
बादाम
तत्वा
गोगोई
परिपक्व
पीपी
##चुर
जवाहरलाल
छापे
इज्जत
बाथरूम
काउंटर
बाउ
ईंटरनल
महिन
एमएम
##ane
स्मरण
सुलझा
##स्फीति
जबरदस्ती
बर्थडे
निकलकर
##क्कत
लिफ्ट
##eat
औषधि
जातीय
फ़ाइल
रोकना
प्रकोष्ठ
निम्नलिखित
गुरुद्वारा
मकानों
दिश
पैरा
देशभक्ति
##ork
आपूर्तिक
परिणामस्वरूप
दुष्य
E0
##िंगर
मुस्कुरा
गूंज
सभागार
अनल
पठानकोट
।...
हिना
##चुरी
रासायनिक
भैंस
उत्तराखण्ड
##ta
##रेखा
राष्ट्रवाद
वरीयता
हिद
बताएंगे
##ंजाइ
##लराम
हमलावरों
गायत्री
मल्ल
##ोनी
ऑफिशियल
बीएच
स्पर्श
चार्जशीट
##स्टाइल
सफ़
वैष्ण
##15
Tr
एन्
##िताओं
post
उन्नति
##ण्डा
दिवंगत
जोगी
कदमों
ह्यू
##ुस
Oct
गान
श्व
आराधना
पौराण
अशु
अबू
यूए
निवासियों
##ष्ट्रपति
##पूर्ति
it
बीएसएनएल
##आईएम
मुं
एएसआई
##एब
##जाही
राजनेताओं
एजेंडा
##्ञा
##ऊस
बाएं
##जेट
##भीत
AP
रिटायर्ड
प्राणी
##ेक्शन
##ंपर
##योग्य
##िनेंट
##ौरन
बेहोश
नरस
झूठी
##वाड
घटाकर
उल्टा
##19
##adesh
सुधर
##घाती
##शिव
हांग
माली
अंप
##rou
हस्तियों
निमंत्र
चुपचाप
##और
आईबी
as
अख़
काटे
बीर
जंगली
अमरि
हर्
उपासना
are
मेम
महर्षि
समझकर
कोलंब
वृष
##आरएस
##ोत्तरी
फहरा
ab
संतों
आयुर्वेदिक
कॅ
खासियत
##खड़
##विरो
##day
खुदकुशी
vs
भोले
अश्विनी
एएन
जॉर्ज
समकक्ष
खुदाई
बलराम
समुचित
माजी
##17
गुजरने
##विन
आयरन
अंतराल
वैसी
##वित
मीट
फ़र
##ज़ल
मध्यस्थ
खनिज
तेलु
टॉयलेट
संभाग
दमकल
खाएं
##प्स
काठ
जेन
पिस्टल
##राउंड
काॅ
##ंर
तस
शॉ
पिंज
फैसलों
उधार
##पार
पौराणिक
##यरी
लोड
प्रास
लुभा
केसर
सलीम
Ki
रायब
अभिभावक
अच
¤°
##चारे
कुं
##्रास्ट्रक्चर
दीवान
टैंकर
व्यावहारिक
पिंक
एग्री
अलविदा
आरोग
रिफ
इजरायल
सुप्र
##नाग
पढ़ते
हेल्
##एक
185
डीपी
##न्नाथ
अकेली
##पूर्वी
शां
##वाहक
ड्राइविंग
##form
उपराष्ट्रपति
रीड
बीजिंग
हारने
##कांग
##माता
मांगें
डेढ़
ऑडिट
नज़
खेर
थरूर
##ामध्ये
बदन
नमस्कार
##ब्बर
संभवत
नानक
हिदायत
##ांतों
पैंट
मालिश
छपी
रं
##दिय
फैक्टरी
मुद्रास्फीति
ठग
आवाजाही
निमंत्रण
मिमी
##ानन
पॉइंट
Blog
एक्सरसाइज
कार्यो
वॉर
नजारा
##फोल
अनुया
##सक
##जिक
अभिनंदन
Pol
धमाका
कलश
##गिन
##AS
दंगे
सोते
शोरूम
Now
विश्वनाथ
एयरलाइंस
140
टक्के
चोटी
महिल
लकी
वक्
निभ
शोधकर्ताओं
गोस्वामी
निख
##hy
टीएमसी
##हेज
हड़कंप
दोगुना
फ्लू
विंडो
##ence
दबद
##फन
##ौप
Times
छाती
सज़ा
मयंक
लद्दा
Sam
##ाइज
मुम
धमक
पारियों
##cription
##ानगर
Sep
##AM
हैस
##ौत
##न्नत
जिन्दगी
बं
1947
चिकन
उखा
##??
बैलेंस
##विज्ञान
स्नैप
क्रिस्ट
अवसरों
अनुचित
जड़
पीओ
दुष्यंत
चैम्पियनशिप
जयलल
प्रमा
तिहाई
##obile
अलवर
रायबरेली
फेमस
हेर
जयंत
आइट
फरमान
कौल
##मोल
यात
2022
स्कैन
जगन्नाथ
##ॉफ्ट
आज़ा
जयललिता
उद्यान
परफॉ
जलन
ड्रामा
लड़े
थाईलैंड
वाइस
मूव
जप
चुनि
1980
##णूक
##द्वीप
प्रतिद्वंद्वी
एचआर
##ज्जर
सुधा
तंवर
निपटा
माधुरी
शास्त्रों
रेवाड़ी
श्रो
,‘
सनातन
छेड़
फैले
कुत्तों
संविदा
रामपाल
##शास्त्री
लोकायुक्त
भविष्यवाणी
फाई
विज्ञाप
##सेफ
पार्थिव
छोड
1991
वैभव
मशक्कत
BS
माकपा
एचडीएफसी
अा
परिश्रम
blog
##डली
##वेन्द्र
लेग
आजीवन
हसी
परहेज
नेपाली
गायों
एंकर
माधव
##िनर
डेयरी
##सेवा
##भवन
सैर
टर्न
कारावास
##रीक्षक
##ोव
Eng
कैट
शहाद
संबद्ध
##क्सीडेंट
मनमानी
देंगी
मठ
##मि
लड़ाकू
ग्लास
##टीय
थल
##iness
किला
##्यम
##earch
अंपायर
एसडीओ
चुनी
दहा
इमो
संभल
समाजसेवी
दृढ़
##र्प
मांसपेश
##हिट
##्याच्या
##ेलियन
बड़
आईसीआई
कैलेंडर
देओल
चादर
पीली
फिन
##ेरों
तेवर
le
##बोर्ड
मनाते
प्रोफेशनल
प्रमाणित
भूट
विकलांग
प्लेयर
एनडीटीवी
##कांनी
पैड
##नसून
बीमारियां
अशुभ
ताइ
##लीट
सेक्रेट
पड़ने
आनी
स्लै
वैचारिक
दाऊद
##ational
उकसा
करण्यासाठी
बैठकों
डेमोक्रेट
##तीर्ण
##ताव
कमरा
काबिज
##्प्र
चिकित्सालय
हटाकर
पॉपुलर
सिफारिशों
प्रजापति
स्तंभ
लेटर
कीमती
नाजुक
धमाल
झूठा
एंटरटेनमेंट
पसीना
?’
कार्यभार
हल्ला
##म्स
तोड़कर
परख
बच्चो
cont
बकवास
छठी
कराये
शिल्प
##्याची
##ंपर्क
घेराव
##ON
सिप
एबीवीपी
भद
##बाला
##ंजय
1992
##रीद
तुझे
चौका
##hare
##तीने
लंच
निष्ठा
याबाबत
टेलीकॉम
मुस्कान
आईएएनएस
सीएस
बैरल
शायरी
लोहिया
मंस
##दक
गानों
मीर
##ैच
##इयां
नमी
परिवेश
सफ़
##elhi
एडिटर
द्वि
##वियों
##ितु
सुधारों
पीते
पन्ना
##ब्ध
##यानंद
रेसि
जासू
सूद
##iss
टारगेट
ब्रेकिंग
पक्की
करारी
छिपे
ठंडे
##80
मुमकिन
##जाद
सत्यापन
शायर
दौलत
##एफआई
तीव्रता
प्लेन
सगाई
Indian
पिक्
फोटोज
लग्
3000
हटने
पावन
जल्दबाजी
##ासाह
अर्थशास्त्र
हैसियत
आंश
सेशन
##ंदना
प्रतिस्पर्
प्राइस
पुतला
राउत
सुपरहिट
सिसोदिया
##प्ल
##शोर
from
छुप
##ोशी
कबूल
डिल
पीडीपी
फेक
##्युलर
गोपी
विड
अमाव
चाँ
भावनात्मक
पवेलियन
सिमट
चेतन
मर्जी
ज़िंदगी
सतत
स्वर्
अपार
बैक्टी
वसंत
निभाते
आवेदक
साढ़े
सप्त
डरा
जिद
इकल
##ote
मुआवजे
##ेंग
डेन
परो
हाय
बनीं
##इया
##फेक्शन
धनी
##ॉल्ट
चाहत
सुने
छात्राएं
##डीओ
लॉस
रहिए
रिपब्लिक
घटक
##ाइश
res
##्रस
माइक
जागा
उपन
कुमारस्वामी
Live
तड़के
105
काटा
##ैरह
##न्धी
##RC
##कार्ड
अखंड
मेगावाट
##सिस
ताकतवर
सिद्दी
चॉक
फिसल
सस्पेंड
बटोर
पते
किसके
आरटी
##यूवी
##दियुरप्पा
अभद्र
रिच
##गमेंट
शहादत
तिब्बत
आकांक्षा
रेस्टोरेंट
##वीजन
हाउसिंग
जायसवाल
मॉनसून
ऑक्सीजन
##वायर
दुखद
डेस्कटॉप
लद्दाख
साक्ष्य
बहाना
सिद्धांतों
छलांग
समितियों
करन
गुड़
नरम
बढ़ता
##ok
##नियां
नों
स्वामित्व
Latest
##रीना
बौद्धिक
रेक
##und
सुप
मोक्ष
नवजोत
वड
##ign
झज्जर
उग
शान्ति
1993
प्रताड़
न्यो
अगवा
ठुक
चोटिल
रामचंद्र
तेज़
बहुल
सोनाक्षी
##रखा
इंटेल
##न्थ
ज़रूरत
कमिटी
##वाड़ी
##विच
टीसी
अलै
कुटु
सूचीबद्ध
हाफिज
खर्चा
संधि
पनीर
निःश
दिखाता
##oy
##जरलैंड
बेचे
पंद्र
##indows
##खोर
वीवी
देशवासियों
कैंड
##ूलाल
उसपर
आईसीआईसीआई
स्टार्स
160
##जीब
सक्रियता
बंगले
जाह्न
##खारी
अपितु
मैग्
बढ़ाना
चैक
जगाधरी
करोड़ों
डिक
घरवालों
##न्दन
गुटों
करारा
##वाहाटी
जसप्रीत
video
##रसन
iP
कोषाध्यक्ष
रुकने
##स्वा
शारदा
हज़ार
पुस्तकों
नर्सिंग
शोएब
माउंट
भयाव
वेतनमान
चतुर्थी
दामा
##ating
##दर्द
कॉम्प
गुवाहाटी
जाह्नवी
थोडा
एे
पंद्रह
##orld
##बदल
मुनि
गैले
न्यायाल
टूटी
हार्म
सुशांत
मोठ्या
टास्क
कोले
लाते
सौरव
संज्ञा
यान
तत्पर
पुनर्वास
##ics
हजर
टूल
पतंजलि
##फत
पुरे
##माना
जनगणना
##सूर
उत्थान
डैम
येदियुरप्पा
Pri
महिमा
##बाईल
निचे
कचरे
सिक्के
व्यर्थ
प्रातः
ओह
नैतिकता
अनार
हाइवे
ताजमहल
भगवान्
मसीह
Se
पिन
बेल्ट
भयावह
उभार
पितृ
स्लाइड
बनाएंगे
गलियों
##ाफ्ट
पटवारी
चूर्ण
सुंदरता
परस्पर
ज़रूरी
प्रसन्नता
छिल
आत्मघाती
##,,
माइन
रूचि
शिवपुरी
पद्मावती
पंक्ति
थानों
कोशिकाओं
नामी
पक्षियों
फ़ैसला
अस्थिर
##ोरिया
पुतिन
ओपनिंग
सिब्बल
##िराम
लत
##्रिकर
use
पोर्टफोल
स्वादिष्ट
गुडग़
सेलिब्र
हरक
खिड़की
गणपति
कैल्
फतेहपुर
धंधा
फेंकने
खुराना
दुष्प्र
डल
##जेवाला
स्टार्टअप
हेलिक
आबकारी
काजल
जौन
निषे
##टेलाइट
रश्म
पारदर्शी
सड़कें
##िक्रमा
इनपुट
##usiness
लोकेश
चूह
##दियां
##गात
पेड़ों
डीआई
झगड़े
##न्तर
गुणा
दांतों
सहा
उत्तीर्ण
अमरिंदर
प्रतिकूल
पकड़ा
##चाना
दीवारों
एकाउंट
आख़
Le
बंगल
ठो
बयां
प्राइम
दिखते
राइड
##ग्रेस
जनसंपर्क
माओवादी
##ेंशियल
##नीज
बडी
अस्वी
मोबाईल
सज्जन
स्क्रिप्ट
झाड़
आनन
बुंद
मांझी
फ्ले
झड़प
सरी
##कास्ट
सराहनीय
साठ
प्रतिवर्ष
##14
साम्प्र
बिजन
अदालतों
##IS
##ृता
##र्मल
धमाकेदार
मार्गों
रास
अम्बेडकर
##हानि
##राहट
##द्रोही
##दित
करोड
मुश्किलों
कूटनी
डालना
बूंद
##स्स
घटिया
##त्रिम
##25
##आरआई
उमेदवार
##यना
##ग्रेड
अहमियत
भड़क
All
डिस्ट
##वांस
दामाद
झोप
##सरण
छात्रावास
सध्या
##त्थे
##16
रहो
मायके
पलटवार
##ंगार
खिलाडि़यों
##मिक
हलफ
##ँव
जेडीएस
घोल
खाड़ी
प्रेग्न
श्रृ
मुरादाबाद
सैकड़ों
##ाहि
तमा
##ब्बा
पर्यवे
बायो
बढ़िया
स्वचाल
##ामुखी
नवाब
मसूद
##्यूमेंट
पुरोहित
कार्याल
स्टेटस
वाक्य
सिक्का
माथे
बसंत
कराची
##राक
##बेर
HD
मेधा
नियोजन
##दो
आज़ादी
चुनिंदा
खोलकर
अनजान
ढोल
बड
टोट
बत
##पाक
पोर्टफोलियो
पीवी
##ंछ
अभिनव
पहुंचना
जिंदल
स्टोक्स
tr
ध्वज
इस्राईल
लग्न
उद्यमियों
Dec
##िलो
As
रिय
काळ
वैवाहिक
नं
ब्यो
मोहब्बत
सनराइ
##्राह
अनिय
##ccount
##लु
तैर
बुलाने
ढाल
कालका
निस्त
पीपल
आयरलैंड
म्यु
इशारे
मिशेल
विभाजित
पांचवीं
फेफ
##टरिंग
बेटों
चाइना
नीले
##uj
सुराग
झेलनी
शृंखला
औरंगाबाद
गगन
रेसिपी
श्रीनिवास
श्रवण
हस्तांतर
ट्रीट
##ूराम
##ingh
हड्डी
##ix
मची
कैर
मता
परिक्रमा
##ल्वे
हैरत
महमूद
##नास
सुविध
##सैनिक
करिश्मा
सम्भव
लॉक
होंडा
होटलों
धर्मों
##कैप
यीशु
##aya
पुनर्विचार
##ember
##इये
रिव्यू
निकालना
##ka
गुडग़ांव
विज्ञापनों
कृत्रिम
##OR
आईपीसी
पीजीआई
हास्य
##व्
बद्दी
खै
वैल्यू
फत
##धु
महतो
##कूट
राजकोष
मेें
रखरखा
एप्लिकेशन
##सले
फाइनेंस
##बीएस
##हारा
##फायर
##view
छोड़ी
मिश्रित
शब
जबर्द
Facebook
बेटियां
गढ़
नामजद
भिज
नीतिगत
ग्रोवर
##ंताओं
फार्मा
क्रो
##ारू
बैंगल
इकोन
जुर्
आरोग्य
##्यूर
आंशिक
रखरखाव
टूटा
आटा
जामिया
##चाने
कंवर
मेघालय
अमेजन
जन्मा
Bl
निराकरण
इंप
समर्थित
लय
प्रात
##चिंग
फ्रै
संपत्तियों
निकलना
##90
स्किल
नासा
Gener
बढ़ी
सौंपने
रावल
जानबूझकर
अनाव
धुन
कार्टून
##हानी
पीढ़ी
##वर्स
विवादा
कटे
फ्रेम
##पुरुष
##क्म
##्रफ
मसा
##न्या
गुरमीत
##श्र
सिक्किम
शिप
पात्रता
बेगम
घोषण
अफसोस
अमान
ज़रूर
##ि़
##ाहियों
कलेक्ट
अंकल
थमा
दरो
##नारायण
##oj
हौसला
मुबारक
स्पष्टीकरण
##IR
सुरजेवाला
चट्ट
##बेट
##mi
##xx
पूर्वक
सेमिन
##धू
##ान्वित
जातकों
हांगकांग
Vi
समूचे
##्रपान
पूर
जुर्माने
बुंदेल
कोशिशें
प्यारी
प्रैक्टिस
अमावस्या
रात्री
अवशेष
रिलीज़
नवाजा
अवर
केएल
वाल्मीकि
परमार
सुदृ
धरा
त्रुट
धुंध
चाहने
कंज
मत्
सायं
##न्म
##प्रो
कॉरपोरेशन
भावी
बेल्ज
अप्लाई
अहंकार
टोपी
##स्खलन
यूएन
Description
अंगों
१२
##्मिक
विवादास्पद
कयास
क्वा
##बंधक
मिस्टर
औऱ
थप्प
आठवीं
भंडारण
आँखें
##ोपिक
आयुष
पुरस्कृत
जन्मे
How
चाट
पीएचडी
##धर्म
मिलों
##लेटर
रिफाइ
कोयले
दीजिये
वगैरह
अध्यात्म
##ेश्वरी
एस्
फूंक
##राउंडर
हवन
वहा
पर्रिकर
गोल्डन
कोल्हापूर
फानन
##ंगण
##लिन
pol
soc
##श्चिक
दबदबा
जासूसी
संगीतकार
प्यास
आवश्यकताओं
जेठ
##रीदी
सीम
तनु
मण्डल
##70
डायरी
महोदय
गंदे
जवाबी
यामुळे
##बेन
डिनर
शिकायतकर्ता
##शेद
##णियां
करंट
साईं
##yp
##रिडोर
टिकी
१५
##मोरी
##जोड़
अंधेरा
विनम
निखार
बदलती
दवाएं
बहाली
उद्योगपति
आंच
कमरों
##मोचन
छेद
##देय
ब्लैकम
राक्ष
खुलेआम
##ोरम
सिखाया
##कर्मा
पतन
प्रसं
क्रमशः
गड़
वक्तव्य
प्रकोप
दामन
US
जिन्ना
##त्यक्ष
काउंस
##रोधक
##यर्स
मुताबिक़
भागलपुर
बराक
कैरे
हेलमेट
एसटीएफ
आज्ञा
पक्षा
पाटीदार
##ेंबर
ग्राफ
आइटम
इन्टर
चॉकलेट
बॉम्बे
गजब
##ठिया
##रोन
102
वित्तमंत्री
विधिव
प्रोड्यूसर
मृतका
ग्ले
वंदना
##सेने
स्वाय
प्रोडक्ट्स
असले
विनम्र
मट
सब्जियां
वु
पटाखे
सान
मेजबानी
##परा
धर्मा
पत्तों
बनें
श्रेणियों
##शूट
एक्सट
##ealth
ज्वाल
##vel
हुनर
##ानियों
1971
नारन
##लास
कॉलिंग
सिग्नल
सिनेमाघरों
##ालैंड
अनवर
निचली
रेल्वे
लगाव
आमजन
कैल्शियम
इंगल
खल
पॉलिट
उठाये
यासाठी
तालुक्यातील
अनुभवों
भतीजे
दर्जे
क्लिप
रेन
दरार
संगत
छोड़ने
नड्डा
जमशेद
फौरन
प्रशंसक
##ण्
##बरे
एसके
##प्रताप
sk
हुक
यांची
##ern
विक्की
दादरी
हंै
##संद
किचन
गैलेक्सी
संजीवनी
##भाषित
प्रचंड
##म्मति
बांधकर
खुशख
होल्ड
##िएटर
सावर
नैनीताल
##OS
स्वे
##डमी
दीनदयाल
निःशुल्क
प्रकल्प
##आईएल
दरगाह
सजग
अरविन्द
कठिनाई
##वरेज
##oot
##र्नर
यूँ
पुन्हा
##ज्जा
विह
रूबरू
वृश्चिक
हादसों
साक्षर
सर्किल
नेटवर्
पूर्वानु
उपद्र
बिन्द
बेल्जियम
पढ़िए
##्ती
##र्मेंस
1997
संक्ष
शंक
##धुनिक
जोड़ी
नाप
पेंटिंग
##ल्लत
मजी
घुसने
लपेट
##गांठ
निविदा
लौह
सिद्दीकी
##ल्लाह
शादीशुदा
सम्पत्ति
##ोबर
परेशानियां
बूब
करतार
ख़त्म
पौधा
##ण्याच्या
लेडी
पाएं
##ंपुर
जमात
मापद
रंगीन
पंख
हेमा
करवाकर
मीठा
बयानबाजी
##ईसी
आवारा
##ोल्ट
मग
विरोधा
##ions
##वेंद्र
##फै
याचिकाकर्ता
थै
##ार्पण
बर्ताव
एवज
मक्का
थर्ड
अप्रत्यक्ष
ठिकाने
प्रसव
कंक
हैप्पी
यहू
पीएनबी
##द्रिक
##ox
सिं
कंटेस्ट
पारस
नोबेल
##बोध
तंबा
एट
##दाना
कोरियाई
##र्निंग
धंधे
##प्रण
पंक्त
##विंद्र
बंगाली
गुनगु
टंडन
विस्थापित
पैकेट
फेंका
##ैना
पीडब्ल्यू
लाइब्रे
पद्मावत
बडे
सेगमेंट
अभिम
ह्र
पुस्तकें
##ासाहेब
प्यारे
निज
रणदीप
not
विद्वानों
कटारिया
सेक्रेटरी
##ानुभूति
जज्
जरूरतम
बिल्डर
रचनाओं
##चर्या
आउ
##रिफ
##ंहार
भ्रूण
##ंते
वसीम
पीपुल
रामेश्वर
चढ
अनुसरण
पसीने
##ूफ
मार्शल
मनीषा
##मोट
.,
ख्या
गाडी
पांवटा
टावर
अख़बार
नहाने
डेल
चिन्हित
राइफल
एजेंडे
सर्वसम्मति
##पीजी
सिद्धि
व्यवस्थित
##सौर
निकायों
आंव
##स्ति
##र्देश
##मैथ
सैंपल
##करणी
पीला
धरोहर
बलदेव
षड्य
युवतियों
कंध
नवनिर्
can
मनोबल
घों
रमा
एसएचओ
ताल्ल
निष्का
ईश
लूटने
झांक
परदे
##डीएस
हिज
गन
मैरी
रिलीज़
व्यवसायी
Man
छुट्टियों
##ओमी
किल्लत
चोटें
रॉकेट
बकरी
##igh
##ax
##हला
तीखी
भलाई
पूछते
प्रांतीय
##्ह्ह
##ब्वे
निम
खुशखबरी
कोटे
##ode
प्रतियोगी
##िक्षा
##टेगरी
जौनपुर
सुथ
Pat
घने
शेड्यूल
कत्ल
कैलो
जीन
मलब
##ापत्र
डूबने
वासी
रातों
कंटेंट
सचेत
कवरेज
मचाया
sex
जैव
बालू
ठुकरा
##ंबले
कोक
##आरएफ
पहनी
सुनना
##पेड
थ्री
##ांध
कारी
अमृता
घेतला
दुर्भाग्यपूर्ण
लेफ्टिनेंट
##न्त्री
कागजात
बूट
इब्र
तोड
अपनों
मेवात
##िंडा
##ates
पैदावार
##शाद
अविनाश
विलास
Windows
वॉक
##नाला
अनावश्यक
##न्नू
ऐप्स
घेतली
ड्ढr
##चन्द्र
पूर्वानुमान
गंध
##शिला
कैप्
माथ
खटख
हराने
वादों
सराय
शिविरों
वैट
##्यांच्या
पतली
##लोनियों
स्विट्
भूटान
जिसपर
राशियों
धूम्रपान
##प्रणाली
अपेक्षित
खांसी
प्रेमियों
पत्थ
am
##गेटिव
बिछा
भरना
##App
A4
संक्रांति
##ऩा
बढा
पुढ
अधिवेशन
विश्लेषक
निषेध
अड़
##डाल
रजा
अत्याधुनिक
खली
ऑपरेटिंग
कगार
##र्निया
जाणार
गुड़गांव
विराजमान
##दह
डिलीट
अनोखा
नमा
##ब्री
##शॉट
फैलने
1989
##pt
##ove
##13
स्वचालित
##!!
बाबर
डीएल
विसर्जन
तपस्या
एसयूवी
लुढ़
सहभाग
सोला
दूषित
##ंजाइश
खुशबू
जिल्ह्यातील
शिरोम
प्रदर्शनों
अंग्रेज
एनपीए
104
##हांत
बाज़ार
ड्राई
शंख
गोलियों
नमन
सर्वर
गुंजाइश
ठाणे
धुआ
हफ्त
शिवसेने
##ond
साँ
एटीएस
संपादकीय
##ाहे
सीताराम
जबाब
डिवीजन
##रोल
उठते
घटित
नन
वालो
##दीव
सकाळी
सुब्रमण
खजाने
##साथ
ग़लत
पांचों
सर्वप्र
अवलोक
आईटीआई
ग्लै
दिक्कतें
##sp
कुत्ता
1995
##मैथुन
खंडपीठ
##ages
वासियों
##तेरस
सनराइजर्स
मझ
अनियंत्रित
रस्सी
करुण
नस्ल
मेंबर
##बाबू
जीतना
सौह
राहु
छुट्टियां
पावसा
अनुपालन
जिता
##पिन
##विता
दंपति
माइक्रोस
आदान
##ऑफ
बिस
राजकोषीय
सिखों
सुरंग
बूब्स
रंजीत
धनिया
वसा
चुटकी
उल्टी
एचपी
झूम
स्रोतों
ईसा
अव्वल
##यूआई
शेतकरी
##ोले
कांप
सेमिनार
उड़ी
करीत
गिना
रक
##िकर
आजमा
##मानुसार
उपलक्ष्य
ऑर्
##पटा
##वधि
बिरा
##wit
वॉटर
##शक
स्ट्रीम
चंद्रा
##स्कूल
शत्रुघ्न
जले
गुनाह
आैर
खोली
बाते
हंगामे
दोहरे
##old
##त्तियां
##hab
पहुंचीं
शिष्ट
बांटा
खंग
मिलनी
फ़ोन
रोहता
नसीहत
##वैज्ञानिक
ताम
डीएनए
श्या
नीतियां
Chan
सुकून
##75
पीकर
केमिकल
पोज
विश्वकर्मा
##du
Raj
घब
बैठते
हैड
गोचर
##हेल
विक्रेता
ड्रॉ
##ाहिम
एएम
नाईक
डिजाइनर
यंग
जीएम
संगीता
षड्यंत्र
प्रतियोगिताओं
प्रदाता
डिब्बे
शस्त्र
बारीक
निदान
पहुंचेंगे
सहानुभूति
उतरा
##जाब
आसिफ
लेबर
साइज
चौकों
बलिया
Delhi
दहन
व्यतीत
इमारतों
रणजी
General
सॉन्ग
वेंक
उर्जा
##olog
रॉबर्ट
##ोटो
त्रासदी
नोंद
चलाकर
जोड़ने
धनतेरस
नायब
record
गायिका
शैतान
##िडेट
भूपेश
मंह
वेळ
संलिप्त
कुएं
आईओ
टीबी
म्ह
मलबे
कार्
जिल्ह्यात
##द्धान
##ँसी
ताले
टैरिफ
गुजराती
अघ
प्ली
Kar
गरज
हफ्तों
फैट
##न्नों
मानहानि
अरबों
चित्रा
शेल
##ान्तर
हज़रत
कल्चर
##गिर
##मर्रा
भवनों
शासनकाल
##ताज
आशय
एड्स
आर्म
करूं
थानाध्यक्ष
निशा
घूमते
##ुती
लेखिका
सावित्री
##ower
उपदेश
अद्व
लिप्त
##BS
##खाली
जुड़ने
1994
बहने
असीम
कार्यप्रणाली
जयप्रकाश
##षद
कॉरिडोर
##जिंग
बरती
क्यूंकि
Recorder
निकलती
चौपाल
सौम
लगना
एजे
फेज
अंधा
##cl
जीभ
##ोलो
सम्बन्धी
डेबिट
##बत्ती
पेशा
qu
##हट
अपेक्षाकृत
कोल्ड
गंदा
##टाइम
##लाज
नौजवानों
ओपनर
क्वीन
##ुख
##़त
अहिंसा
बस्त
कल्याणकारी
Apr
आठवें
##now
GST
##खोरी
अनमोल
दक्षता
सम्भावना
वार्डों
वैक
साइना
संभा
सुगम
क़रीब
##AL
परीक्षाएं
लूटपाट
जंक्शन
चने
फर्ना
पकड़कर
रखनी
बिताने
आगजनी
प्रचारक
कोहरे
सुचारू
##ष्टा
लक्ष्यों
लड़का
तिहा
रेस्त
पेशाब
मसाले
बुंदेलखंड
भागे
नरसिंह
हरियाली
चेकिंग
##पंथियों
उदासीन
चालीस
म्यू
##िशनल
ब्लैकमेल
Comments
##nline
नें
एडवांस
इंजेक्शन
घृणा
##ज़े
एंडरसन
पैसेंजर
इण्ड
जोंग
तंबाकू
संप्रग
##भगत
हाइड
तलाशने
अवलोकन
टेलर
##air
बीपीएल
हमको
फ़िलिस्ती
नजरें
एकतरफा
Pradesh
बेम
शशिक
यूके
पढ़कर
प्रह
लड्डू
##........
अभिया
बाजू
कूड़ा
मैके
अनुमो
##र्मन
रश्मि
संक्षिप्त
बलू
दूँ
ढेरों
भेट
दुबारा
मध्या
पूर्वांचल
##फाश
परिभाषित
फेयर
सभापति
कैलि
##राहा
दिशानि
तबके
screen
तारों
##ामित्र
दोगुनी
ओस
गुन्हा
विदा
वेग
Us
Te
गवाही
गिरिराज
बाइन
महासागर
उंगल
सजाया
अॅ
##एमई
दंग
सर्जन
##णाधीन
##्वॉय
अँ
##क्ष्मी
कार्प
अमेरिकन
सहकारिता
चेहरों
##कानूनी
तुम्हे
बैक्टीरिया
पोलीस
##लाम
सोरेन
प्रांगण
मालदीव
शरार
नेक
un
छुआ
लिंच
फिंगर
बिलियन
बायोपिक
अकाल
उत्पत्ति
ठंडी
##बाजों
बगा
घिरे
मुशर
मधेश
पहाड़ों
सर्वप्रथम
##ंन
रुपयों
##ण्यास
Ab
सुस्त
स्नात
सोचे
नमूना
##म्पर
मुकाबलों
ब्रोकर
##फिकेशन
वॉट्स
ख़ुशी
||
कृत्य
जुबान
नीद
खिंच
मित
अफ़ग़
भैर
एक्सेस
शरणार्थियों
112
संग्र
आलोच
मोटापा
##erm
##oss
लात
छुड़ा
बुलंदशहर
भरकम
बाइनरी
घण
दय
वर्कर
दायरा
बनवाया
विधिवत
##tm
su
सैंड
ड्रग्स
लघ
Rs
##एआई
##उर
भेजना
450
सेफ्टी
अभूत
सुखबीर
गड्ढे
फेडरर
अयोग्य
मौकों
सरफ
घेरा
कार्यक्षेत्र
उपाधि
Online
##सुम
पॉली
कनेक्टिविटी
एलो
स्वर्गीय
मिटाने
आवागमन
##सेप्ट
वॉय
मौज
किफ
सन्त
##ैक्स
सरगना
##क्रिय
दावेदारी
##डिय
निधी
हरेक
CAA
उतारे
गेले
डिटेल
स्या
डेयर
पुस्तकालय
स्थानांतरण
min
एलि
उपयोगकर्ताओं
##्ठे
वीर्य
wh
##वड़ा
जलाकर
डेड
अनीता
न्यायाधीशों
फ्लाई
##ef
गिराने
विख्यात
आरपी
भाल
मंदसौर
चंडीगढ़
आड़
हवाओं
निवडणूक
जिज्ञ
शक्ल
गोक
नेम
188
प्लॉट
चौबे
वक्फ
उब
अपार्टमेंट
लॉग
दिशानिर्देश
ज़िन्दगी
निबंध
पिस्त
भुगतना
दुर्घटनाग्रस्त
यूएई
तग
पालमपुर
कहलाता
तयार
iPhone
##ालियन
कैलोरी
तोड़फोड़
परफॉर्मेंस
साहा
दाइश
ध्रुव
प्रयागराज
मिलीं
फिक्सिंग
तैम
लगन
##uter
चैंपियंस
जन्मभूमि
##घाडी
कवियों
गोबर
विमोचन
भान
लाइक
अपग्रेड
सावरकर
फिल्मकार
?”
फेरबदल
##मधील
टांग
##म्मा
वाहत
बांटे
par
हायर
संस्थागत
शुरूआती
असाधारण
Top
##WS
नाता
##स्थानी
गाजीपुर
अंततः
कुंबले
Tag
दून
##किनार
तत्वावधान
एफडीआई
##ढ़ा
कैंट
आपरेशन
इसमे
फौजी
##िंद
##ायदा
##विरोधी
स्वायत्त
##रादित्य
उछल
रणजीत
Inst
सुन्नी
##रेपी
परश
##डीएफ
पीड
##ालिया
सूचनाएं
राजभवन
जाली
शर्तें
दंगा
फतेहाबाद
पात
क्षम
ज़रिए
बढ़ाते
##ेड़
##सीए
##atch
अभूतपूर्व
##कुंड
पढ़ी
##ब्लू
बर्बर
इब्राहिम
परियोजनाएं
खंडन
क्लर्क
ब्यौरा
##स्की
प्रतिबंधों
डिज़
अतिथियों
भली
समिट
फिरा
##ors
सोयाबीन
गैरकानूनी
##ायुक्त
##ष्ठान
मलाइ
इर्द
बाकायदा
नगरीय
पंड्या
ङ्क्षसह
लौटते
माओवादियों
झांसा
नीच
स्वाभिमान
##ED
कम्युन
२००
आवक
पुर्त
##riend
तव
गर्भाव
रोते
मोड़
भाष
डिप्रेशन
सीखना
ड्रग
सुर्खियां
##ेंसिक
मैडम
ब्या
चप्पल
ट्रांसफार्म
गोपनीयता
सुनाते
कराएं
रिचार्ज
किस्से
शेतकर्या
##र्ची
कैप्चर
तुमसे
##वाती
स्वदेशी
ईशा
##ware
प्लाट
झोंक
सोमनाथ
असंतोष
मिया
##ष्टिक
##apt
निस्तारण
किट
प्रदूषित
दरकिनार
निकाह
##ग्गी
गायन
/-
वियत
संकलन
प्रेमचंद
##खेज
##ान्य
रियलिटी
कहावत
##ruit
##सलर
##ड़न
ख्
अवसाद
ज्योतिरादित्य
फिक्
अर्द्ध
वार्नर
खादी
सिडनी
लुत्
##ideos
शेतकर्यां
##भागी
##af
पीके
उद्योगपतियों
विलंब
प्रणव
##az
##गोलिक
मलाइका
चैलेंजर्स
##ैंट
एनपी
ag
जलवा
झर
##uck
डेमोक्रेटिक
1200
परिसरात
कारें
##rap
##वण्यात
आंगनबाड़ी
मुक़ाब
##कांपा
घिर
रूपी
##समैन
>>
गलतियों
माइक्रोसॉफ्ट
टूटे
टेलीफोन
मलेरिया
संरक्षित
4जी
रॉयल्स
छोड़ना
सराहा
भीख
##रथ
खुदा
101
रमजान
पूछना
अंद
भार्ग
अर्जेंटी
##ays
खड़
योद्धा
मौद्रिक
अलैहि
जिस्म
पैरवी
ग्लैमर
राकांपा
रोके
गिरफ़
राल
इंटी
आॅफ
##निंग
एंव
मद्र
केर
प्रजाति
भौगोलिक
कॉन्ग्रेस
कांव
मनुष्यों
शिरोमणि
##ull
पत्थरों
हजारी
खींचने
##णिक
##हरि
बोलीं
प्रतिस्पर्धी
न्योता
अनुभूति
घाव
सीवरेज
चाची
टिम
रक्
II
मांगते
बैत
##ियोग्रा
निर्माणाधीन
##सुफ
कलक
नीयत
##र्शियल
जैकेट
धोने
मध्यस्थता
परिषद्
नट
इंगलैंड
Bi
पुनर्ग
करायी
##ंटू
बद्री
नौका
महाप्रबंधक
बिकने
##35
काजोल
मोनिका
वक्ता
##ोभ
सशक्तिकरण
जवाबदेही
##ife
ब्ले
पख
ग्रेजुएट
##ष्णुता
कैमरों
संयोजन
कुख्यात
##ेटिक
##ख्यान
पेटीएम
गर्भावस्था
पैलेस
सर्रा
गोड
जाहीर
एएसपी
अधूरा
रुद्र
##खेड़ा
फलस्वरूप
सादर
##ांतरण
##ल्लभ
थाली
टैटू
गाड़ियां
बोलता
शंका
##राइट
शिना
कैब
राजनयिक
एश
##यंत्र
पहुँचे
बेस्ड
बेसब्री
चौंक
कानों
im
##िरोध
संगो
हवाईअ
इंटेलिज
हकदार
लाइब्रेरी
##ोनिया
ट्यूट
लगाती
दिनचर्या
स्क्रीनिंग
रंगे
महापाल
ब्योरा
##नीचर
हवै
पर्दाफाश
हारे
कार्यान्वयन
गौशाला
'।
115
सीटी
फॉर्मेट
ड्राफ्ट
जबर्दस्त
यास
अंकुर
##ियेटर
नोकिया
ट्रीटमेंट
हजरत
जायज
##ger
बुन
मज़बूत
मेहमानों
एलजी
##ps
कैंडिडेट
##धारक
समाधि
अगुआई
केसरी
उपम
लाभान्वित
##जीविका
##खानी
पाले
##़ों
अप्रत्या
श्रीम
गुजरना
थिएटर
यादों
पीपुल्स
RT
डार्क
##********
चश्मा
##्यवहार
##्फ
नाद
पुर्तग
##िलिटी
गड़ब
##डों
अनुप्र
प्रतिमाह
सबरी
चौथ
##ips
नायर
रैकेट
रास्तों
नित्य
सती
प्रासंगिक
तैमूर
##ian
बदतर
कालेजों
गुरदास
पीडब्ल्यूडी
जीवनशैली
प्रमुखता
Feb
गश्त
उच्चारण
चुनें
Nov
नियमानुसार
भार्गव
उद्यमी
लौटी
##dicine
मिलें
##कल्
रेस्तरां
##ठों
##ike
सेकेंडरी
अर्जेंटीना
हीं
बहार
##ttar
##याब
##rol
निखिल
सत्याग्रह
घोषणापत्र
गोरा
मनम
##फिल
नाहीत
खोकर
समझें
##irst
ओझा
दाने
शिकंजा
जलस्तर
ठोक
रक्ष
रिपोर्टिंग
धीमान
विपिन
शातिर
समझी
उड
विद्यमान
##भान
ज्वालामुखी
आधारभूत
घमास
कारगिल
मध्ये
बिश
कीटना
टेप
जीरा
परिधान
##मला
रीजन
खरीदते
##श्याम
मद्रास
धीरज
स्टाइलिश
पदस्थ
##राज्यपाल
मशीनरी
पंजीयन
फ्यू
घमासान
त्योहारों
आवि
##इंड
धकेल
पढाई
त्रिवेदी
चिन
##yst
मुंडा
चढ़ा
लगाता
##वेली
एनएसई
ग्रन्थ
ट्रेनें
लंका
लाड
##्यांची
मसाज
हँस
भड़ास
इश्क
जलकर
एनटीपीसी
बीआर
इंडि
सुखदेव
अंतत
##िप्र
प्रॉब्ल
रीवा
##मुक
सुखी
बरसों
तिरु
जेलों
##हीम
एर
##मूल्य
पहुँचने
##बिंद
##तेश्वर
गिरीश
अप्रत्याशित
डीआईजी
आंकड़ों
##लीप
सम्पाद
जिंस
एयरवेज
पढ़ाने
केसी
केवी
##ाधीन
श्रीलंकाई
बदबू
मांसपेशियों
कछ
सौंपे
काफिले
प्रस्तावों
प्रदर्शनकारी
परिषदे
जन्माष्टमी
नाइ
उपराज्यपाल
पत्ता
योनि
ताल्लुक
साधने
पेस
##व्यों
##ारोपण
##प्टर
दरोगा
##सेप्शन
##लाब
ट्यूटोरियल
##TC
##witter
फ़र
संपादन
जमशेदपुर
ko
विश्वसनीयता
पन्ने
##मानस
नामित
निशुल्क
उड़ा
बांदा
तरस
कराती
शाखाओं
जुनून
##ॉइन
##क्कन
नसीब
मार्टिन
##मू
गेज
सभ्य
घोटालों
म्युचुअल
एकड़
सोनाली
चुनौतीपूर्ण
यादें
कटाई
Pay
कलंक
तुरन्त
##फली
आटे
मोज
चांदनी
कब्ज
##टावा
##we
याची
टें
देहात
हव
##ब्बी
Free
मवेश
ढूंढने
योज
प्रशासक
चाइल्ड
राठी
विशा
श्वेत
माथुर
मच्छर
##िंगा
कहानियाँ
##हरान
निराशाजनक
टैबलेट
प्रेष
लाम
रितेश
लीवर
सनसनीखेज
डोक
सरेआम
##पत्
घुसा
वेडिंग
पें
क्रान
श्रॉफ
कोरो
170
अंदरूनी
सिखाने
##भंगा
बचाना
सुजु
कोरे
देवेन्द्र
तटीय
Par
मैन्यु
फ्लैश
##TM
गांधीजी
टर्मिनल
थियेटर
##यार
ठेकेदारों
रसी
##्याचा
फर्नीचर
आजीविका
सेंध
##गीत
लाये
नाश्ता
हार्मोन
रिवाज
रखेगा
नडाल
जनजातीय
सुमारे
रस्म
मेहंदी
दीवाना
खराबी
आश्रय
कैटेगरी
बढ़िया
अब्राह
##र्गन
जीवंत
परशुराम
इलेक्ट्रॉनिक्स
सन्देश
##ूतों
शिवम
आंकड़े
ड्रीम
हलका
कस्बा
जीआरपी
प्रवि
##rit
प्रसंस्करण
डायलॉग
##राष्ट्र
संपदा
चित्रकूट
खीर
वृद्धा
सोचकर
पत्रिकाओं
बारा
मैरा
आश्चर्यजनक
##तया
gov
##दुनिया
अनियमितता
##न्सी
माहिर
ट्वेंटी
मोल
##echn
नौकरशाह
##शेर
चाँद
शहा
##ye
चेंज
दूं
रिचर्ड
कॉर्पोरेट
##मिंग
##जाबाद
जीवों
सूचनाओं
दुर्घटनाओं
जनादेश
चंदेल
##प्लेक्स
##फील्ड
अवस्थी
106
अफेयर
महत्वाकांक्षी
मुख्यमंत्रियों
हनीप्रीत
दरकार
##काशी
शास्त्रीय
कराता
##विल्स
प्रज
निष्क्रिय
कसौ
##les
राजकोट
स्विट्जरलैंड
मालवीय
103
रजिस्ट्रार
शासना
बिश्
##मनी
चना
प्रोमो
##काळ
मनोवैज्ञानिक
बढ़ाए
मचाने
शेन
खामिया
लीज
वैधता
##बैंड
उदास
सूर्या
##्यूटिव
नजरिया
खाद्या
नरमी
189
##लाईन
प्रतिष्ठान
##ैगन
स्टाल
##म्ही
याचिकाओं
",
भत्ते
सुजुकी
लाला
गिर्द
राधिका
अस्वीकार
कीच
कामा
समकालीन
कारनामा
107
गुंडा
सौहार्द
उपयोगिता
##छी
पौने
नीदरलैंड
चूर
शाका
मंडियों
सेंस
##ामना
फ़ीस
रचने
##sh
##िल्या
लम्ब
मिटा
बेवकू
किफायती
खरीफ
आर्यन
ब्राउन
##ket
##ani
हनन
आड़े
##वियर
कुपोषण
##बाज़
आस्ट्रेलियाई
##कील
##पुत्र
करवाते
सभाओं
आक्रोशित
##row
चुनौतियां
वियतनाम
##सिद्ध
पत्तियों
बलबीर
श्राद्ध
नारनौल
Di
कतर
अधूरी
आम्र
हटकर
वोल्ट
छिपी
तड़
मुहा
ND
तूफ
पर्सेंट
##धिकृत
तांत्रिक
ठर
जीएस
मिलाने
नोडल
वीकेंड
लघुक
यौ
##दराज
रवीश
मृत्यू
काया
IND
वल
ईशान
मेंं
##पेज
##ायूं
दिग्ग
१८
पिछला
छाए
प्रप
कदा
##गड
रची
##ोनिक
ऐड
झारखण्ड
बिजी
##ूजा
##ब्बू
##वेल्थ
##क़ा
##विलास
##rent
होड़
##राचार्य
तस्कर
डिलिव
धोखे
##किब
मेरिट
ज़मीन
गोवि
महाकाल
##चारिकता
दुर्व
सर्वोत्तम
##गृह
प्रायः
छात्रवृत्ति
चटर्जी
##स्ट्रा
##युद्ध
रेखांकित
आघाडी
समझदारी
##्बाब्वे
नियंत्रक
बेवजह
कैंपेन
डै
दोहराया
मिजाज
भून
भूस्खलन
मुशर्रफ
##्सन
##कूद
##संगत
डोन
बाबूलाल
##ुआर
##oard
अफरीदी
हमलोग
##चारा
मनोक
##ati
शीतकालीन
##मेक
सला
तालिका
तरजी
चूसने
डूबे
दूरदर्शन
Im
##क्यात
निरोधक
लाठीचार्ज
लची
वेंकैया
करू
सोलंकी
डांसर
११
##eed
क़दम
चिंताओं
असफलता
कबू
छोड़े
##तराज
ट्राफी
नेटवर्किंग
बठ
निगाहें
एसओ
पर्याय
बिरादरी
वोटरों
किं
##किस्तान
इकलौ
रूपों
रक्षक
मिजोरम
खुशियां
कच्ची
##ूकी
##22
हड्डियों
##य्या
गहने
होमगार्ड
गाते
रूख
उपभोग
पिस्तौल
अनेकों
शिनाख्त
बगी
निजीकरण
यशपाल
##क्कों
रेस्क
डिविल
टीजर
स्वीडन
##गिंग
##छाड़
मानदेय
इम्प
##ण्डी
वेलफेयर
उपेंद्र
पूरक
सांगली
खर्चे
झुलस
##चेरी
खिच
आईपीओ
पीटकर
ताकतों
##जन्य
उत्सर्जन
चटका
रिस्प
झूल
##रूम
बिकवाली
स्वास्थ
हीरे
दिल्लीः
बॉबी
पहुंचता
दरभंगा
रैलियों
कुरान
ST
साभार
एलपीजी
पेशी
##हतिया
##क्राफ्ट
##ेटेड
कांच
मेहरा
प्रीतम
जवानी
##बाय
तेहरान
##ज्जो
ट्रिपल
तस्करों
यांचे
हताहत
मिलान
##नीकरण
देवा
विजिल
खुर्
घुसे
सुस
##क़ात
मशीनें
काश
वाहतूक
बैंगलोर
सुश्री
मसलों
##ॉर्
क्रू
करेंसी
अरबी
अनोखी
##get
पश्चात्
एनी
सीज
गुदा
मिनटों
लघुकथा
उध
फाइनै
मैगजीन
##गाड़ी
सेनानी
एण्ड
##ime
वांछित
कलकत्ता
पुरात
विजयवर्गीय
ताऊ
शीट
बुझाने
श्
,"
हाम
च्या
लियोन
अब्राहम
परच
लग्जरी
मत्स्य
मनोकामना
कोठी
सुंदरनगर
एसआई
इंसानों
##्रू
सबने
संघीय
मज़ा
##ाइलों
एकेडमी
कविताएं
##मिला
##बुद्ध
मरो
पेनल
ईसी
सीएमओ
फैजाबाद
124
रजिस्ट्री
##फेर
छाई
फर्श
##de
##ळून
2500
स्टिंग
##ेंदर
##किशोर
मैदानी
En
अवमान
##विण्यात
सौगात
वशि
आयत
लड़कियां
उत्सुकता
ब्रेन
रूपरेखा
बटालियन
प्रक्रियाओं
महाराष्ट
ब्रेड
लाइफस्टाइल
जाकिर
##एशिया
##ितर
##टकर
हजकां
##मैट
गिरते
मूत्र
##li
##ade
बोलती
On
##pen
कमज़
गियर
चक्रवर्ती
##ज़न
संलग्न
वॉयस
मिलेंगी
WhatsApp
डीएवी
खुशियों
स्टॉप
पढ़ना
गतिरोध
##बिर
135
एनएसयूआई
बुआ
खानपान
फ़ैसले
##क्ले
जण
रोनाल्ड
नमूने
##हीनता
एकाग्र
शाहीन
अनजाने
जोड़ा
मेलब
डिविलियर्स
##EN
लाभार्थियों
कालि
##ings
सुलभ
अनुप्रयोग
सुले
फंसी
गोमती
##स्मिक
जरिया
##ुमा
##ककर
कबा
1950
लाईन
शीशे
बेंगलूर
जमु
##amp
हरमन
आश्रित
पहाड़
कंडी
जनमत
ग्रंथों
दिग्गजों
चूना
हिमांशु
आढ़
##नाद
##ष्टी
##विस
that
घुमा
व्हील
विजन
ग्रेट
##हड़
रिटायरमेंट
तानाशाही
नाशिक
##दर्शक
भड़का
लड़ेंगे
सुनाने
साम्प्रदायिक
आरएस
पॉजिट
##gar
ईपीएफ
आरसी
अग्निश
कलह
गांठ
##ाचार्य
##शो
जाइए
खस्ता
APK
##वेरा
आभा
दबाकर
##मैया
हरकतों
बीएम
पालतू
एडवाइ
##राल
##ाधिकार
सोलह
##ट्टू
कांगे
##्ढा
व्याख्यान
##नेड
एडल
##न्वित
##ग्राउंड
प्यारा
मुख्यधारा
धनबाद
रिकवरी
##gram
अम्मा
NEWS
हेलिकॉप्टर
बिखर
##मंच
भंडारी
ईएम
##ंसाठी
बोट
##प्रसाद
आदम
##कोच
##ool
Story
देशद्रोह
कमांडो
##मांड
अभिले
स्वाइन
सीरीज़
केलेल्या
गैलरी
जोड़ों
ट्रां
##फोर्निया
पंचमी
भूखे
दिखेगा
ट्रांसफार्मर
##led
एकजुटता
कफ
खटखटा
खेलकर
मैराथन
मजह
##कोत्तर
बेचकर
कॉर्पोरेशन
रोजमर्रा
क्रीज
यूजीसी
TV
मिलीभगत
##ंहु
##era
##ूमन
मिलाया
परोस
Uttar
दार्
हंसते
##RP
किनारा
des
पैतृ
इफेक्ट
रेस्क्यू
वर्गी
जानकारियों
विधिक
अत्यन्त
शरा
1977
##गया
हसीन
नानी
पन्नों
कक्षाओं
##ैतिक
ओलि
फंडिंग
परमिट
गलतियां
दोघ
रत्ना
अजिंक
कंटेस्टेंट
##ung
August
##ंके
##आय
##हांपुर
विमल
दफा
##ruitment
जर्जर
NC
##AD
वीआईपी
गणराज्य
कलां
##योजना
एयरलाइन
अग्रसर
¤¿
घेतले
सिह
##live
ब्राह्मणों
पटाखों
##irl
लाठ
असमान
पैतृक
अंडा
प्रख्यात
##आरबी
असु
विकासशील
सिंद
##चुरल
हैंडसेट
अमूल
पंचा
माले
पब्ल
विवाहिता
घोड़े
इन्टरनेट
द्
##कर्णी
खामोश
अर्थशास्त्री
##ेज़
एनजीटी
रघुवर
स्कूटी
फोटोशूट
जितेन्द्र
एमओ
गरमा
साधनों
मौतों
बेची
लुटेरों
भोस
ट्रकों
दंते
अपमानित
114
##यानी
घाल
स्वतः
भीमराव
##डेन
रिसेप्शन
मुद
साले
बजरंगी
सले
##टीए
##जीशन
दहिया
विचित्र
##ताई
##ंटो
टाइट
##िशर
एनाल
##बुद्दीन
थोड़े
समझदार
Jio
पछ
घसी
ढ़
पड़ोसी
##क़ी
मेक्स
जुडी
##65
कटरीना
जोरों
चंग
##OM
असी
##ंपा
##रातील
##्लाद
फोड़
माध्यमों
तत्त्व
उम्
पशुपालन
मछल
डॉक्यूमेंट
असुरक्षित
उर
मुकुल
750
खामियाजा
##संत
ब्वॉय
मार्किट
फिली
Best
डिलिवरी
रबी
डॉक्टर्स
यांचा
भिगो
##ेच
दोहरी
यूक
निपटारा
पिघ
क्षमताओं
जक
दबे
रंजिश
वर्णित
इटावा
कारत
##ैत
##ोरे
विशाखा
जोको
##सुनी
असल्याची
##वीन
इंटेलिजेंस
ऑलराउंडर
जूल
बाँध
खेद
पंहु
रतल
##मार्क
##ड्डों
जड़ा
दिखायी
निकालते
World
##ES
खेलकूद
बढ़त
##प्ले
चाहूंगा
रामविलास
##ामंत्री
##डक
दरि
##डील
##वाड़े
अंग्रेज़ी
##वाड़
खोद
बेरहमी
घूस
---
लौटना
किसकी
स्वरुप
स्विच
पोलिंग
परवान
गोरे
मान्यताओं
दर्शाया
मुद्र
पहुंचाना
4000
##PS
CBI
गर्भपात
शाला
क्षत्र
हाईस्कूल
पहचाना
रविन्द्र
##……
शाहजहांपुर
बिच
कैरी
Med
हिले
ज़ाय
इंक
मुलाक़ात
खोया
मुखर
हरित
हेल्पलाइन
##23
##ार्जुन
लुटे
##ett
##नेल
##ज़ल
दाना
##ारसी
सीआईए
अलब
हाथा
नाइजी
##हैं
अजिंक्य
होशियारपुर
बेचैनी
##्का
गावस्कर
श्ल
भावनाएं
करण्याची
एथलेट
पुनर्गठन
माथा
et
संस्थ
सन्दर्भ
रक्तचाप
आवेदकों
IN
संचालकों
Su
website
Medicine
##ानिधि
पॉजिटिव
कुणाल
वाकि
##ॉमिक
माघ
ढाका
##शाम
चूम
स्वाति
##मयी
##डरूम
औपचारिकता
अस्था
थप्पड़
गुरदासपुर
गाजर
दवाइयां
तापसी
भीमा
एलर्जी
##ांवर
तिहाड़
##ूथ
दबोच
##AI
प्रयुक्त
स्तरों
आलोचक
##्र्स
##कैद
]]
Singh
शहरातील
चिंताजनक
सीक
तरल
निलंबन
शंकराचार्य
दीक्षा
##abad
न्यूयार्क
##चिस्तान
पीड़ा
खतरों
Fl
ऋषिकेश
व्यापम
##र्ताओं
हिच
##line
##स्ट्रॉल
##हाउस
##षाद
##ळ्या
उभरते
लाइनों
अमला
आगाह
दवाइयों
##केर
बढ़ोत्तरी
कुच
##ंत्रण
योजने
##्शन
##प्पे
लोट
संकेतों
Shiks
##खाना
सैटेलाइट
##चनों
##ोनें
सरिता
##ंबी
126
सुलझ
संप्रदाय
भगवती
कड़
एडिट
नज़
धनंजय
संगोष्ठी
##लका
मिलिट
##सात
मुजाहि
चिन्ता
रौन
##ipe
मेटल
वासु
घुल
क्रिकेटरों
फटने
ठिकाना
हुक्म
सिवा
मास्क
वर्कश
ओएन
रूपा
धारावाहिक
चौर
बेगू
चाण
पीसकर
छिपाने
लिंचिंग
##स्टर्स
##स्टा
टेंशन
कारतूस
बदलावों
##ड़कर
कसौटी
##कोल
सेनाओं
दबिश
आलेल्या
aap
गें
पड़ाव
सल्ल
##फोर्ड
बडा
##ories
रेणुका
मियां
##शाक
फरहान
घनश्याम
##हाइड
बॉयफ्रेंड
राई
'.
टीचर्स
खेमे
टां
थॉम
पहनना
गठजोड़
मीनाक्षी
अंधविश्वास
किस्सा
वॉशिंगटन
पेनल्टी
मिलाएं
गवर्नमेंट
वश
##क्साइड
ब्लॉगर
##पियां
गलिय
खुजली
सुनहरा
##ents
##वाहिश
सीजे
##घरे
जॉनसन
उम्रकैद
सुरजीत
पटनायक
घू
बीएड
अवमानना
पंडितों
नियत
एमबीए
रक्षाबंधन
सिरदर्द
##ुअल
पीएफ
##प्रिंट
खेलेंगे
##खिक
##रोट
बैटिंग
अष्ट
##बाह
पकड़ी
परिण
हासन
धर्मपाल
तबादले
सुस्ती
कीर्तन
##च्छिक
##दोष
##ाइयां
##ईई
man
नरक
##ild
काबुल
मैरिज
देत
स्विस
##28
चर्चाओं
वैशाली
परफेक्ट
##ale
कुलभूषण
एक्सीडेंट
##ke
लुत्फ
##क्यू
Media
##दशा
¤¨
पतंग
सल्
बुझा
##ाक
दरिया
##एचसी
118
साबुन
विजिलेंस
सामरिक
109
पट्ट
रान
करस
करों
राजनीतिज्ञ
वेदों
फ़िल
बालाजी
क्लीनिक
##वाण
ट्रांज
अरेस्ट
…..
एचआई
##ियू
तोड़ने
डरते
ज्वेल
महापुरुष
साक्षरता
एंजेल
लढ
डकैती
हक़
##77
##TV
टीसीएस
वस्तुएं
चित्रण
भाग्यशाली
सैंक
एप्प
अभियोजन
हरद
चंद्रयान
Pun
मूवमेंट
ढल
मेमोरी
रिपोर्टों
मंडरा
सन्ना
कैन
मला
लिवर
हर्षवर्धन
बगावत
प्रणाम
##icro
बल्ल
मिल्क
अस्थाई
इंतज़ार
गालियां
गुस्साए
बठिंडा
पीआर
।)
रामा
चह
जोड
।''
जुगा
पुष्कर
कठुआ
वीके
डोकलाम
##studio
Oneindia
श्लोक
आयोजकों
घेरने
रतलाम
राष्ट्रगान
सब्सक्र
##जीक
विकार
यूसुफ
बिगड़
##ठित
अभिमन
नॉट
हब
शक्यता
जनजीवन
जसवंत
new
ताली
न्यास
बांग्लादेशी
हेल्दी
Be
धुर
धमाकों
काठमांड
By
##गुणा
##कते
हमी
वल्लभ
##ाचे
कैप्शन
स्थानिक
पीरियड
बदलता
परिच
July
कांग्रेसियों
पड़ोसियों
थमने
जनप्रतिनिधियों
गोविंदा
download
हाकी
हत्यारों
उड़ाने
अपवाद
बाड़
ओल्ड
चित्रों
मुठभेड़
रघ
##ौड़ा
तेर
नाट्य
महारानी
चूका
बेगूसराय
विक्ट
अराजकता
बहुप
बुरहान
मेमोरियल
इंटरनै
जुटाए
##क्रमित
सतना
नंदा
औंस
रामकुमार
पैग़
करु
¤•
उषा
घेण्यात
एडमिन
जहीर
उन्हों
मिस्त्री
##गंगा
सिकंदर
आज़ादी
शरणार्थी
राजस्थानी
मधे
बचाई
##ेटिव
सरफराज
##र्चर
रुकावट
बैज
##ोजिट
नैनो
##मिल
आयेगा
रसूल
खदे
विनीत
भूपेन्द्र
##ेंडेंट
टैल
हाजी
उद्देश्यों
कसम
जिम्बाब्वे
सोव
विसंग
विवाहित
दूल्हे
चार्जिंग
प्रॉड
आम्रपाली
विजेताओं
नौबत
##ery
ढह
छापाम
##श्यों
जुआ
बिश्नोई
फ़िर
सोर्स
नेह
अफगान
अस्म
अरसे
175
लक्षणों
##ich
पकड़े
बागपत
पंडाल
Exam
जेड
विक्ष
भरते
खूं
निजाम
मौनी
बैठकें
मेडिस
जलने
सों
चुद
रेह
##्लर
उर्म
लिन
निगमों
-‘
साली
सबब
आर्डर
##ेंटाइन
##enc
मिडिल
तूफानी
भर्
##ईन
इंटरनल
कैशबैक
बंदोब
टल
##यची
फ्रिज
गंदी
रॉक
कर्फ
दुश्मनों
व्यंजन
लगायी
केन्द्रित
नाका
क्रिएट
ओएनजीसी
तूल
हुकूम
समन
श्म
ऐन
Bank
छात्रसंघ
##ैप
डिश
बाउंड
सेंगर
अनलिमिटेड
कॉमनवेल्थ
##ारो
##पंचायत
वारदातों
##कृष्णन
किरदारों
##oday
Bhar
निवडणुकी
खरीदार
पुरस्कारों
मिता
##धून
जेसीबी
ओलम्प
स्टंट
फार्मास
मीठी
गोवर्धन
समन्वयक
आकस्मिक
Day
नारद
उम्दा
झुका
##MS
पहुंचेगी
केवळ
राजपाल
कन्फ
##ject
पड़ेगी
##गामी
##EC
अनुज
अशांति
टेम्प
टाइटल
##ternet
ईश्व
##पणे
अनि
##जाल
उत्सुक
भाटी
मारक
दबो
पहुच
फ्रां
फील
अद्य
##lection
हसीना
त्रिश
Medindia
करोगे
मटर
550
##ॉर
बड़ौदा
ह्रदय
फंडों
##रार
##mber
करतारपुर
लम्बा
मतदारसंघ
गैजेट
प्रतिभागी
बेनी
##त्विक
संस्थाएं
सीवर
दुर्व्यवहार
क्रय
मदत
ग्रिड
हाथापाई
##येंगे
##सीमा
##स्सल
मूक
##निय
स्नातकोत्तर
##job
पीएसी
तुष
##ीनगर
मुख्तार
भयभीत
##स्केट
##ंडई
ज्ये
खिलौने
AAP
##नाथन
##वेन्यू
##निर्भर
लौटाने
##mer
बाराब
##डोल
प्रॉब्लम
रोहन
रपट
करणार
##दायिकता
1975
##its
घुम
##रक्षा
मंगळ
सूप
सातारा
नेते
सरेंडर
##नेर
अंज
तेज़ी
मालिनी
रजनीश
जामा
फ़्र
सट्टे
बस्तियों
##दाह
मारना
Photo
360
बनानी
Red
देशभक्त
दाखिले
पार्श्व
भागीदार
शक्तियां
प्रतिफल
मारते
डुअल
##उद्दीन
बेघर
कपडे
उत्तराधिकारी
टीआरपी
तेजप्रताप
अनाथ
लुभाने
घड
##वाब
मुर्गा
बुआई
##दड़
##केत
कैडर
अन्नाद्र
नरसंहार
जताने
कारपोरेट
भगो
##मेस्टर
छंट
वहन
खाद्यान्न
सरोकार
राजकुमारी
पढने
##समी
मन्त्र
असद
##========
##ound
करसोग
चंप
##ेरी
Web
di
प्रक्षेप
दोन्ही
टिप्पणियां
खाप
पौष्टिक
चाणक्य
दूत
खालिद
वाघ
##oor
क्वॉ
तरफ़
अलगाववादी
औषधी
श्रेयस
आरोपितों
अद्वितीय
##Tube
सविता
धरात
##eng
बर्बादी
##ection
मंगेश
स्टारर
हैट्रिक
ताबड़
अन्नाद्रमुक
चन्द्रमा
##जिम
केल
विचल
डेयरडे
शर्मसार
पक्के
बत्ती
##oftware
##aster
कन्नौज
डंडे
साइट्स
ड्रिंक
त्याला
मॉनि
शौकीन
करणे
##बूल
हैदर
सघन
##स्तिक
सूचक
मुस
मौसी
बोल्ट
विक्रेताओं
SBI
मणि
एक्टि
##तिल
पराली
अचल
इलाक़े
##पैड
राघव
सेरेना
##nel
##फाक
##ड़ला
पृथ्वीराज
इंद्रजीत
सरोवर
अफ़ग़ानिस्तान
करोड़पति
खोने
आभास
##फैक्चर
##्पी
##चली
एग्जिट
Vir
चिराग
free
मसौदा
भर्त
खिलवाड़
तरजीह
रनौत
सूझ
वृंदा
RBI
##ंतव्य
कंसल्ट
##पोल
कांगे्रस
नाली
##गुण
म्हणजे
News18
अंधकार
शिला
##33
काका
इलायची
##ँगे
नकवी
प्रचलन
इन्द
फाइनेंशियल
##ध्
रोमन
दाएं
मूर्तियों
##ोबा
चौकशी
##ढ़ाई
##प्रद
कसने
घंटी
ज़ाहिर
socal
सरकारने
बर्फी
##माफी
पिए
हटाना
छतर
बनाएगी
Review
मून
##हुआ
शुभम
रिपब्लिकन
औरंग
झेलना
##ोलॉज
क्रा
मूंगफली
नाराज़
गोहाना
इंसानियत
सामर्थ
पपी
##शब्
शिक्षिका
सहभागी
पैग
##जोर
परिणी
मांड
लेंगी
बहाव
फूं
गुन्हे
कतरा
साधक
कार्यपाल
##extlive
देवरिया
परंपराओं
हत्यारे
शिक्षामित्र
कैथ
लक्
##वेग
खरीदें
ताज़ा
डोप
सर्कल
ख्वाजा
मादक
पीएमओ
अफवाहों
पिंजौर
करण्याचा
Today
##न्धन
द्विआ
”।
##जेज
##aking
संवर्धन
जनप्रतिनिधि
कमाया
तास
करिए
वॉर्नर
फ्लैग
निगल
सितारा
टिकटों
सोचती
असता
वाहिनी
हीरोइन
पिक्सल
आत्मनिर्भर
जोस
inst
ओएस
##लीज
जमाया
बंधु
feat
पायेंगे
आपातकालीन
बारें
सहेज
हार्डवेयर
थिर
इंडी
आईएसआईएस
##्ते
जिज्ञासा
स्ट्रोक
दण्ड
ट्रैवल
वशिष्ठ
डेयरडेविल्स
मोटापे
ख्याति
रुकी
वाकिफ
एना
##ater
खुर्शीद
सहूल
##rd
कुम्भ
शिवकुमार
टूरिस्ट
धाव
घेराब
प्रोटोक
लड़ते
प्रायोजित
भील
निहार
##ti
कें
बैर
दौड़ा
FIR
आत्
##ccess
कामे
Nove
बहुसंख्य
सोवियत
होर्ड
##ollow
प्रतिभाशाली
अमीरात
खफा
यूक्रेन
हालातों
##वरा
November
द्विआधारी
छोड़ा
विफलता
संकाय
रोककर
मिनिस्टर
साहिल
##िकल्प
##दरा
उच्चा
##66
कोच्च
बहुगुणा
##वठा
डोग
सोची
बिखेर
कुंजी
##धीनगर
##ऐंड
पल्ल
सातवीं
धाक
##hani
किन्नौर
सचिवों
तारे
नाइजीरिया
साजिद
विनायक
##त्कारी
संधू
खिसक
अंचल
हारी
अनुशंसा
##साल
टूरिज्म
org
##UR
Business
उर्वशी
##रेटिव
लैंडिंग
द्या
चौथाई
तवज्जो
##जीएम
कार्यवाहक
ज़िम्मेदारी
##कुम
कंफ
बेबा
शेखा
आज़
शश
बढ़ना
off
काजू
सिरो
सूखी
##गि
##सेवकों
##वणी
##ज़्
रौनक
सेटअप
अधूरे
लाता
लालकृष्ण
##rig
all
##ज़ों
सीक्रेट
##जीवियों
बुद्धिजीवी
Sub
##लेश्वर
अभिमन्यु
मंतर
कैराना
गीतकार
आटो
किसका
गट
जेवर
सुखा
एक्सपी
दार्शन
हस्तांतरण
अव्य
220
##र्तक
##habar
रब
##्के
कार्यकर्त्या
पीडि़ता
अपनाते
चलाता
आख़िर
सुजान
शाहाबाद
बिजनौर
फ्लॉप
धमका
कस्ट
¤¸
लॉर्ड
##बरोबर
प्लाजा
महाराणा
असहज
अउर
##hand
कालिया
हिलेरी
##ासित
द्वारका
सेमेस्टर
संभवतः
कालेधन
##िकल्स
आज़ाद
वर्कर्स
पीसीबी
टैगोर
माजरा
डिज़ाइन
1986
##नाज
डीडी
##र्जित
##पर्सन
Of
स्मॉल
##नात्मक
##र्वे
कोर्
बदायूं
टहल
फाइलों
सोहन
मंत्रालयों
धरातल
फाटक
संकोच
राजभर
1962
ओलिंपिक
##ystem
नीत
मंडला
मक्खन
will
परवेज
##वादन
Col
##जनन
ताबड़तोड़
भनक
पराजय
सोलापूर
रणधीर
inextlive
बढ़ाया
रविदास
##yo
##ातील
कॉन्ट
अनावरण
तिक
##ड़ियां
पूर्ववर्ती
इंतज़ार
##किक
##टीई
मंजिला
दोपहिया
शहरात
रूक
सुदर्शन
लेब
शाओमी
चूँ
गांधीनगर
##ina
कोला
जासूस
##फ़े
##45
हैरी
119
रोनाल्डो
##जापुर
पोत
117
145
सजावट
गैंगस्टर
बाकि
##ंचन
बेरोजगारों
##''
##तराम
जिनपिंग
बजाने
##ble
पोजीशन
राइडर्स
जफर
##ियनों
##केयर
पटकथा
फ्रेंचाइजी
##देशिक
##भिषेक
##कल्याण
गोडसे
अग्निशमन
ऑस्कर
लगवा
##ुग
##ाहट
घुमार
लिमिट
३०
फैक्टर
कुआ
नतीज
एहतिया
एथलीट
Mot
प्रक्षेपण
राज्यात
##ढ़ियों
##ैद
##रोवर
पर्ची
##गर्दी
दुग्ध
123
नुस्खे
आयेंगे
तीर्थया
te
काल्प
स्टंप
Camstudio
##ूले
लड़ा
गधा
रोहिणी
मंगा
गावा
छेड़छाड़
इंडिगो
हें
कूड़े
पड़ोस
##िस्
बीजों
फेंके
संभाली
उड़ान
पूँ
तीज
बाजवा
बैठना
##man
##वार्ता
रीना
##ब्रेट
##वृष्टि
ग्रसित
मौखिक
फटा
पुरातत्व
जखमी
घेराबंदी
स्लो
एनबी
सैलानियों
अनिता
अभिन्न
मीठे
प्रवचन
मिताली
##ुकुल
सांख्य
पहाड़ी
##बेरी
सिर्
##ॉन्
संतोषजनक
हस्तमैथुन
तहलका
add
फिंच
चबा
बाराबंकी
कम्पनियों
छापने
थ्र
##प्रकरणी
सुरक्षाकर्मियों
खरीदारों
कंटेनर
##पीओ
खरीददारी
सुब्रमण्यम
##बेस
जख्म
मिर्जापुर
##खले
बादलों
##फाइड
240
नां
सीमावर्ती
Website
##लिक
##किता
उतरते
प्रमाणात
टेक्निकल
टेर
सकने
गोले
उठती
सुमित्रा
काउंसलिंग
झोली
उन्ही
बांधकाम
हराम
भवानी
रीता
English
पिया
बाम
बबल
बेख
##दुरी
##राइड
सिद्धान
##िवुड
##नीश
शासकों
रिमोट
##दीक
पम्प
##फ़ा
बेद
##कमल
##णारे
सीरियाई
वफा
अनैतिक
उघ
##मन्त्री
सुल्तानपुर
छक्कों
नग्न
अन्तिम
##बैंक
तुषार
##रिस
तानाशाह
दुरा
रामनगर
इन्ही
मैनु
##AC
1985
जज्बा
हुकूमत
खींचा
Ind
कमज़ोर
##ण्ट
मिलावट
##्यासह
खाती
दोस्तो
##ts
##ंबना
सूर्योदय
Result
फोर्
ज़िम्म
साहनी
हेरा
श्रृंगार
बेई
##िरुद्ध
##प्लस
कैलिफोर्निया
योगेंद्र
पूज्य
गद्
देय
हामिद
बचाए
##न्हीं
मुट
परिप्रे
नंदी
केतु
मेक्सिको
लॉटरी
मेनका
घुटनों
एलआईसी
##ular
टॉम
वजहों
ap
##बां
फोर्ट
लंग
रोना
सुई
लेंस
टिप्पणियों
कर्फ्यू
घुमारवीं
bl
भूमिगत
स्वाधीन
एडीजी
सौदों
आत्मक
पहेली
1988
खुराक
Recruitment
ओलम्पिक
सगे
पहिया
खाए
सजी
जिहाद
Ma
लॉन्ग
##हराम
बेडरूम
इजहार
सीक्
जार
डीन
धारक
डायर
डिस्ट्रिक
मजीठिया
जैसल
ट्रिप
पोशाक
मूर्तियां
कोलेस्ट्रॉल
##स्थापन
बिंदुओं
सामंज
औरतें
समझती
बिटक
त्यात
##ियारों
कांब
चमकदार
कर्मों
जमाल
कुमा
परिस्थितियां
##ense
Mobile
निर्वहन
महापालिके
टाक
सिमर
लोधी
Rel
230
गर्ल्स
सत्संग
फिलिस्ती
चाबी
फिराक
##mart
सायना
तबियत
एडल्ट
युन
ब्लाग
कैग
डीसीपी
कटी
जीपीएस
इम्
##तिमा
जहरीली
सीपीआई
रुग्णाल
गोष्ठी
1970
गुजारा
इनमे
इन्फोसिस
नह
मों
##बळ
कॉलम
न्यौ
ओंकार
हिरण
आविष्कार
##भात
पोख
धर्मगुरु
मस्जि
स्कॉलर
ज्यों
गनी
बहुच
जींस
##हीत
इशारों
ख़राब
##मोबाइल
व्यवसायिक
खुर्द
##ms
शौर्य
फास
पढ़ते
##mit
मोटो
##ortal
ताइवान
होन
##outube
##डान
नियो
अनौप
गाड
अयस्क
##शिष्ट
खुशहाल
चन्द
##ेंटल
पतला
स्टोन
धारदार
काल्पनिक
##खत
##वाचित
##फोन्स
##39
निषाद
दफ
This
आजमगढ़
काफ़ी
एफएमसी
निपटाने
खर्चों
डायमंड
केकेआर
धक्के
चांग
अश्वनी
बटलर
##ंटन
गड़बड़
यहा
भागते
विजिट
##खान
कुलकर्णी
एफसी
चोपड़ा
##व्ह
मनच
शराबबंदी
कसते
?"
Vid
बैट
##सिटी
##विले
पुरुषोत्तम
हथक
पडे
करणी
खुशहाली
लिखता
अंड
उतरेगी
जोगिंद्र
##िमेंट
आपण
ट्रिब्यूनल
कुंवर
पंवार
प्रेसिडेंट
हज़
कामगारों
मिनिट
बिलों
अनिश्चितता
122
पोलियो
भावों
किस्त
कनिष्ठ
##68
अटकलें
##बम
##गेशन
दुम
दलाई
सिंगला
##गाट
बुद्धिमान
##र्मित
##वेरी
दिखेंगे
उर्वरक
राजाओं
चोक
भरण
##ेंजर
दिवालिया
##िस्ट्री
हौसले
read
Not
##सभ
गवाहों
औजार
निष्कासित
##ोहण
##so
##चित्य
तकनीकों
नाश्ते
सहभागिता
जंतर
ख़राब
बल्ब
खजाना
लामा
##िल्ला
##adh
ब्लूट
जातिवाद
##स्ट्रक्शन
कीट
अंगूठी
नतीजतन
खेस
प्रजनन
##शों
##क़ी
नूरपुर
##lication
बहल
पद्मश्री
जरूरतमंद
कॉन्ट्र
डीएस
##कारण
जूता
क्षु
संवेदनशीलता
पहुंचती
महाशिव
अदिति
छिंद
प्राध्यापक
नव्ह
##ations
क्रोएशिया
राक्षस
आदतों
समायोजित
,,
कमोड
##obs
फुले
थॉमस
दयानंद
परिप्रेक्ष्य
मेँ
वेश्या
बाउंड्री
वर्षगांठ
अनौपचारिक
किन्नर
अंदा
त्याच्या
##ther
सहजता
चूँकि
हज़ारों
पुर्तगाल
अधिका
##जाई
##ेसी
ब्री
एयरफोर्स
डेवलपर
वैकेंसी
चौबी
##भन
##मूलन
सुविधाजनक
प्रबंधकों
Na
सौते
co
आत्मसम
तरा
##aryana
करण्याचे
त्याचा
पथरी
सामंजस्य
तफरी
मुंग
बुनियाद
सेवानिवृत्ति
skreen
रखेगी
सबरीमाला
प्रस्थान
इन्सान
न्यायालया
समता
दारू
रईस
##IV
एसए
तांबे
##LL
पांचवां
##ंभू
बेचना
##ंगिकता
यातना
सादगी
नर्सरी
नेहवाल
कालीन
भटका
वापर
श्मशान
बछ
लेह
दुश्मनी
4G
कम्यून
पिक्चर
किड
खेप
ट्वीटर
तिब्ब
मेने
कार्बो
##करम
##्टो
भोला
सीतापुर
##ूर्व
##िलिंग
धुआं
पकड़ने
फंक्शन
##urn
स्थितियां
बेक
1987
##रेड
निवडणुकीत
निर्भरता
##नाइजेशन
प्रताड़ित
सिवाय
संतुष्टि
ब्रैंड
कंडोम
टेक्सास
गुलजार
ऊंच
वसूलने
वजूद
##नमार्क
लिपस्टिक
##स्सलाम
विचाराधीन
बलूचिस्तान
सर्राफा
गुजरते
एचआईवी
कुदर
रुद्रा
बंटवारा
संक्रमित
अग्निहो
सुगंध
##be
गाथा
यूएसबी
##duc
आतिश
तक्रार
##िट्यूट
सँ
हाथियों
व्यू
कारीगर
##केला
डीजे
व्हाट्सऐप
रंगोली
##रियल
1983
##भक्त
अमानवीय
सीवी
खाक
पलक
काठमांडू
डालता
ज्येष्ठ
##67
##कीर्ण
##आरटी
कंज्यूमर
क्रैश
नकाब
अस्मिता
Card
आवाहन
विषा
अष्टमी
आधारशिला
Fil
समाह
दिखाती
जमान
तालुका
ख्वाहिश
बिट
##डीह
वीरता
धांध
जीतू
प्रमुखों
आयोजक
अस्सी
स्क्रीनशॉट
##बॉक्स
विडंबना
चंगुल
ब्रेस्ट
मरण
भर्तियां
##मुन
##चू
राहगी
आकाशवाणी
रचनाकार
नवनिर्वाचित
बंधे
मेकर्स
कर्जमाफी
दुष्प्रभाव
वंदे
हरदोई
विजया
सिर्फ़
PD
लिक
##जक
जाऊंगा
बुझ
शमशेर
इंटरनैशनल
Health
##लां
##ush
अवधेश
##वर्षी
,”
विध्व
##राइच
१४
##>>
यूनि
प्रभाकर
Ko
करुन
टैलेंट
चड
##सरा
##किशन
बहादुरी
रजिस्टर्ड
भैरव
लेक्चर
बहनें
##वाश
कॉस्ट
पारि
उपलब्धियां
जर्सी
व्हीकल
##माद
ढु
बहुचर्चित
निपटान
रेकॉर्ड
इण्डिया
भुज
##जॉय
औचित्य
##र्र
##sc
गंवाने
उपजा
बंदरों
तुमको
Word
बनावट
##डार
##ार्किक
##स्वास्थ्य
शाळ
ठेस
जैसलमेर
मार्गा
तेलुगू
बाण
मोस्ट
##कॉ
do
कंडीशन
वनस्पति
विहिप
ढूँ
दोहन
अफरा
वैर
एसएससी
अस्व
रोधी
सोमवारी
नसल्याने
खड
##सूत्र
वीसी
रीमेक
xxx
अक्षम
कमियों
पुण्यतिथि
Air
he
जुकाम
देवास
कोशिका
##44
##ांे
मोहर
सूत्री
एमटी
RSS
लियोनी
सिपाहियों
कायदा
नेतन
शोभायात्रा
कोच्चि
सवे
याचा
उत्तेजित
रामदास
113
हिटलर
पीएल
chan
बूझ
किक
वृत्त
##elf
विनिर्
मॉब
आकृति
बंपर
झाल्याने
फंदे
स्काई
परिपूर्ण
सिंघल
साड़ी
असहमति
असुविधा
पाला
एले
सुमारास
क्यूँ
उत्पीड़न
तल्
यूनी
आमंत्रण
पिंड
##िसी
##सचिव
कूप
क्षेत्रफल
उस्ता
मैसूर
##बनी
जलाया
राधे
तनावपूर्ण
सुशासन
स्ली
उन्मूलन
ज़िंदगी
परस
मेलबर्न
##मिशन
बहती
उठाएं
रिज़
वस्तुत
पुष्पा
इल्
##जेंडर
एथलेटिक्स
वेज
प्रयासरत
रिका
इत्ते
अल्ट्रा
##ृश्य
##ियुक्त
##ंजस
लौंग
दस्ते
अधिशा
##ौड़
पकड
वाइल्ड
सामानों
रस्
बाईपास
ज़िले
परीक्षार्थी
सहगल
##टाव
प्रभास
सांगवान
ख़बरें
कस्टमर
गिरफ़्तार
हिस्ट्री
पहुंचाई
##जेब
132
10000
चारो
औषध
dis
पंचम
दयनीय
नंगे
हबी
पर्चा
चौदह
गुड़गांव
थां
रिस्क
##ures
दंडा
##ळगाव
चक्का
Cre
जीटी
149
##ोजगार
डिपॉ
##arn
चुकीं
साझेदार
खेसारी
##़फ
अन्तर्राष्ट्रीय
सबूतों
आर्टिस्ट
##umar
परफॉर्म
कुर्बानी
##व्रत
##ुअ
भेजें
लागले
YouTube
mar
जमाना
राज्यातील
डों
लीगल
##इलैंड
बिष्ट
ऑफलाइन
असंग
आत्मसमर्पण
अपनाकर
बंदोबस्त
कचहरी
जैकलीन
करुणा
भरती
आलोचकों
मालवा
##बड़ा
##ुला
बंटी
]]>
लादेन
हारकर
पंथ
जनसत्ता
अस्थमा
रबर
कंधों
होईल
वर्षां
अस्थाना
##दिवस
प्लीज
अमूमन
11वें
तैयबा
तेंदुए
कारखान
##टेकर
खंडवा
##बिट
##क्सो
,‘‘
##ैधानिक
कटाक्ष
महाभ
टंकी
आरपीएफ
करि
सहूलियत
जागे
पुनीत
कलेक्ट्रेट
मुंडे
उत्पादकता
करवाएं
##थेली
परिणीति
जोसेफ
घोषणाएं
सहर
अंकिता
चंद्रकांत
##ose
वतन
असहाय
प्रतिभाओं
पाउंड
मनपा
लड़ी
बसु
रामगोपाल
चाला
असें
विपुल
टुकड़ा
उन्होनें
युज
सुझावों
फोटोग्राफर
वृषभ
अदाकारा
कृषक
##पश्चा
लेप
कार्मिक
नीतू
गुलामी
तेज़
##कमिंग
कुशलता
##बर्स
बेनामी
चंचल
##ौरिया
कारखाना
##ुतीकरण
Bit
झट
म्यूजियम
टोक्यो
उमंग
मुरैना
11वीं
सिंड
बेसन
##umber
परिकल्प
करणार्या
वायरलेस
सोनभद्र
कांत
कार्ल
लाव
पर्यवेक्षक
##बॉ
२५
दृश्यों
##ज्जित
हथेली
##IA
##ोदरा
अनुपस्थिति
पुराणों
भिड़ंत
##मीडिया
भोसले
प्रचारित
अनुष्ठान
औषधीय
इन्हे
अप्रिय
##र्बी
सेक्युलर
आहूजा
##ोंस
Dis
असमंजस
फ़ीसदी
क्रूड
जेएस
गुलशन
पैठ
जागृत
हरमनप्रीत
##ैक्शन
मालिकाना
जीजा
अन्वे
बरग
सम्प्र
कंडक्टर
दाढ़ी
तेरह
ड्रे
तख्त
यकी
##थला
जावे
थर्मल
वयस्क
यामध्ये
श्रोताओं
इनामी
./
डेटिंग
तमन्ना
कमाए
नेहरा
आरसीबी
##ैण्ड
##ert
गलियारों
बदसल
##ायेंगे
कार्यशैली
चंद्रबाबू
संपादित
नेवी
ग्रेजुएशन
अनिश्चितकालीन
अभिजीत
एडीएम
##क्लू
##्यानुसार
अशर
##ran
ट्राइ
भुट
हरियाणवी
शार्ट
सहेली
ऑब्
##ानूनी
जर्नलिस्ट
एकूण
पूर्वजों
पूंजीगत
IT
प्रकरणों
##घोष
पडऩे
विद्यापीठ
पड़ताल
सीना
प्रोटोकॉल
डांट
##कीर
यूरिया
पापों
अदाय
धारकों
जिम्मेदारियों
किशोरों
यों
आंकड़ा
शाकाहारी
रैफर
##एफएस
केपी
ar
सुम
पिंप
##ंवैधानिक
##rime
##ोता
नियमा
स्फ
##ख्वाह
लण्ड
वैश्य
करप्शन
जनमानस
एसोसिएट
##समिति
फिरोजपुर
आपूर्तिकर्ताओं
##दिरा
##सिव
बास्केट
चीज़ों
भिंड
##opy
सेंटी
फर्नांड
खासदार
बेला
साईट
ब्रजेश
बैतूल
प्रपोज
अपनाना
अज्ञान
धर्मेन्द्र
घिन
प्रादेशिक
मताधिकार
बढ़ाकर
जोड़े
महानिरीक्षक
विषम
पंखे
भई
अमरजीत
##एमए
दबोचा
विदर्भ
पिंकी
१६
राठौड़
अनगिन
##माइल
पुढे
परीक्षार्थियों
##बला
कांटे
चैत्र
भेजते
अनूठी
सुपु
अभिनेत्रियों
उतरकर
रितिक
त्रुटि
##क्ड
पोस्टम
ड्रॉप
बढाने
रशीद
भोर
सुबोध
पर्वतीय
अंदेशा
प्राची
##रेल
प्रेज
##क्कल
वैली
ठाण्यात
वाच
महाराष्ट्रा
पटल
लाभार्थी
भाषणों
Tags
विनिवेश
मैत्री
क्लिंटन
##adi
महाल
चौराहा
नवल
धनुष
650
अपनाई
Hot
##मेंट्स
##omi
उस्
श्रुति
बेचैन
नवाचार
चुंब
दूल्हा
##गुन
##्टवेयर
उज्ज्वल
##____
##प्रमाण
वीडिय
अौर
महत्ता
नाइक
शिवानी
##द्वारे
दिलाता
जाएँगे
सेल्फ
करतीं
आपूर्तिकर्ता
##ology
##ेच्योर
##णुओं
माही
सुहाग
मऊ
बीके
##500
भागात
##मीनियम
असंतुल
ब्रेकअप
बीएससी
मुक्केबाज
कायर
बीघा
बिज़
आलाकमान
भट्टाचार्य
एएनआई
##ताही
श्रीसंत
बाजपेयी
स्पाइस
##88
##ड़की
करूँगा
##ध्व
निर्धन
134
अदायगी
विदिशा
अपकमिंग
मुंशी
##unction
ज़ोर
##मीं
स्वरा
व्यवस्थाओं
बदसलूकी
असामान्य
June
pm
डीके
यात्राओं
झि
##बियन
##आें
##uary
फरिया
राइट्स
##lowjob
##लियन
##चंद्रन
दीवाने
रुग्ण
##बानों
##रोधी
##दंड
##word
साहसिक
ऑनर
वर्षी
एडिशन
##WE
##न्दर्
नंगा
एम्बुलेंस
छोड़ते
न्य
शाप
पीटने
सडक़
प्रशस्त
बब्बर
about
पच्च
##फू
##BC
लिखें
##मिट
नागिन
तोप
बाह्य
राणे
नेहरु
बालीवुड
दुष्ट
दलालों
कसी
##शर्
गाड़ियों
करावी
##लिड
111
ब्लूटूथ
##फिंग
त्रिवेंद्र
##्तियार
रोप
ऑक्ट
कुण्ड
मित्रता
##ोदा
अबु
##ोदर
असहि
##संभव
##िंस
##गुप्त
उत्पादकों
भिखारी
ईटी
##र्कों
करूंगी
पट्टा
बीएचयू
भरतपुर
कट्टरपंथी
नासिक
गोविन्द
मेधावी
##कॉन
##वीकरण
##जूम
ख़िला
##बहार
##वाते
प्रबन्ध
##war
##स्क्रीन
स्प्र
पोप
जेने
शाहपुर
बोलकर
पहचानने
झी
स्वतन्त्र
हाऊस
बागवानी
ताई
ग़ज़ल
वक्ताओं
इमोशनल
बहराइच
आंदोलनों
राबड़ी
महत्त्वा
##काई
मुखा
दीक्ष
कोलंबिया
नायिका
मस्जिदों
घिरा
pre
अनोखे
एलओसी
##्मो
उड़ाया
प्रतिरोधक
बीयर
डिंपल
दिखना
इकाइयां
##ोर्स
सिंधू
टीकाकरण
बुद्धिजीवियों
होल्डर
जह
##55
असंवैधानिक
लेक
नईदुनिया
राजभाषा
गौड़
ज्वाइंट
क्रोम
aur
दार्शनिक
झेलने
दीर्घा
भस्म
बैं
सामर्थ्य
अग्निहोत्री
##ड़ो
सत्तर
वेरि
अभियुक्तों
##con
कूटनीतिक
मलबा
शैले
यहूदी
we
अघोषित
रिएक्शन
अठ
ऑस्ट
सफ़ेद
याने
मोर्च
महानायक
बिटकॉइन
भाकपा
ताव
शेफ
##ूति
अद्यतन
##सिल
गार्
पिकअप
##क्सन
गर्भा
निब
दिलवाने
अकादम
ताज़ा
##गावॉट
पटर
कोरोना
ब्रिक्स
वीपी
वज
बेब
चटनी
ph
##बाबा
परवर
ब्रश
रेवाड़ी
¤²
बेइ
पुरजोर
रिफंड
डराव
बैंकर
my
शक्कर
कहासुनी
घटती
##फ्ल
प्लेसमेंट
झुर
जिनमे
रफी
बेत
डिस्ट्रिक्ट
##िनो
जड़े
रसीद
बारहवीं
’.
##ंजे
वेस्टर्न
बाट
मदरसों
तत्पश्चा
रियासत
ज्ञानी
वीरेन्द्र
शिवरात्रि
स्नैपड्र
अंशु
डटे
शाहरू
धौनी
नजरों
##व्ही
निरन्तर
नक्शे
विशेषताओं
बबलू
##ki
वानी
पृथक
Gov
##क़त
##वाडा
##जेन्द्र
नियमन
##ॉर्टम
विलियम्स
निव
यांच
डोभाल
विकृत
शुभारम्भ
खिलाने
कसरत
लेबल
लड़ना
इंफ्रास्ट्रक्चर
##पत्य
सुहाना
महकमे
तिज
घरा
तीखे
नगदी
इतिहासकार
आम्ही
##ड़ेकर
ह्यूमन
ब्राव
कैरो
परमजीत
पीपीपी
बिड़ला
##aper
प्रफुल
आत्मकथा
##ाच्या
गुज़र
##ंकू
कौंसिल
कालाधन
अपरि
खात्या
इंजीनियरों
वर्कआउट
##गों
##धारियों
करूँ
पिछड़
##मून
फेरी
महाशिवरात्रि
##प्राइज
##स्पून
अरु
ज़ायोनी
अस्थिरता
चचे
वांग
ऑक्स
यूपीएससी
बॉक्सिंग
वाइट
डेरे
नूंह
परिकल्पना
मेथी
##जेय
##ओगे
पनडु
मॉडलिंग
सौन्दर्
सिद्धार
153
लाभांश
##पट्टी
##्मिता
पड़ते
It
चेयरपर्सन
116
वॉलेट
अलबत्ता
लॉज
एक्सपोर्ट
कार्यालया
रामलाल
गोरी
डेनमार्क
फारूक
##दहा
##थिन
अवरोध
##न्दे
मनप्रीत
पोते
छः
धरण
##ॉर्डन
सॉल
##ब्बों
क्षत्रिय
स्लैब
भाईचारे
सुरक्षाकर्मी
##स्ट्रियल
अधीनस्थ
प्रोटेक्शन
नालंदा
टेलिक
स्त्रोत
प्रेषित
वेल्स
महानगरों
सीक्वल
##प्ला
##ames
हंसराज
##26
ओपीडी
धर्मवीर
समझौतों
col
##टरों
धड़
शिका
अलैहिस्सलाम
सृजित
मंचन
##St
किश्त
वसूला
MS
बोनी
January
छमाही
कीर्तिमान
खयाल
पोस्टमॉर्टम
कराएंगे
उत्तेजना
##ुड़
मायनों
रेडमी
मधेपुरा
नगरसेवक
अफ़
जमींद
अनुमोदन
सीपीएम
##योगी
##ंकल
विवेचना
अनगिनत
इन्फ्रास्ट्रक्चर
संव
राजना
बाधाओं
##ober
वीज
स्वरोजगार
डिपॉजिट
द्रो
##लाया
##तरंज
जावड़ेकर
##राजन
##्डर
बल्लभग
तंगी
शाहरूख
गंतव्य
##ऱ्या
फिरौती
शिवजी
विशेषाधिकार
तिरंगे
उस्ताद
##rain
पदभार
वर्चुअल
भ्रमित
पेंच
##देख
पहुंचेगा
भण्ड
कारपोरेशन
रैलियां
नमो
रोड़
##फेड
पायेगा
Is
नार्थ
रिहाय
कहो
##ीमत
उर्मिला
जनाब
Mi
बढ़ाता
चर्चे
स्वीकार्य
रिवर्स
##ton
PC
पात्रा
बुलेटिन
हदी
cre
टेक्स्ट
टोन
देवीलाल
अनूठा
डरे
##पका
मीडियम
खंभ
1960
क्लासिक
फ़िल्मों
अपमानजनक
दफ्तरों
पूनिया
##ल्व
बोप
खासे
सुष्मिता
##tember
स्केल
##देवा
1982
##स्टो
आईपीएच
सेटिंग्स
एमबीबीएस
बिन्दु
मेसेज
एसजी
असंतु
शबाना
भूले
बीबीएन
##ाबाद
कलर्स
प्रोसेसिंग
हैः
बाळ
##ï्रीय
चाहेगी
पीक
जयशंकर
ब्रावो
एचएस
अनंतनाग
अनदेखा
हत
##estion
##ights
##her
जातिगत
सीड
सेंचुरी
आरिफ
उड़ीसा
पनाह
बेचते
दुपारी
##ोटे
वास्त
दिसून
vi
हूडा
नुक़
लौटकर
जागरुकता
लॉन्चिंग
झाब
##गुल
हरसंभव
नक्शा
इन्वेस्टमेंट
कुंज
उपवि
मिलीमीटर
चेतेश्वर
##NU
जाओगे
ढक
रक्कम
छतरपुर
निर्या
शनिदेव
आभारी
जोडऩे
Act
##िय़
आपरेटर
लिपि
अपनाए
काँ
सद्भाव
ताहिर
##ital
सत्यम
उखाड़
बेहाल
उरी
टिहरी
##ंघाई
नाकामी
##िताबी
अजीज
शकील
न्यूड
लड़कों
इन्कार
मिलिट्री
कड़ा
गणेशजी
##पीएल
सन्नाटा
ग्रेनेड
राष्ट्रपिता
बचाकर
सर्कुलर
चाक
##27
जेव
मानचित्र
घाटों
उस्मान
क़ानून
बेवकूफ
प्रताड़
ईश्वरीय
गद्दी
बीडीओ
भरमार
कूच
blowjob
स्नैपड्रैगन
##वाक
युजवेंद्र
करवट
वेने
हवाईअड्डे
##याग
1948
बैठता
धीमा
##elp
असलियत
##ॉमी
जनसम
सैद्ध
प्रमोट
मसौ
मेटा
जनसंघ
बक्
लाजवाब
बल्ला
भांग
सिद्धारमैया
सकेंगी
अमीन
बकर
प्रेरक
साउंड
इम्त
शशांक
चुनकर
##formation
सरका
एकाएक
##तुर
एय
समज
एचसी
30000
हबीब
हस
एकसाथ
हिंदुस्तानी
Click
Sex
अभिवादन
##डेकर
##दुद्दीन
Rating
टेस्टिंग
चुनना
एकाग्रता
अनुयायी
पिय
##पादित
दुविधा
गलतफ
क्लिन
सैद्धांतिक
##प्पो
##ोलिक
एनिम
कलाई
##ंटीन
##ices
##तरे
आयोजनों
()
imp
खड्ड
##फुट
##याँ
स्ट्रे
##श्रम
टुकड़ों
स्वय
IC
सहि
शौचालयों
खूनी
नजीब
मेहुल
लकड़ी
##वेत
संस्कारों
मानसरोवर
कंस्ट्रक्शन
Big
मौतें
कस्त
ऑर्गे
ऊंट
गिलानी
##ोजर
उभरे
जकार
बारीकी
कुन
शकु
हंसा
होशंगाबाद
##ांमध्ये
धांधली
कोटला
काद
करुणानिधि
बांड
पढ़ेंः
इंस्टिट्यूट
हीन
सदस्या
गुरुकुल
1965
##हाट
इंजिन
टूटकर
एकादश
तात्पर्य
##स्ट्रेलियन
चांसलर
बौछ
प्रकाशक
क्वालीफाई
किंवा
##diyo
सोचिए
##for
वाजता
##kia
वीरवार
श्वास
सिंदूर
फ़रवरी
147
पेटेंट
कागजों
वोल्टेज
##ड़ू
प्रीपेड
मेनू
##ype
##पाथ
रिसी
टुकड़े
बांधने
ऑफर्स
त्यांची
##rop
ज़्यादातर
##मंदिर
चुकानी
ज़िम्मेदार
फ्रेश
स्मार्टफोन्स
दर्पण
क्रूरता
खिताबी
##सरे
रंगमंच
नालों
काउंटी
##काबू
बालिकाओं
##गरीय
परचम
रूहानी
##ऊंगी
##निकल
##ारंग
155
तालुक्यात
शंघाई
कटि
जेसी
मछुआर
अपी
हरकतें
झाबुआ
१३
##दिल
अटकलों
गोता
ख़ुद
##----------------
उठानी
कारकों
जीवनी
ऐश
नुक्स
असमानता
नृ
अंजु
असंगठित
बाहेर
##mary
नाके
Main
इंद्रा
चट्टान
सीकर
चाही
वशी
प्रजातियों
बेग
चाहेगा
We
मुली
##लीकरण
तीखा
क़ुर
आयेगी
##होर
##riya
##la
रसेल
वॉट्सऐप
निजता
क्लेम
बुलाए
आधुनिकता
तेलुगु
डोगरा
अंधाधु
##roup
फ़रवरी
सिंघवी
विंडीज
निराधार
बरो
चूहे
बूते
शुद्धता
सेवी
डूबा
187
कॉर्नर
##olly
तारीखों
हेट
##ड़ाई
##युग
शिखा
बलवान
साहित्यकारों
##ंघम
बौखला
कथाओं
रघुनाथ
##umb
##नाया
शीश
##न्ती
श्रावण
##त्थी
मौसमी
मुखबिर
मरते
जरी
दुर्दशा
छपरा
समाहित
देऊन
ओलावृष्टि
पडा
पदार्पण
ग़ैर
ज़रा
मुग
निर्वाह
झाल्या
जिन्हे
सन्नी
उभरी
घण्टे
जनते
फसलें
आर्ट्स
Jo
PR
टाप
एमेच्योर
ट्रांसमिशन
##खिला
चेताया
मैक्सिको
त्याच
ऊँची
जीर्ण
पलों
सुपारी
##ुलेशन
प्रेत
भाईयों
जिंक
##कथा
धागा
रहस्यमय
इन्स
ज्याद
मछुआरों
##duct
फिल्टर
##िपाल
##यता
##मधून
1800
आपा
नेत्या
##yal
मनोनीत
सोचें
##सक्रीम
छठा
##मंडी
प्रेग्नेंसी
विचलित
##वर्ट
अच्छाई
एमजी
वॉच
रियल्टी
सेफ
डाई
क्रि
बोरी
Photos
पक्षधर
एंटीऑ
मुट्ठी
एक्सपो
नेगेटिव
पीड़ितों
सुदूर
शाकिब
|”
रैप
विलियमसन
लेबनान
¥€
ऑर
127
165
##कुंभ
रैन
सदनों
झक
SSC
##ple
##ामदायक
ब्रह्मांड
शतकीय
##घट
शांता
rik
##डीज
चतुर्द
इंडस्ट्रियल
प्राणियों
संवार
मैक्सवेल
सिलाई
2021
Account
बाइबल
एनएम
186
हेग
एक्सटेंशन
##इं
वाया
ऋचा
##कारो
हाईकमान
##48
##िज़
बताइए
कोहराम
##प्पन
अभियानों
##माग
सप्ता
माप
चौरसिया
अंबा
जुल्म
आदिल
ठहराते
##एसएफ
भूलें
Nokia
फरो
139
##पदा
पीओके
काप
बुढ़
##टिक
फिगर
जांग
पिछड़े
##वासा
ख़ूब
गुजरे
प्रभाग
हाउ
कटु
##ets
##पंप
अलका
सरयू
आरामदायक
सरलता
दारोगा
rikord
.''
Shiksha
##सोर्स
त्यांचे
October
विलेन
September
निघ
बेअ
थलग
समागम
##द्दावर
वैष्णव
##भास
##र्णा
##atus
जिप
ड्यू
##विन्द्र
##सरी
##जीक्यूटिव
बेहतरी
पालीवाल
जाटों
अखाड़ा
चड्ढा
मंगेशकर
##ivers
##ताच
तोग
तन्
फिंगरप्रिंट
##ada
##coin
रंगारंग
सेविंग
बका
##िजे
बचाता
1967
फ्रांसीसी
उनमे
नजरिए
पसन्द
कमर्शियल
कॉम्
##ाजल
क्लाइ
##चन्द
सुनहरे
करनेवाले
उमड़
##िजन
सीजी
##तीलाल
डुब
रविचंद्रन
उमेदवारी
##aut
नुक़सान
औरंगजेब
##नुमा
256
बारूद
अंतर्
बेकाबू
##चेस्टर
##माजरा
पुरूषों
शरारती
टेलिकॉम
##्र्ड
##वाँ
##बरद
फंदा
महुआ
दशरथ
अंजलि
नियमावली
##मां
अवहेल
भूलकर
सांड
फिल्म्स
##ेसडर
##oney
##खड़ा
सीएचसी
mo
##नेसमैन
छेड़खानी
उतारकर
एलएल
वाट्स
एकीकरण
##ेरिया
AI
चिह्नित
सीनेट
मणिक
डीएमके
##ateg
तमाशा
दृष्टिगत
सद्भावना
##wood
खरेदी
गुजारिश
अंदाज़
ज्वैलरी
घबराहट
बर्न
होत्या
श्यामा
बिठ
12वें
अद्या
बॉलिवुड
क्षणों
तम्बा
##ॅन
##िओ
सेठी
मधुम
प्रोड्यूस
लाती
शासनाने
क्रान्ति
गोम
तनख्वाह
सुप्रीमकोर्ट
द्रव्य
बूथों
स्पीति
कॉन्ट्रैक्ट
मैट्रिक
त्यासाठी
फेडरल
कभार
चढ़ने
प्रोजेक्ट्स
जघन
केबिन
##नेशन
उद्धार
सेतु
टिकाऊ
पुस्तिका
अवहेलना
बेगु
##ैषी
स्वै
##र्लिंग
आंवला
1972
"।
Ag
सुलह
पट्टे
इशांत
##29
प्रत्यर्पण
##ंदगांव
बूढ़े
नुक्सान
कहूं
##दलपुर
##ize
सीआईडी
मापदंड
##न्य
पॉर्न
छीनने
मनाए
परिसंपत्ति
दुर्गम
Min
सिक्य
##ोग्राफी
##मेव
झुग्गी
हड
##ेशंस
शिवाय
मुद्राओं
महिन्या
वाजिब
रोकता
बुश
##कल्चर
रोकी
नस्
दागी
पुनर
कस्बों
मेगावॉट
##िशंकर
सायंका
129
##िकीकरण
##ालियों
राष्ट्रों
एम्
990
सुदृढ़
##inue
सतबीर
¤®
##ेंडिंग
डीएलएफ
sa
##्रिज
साधे
तेजाब
हेज
पुलिया
उड़ानों
स्वं
झड़
##38
मुकर
गलियारे
##port
##विस्ट
फीडबैक
दागे
ऑटोमोबाइल
##करणीय
एयरक्राफ्ट
बनाएगा
सुकमा
इजराइल
फिजिकल
ताब्यात
प्रवाहित
##यानुसार
झुकाव
जगाने
##टीपी
सूफी
लीबिया
ठहरने
कद्दावर
पाठ्यक्रमों
जयसिंह
आईआईएम
##ured
मेघवाल
Edit
असदुद्दीन
भूखंड
हुंडई
##ुल्य
डेथ
नाटकीय
तनुश्री
निरहुआ
##ator
मानवाधिकारों
हस्तियां
##भावी
बद्रीनाथ
have
ढील
माहेश्वरी
पूँजी
2जी
नदियां
पाम
लचीला
बेचारे
##्वलित
##ासुर
##LA
दवाब
##रोड
अनुपस्थित
न्यूक्ल
##माइश
##साम
##any
हिमाचली
टीआई
पिथ
अफजल
##आरसीटीसी
##हों
पहचाने
जानकी
##HO
सर्प
उल्लास
अंधाधुंध
बीट
साखर
कारागार
लाद
part
बलरामपुर
इज़
कैफे
नामकरण
पलटने
##TET
सदमे
संयंत्रों
चहे
पाऊस
##lic
नगद
बांद्रा
असते
भरोसेमंद
स्वाधीनता
##रान्त
एमआई
##क्लेव
##वेदी
##टलैंड
मंगला
खामियों
दीक्षांत
हाप
उंगलियों
लिफा
माइंड
ठियोग
भूगोल
चमकी
##सीर
148
एमओयू
कोइ
मुल्ला
फाड़
अनुरा
पढ़ी
पाइए
देखील
GM
औचक
थका
कायदे
मूसा
चिल्लाने
मुक़ाबले
गिरती
व्यंज
सलाद
बचते
##रेस
##ेलियों
स्प्रे
##स्मरण
Add
##21
##िसिस
बालन
इकट्ठे
##पिका
श्यामला
18वें
होंठों
नेशन
बालाकोट
अधिकारिक
सिलि
लखी
तार्किक
लैंगिक
चौकसी
संप्रभु
महोबा
##खाबाद
##दौर
प्रभावों
हाशिम
##थिल
बीएसए
आढ
र्
##बन्धन
##ॉन्स
इंफेक्शन
##एंड
##अर्स
##ियाल
दिलाना
लोअर
स्कर्ट
भिलाई
##चिक
##ंसह
##ियोजित
वर्ड
भाक
##एफपी
##िक़
##बिलिटी
विक्रय
शेयरधारकों
जिम्मेवारी
फ्यूचर
बीएल
लगें
सत्यपाल
समझाते
##47
लाय
सीएनजी
ac
क्रास
उलझा
##निहाल
अरमान
एसीबी
Aur
मण्ड
Modi
Khabar
##ोपा
##asthan
नादौन
##्रेंस
ढुलाई
WWE
##ोहारी
##िठ
जतायी
मेडिसिन
##way
खबरे
पोर
मुजाहिदीन
जवळ
मैनुअल
कळ
गिने
##maz
कलात्मक
nic
मीट्रिक
विला
समोर
##————
घरानों
सेलिब्रेट
##शन्स
त्रस्त
परिसंपत्तियों
##दानंद
फ्रॉड
##aka
ड्रेसिंग
शेखावत
Net
१७
##वॉ
खटखटाया
विशेषज्ञता
चीज़ें
उड्ड
##धीक्षक
मार्श
कार्याधिकारी
##37
बीतने
रामल
##त्थ
खुशन
मलिंगा
गाए
स्याही
उथल
धज्ज
ज़िक्र
रियायत
सफाया
मुआयना
इंस्टॉल
जघन्य
लडऩे
##गुरू
दराज
अव्यवस्था
खरीदकर
बिगड़ने
क्रूज
##माइंड
वरिष्ठï
श्यो
चलाये
टॉपर
ऑप्ट
नामुम
परोक्ष
टाय
लहजे
##स्तीपुर
इच्छाओं
##ral
##ञ्
121
उच्चतर
चर्चाएं
ओसामा
डेनियल
##ियाज
##भ्यास
माध्यमा
जांघ
PDF
अरबाज
डंप
इलेक्शन
बत्रा
मारिया
##स्तीन
##धात
फ्रेंड्स
डोमेन
चढ़ाने
##मणि
,'
बांधे
कमोब
तीनो
आरक्षक
रहूंगा
विद्रोही
संभाले
My
पुत्रों
धातुओं
##गली
##चालक
नवाजुद्दीन
पदयात्रा
बीएमसी
उठाएंगे
##ल्याने
मेनन
सुपुर्द
##डियों
टीडीपी
रियाय
कोठारी
बल्लभगढ़
थ्रो
वास्ते
##िमानी
स्लिप
फिलीपी
Bas
एलब
इंटरेस्ट
निको
निकालें
वर्कशॉप
कोतवाल
एफएमसीजी
सेनान
समंदर
होतीं
mein
##ux
420
बित
पीरियड्स
दालों
वृंदावन
कोन
शोपियां
अखंडता
पात्रों
इयर
समस्तीपुर
वतीने
बैकअप
कमोडिटी
La
लोज
वाइफ
सवेरे
time
आंचल
साइटों
शैलेंद्र
रेपो
बैकग्राउंड
जोकोविच
ब्रायन
आनंदी
पत्थरबाजी
बिगाड़
चौड़ा
March
कटने
दिवसां
बहुसंख्यक
जैकी
धब्बे
करीम
पवित्रता
चिम
कोटि
##ोलिया
##ेयर्स
बहादुरगढ़
छिन
प्राप
अफी
##यियों
होऊ
##म्बरे
एअर
बिस्
##ute
कोलंबो
138
मदरसे
ग्रांट
लोकदल
प्रफुल्ल
अँधे
6000
जत्थे
##press
राहगीरों
JNU
मिडकैप
अनन्या
##anj
नवीनीकरण
प्रूफ
एकबार
रिहायशी
गाउन
जद्द
##ॅक
लाहुल
एमएसपी
रीय
बंधुओं
वुड
सूरी
ओप
बीजापुर
कातिल
सम्पादक
ल्यू
लूटा
वनों
##NL
बताएगा
शख्सियत
शामली
निकोल
रंगदारी
Ass
मानदंड
##िलर
इन्होने
स्तम्भ
मसौदे
खत्री
##मानंद
आरंभिक
असंतुष्ट
जनाधार
नामुमकिन
Phone
नियाम
रखो
##ror
नगरोटा
सामग्र
पराग
हैवान
बिज़
##ेडियन
उपनिदेशक
##09
##लाव
कामकाजी
नेचुरल
ब्याह
##वालिया
एमसीडी
राजनांदगांव
चाप
##शीर
सुनता
बीता
मर्स
हरफ
गोल्फ
बंगलादेश
हवेली
निदेशकों
पछाड़
प्रामा
भीष्म
बहुता
##बजीत
कीटनाशक
दीया
राधेश
लिबर
खेलेगी
##लोन
T20
बांटी
बबी
घोषणाओं
Mon
Khan
बुधवारी
सब्सक्राइ
सूखने
##बाजार
कमोबेश
निरंजन
##ourt
sub
एक्स्ट्रा
वर्किंग
##icket
हत्याओं
फ़िर
##एँगे
फ्रूट
धूमिल
कठिनाइयों
प्रॉडक्ट
Co
चिंग
##्रती
कोस्ट
द्वेष
नद
नवमी
पोंटिंग
झामु
एडिशनल
तम्बाकू
##रीश
आंकलन
##खु
##ution
जागृति
उतरना
मॉड्यूल
कास्टिंग
##चों
चैंबर
##ister
उफान
##टिन
site
ट्यूमर
##ज्ड
मनसे
धर्मपुर
अकरम
निंद
कराधान
साप
सवालिया
##ुकूल
अध्यक्षों
##riends
बैजनाथ
##द्र्
लक्षित
एक्सिस
फुटपाथ
पुंछ
अपनाएं
प्रतिनिधी
कराएगी
##दिता
प्रोप
एसएफआई
भानु
##ट्टी
उपेक्षित
बिल्ल
कच्छ
लिपिक
टालने
कर्जा
##ollywood
NRC
##परक
10वें
##AK
बेयर
##रुद्दीन
रखिए
Comm
बृजेश
कंबल
पनामा
बेताब
पत्ती
##शद
कैंटीन
यांच्यासह
।,
घूमती
नियुक्तियां
मुकदमों
लांबा
मेसी
##दनगर
##ेच्या
##ल्लास
राजगढ़
गड़बड़ी
एप्र
बलजीत
##पाती
बल्लेबाज़
बढती
एशेज
होनहार
Ne
चर्बी
##खियों
शादियों
Pub
##िडा
लकीर
हलफनामा
कार्यस्थल
पंस
##पते
##ification
महाभियोग
कलक्टर
संकीर्ण
गंगाजल
शेतकर्यांना
हरदीप
##िटेशन
स्वयंसेवी
##डिय़ा
account
नमाज़
??
अद्याप
झों
नपा
वेणु
बोग
Play
1100
विक्रमा
##सुल
जोनल
रामजी
प्रतापगढ़
महाद्वीप
स्के
ओज
रत
##टीशन
अविवाहित
करावा
मैनपुरी
नॉम
##चाकी
आईओएस
मलाई
सिरोही
अख्तियार
कोसी
निर्यातकों
टॉक
पाइपलाइन
अटका
##ारिक
##ड़ो
##फ़र
##ful
लीं
डीवी
बौछार
निर्देशानुसार
मंचों
प्रहलाद
सप्ताहांत
##वीस
मोरे
##ंतपुरम
बरसी
##सर्ग
किसको
जकार्ता
##णारी
भगव
बुर्
बिजनेसमैन
उत्पादित
नगा
जुटाई
##ition
करम
टोला
##द्धार
##lectric
राधेश्याम
136
भंडा
रवीन्द्र
माफियाओं
मातर
लेखों
निराला
प्रेग्नेंट
लुप्त
सेरेमनी
एक्टर्स
यूरोपियन
मुंगेर
बाक़ी
पछता
##MP
##36
बनायें
डेर
##एटी
##ines
सुनामी
इंटरमीड
##ission
##ty
रीढ़
मर्दों
फ्लाईओवर
असामाजिक
सत्यनारायण
ख्वाब
##ान्स
कुल्हा
डालती
बढ़ेगा
अवरुद्ध
कश
##ंदरी
खासगी
##चीनी
##नैल
अभिनीत
मनोरंज
उपरान्त
पैरो
कम्युनिकेशन
##म्पा
उतरेंगे
कैरेक्टर
अंगूर
असरदार
Cent
प्रतिष्ठानों
गाँवों
##टोर
मुश
##fer
अनाम
सौन्दर्य
ब्रॉडबैंड
गजल
##प्रमुख
चिड़िया
बर्बरता
ढिल
##शीला
##िसिटी
mon
##दीना
ललिता
##velop
अपशब्
लेजर
पांचवे
मोनू
कोटक
रौशनी
Share
##िश्च
कुटुंब
सीलिंग
उज्जवल
काळात
रक्षामंत्री
भाजयु
खोलना
सेम
निर्यातक
वेबसाइटों
डरने
फूंका
Search
चमन
नवादा
##IP
दिग
नदार
आइसक्रीम
##प्रयाग
जमीनों
पीडित
##ल्लू
प्रवासियों
कान्
पिलाने
##jab
रिवा
पढ़कर
##ashi
आर्कि
राही
भागकर
प्रसा
शिकागो
##49
##erson
झांकी
बढ़े
चरस
जूझना
एनडीआरएफ
अता
स्कॉलरशिप
नौवें
माकन
##िकेट
IAS
##फिशर
भारतवर्ष
फार्मूला
जेसन
सुरुवात
SP
पुष्ट
शतरंज
स्विफ्ट
##बीपी
अलगाववादियों
##क्षात
खाका
प्रत्यारोप
##्याहू
साँस
डिजी
##iaomi
हताश
पहिल्या
##षक
##तीया
पुढील
अड्डों
210
आईटीसी
बिज़नेस
मोठी
झुंझ
मंगळवारी
आतिशबाजी
अकादमिक
फरोख्त
##दावरी
सेलिब्रिटी
खलील
##मेकर
एंगल
बिपिन
”,
##्ण
महामंड
##दूत
##िनेटर
ओवल
हिन्दुत्व
##vert
भड़के
झकझ
एमएएच
##्याला
छंटनी
hain
महत्वाकांक्षा
pic
:)
##संक
##ys
निर्णयों
लखीमपुर
##बाड़ी
मुस्करा
कुसुम
नारों
ज्वाला
हवाएं
आमरण
गुले
भड़काने
दबी
##पोश
शुक्रवारी
नमः
लाखो
त्यावेळी
per
सुद
समायोजन
अटूट
चक्रवात
रवीना
##सिक
नागा
उगल
पालने
##क़ों
फातिमा
अभिश
तैसे
जुड़ाव
##मैटिक
det
विक्टोरिया
कड़े
परिक्ष
मल्लिक
झामुमो
अनुभाग
दूरदराज
चतुर्दशी
विघ
हेरो
पहनते
कसे
खलब
बंधी
कॉलोनियों
एनसीसी
##वर्धक
गुंडागर्दी
चोदने
संभालेंगे
1857
अछू
¥‡
कर्ता
जोड़ना
संगीन
रसू
हक़
but
अधिसूचित
सम्प्रदाय
##urrent
##ंदेह
##कात्मक
कवच
Price
भगाने
नौकरशाही
प्रचुर
##िपी
नवनियुक्त
320
नीता
पिछड़ा
मोदीजी
जहरीला
पक्षपात
अमीरों
ठान
मातम
मास्टरमाइंड
नंगल
विक्री
सत्येंद्र
##कली
बार्स
##प्रमाणे
विद्रोहियों
रीजनल
पच्चीस
एम्प
गोबिंद
वेंकट
##तीं
अख़
चलेंगे
यूआई
सवाई
फाइटर
हनुमानजी
##तमी
बढ़ेगी
एमएसएमई
मोठा
स्वंय
जनस्वास्थ्य
व्यस्तता
377
पराक्रम
##सूरत
शाश्व
असेंबली
बिताया
शशिकला
##फैक्चरिंग
दिलाते
मूल्यवान
विप्रो
विकी
तेजस
धमकियां
##हाइड्रेट
किंगफिशर
भाकियू
##आप
पल्ला
##कारक
सरहद
व्यक्ती
आईएन
##पैकी
अंगुली
रियाज
त्यानुसार
##दर्स
भाषी
भूतपूर्व
चचेरे
मिळत
लिं
##लिस
प्लेइंग
मुहं
रेशम
न्यायालयों
आंध्रप्रदेश
आवाजें
##्वेस्ट
अजीबोग
मजहब
ऊँच
लंगर
सोडा
रेडी
उठाता
रस्त्यावर
भिड़े
##करबर्ग
जेके
प्रदेशभर
हलफनामे
शैलजा
करताना
घटे
मौलवी
आत्मी
बोहरा
बाड़मेर
लुटेरे
##टर्स
एनएसजी
First
आईआरसीटीसी
अधिकारिता
##सत्ता
##द्वारा
रहस
अनुयायियों
करदाताओं
137
बक्सर
कार्ति
व्यवहारिक
नैना
##स्टीन
क्रेज
चंबल
##र्वा
आईएमएफ
ट्रांजेक्शन
नंदन
मीडियाकर्मियों
टूक
सियान
##EE
असहिष्णुता
net
राइस
##दें
एप्स
##्यद
लावार
गुरप्रीत
माडल
वाकया
पन्नू
पाबंद
रामकृष्ण
प्राणा
सैक्टर
सीमाएं
लाएं
भूमिकाओं
माध्यमातून
दंडित
बायोम
फहराया
एएमयू
##िन्द्र
नववर्ष
गोलकीपर
क्रिप्ट
उभरा
जुग
Techn
चिपका
शराबी
संजो
##सेक
##घ्य
लम्बाई
जिल्हाधिकारी
शहनाज
लगवाने
PO
अंधेरी
##दश
हवल
अभिव्यक्त
मिर्
धर्मनिरपेक्षता
संस्मरण
He
पिघल
ठहरे
विदेशमंत्री
सरीखे
##णारा
##MB
सकतीं
##बास
जोड़कर
##प्रे
मादा
छत्रपति
##कांच्या
बेरी
याक
##पाशा
##ग्गा
पढ़ाया
##phone
##int
सेन्
##स्का
##ुत्
डिटे
##ंटे
story
उच्चस्तरीय
फूलपुर
##भौ
फेव
बशर्
##ga
सुदेश
मैप
खालसा
अफीम
##RA
अस्वस्थ
भाजयुमो
बरसे
रामगढ़
खींचतान
चोकसी
AC
जनतांत्रिक
वारिस
##क्स्ट
##dition
कश्मीरियों
बोलेरो
गेमिंग
हंसने
सुनियोजित
धनखड़
##क्री
मास्टर्स
चौड़ी
दाव
Shar
धुल
प्रतीकात्मक
आधुनिकीकरण
ट्यूशन
सैट
कॉन्स्टेबल
जगजीत
विनम्रता
कुम
जगदलपुर
अनिवार्यता
##ource
¤¤
##rat
सोहना
वर्करों
क्यूट
##ites
ख़तरा
रोटरी
आशिया
कपड़ा
लोको
स्वीप
लास्ट
##ॅट
बतायी
नीट
Mein
##णीत
शेती
जन्नत
अल्मो
##ोटिक
best
कीचड़
विक्रमादित्य
भूलना
Xiaomi
होठों
नोट्स
##वेर
घराने
1978
सुजानपुर
न्यूक्लियर
बीफ
जगन
share
असोस
चढ़ाई
".
##हासन
टॉवर
डार
पैकेजिंग
किसानो
पोलैंड
जादु
पोलार्ड
ब्लोग
रविवारी
सीएजी
फुर
उच्चाधिकारियों
द्रम
ठिठ
##ंकारी
##जुअल
BCC
बोकारो
पत्नियों
शनिवारी
अनधिकृत
##US
हाे
मोमबत्ती
चार्टर्ड
त्याची
अजीबोगरीब
शाज
##लेले
असेल
दीर्घकालिक
बहुराष्ट्रीय
मैनचेस्टर
लीन
##ेंडरों
हाइपर
ख़ुशी
घड़ी
स्लैम
शुष्क
अमूल्य
हेल्थकेयर
##डाउन
आयातित
##ोरेट
शेप
गलौज
भगदड़
हाजिरी
मल्लिका
कैंसिल
अभिला
कमब
##बाइ
##टोल
सुनसान
सिक्कों
नर्व
##रोज
##kh
ऑनलाईन
ध्रुवीकरण
चीर
फिरोजाबाद
उड्डयन
त्य
उबरने
##खम
खामियां
Continue
वासुदेव
जद्दोज
तित
?’’
ट्राली
ओमान
##पसंद
दिनो
दावत
हामी
फिलिप
##व्यव
चरमपंथी
Gu
विशेषताएं
##let
##PF
सातों
बांधा
##्को
ग्रीष्म
अजन
दहला
डिजिट
जहाजों
श्रीनिवासन
आरटीओ
शिकारी
Use
शहजाद
समयसीमा
कृषी
द्रमुक
ज्यू
दुध
##त्वना
लैंग
हितैषी
##त्सव
जेबीटी
शब्दा
चुपके
##endra
इलिया
ब्रैड
हर्बल
स्ट्रीमिंग
गॉ
मैनेजिंग
##RB
बैड
##केश्वर
मोना
आध
निभाना
ईडन
भूर
नरो
##गिस
रिफाइनरी
डंडा
लिम
कुशीनगर
पीलीभीत
शरीक
ईशांत
खंगाल
सर्वत्र
भालू
जप्त
भाँ
डॉग
##vie
Market
नीमच
खलबली
##ुषी
दावेदारों
मंत्रिप
अदालती
##hip
निर्दिष्ट
भावार्थ
मुक्केबाजी
##बेथ
अजगर
दाद
अन्वेषण
जेएम
##agar
आउटसोर्स
ईपीएफओ
बदनामी
रेगु
जनों
क्लियर
एलोवेरा
धागे
225
हिंग
नंगी
##रेसा
हाट
बीन
दबंगों
समरस
सिद्धान्त
तिब्बती
होऊन
जिन्दा
बहुमूल्य
कैशलेस
!!!
सफी
##ौदी
खजूर
उधारी
भदौरिया
उघड
##पल्ली
जबाव
एनआर
##िलोना
दुमका
तत्पश्चात
स्तु
छोडऩे
नजरिये
##eck
ताने
अंजू
यूनियनों
##lease
बाराम
क्लार्क
निमित
##द्दत
टकराने
Step
त्यागपत्र
प्रिंसी
बबीता
phot
माण
त्रिवेन्द्र
परवरिश
##मात
हिचक
प्रवर्तक
##नातनी
Computer
bh
link
मलयाल
##माशंकर
धुएं
रोज़गार
एसएन
लोभ
पण्ड
टीईटी
##कैम
कब्रिस्तान
अमरो
कटनी
रिवाइ
##िच
पुनर्व
धमकाने
आयशा
भतीजा
हवलदार
1981
पीए
पड़ेंगे
आनु
कया
बालो
बेदखल
सिमरन
रौंद
पैग़म्बरे
खानी
भोजपुर
Videos
बख्शा
##क्षे
##ियन्स
फोर्ड
तालाबों
कूटनीति
गॉड
##भंग
##विला
जायेंगी
म्यूचुअल
Aaj
उत्तरकाशी
एवम
मैक्र
##icy
ग्रीस
मुताबिक़
येचुरी
समाजवाद
सायंकाळी
क्
##ग्नि
कटिहार
अक्षरों
##नमौला
घिस
पुथल
पोस्टिंग
कासिम
नमस्ते
कॉमेडियन
भंवर
मानों
किरकि
पगड़ी
यमराज
Cr
##ny
लोजपा
नदारद
##किंग्स
प्लेऑफ
##पटी
ग्रामस्थ
##ार्दन
##द्यु
##राइल
चाव
##नलाल
##िटेज
लगाएंगे
चौबीस
##ोरियम
click
out
झंझ
कीड़े
##डि़यां
यंदा
नाकाब
बशर्ते
पेंस
गुंडों
कोणत्या
Bihar
ज़िन्दगी
नन्हे
लागल
तहरीक
शालिनी
समयानुसार
##मच्छ
मनमु
मार्क्सवादी
##फ़्तार
##स्पा
##ेतन
समो
शैलेश
##pport
वन्यजीव
मलयालम
##ौना
पालना
खुलेगा
पुतले
दशहरे
नारायणगढ़
माताओं
डाकघर
त्यांचा
फ्यूल
कोहरा
संकल
##्यांचे
नाखून
चिली
उम्मीदवारी
1979
##्रियों
##लेला
आइकन
##OW
चीज़ों
ठग्स
पसर
ज्वार
नदीम
बदहाली
##केतिक
ताक़त
एमके
नेतन्याहू
##िनेट
##min
कुबेर
##भोग
महापंचायत
एस्ट
##दीर
कमेंट्स
ईस
जुम
नक्सलवाद
दर्शाती
बगीचे
##ासु
कार्यक
धोना
ढूंढ़
प्रताड़ना
तकरार
गर्दी
मिलिंद
गुरुद्वारे
फौ
##माह
स्टॉल
Bre
इंदु
उदासीनता
##त्रे
##नीस
ऑर्ग
बैंग
बँके
sak
यूनिटी
अजब
##हरिस्त
अनुकूलित
##फास्ट
##फेरी
इन्त
हुवा
किय
एक्सप्रेसवे
किरणों
शाश्वत
rel
खोलते
##मोली
शेल्टर
एलबम
क्लाउड
भिक्ष
मरियम
गुणगान
तुलसीदास
अर्बन
उठना
गेली
vee
भुल
##छे
Go
वेन
अविश्व
पढऩे
##डीटी
अपोलो
चिंताएं
सांकेतिक
तोड़ी
स्पष्टï
फंसाने
शूटर
भेड़
##ोगन
जग्
हजारो
##ersion
नूतन
जादुई
चुकाना
वल्र्ड
मगरमच्छ
पाईं
##ION
164
मच्छरों
बरतें
आंगनवाड़ी
हरफनमौला
भाजपाई
निकलेगा
राजपुर
मछलियों
क्यु
##ईए
182
##रांव
##ोल्यूशन
##कियाँ
online
गिरता
##ner
यकीनन
वार्म
दिवाकर
%,
होमपेज
देवघर
सैक्स
क्लाइंट
नसल्याचे
High
संदिग्धों
##खू
बीसी
ज़िला
अटलजी
ग़रीब
खदानों
कमबख्त
चूहों
प्राणायाम
##िरल
##समोर
पुनर्निर्माण
टैप
कुवै
बल्लेबाज़
छुपाने
कबूतर
प्रीत
पकवान
##IF
इग्न
फेरे
डराने
बंजार
जनप
##ियानो
ख़रीद
थानेदार
कंब
कमज़
polit
Part
##विट
मनदीप
##ारण्य
##गंग
रिवाल
ब्रह्माण्ड
बर्ड
##बहा
मांगलिक
##कल्टी
##EL
अफेयर्स
हाव
##ज़ाम
अनप
तयारी
लारा
डीयू
डिस्ट्री
GMT
##प्रेम
##res
झुंड
मिळाले
चिन्म
इंडीज
ईसाइ
ग्लैमरस
अल्टी
##प्राइ
मिश्री
मुरलीधर
आदरणीय
##डीएम
फ़ायदा
पार्लर
जगम
मजबूरन
चश्मे
लार
सिफारिशें
##पट्ट
##ॉर्म
##ांता
सेवकों
##iles
मदरसा
कन्नड़
सूर्यास्त
छपे
खेड़ा
आवेदनों
सत्कार
संवेदी
कक्षाएं
व्याकरण
कुप्र
नागालैंड
##स्कोप
##चरों
अरशद
गेला
बार्सिलोना
April
फेवरेट
##एफओ
थान
होगे
133
##कती
1952
मसूरी
स्तुति
##दादी
तृतीया
ठहराव
निर्विरोध
अलमारी
ट्रेनर
आईसीयू
अल्ट्र
जड़ी
##ियारी
त्रिको
धोखाधड़ी
दीवानी
कहल
##न्हें
छापामारी
फर्रु
##ेलवाल
सफारी
रीयल
तुर्क
हाइड्र
##amil
पहनें
हफ़
मैज
पूर्वज
##ुलिन
शाखाएं
सुसज्जित
समाल
एविएशन
षडयंत्र
गिरवी
##बाब
##च्चा
जन्मदिवस
दाहिने
हर्षो
अंगूठे
ग्रै
चालीसा
सापेक्ष
गांजा
चकित
फीडर
सफ़र
खलनायक
वाहना
केमिस्ट्री
मोतीलाल
शर्मिंदा
गोंडा
Your
तोड़ते
ऑडिशन
##लाप
##माई
##सिंग
br
दाई
ID
##ात्मक
पहुँचाने
BCCI
##ॅल
चतुर
विद्युतीकरण
मंडप
गधे
143
पाहिजे
##otes
आदर्शों
स्टालिन
लपट
येईल
रुग्णालयात
1974
इंटरमीडिएट
उल्टे
##ारियों
ख़िलाफ़
हेलो
स्टार्क
वाळ
फॉर्मूला
Imp
मशरूम
email
मधुमक्
##achar
बिपाशा
आरआरबी
कमेट
मिरर
पकौ
संकेतक
##shot
##ायड
डोनल्ड
कासगंज
भूरे
##्रता
गगरेट
##िंघम
##्रोड
Aap
सवर्णों
जार्ज
कुर्स
मामी
नारंगी
धज्जियां
सौजन्य
साकेत
संभालते
ज़ी
Vidyal
##ियंट
केविन
डिटेल्स
संडे
इनवेस्ट
विभागाध्यक्ष
दिखीं
धू
##ासून
तुष्ट
रुद्राक्ष
लिविंग
जने
##vid
समाचारों
अनुराधा
##ज़े
कपड़ों
दिनदहा
जोनस
##work
वचनों
##शिल
तात्कालिक
##acy
आईआर
जॉनी
1973
एएस
सुनो
झाड़
चका
चंपारण
##ons
##डीपीओ
गंज
सुनें
##ॉर्नी
मनोरंजक
अधिकता
##मोर
महाकुंभ
##पेक्षा
जालसा
आजमी
##ेस्ट
रिंकू
##aily
लागली
नंबरों
मनोविज्ञान
मैथ्यू
आपमें
##ार्जन
वर्जित
चैम्पियंस
अबकी
रेवेन्यू
भ्रामक
जद्दोजहद
मैगी
वर्षे
होम्यो
CP
सरग
##वर्ल्ड
##cess
अशरफ
##der
376
##ायु
##त्था
चुनते
मनचा
भरें
नीलाम
form
मवेशियों
वाहक
मणिकर्ण
तीर्थयात्रियों
५०
Power
कैडेट
प्रसू
##agram
लिक्वि
##जेड
रेगुलर
सूबेदार
पेशावर
Sa
Note
झल
लाचार
Master
बावल
डिविजन
पिथौरा
पढ़ना
बटोरी
कार्बोहाइड्रेट
##फेस
कंचन
गिट
##gh
मंत्रों
कोरबा
एग्रीकल्चर
##टले
एसएम
पब
जहरीले
एल्यु
veediyo
कीवी
हाशमी
चटकाए
पंक्तियों
उत्खन
मार्गदर्शक
##द्म
गुत्थी
mobile
जानेंगे
भूजल
पूर्णिया
सांत्वना
सेक्टरों
कार्यसमिति
ब्लाउ
शोधन
बोपन्ना
act
जेनर
परिधि
डुप
##पुल
जावा
पहलवानों
डंपर
पीता
अहवाल
विचारक
प्रिंसीपल
##वई
मंसूर
वर्ना
ब्लॉगिंग
इलेक्ट्रिकल
Aut
मुसाफ
151
सातवां
दंतेवाड़ा
##ब्रिज
स्वैच्छिक
जमाव
हथिया
न्यौता
इलेक्ट्रानिक
पांचवी
##rika
बीटा
व्यापमं
भीग
Form
हस्ती
…।
रिह
डीपीआर
##eh
नियुक्तियों
रहन
उभरती
हिमपात
ओली
हुर्र
सेंटीमीटर
जस्टिन
##बार्ड
##right
मनाना
भागद
अरा
##घे
हास्या
स्की
उन्हा
चुटक
##वाइन
लगानी
संग्रहण
सट्टा
चोदा
सन्न
##्रोम
बोरा
अंतरा
इमारतें
Time
काबिलियत
दिमागी
मिळाली
मानदंडों
मतदारसंघात
तटस्थ
झाड़ू
##xy
Apps
साढे
##टनागर
वृक्षों
##MC
दसवें
कराएगा
साइंट
Kend
Twitter
तने
कमियां
जागरुक
सडक
संघटने
निकटतम
कर्तव्यों
चयनकर्ताओं
##द्दल
फरीद
##चूर
##मुग्ध
एलेक्स
##ऐं
आका
##जेता
##atur
उन्नयन
कंट्री
छिड़काव
कहूंगा
खिचड़ी
कॉलर
बलवंत
भाप
दिलवा
##विरा
एस्सार
वं
##69
जलभ
राऊ
राजबीर
बागडोर
##uch
##इली
सादा
##िक्षित
तों
नियति
केन्या
संक्षेप
कामुक
सर्द
##ING
##एलआर
Bitcoin
रीडर
बास
270
नौकरशाहों
प्रजात
डालेंगे
la
नकेल
नवनीत
बेनकाब
search
सत्रों
##करणा
With
##ोत्री
##reat
##ब्रिड
झकझोर
फैलाई
वृहद
मूर्खता
मधुबनी
महाविद्यालयों
मण्डी
शल
लापरवाह
जामुन
सुपरवाइ
फोटोग्राफ
साग
भरमौर
जायदाद
हेमराज
पठानिया
मतभेदों
page
##बुनिया
##ेसबुक
Inter
आंसर
बालाघाट
बाढ
बागबानों
मुसाफिर
अल्टीमेट
झाल्यानंतर
##लती
##्वला
rep
वजीर
महालक्ष्मी
गढ़ी
##पात्र
दस्तखत
स्मृत
उपनिरीक्षक
जेईई
गलतफहमी
लावारिस
फिक्र
##पारा
चुराने
संगर
घरेलु
आर्किटे
आरएल
##फोड़
मुलाना
पहनाकर
##िकीय
लाओ
पंचांग
सकु
Copy
कार्ययोजना
##वनंतपुरम
पडता
घटनास्थ
नवदीप
प्रखर
मुक़
टोली
Reviewed
av
ईओ
दक्षिणपंथी
फायदों
जूतों
देशव्यापी
दुल्ह
रूटीन
मॉनिटरिंग
घिरी
,.
एंग
जमे
एवरेस्ट
मंसूब
सलाखों
जास्त
##पाठ
##द्रता
पुलिसवालों
उच्चायुक्त
१००
लक्ष्म
##ूडो
##द्वानी
एक्साइज
पटाखा
पेशेवरों
##ोस्ट
Kendriya
जि़
बिल्डरों
पादरी
1951
लड़ेगी
ढो
Vidyalaya
जजपा
ज्वेलरी
वाहवाही
छट
तिन
नीली
हिजबुल
फंसाया
बॅ
मातृभाषा
अविश्वसनीय
##्लोर
##df
आईओसी
##चार्या
##देखील
मुंड
निभाता
मुनी
जुड
##गियों
##काना
प्रतिभूति
तात
कपाट
##uss
तब्बल
बुलाते
सेकुलर
पकाने
दुराचार
Dr
हाहा
##लिख
कांशी
बिछाने
जनार्दन
ट्विंकल
उपनिवेश
##धरा
अवतर
हैंडपंप
Aff
छपा
सिंहासन
TO
##जाइ
डेमो
लिखाई
ال
##ौकिक
178
फील्डिंग
असंख्य
##ited
विध्वंस
हुर्रियत
भेल
सज़ा
पतले
धोकर
एपीके
रामन
चलाती
सर्बिया
बसी
##दलीय
154
##eth
सिलेब
वाईएस
नोटा
डीप
Serv
अजेय
##क़ा
व्यंजनों
दिखावा
कक
तुझ
नाटकों
सभापती
सांख्यिकी
एकांत
सर्वोपरि
घ्या
नियोजित
स्वर्णिम
भड़काऊ
##yle
विनियम
हजारीबाग
##पानी
उलटफेर
##ंगना
##दायित्व
तेज़ी
सेलेक्ट
तत्परता
पटरियों
फाइलें
मॉडल्स
फराह
निष्पादन
खानदान
¤‚
उठाती
काटते
गद्य
सरबजीत
ठहराने
रबा
गेट्स
सभास
काँग्रेसचे
आज़ाद
छिट
कावेरी
आईना
##ऊँगा
बोलबाला
पीडि़तों
);
आघात
परिस्थिती
रॉड
बाथ
लेखपाल
##ेटा
बदर
जेहन
टेंट
##हदी
158
संदेशों
निशानदेही
मांगता
##भूमी
टॉर्क
दायित्वों
वडोदरा
मनन
1600
##विदों
फेफड़ों
get
लवकर
Redmi
सादे
Sk
निशानी
डिस्ट्रीब
उलझन
समानांतर
##श्किल
बेबुनिया
लेखनी
फॉक्स
सैलानी
आयें
फतह
बस्ते
##सिम
पर्यावर
इंटेली
अनबन
अर्शी
असीमित
##ोपण
has
pe
कसाब
##ईएस
बिटिया
आँक
177
##नापुर
home
जिम्मेदारियां
नशीली
कथाकार
##ंदाजी
साहसी
गुड्स
गोकुल
##्हान
##मास्टर
परिहार
159
आउटपुट
तालियां
भड़की
##ernment
हनीमून
चपरा
att
खिंचा
21वीं
Tips
Reg
##िकेशंस
सरकाघाट
##गील
हेरोइन
##ांसाठी
अर्घ्य
एनआईटी
नाजाय
न्यूटन
रेगिस्तान
तोहफे
280
स़
लाउड
##सलाधार
##तीन
विजेंद्र
कागजी
##बीती
Micro
सीमांत
बीना
महिलाओ
संपादकों
महाविद
¥‹
रथयात्रा
तेजपाल
एजेंटों
इच्छाशक्ति
स्टडीज
अंडमान
फन
अपघा
रघुराम
सीआर
उत्पात
समरसता
आर्टिफ
##तियाँ
##land
वंशज
उकसाने
मिथिला
##ांकडून
गजेंद्र
स्टेटमेंट
यापन
सहस
##प्रा
पोर्टेबल
हैवी
##ांशी
##वेंचर
बिगुल
अनियमितताओं
होम्योपै
##वेसी
##बाज़ी
दृढ़ता
त्रिकोणीय
बोलो
नेचर
##शिवाय
##पीसीएल
ख़ा
होर्डिंग
##ative
ज्ञाप
मंजीत
##्युटी
छुपे
रद
गाकर
##TE
मोशन
अध्यापन
मुखौ
बकौल
डुबकी
##ars
यशस्वी
इथ
पाटेकर
निकटवर्ती
##ency
बाघों
168
176
खिड़
भूखा
वर्गीकरण
स्वार्
##32
##श्ले
##मार्गा
##हरत
देशद्रोही
302
##ब्रा
##ौंद
रंगा
परिसरातील
निर्मम
##पत्रों
इसीलिये
1956
मनजीत
साला
एनआरआई
एहसान
एनए
##कुलम
साबर
##ोगिक
एक्टिविटी
कुर्ता
जुगाड़
##स्कों
चप्पे
टोह
ग्रास
श्रीधर
सुनाए
दिशाओं
सब्र
सौराष्ट्र
दोहा
ताजे
कोप
प्रशिक्षक
##लेट्स
सीबीआइ
ढूँढ
चिन्मयानंद
##हले
कपूरथला
लाइनें
कटोरी
कन्याओं
वायदे
Internet
कालोनियों
##BSE
%)
सीताम
##्यांवर
Page
परेरा
फाइनैंस
देहांत
जयपाल
चरखी
माउस
लूंगा
अंदाज़
##डीने
कुवैत
##कार्य
चिकनी
fl
फिश
गुनगुने
वेरिफिकेशन
कुरी
कुछेक
##म्न
फैकल्टी
##ठ्ठा
##क़े
सांप्रदायिकता
##लीटर
मोगा
मुस्कुराते
##उंस
कमाना
Fr
रेजी
धुं
ªà
मिसाइलों
पर्चे
चीका
मंज़
##खने
कविताएँ
##िर्मित
शहडोल
एक्सपर्ट्स
##एड
1949
अध्यक्षा
##्यानंद
अखरोट
दोस्ताना
प्रवर्त
फेहरिस्त
असेही
Wh
:,
अखाड़े
निशांत
एक्टिविस्ट
फोगाट
##ience
पाँव
आख़
##ज़ान
##ोपुर
गठिया
हल्द्वानी
अॅड
सम्मानजनक
##द्या
स्तनपान
File
रस्ता
प्रसिद्धि
लटके
##angu
तूने
रिसाव
छंद
##त्तम
मांसाह
रोजर
##विवाह
स्विंग
##ूसी
लिखती
गर्भाशय
चमोली
##ळकर
इंगित
मृदा
नालियों
##न्हुआ
अमरेंद्र
##िकेत
भुख
एली
२४
156
##गंगानगर
गुटबाजी
##ducation
##गति
आपबीती
sec
पेंटी
धड़क
अचार
दिखाएंगे
झगड़ा
अंजना
ख़र्च
तारिक
न्यायालयात
##भरा
लाडवा
##ंु
जलाए
##मेटिक
मिनिस्ट्री
##रोला
सग
प्रभुत्व
prot
google
क्रेन
जलभराव
गुरुवारी
260
फोरेंसिक
##ओम
##RI
पहुँची
संलिप्तता
जमानती
कोरेगांव
तोड़े
##बाज़ी
रेव
किससे
महाम
upd
इस्त
3500
प्रशिक्षु
हैल्
गुहला
दिनकर
फिक्स्ड
अभिनेताओं
कोरियोग्रा
एक्सक्लू
Comment
एनसीएल
प्रद्यु
131
##ष्कृत
नीचा
एल्बम
एेसे
कुम्
गुरुजी
int
##va
##कारे
##मनगर
खीरी
##वरिया
वसूले
नगरसेव
सकीं
CC
करतूत
डिवेल
गंगोत्री
बख्शी
##होनी
नाराज़
mins
Kumar
आवरण
बर्मन
सिड
लिक्विड
शाळा
मशाल
पार्टनरशिप
गुहा
पाएंगी
संघटना
घुसपैठियों
शिक्षामित्रों
##िमम
उत्खनन
##हह
रिकी
play
कुठ
मंत्रिम
कारखानों
##िपि
किनारों
पेरेंट्स
उद्यमों
पूर्वाग्रह
वैधानिक
रूपया
धावा
नाभि
शैलेन्द्र
how
मनमाने
गुरुदेव
exam
मुस्तफा
टीपू
फॉरवर्ड
इकन
करानी
सरप्राइज
##स्थली
देवराज
फोर्ब्स
जड़ों
पुनर्जी
##मिश
रिप्ले
कली
मैग्नी
उपद्रव
##वधी
माटी
अथक
शोषित
##ुले
आलोचनाओं
दुचाकी
##खोरों
##कोहल
##दर्शियों
बेबुनियाद
महाक
विजयन
वाइड
निरपेक्ष
##itle
खरब
अत्याचारों
ध्य
##्रेल
आव्हान
श्रीमद्
शहाबुद्दीन
काफिला
ट्री
श्राप
रुझानों
,,,
कद्र
##रावती
गृ
##्बी
सीहोर
पायलटों
ईको
##ाईली
##ोरस
मर्म
##ंजर
बीटेक
छिड़
प्रवीन
##रांत
अटॉर्नी
सीखते
प्रतिक्रियाएं
टांडा
##र्गा
जाऊं
हावड़ा
प्रशासनाने
छोटू
##34
एसे
बिखरे
##scri
सकूं
Class
हवस
##िंह
जाटव
विधानसभाओं
पेल
##ुरत
टीआरएस
टोय
##रकपुर
हास्यास्पद
##िगर
##ीलैंड
##जला
##mm
श्रीगंगानगर
कैप्स
सौम्य
प्रलो
सेटों
असलम
स्टीफन
एटा
##्राव
स्पोट
नगरा
स्वेच्छा
##ffic
एडवाइजरी
ओळ
##चक्र
वीवो
रोहतांग
ब्वॉयफ्रेंड
ट्विट
भोलेनाथ
##कांची
सुपरकिंग्स
करिअर
रादौर
दिलेल्या
बीचों
समावेशी
##ाप्र
आलीशान
लर्निंग
…’
धमकाया
कम्युनिटी
दलीप
##िसन
दारा
##हंस
बरपा
सैंकड़ों
भड
##थिक
जहाना
##31
सेने
...।
##ging
अनुमानों
इस्राईली
जिताने
##एमपी
टोटल
जिहा
सफदर
उपक्रमों
Whatsapp
आरआईएल
उत्तरदायित्व
जादूगर
उदारता
गान्ड
जेवरात
comment
कंपा
पन्द्र
भटनागर
।“
हिंड
पब्लिश
भर्तियों
सुशीला
Primary
किन्हीं
क्रिट
स्वस्थ्य
National
डूबी
प्रश्नो
२१
##खंडी
##Press
सेनानियों
##ामाल
इराक़ी
##णित
रहल
ट्रेंट
फीमेल
मराठ
दत्तात्र
ढांचागत
विदेशियों
बचता
सिल्क
सिराज
बोइंग
पहुंचाता
हाथो
दलहन
नरवाना
1969
खींची
हर्ज
##वर्थ
##थीन
जूही
##विकास
स्वयंसेवकों
उज्ज्वला
एसीपी
##ल्डिंग
पित्त
लाभप्रद
संभोग
डीलरों
बनाओ
##रोपण
##जोशी
जाईल
पार्ट्स
##Studio
ICC
दिखाएं
धीमे
##धिव
दलाली
सुथरा
##दिनी
नकारा
##udai
##शियर
##arat
मुख्यतः
स्तब्ध
तांता
काटना
मोइन
##आईएस
फादर
अडच
रैंप
##oun
हाइड्रो
हर्षोल्लास
बिका
रस्ते
इस्राइल
##चिंत
टेलि
वैरिएंट
वेणुगोपाल
##लेमा
मंहगाई
Ram
मुड़
दमोह
आभासी
विलुप्त
सीजफायर
नन्द
क्रिम
गोभी
सुब्रत
महराज
1976
crime
बुराइयों
##ड्रिंग
##PSC
पारे
गुद
inter
हाउसफुल
धड़कन
दुष्प्रचार
चुल
Sec
वालिया
संघों
मूसलाधार
##inal
यूटी
157
##्रन
##बीच
धना
अख़बार
##iya
##म्बल
पंढ
बही
चैतन
कोबरा
दीदार
##ैक्टर
Ra
जैक्सन
अंगद
खींचकर
गढ़वाल
##ंधी
दर्शाते
येणार्या
महिने
##साना
निवर्
पहुंचाते
बुवाई
सीटू
SMS
##IL
साया
चौकियों
##प्रभ
इंटेलीज
जागी
रामज
जसबीर
संप्रभुता
कराय
अनहोनी
##ौपदी
##टोन
यात्राएं
थ्य
##ुपुर
##िप्शन
सुलतान
वैष्णो
एडमिनिस्ट
होस्टल
ठेव
##ograp
बेगुनाह
अब्बा
##बह
काहे
##ण्डे
Amaz
दृढ़
भों
राजाराम
महापालिका
उथ
##ांती
दिहा
एनओसी
रातभर
लपक
मिठास
SH
साडे
याकूब
एजाज
दालचीनी
##बहादुर
मिळाल
नरसिम
पिछड़ी
एलिजा
##रकों
जुबानी
तिजोरी
ne
लॉर्ड्स
##दुल
बंधा
गरजे
##बोधन
##ara
ट्रैकिंग
शालीन
वर्जिन
भाऊ
हदीस
समेक
विकराल
रेलगा
ख़ुश
प्रणय
##रेकर
स्ट्राइ
धंस
टेक्नी
नुसरत
चौपट
इब्
रामलला
खिलजी
फर्रुखाबाद
सीरी
कोरी
13वें
आफत
##ails
मॉडर्न
स्वायत्तता
142
##खली
डा0
##क़ात
162
दुसर्या
CamStudio
कंधा
##्यक
##वर्द्ध
पीडी
##पाणी
चेल
काउंट
चंदे
खंभे
महापर्व
##र्ज़
चित्रकला
लम्ह
क्षेत्रा
पनडुब्बी
वाद्य
फैलता
सरज
द्रौपदी
बेहोशी
क्लस्टर
क्वार्टरफाइनल
प्रत्यक्षदर्शियों
महापुरुषों
इबाद
नीना
apps
##क्निक
परास्त
परम्परागत
##गिरह
गद
मेस
##uru
चाइनीज
पन्द्रह
##जेस
गैप
##गृ
बासम
संबल
कॉम्ब
हटे
पूरन
पूंछ
तोड़कर
एआईएम
##ron
दिव्यांगों
हताशा
तांड
##ड्ढr
##यानन्द
ATM
सिक्स
प्रज्ज
जबसे
कार्यवाह
##ava
वृक्षारोपण
आईजीएमसी
आबे
पत्तियां
Far
##हाप
त्योहारी
गुजरती
रत्नागिरी
ध्वजार
डेवलपर्स
गोलाबारी
ग्लेन
हारा
##चकित
लडकी
मनमुटाव
नजीर
तब्बू
##डिग
Ph
##ruary
रूह
##श्वरी
##ेंने
any
एक्सपीर
दलदल
इफ्तार
कॉटन
##शरण
मुन्नी
ड्यूल
सालगिरह
##क़र
स्पेनिश
रिम्स
##yan
ऑपरेटरों
सजे
जानिये
बैठकीत
स्टुअ
तबका
पेट्रो
इण
##ाइनल
आसियान
चार्जर
बचाते
##दत
##ारिज
पिप
दिसत
इम्यून
आहट
पीटी
पदम
सांसारिक
##परिवार
मैथ्यूज
सोडियम
##पत्नी
बदलें
1966
टर्
प्रतिवेदन
##char
सिलेबस
चपरासी
Portal
एआर
धरम
धौल
भाईचारा
खिड़की
दलीलें
167
पढ़ाओ
विकासखंड
कोचर
मैथिली
Punjab
##ंट्स
मुझको
फिल्मो
दामोदर
कॅरियर
Po
एएफपी
आपदाओं
तर्कसंगत
सैमसन
कूदकर
Sha
स्वार्थी
मिक्
हैँ
इम्तियाज
असोसिएशन
पैनी
बंदियों
##ंबलडन
166
पकड़कर
खलीफा
भावा
बैठती
##नेज
Update
##तला
वर्ल्डकप
##Ah
संख
जनकल्याण
Data
##RO
224
परिचालक
श्रोता
##ोस्तान
भीतरी
संगरूर
सिन
”.
केरो
कोताही
जनविरोधी
##्यांचा
2030
##नामों
मित्रा
इकलौते
##TP
भुखमरी
थूक
बासमती
गाडि़यों
कुदरत
त्यावर
उद्धरण
त्रिवे
गीली
लार्
रिजवी
##garh
##गरण
अछि
##ji
टूथ
बैरा
उबल
##ानाथ
UN
विंबलडन
युधि
असुरक्षा
अल्टीमेटम
अमा
##ब्रिक
##लाहट
लागला
घप
मर्च
हैल्थ
##चरित
##यनों
high
कराह
अंगुल
हितग्र
##बाण
if
शार्द
Log
अंडरवर्ल्ड
दंत
लुईस
घोड़ा
##aba
खिलाडी
दाम्प
माल्य
कुर्बान
सेलेब्स
डायरिया
##मानिया
##ism
टेक्सट
घना
प्रतिज्ञा
एनबीटी
ईएमआई
आर्क
##्टरों
##क्षमता
पैकिंग
घटकों
एचए
हठ
प्रॉजेक्ट
तनातनी
हरिव
##र्फे
प्रेगन
वशीकरण
संस्कृतियों
##wa
प्रधानमन्त्री
बंटा
##SP
वासना
पनप
एसई
रचनाएं
##भाषी
क्राउन
अनन्त
निंदनीय
##तरनाक
डबवाली
पितरों
योजन
प्रबुद्ध
##riv
##अत
जाई
##चिकित
##जम
तुलनात्मक
aut
लूटी
ठु
##तानी
##थ्य
1920
पकने
##गुनी
बग़
ईनाम
विदित
निभाती
खामोशी
सुभ
सार्वभौ
इकोनॉमी
##फट
साम्य
जहानाबाद
##्लों
डीटी
बाधाएं
न्यायाधिकरण
खोजी
अभिलेख
फिलीपींस
नापाक
मांगनी
शिष्यों
फेंकी
२०१८
बानो
मुराद
शटर
पैं
जलाशय
एनपीआर
##ब्ज
स्टुअर्ट
##विष
डायरेक्शन
##ज़त
निहाल
सिंपल
एंड्रयू
मैकेनिकल
स्न
##ंतला
पूर्णतया
खिलाया
राधाकृष्णन
एतराज
##ोकॉ
अदृश्य
काटजू
एंटीबाय
परिपत्र
रुच
दबाया
##oint
ठोकर
उत्सा
छूटने
रितु
##िलोक
##सलिंग
14वें
लिवाली
Police
ध्येय
चान
एलसी
हिल्स
##झक
मोहनलाल
पॉलिटिकल
युवतियां
function
##जाति
अनुसूची
##ैंस
बहला
##95
प्रतिरक्षा
कामरेड
कटक
मरांडी
अफ़्री
आंखे
vis
##लोगों
5G
चाटने
क्रिस्टल
थ्योरी
टीकम
सरताज
सामंत
व्यथा
बदहाल
छिलके
Sup
##हासे
सर्वदलीय
data
कायल
##ुडू
रचित
शत्रुओं
अभद्रता
इकलौता
विहीन
निभाए
घूमना
असल्याचा
नसबंदी
श्रीमान
भरता
##enef
स्कॉटलैंड
##मौ
कारन
शिथिल
जिग्
##FC
##ामू
ग्लेशियर
स्ट्रॉ
तुगल
वीना
ब्रांडेड
स्पाइ
रालोद
मनपसंद
बैरियर
रामनिवास
सिवनी
##गीन
जातीं
त्याने
पीएमएल
आंद्रे
##ेरे
सम्मुख
मैक्
चुस्त
एसआर
लागणार
होलिका
At
वादी
##कर्षण
गिनी
शुक्रा
कक्कड़
जिओ
दलबीर
Basic
आज़
##मेन्ट
##In
##ones
हाथरस
वरन
उदासी
सरचार्ज
मूलतः
बेखौफ
खंडों
work
उल्लू
याह
रडार
एमएलसी
सुप्रसिद्ध
##ैदी
##ड़ाह
##विया
अक्षरा
इंस्टाल
##प्लांट
सामग्रियों
इंफोसिस
बुखारी
फ़ो
##yn
निभाएंगे
गोलमाल
पीलिया
ज्वैल
##्वेन
घरौ
व्लाद
गुलाल
3जी
कोंक
विनाशकारी
पूरब
थ्रिलर
सब्जेक्ट
##्वेज
गर्मजोशी
file
जलाल
बजाते
टोयोटा
काउंसिलिंग
करावे
ध्वजारोहण
मन्
पढ़ता
##शने
कॉस्म
आढ़तियों
मंडलों
मंडळ
##वरे
स्लॉट
फिल्माया
खोजा
फार्मासिस्ट
मज़दूर
रहस्यमयी
फ्रे
Group
राजसम
शिशुओं
##्यूलर
##als
WordPress
जबतक
अनुग्रह
आरओ
भिजवा
MB
जुड़ने
दस्तावेज़
रोजा
क्रमिक
ब्यास
गुमशु
लोहार
लायंस
आईये
अपर्णा
जिंदाबाद
आश्चर्यचकित
बालकृष्ण
##aps
##unch
बेबाक
प्रलय
##कीज
चुत
सम्बद्ध
लैंडर
विरोधाभास
##िकापुर
साझी
506
आउटफिट
नाकाबंदी
GB
खेलता
day
धारी
कुशवाह
अतर
पुनिया
नौवीं
अनाप
##DI
बिला
संकु
सुपरवाइजर
दिवशी
RRB
##्रप
लगायें
बैठाकर
बचेगा
अहिर
##रावत
प्रसून
इजाफे
ऐतराज
अधर
##खेड़ी
Patrika
फ़िलिस्तीनी
क्लीयर
कार्यक्र
यूज़
टेक्नॉल
##चिन
कैंडल
महिलायें
मनमोह
Image
बाबूजी
मिग
Guj
##ठिका
गौरवान
हितग्राहियों
अहम्
205
बदतमी
दक्षिणा
साक्ष
तपासणी
डंडों
ढुल
उलेमा
152
छपाक
भाईजान
हंगाम
राजघाट
हला
केजी
तफ्
सिरीज
बिकिनी
स्पीच
डिफॉल्ट
##तांत
1400
प्रयोगों
गुजरी
reg
नलक
दानिश
बायें
उपविजेता
##ेजॉन
पटौदी
ज्
##िटिव
पुर्न
स्पर्
पारिस्थित
भद्र
रेहड़ी
##ोहन
लटकी
एमएससी
##नेटिक
ब्लाउज
क्रियान्वित
शक्तिपीठ
Rajasthan
छद्म
मचाई
पूर्णतः
##लाइजेशन
चार्ल्स
एक्सक्लूसिव
und
एडवेंचर
चैकिंग
दुरूप
फ्रैंक
सपाट
वर्त
गुजरता
झरने
##जाता
गुर्दे
##my
हत्याएं
##lete
##फ्फ
रघुवीर
उपद्रवियों
##म्मान
बढ़ाना
नागौर
प्रयोजन
नवनिर्मित
प्रांतों
##न्ता
स्टॉफ
सुनिए
चित्रकार
##भाषण
देहा
दफ़
खोजबीन
एकमु
खंडित
खंडेलवाल
##मेशन
##मुद्दीन
डेटाब
नमकीन
मझोले
##fter
क्यूबा
Paytm
youtube
दुहाई
रिपेयर
ज्योतिर्लिंग
हेलीका
अंतराष्ट्रीय
##ouse
February
जयदेव
आभूषणों
लाएगी
भाद
Views
उदघाटन
क़ानूनी
वेटिंग
माइनिंग
##ंबित
मिलर
##ेंटेशन
फ्लोरिडा
##इप
भाद्र
अचूक
लालसा
एड्रेस
अदन
##राजे
चौड़ाई
किडनै
##wal
भुट्टो
भागातील
##ग्रेट
चयनकर्ता
कमज़ोर
µà
लॉन्ड्रिंग
मानेसर
फटे
चौराहों
पारसी
##कित
चैतन्य
##्रोप
अलीगढ़
स्थिती
##aks
##EM
जेनि
hot
तिस
काजी
किरन
##द्दू
धर्मबीर
भुगतने
नता
इंडो
फर्मों
##पुरवठा
प्रश्नपत्र
दुरूपयोग
अणु
थपथ
इंसानी
समूची
डेटाबेस
NS
##ॉं
ज़माने
##देष
##que
ट्रैप
फारसी
जीर्णो
##लिखित
बटर
499
टकराई
विभागाने
##irect
पोजिशन
प्रशस्ति
डिबेट
डेक्कन
कजा
जंक
सुंदरी
लैंप
तांडव
दफन
##क़त
तथापि
दूरस्थ
1957
उपर्य
india
बड़ों
गौरवान्वित
ज़रा
लांघ
##जिंदर
##सां
वेळी
नासिर
twitter
आर्या
##ड़कर
किद
होल्डिंग
मेंटेन
दाता
लथ
माणिक
माइलेज
##वाणू
720
##ुहान
मंजर
##hor
बर्लिन
##क्कड़
एचआरटीसी
सहरसा
##soft
प्रदत्त
दीप्ति
##साईट
अडानी
उपाधीक्षक
सिलिंडर
##गरा
मिडल
बाजीराव
id
मीसा
##rad
ग्रिल
तेंदुआ
डोपिंग
##क्टिव
उलझे
इश्यू
निवर्तमान
दूकान
विश्वासघात
रौशन
विक्रांत
##तिब
##ins
अर्थव्यवस्थाओं
तैरा
वानखे
त्रिवेणी
संशोध
हिरानी
परिपक्वता
विकट
किलोवाट
रोकते
लाभों
फंसने
पसार
##नेस्को
##AB
व्लादिम
अर्थों
नलकूप
##सूल
##स्पेस
नाखुश
##र्भात
व्यवधान
शोभ
कस्टमर्स
##ंय
नाबार्ड
##र्सल
##विराम
पोहो
चित्रित
Trans
ass
कुंदन
मोनाल
दतिया
##फंड
उपर्युक्त
निर्वास
नशीले
Cha
##78
कांडा
मुकुट
परवाणू
मैग्नीशियम
गुंडे
UPTET
उत्तरदायी
शोहरत
पर्वतार
पेड़ों
आशिक
बब
ज्ञाने
##ध्यापकों
शोधकर्ता
दमा
अती
##IVE
गोल्
२२
उदयन
ब्राउज़र
haryana
एनएसएस
##ण्डर
गुमशुदगी
ret
##बद्घ
कार्यकर्ते
प्लैट
नॉलेज
अनलॉक
परोप
पर्यावरणीय
ड्रम
सैणी
अटैच
ढहा
बन्ध
चौतरफा
लंकेश
बोतलें
रंगत
???
पोती
रोमांचित
नसीम
दुसरी
ढीली
युधिष्ठ
हीट
गतिशील
असत्य
अनुशासित
दंपती
,’’
हथियारबंद
अफवाहें
एकमुश्त
ग्वार
लहरों
फाउंडर
अड़
174
##नाड
सिंधी
political
फर्ज
##बट
घूमता
कस्टडी
इष्ट
फ़ोटो
Bharat
¤¯
##िमाम
डेविस
सेनापति
निशंक
बूंदी
चढ़े
1961
क्लिनिक
जनपदों
##unt
शकुंतला
शाहन
कटघरे
पहाड़ियों
एलिजाबेथ
क़तर
##सीयत
डुम
रिले
कुटी
जुझ
पंचनामा
Article
अनिरुद्ध
डीडीसी
बिताए
इबादत
184
सिट
प्रज्वलित
##ग्रेन
बेबस
मयूर
##पुत
##पोरा
Test
राजौरी
##नुसार
गायकवाड
बीरबल
प्रान्त
क्रिप्टो
upay
सुदीप
सारंग
Smart
बजने
##म्परिक
फिरने
लास
भुना
लुढ़क
ओके
बडे़
8वीं
मागील
बहते
##िफाई
##ूव
अशांत
##over
खुशनुमा
back
##धारे
कॉपीराइट
बेमानी
नुमाइ
program
देब
बिगड़े
##ेलाल
नजरबंद
फालतू
हिन्दुस्तानी
गुनगुना
##्युट
जीतते
##राहे
हींग
girl
##Pl
Open
जगी
उड़ी
झंड
आदतें
अर्पण
मिथक
सुप्रिया
गढ
##ोन्
inc
महामारी
संगड़ाह
संबन्ध
गिराए
बिस्क
रेडक्र
फ़ेसबुक
facebook
स्को
##ल्लों
बिट्टू
वनप्लस
##पोस्ट
आणखी
Sab
कधी
फकीर
हड़कंप
##्ï
अखेर
होडल
##चौक
##aur
##ायोग
व्यवस्थाएं
मल्लिकार्जुन
##vent
##्रियां
Soc
जोत
हममें
जगमोहन
आउटडोर
टपक
##्यन
वोहरा
ईर्ष
साज़
सहकर्मी
जलती
जोड़ें
##दाब
आंदोलनकारियों
Inc
प्रणालियों
ज्योतिषी
रसूख
##स्लैम
कालावधी
##ected
Cup
साइं
चमत्कारी
तिरुवनंतपुरम
कमतर
##म्मल
बिरला
त्यों
आईआई
##appy
खड़गे
टेब
थांब
पोलिसांना
no
नपु
सप्ला
##वांछित
मुर्गी
स्क्वायर
##दीवारी
सुमेर
बेंचमार्क
##iversity
नब्बे
स्ट्रा
उन्हां
कूलर
खामी
##ठ्ठ
बसने
146
##ility
##भ्य
सुनाव
त्रिलोक
bi
##जातीय
बैठेंगे
कढ़ाई
अवाम
##ortant
जिंसों
ठंडक
माल्यार्पण
अड़े
कॉन्स
365
पुढारी
किरकिरी
रूपांतरण
नैसर्ग
##ople
न्यूर
कॉपर
प्लेसिस
आकांक्षाओं
मुमता
!”
कैंटर
Vo
मिच
आईटीबीपी
चश्मदी
संकलित
हरिवंश
मारता
चकमा
नॉर्मल
Channel
प्रविष्ट
छुपी
दयानन्द
पिछड़ों
फिना
Dist
गोशाला
झिल
सजाने
गुलाटी
चुभ
मायूस
कांकेर
अस्त्र
##ं०
तौल
हरपाल
मसालों
show
ठप्प
##विद्
पक्षकार
ज़ाहिर
फ़ै
बियर
##िशियन
पीएसयू
पुरातन
पारियां
करवाता
ब्रांडों
वीणा
निशानेबाज
सुलेमानी
सहला
डलह
ऑटोमैटिक
SU
##ities
इंटीरियर
तालीम
कॉन्फ
Road
इनसान
हैंग
like
तनिक
पुकारा
##ारह
कार्म
##ियांग
##विहीन
शेयरिंग
कमिंस
लक्जरी
मॉस्को
क्षतिपूर्ति
लचर
##बूज
was
बेतु
एंड्राइड
यावर
बेकिंग
असंतुलन
वक्र
नावे
महामह
सिलिक
##टाइम्स
कइ
##ोर्ड
घरवाले
##लिफ्ट
प्रिंटिंग
जेंडर
सबमिट
जुडे
नगालैंड
संवर्ग
पारम्परिक
नेर
नामांकित
ढाणी
सीआईएसएफ
एग्रीमेंट
हमार
मवेशी
भुनाने
पूंजीकरण
विनर
फ्लो
बिताना
850
गनीमत
year
पीठा
##ळ्यात
##ाइटिस
छवियों
##ान्तरण
स़ि
आंकी
जुदा
##मुश्किल
cr
तक्र
रूबी
##alaxy
कलायत
सेलेब्र
business
पालिके
##िलों
येते
179
##ळीत
संधी
संघर्षों
स्क्रब
बिस्कुट
भुंतर
##sung
पीई
सैलाब
खुलेंगे
##TS
लेनिन
Can
ek
नावा
आइस
बूटी
बाक्स
एक्यू
इंटरफेस
##ग्रो
##िदा
थेरेपी
वफादार
लथपथ
पैट्रोल
प्रदोष
तबदी
उपनगरीय
टीना
अररिया
##वेंशन
##िन्स
##मंत्रालय
##adhya
नाजायज
1955
वज्र
रोवर
सम्मेल
##एमएल
##ंबे
कटिंग
पालघर
दुर्बल
इरादों
आँसू
जोड़ते
दूज
लेंथ
##ecial
फ़ायर
##rict
मातृत्व
रायल
मुलाक़ात
समझो
संबित
घसीट
##yar
##ese
भेजता
अस्थि
##wali
##लेटरी
हवाल
घूर
हाशिए
क्वालीफायर
##समेंट
स्ट्रेस
सुविधाएँ
Key
##ाल्ड
##ियें
##ुकला
मुंहतोड़
कांशीराम
][
थेट
बुड
प्रॉफिट
बेड़े
##्यारी
गीला
मैल
महामार्गा
लुइस
मुख्यालयों
##ude
मालकिन
शार्
बहोत
हाइब्रिड
धरणा
श्रेया
शशिकांत
पैमाना
किस्मों
##ष्मा
ओन
राजपथ
मिर्ची
बाॅ
वनवास
##वैल
प्रपत्र
अभियोग
जड़ें
अपह
##ाची
##केशनल
मुल्कों
नायाब
##rav
हेरिटेज
##रीशस
##़े
पणजी
##ration
राहणार
पहनती
प्रायोगिक
फोरलेन
स्तनों
ser
मुकु
##र्डिनेटर
प्राणों
मेहरबान
चिता
उन्माद
परमिशन
option
हरप्रीत
featured
सरजमीं
दवे
##urs
ऋषियों
एनालिट
Viv
यार्ड
मास्को
तफ्तीश
##त्त्व
समाजिक
ऑडी
पोम्प
झाल्याचे
ट्विस्ट
##कोड
कोका
बांह
trans
##चने
स्ट्रेट
web
याम
Make
rem
परिचर्चा
अमानत
राष्ट्रीयता
मूली
अपघात
जलस
##कलां
बिज़नेस
अल्ट्रासा
रिहर्सल
इंटर्न
सीजेआई
डस्ट
##केंद्र
##एशन
स्टैच
घुड़
पलटी
##ैरा
चांस
नयन
बोब
##अद
मेकर
चिल्ड
सद्द
विषाक्त
कहूँ
वस्तुतः
प्लग
निरंतरता
कहलाने
अमरोहा
औरों
कॉम्प्लेक्स
काटी
कमिशन
इंजिनियर
मैजिक
तमी
रामचन्द्र
धोती
मोहसिन
सजीव
##यंस
प्रमाणन
##परिणाम
सीवान
घंटो
खौफनाक
Boss
नव्या
पीएचसी
डिब्बा
अपशब्द
##ढ़ियों
हेनरी
##वासीर
हैलो
जरूरतें
यमनी
भाँति
##ाज़त
इकोनॉमिक
चाहर
##ream
जंजी
हाहाकार
ज्वल
रकबा
छपने
##डऩ
शिद्दत
सभाएं
सीरिज
तगड़ा
##NG
##हाण
##घाटी
हेराफेरी
नेक्स्ट
पीडीएफ
जिलाधीश
चिंच
Ads
कील
निष्पादित
तक्रारी
edit
यस
##ंा
गोपालगंज
फिर्या
कायाकल्प
##ग्रेशन
नाटो
सीओए
##नेचर
ब्ली
स्विमिंग
परवीन
software
चरित
क्रियाकला
##andhi
ड्राइंग
बाइक्स
भंडारे
लाइट्स
शिष्टाचार
टोर
शब्दावली
Current
सली
अरबपति
##lectricity
कोऑ
आराध्य
प्रतिद्वंद्व
पिज्जा
##म्मे
एफएम
सीढ़ी
प्राधिकारी
महामहिम
नैसर्गिक
Em
गड्ढों
एमएलए
क्रिएटिव
अमरावती
बाबासाहेब
ज़िम्मेदारी
##फिस
सीवीसी
जिग्नेश
फैलाया
##ॅप
##ark
##र्यंत
वैलेंटाइन
सहिष्णुता
तानाजी
ट्रांसजेंडर
शूद्र
छेत्र
पोषित
##म्र
दुर्य
##लिनी
शिरडी
परिवर्तनों
मुख्यत
एहतियात
मोठे
AB
गबन
##विण्यासाठी
मसीहा
पुश
एक्सी
प्रतिबि
भंडाफोड़
जीरकपुर
चारे
##ईएल
##vest
पीढ़ियों
##ेशनल
##ody
वाईफाई
सभासद
##RL
##ियाें
##खेड़ा
कार्यपालन
डलहौजी
आड़
निकेतन
पौधार
##म्पू
##ंगीर
उगाही
ऊँचाई
कमाते
पीटरसन
परगना
माहिरा
खूबी
वादियों
##ica
एचटी
her
ढाबे
##मों
##erved
आत्मिक
फेलो
वॉटसन
##कशी
मेकिंग
नगरों
बिया
लवली
बीएन
ED
मख
जली
##फल्स
इमली
जाग्र
स्वामीजी
सिंहस्थ
रंगी
Instagram
##ham
फ्राई
कराड
शर्मिला
अजनबी
##ustom
बाईं
सिक्युर
बवासीर
डुबो
संच
नेवि
##मीर
संतरे
इंस्टीच
ललितपुर
बार्डर
सालभर
गुड्डू
गुरुओं
##नेम
मोनालिसा
घरी
कारनामे
विशुद्ध
नामचीन
अगल
सामान्यतः
प्यू
##्यामुळे
सौंफ
फुसला
मौर्या
मोहताज
स्पिनरों
##र्डी
इमारती
##दशमी
रिजल्ट्स
वेटर
##िटन
फ़ी
शांतिपूर्वक
ऋग्व
पुलिसवाले
हैश
दार्ज
गर्मा
धराश
##ल्लाहु
##ंल
पहंु
हांसी
निश्चि
खूंटी
##asht
##नाल्टी
one
##ser
उतारी
हात
हलवा
Pan
##रोली
बिल्लियों
##उदी
##छावर
कैम्पस
बोन
रिक्तियों
##लिस्टिक
##ठिकाणी
फासी
Alive
##न्टी
ग़ज़ल
सुनंदा
##ॉल्यूशन
##weet
नौकरानी
बमबारी
निग
##ould
मुहब्बत
संभाजी
मुखी
##निटी
##ffect
उड़ानें
गृहस्थी
देवन
अभिभाषण
फ्लाइंग
##ॉइंट
##64
डिब्बों
लुका
Book
यूनेस्को
कान्हा
त्याचे
##पत्तन
##क्को
टीके
प्रोवाइ
##ांडे
एलएन
आंतक
चूल्हे
देवभूमि
प्रजातंत्र
बेतहा
open
सैंट
##ст
नवाज़
सरपंचों
भौतिकी
##ेशियम
##ायदे
##ika
फटी
गुरेज
लाठियां
##गाने
फॉरेंसिक
क्षय
राष्ट्रव्यापी
साधू
सोहेल
रफ़
जनरेट
मंत्रिपरि
##गास
दीपेंद्र
आख़िरी
मुफ़
पौधारोपण
हत्थे
सरासर
Or
काॅलेज
छाल
सुचना
##aye
सफ़र
##ंध्य
ट्राय
##hatt
##जुएला
शॉल
लाएंगे
अस्पष्ट
1968
1080
मज़बूत
विस्थापितों
##चेन
महबूब
परसेंट
gmail
बीडीसी
##गोर
##िटल्स
यूनुस
##ँगली
पिकनिक
##र्ब
मिथ्या
बाल्टी
जवाबदेह
##तोड़
अमेज़
141
मूला
Samachar
जुनै
##orial
दीवारें
आर्गे
सेलिब्रेशन
पिएं
मजलिस
आत्मदाह
##बोरेट
7000
केट
##ूहल
ऐपल
बाँट
##चिया
so
मूं
##ुपति
चढ़ाव
१९९
प्रामाणिक
आर्टिफिशियल
##ानंतर
विलक्षण
स्वावल
स्नैपडील
ठुम
खू
##ुरे
जननी
ट्रांसप्लांट
इकठ्ठा
लुटा
द्वाद
htm
ऊस
हिरो
मने
##दीने
कौश
##शिल्प
##इज
मुसलिम
आदेशानुसार
बखान
पूंजीपतियों
सत्यापित
वजी
हाईटेक
नाइट्र
सम्मेलनों
जरदारी
अरि
खोए
याप्रकरणी
169
##मलानी
किलर
##र्मा
कटरा
नुक्कड़
वॉल्यूम
एडज
मैदानों
खुलते
छुड़ाने
जोगिंद्रनगर
दंडाधिकारी
जॉर्डन
323
दुर्योधन
डायना
##एसएल
अध्ययनों
##aipur
घटनास्थळी
प्रलोभन
कुकर
बेज
टिके
##्र्
युआन
##म्पर्क
पुनरी
Galaxy
नाउ
लती
##ko
mp
##एसडी
अनारक्षित
videos
खरग
काह
##ान्
##नाली
नामवर
computer
वट
मैदा
##णाऱ्या
इंटेलीजेंस
दाम्पत्य
निष्पक्षता
##र्सत
लाइंस
भतीजी
खजु
##्योदय
शासनादेश
घडली
मॉरीशस
हरिओम
सिक्योरिटीज
औकात
अभिर
नौट
छिद्र
जूट
वाटसन
##मेड
##भ्र
सिंक
##जोड़
प्रद्युम्न
वेंट
अधिकाधिक
##akh
बगदाद
मुस्कु
##puri
ओत
##85
##ैला
##स्त्रा
बंगा
शिवराजसिंह
निकोलस
पैंट्री
सिमी
Stud
##होवा
प्रताड़ित
ओप्पो
android
सुरभि
होप
##use
लोहड़ी
Mac
कड़ाके
कार्यालयात
##दर्दी
top
Copyright
नवभारतटाइम्स
लैंग्वेज
Kh
##वंती
##चिन्ह
घोड़े
छिंदवाड़ा
")
##पीआई
चेकअप
##फाल
वारंटी
##बाधा
करवाये
अपशिष्ट
दयालु
खिलौना
Real
नच
बहिन
रखाव
सट्टेबाजी
फग
ग्राफिक्स
हटाओ
बशीर
हॉरर
आषा
मानसी
क़ब्
NDTV
दूंगी
आनलाइन
System
याचिकाएं
होतो
पलामू
##स्सा
हैवानियत
मुहल्ले
एसिडिटी
सीएल
परिवारवाद
स़िर्फ
लांग
क्रोधित
##डिय़ों
युधिष्ठिर
खोजें
##ुवा
खाकी
नियोक्ता
दंश
##रावली
##हून
मोनो
टोकन
##वेशन
गावों
जन्मी
शख़
भाजपचे
##89
##ов
मिलीलीटर
सरस
##चार्यों
Uj
आमा
क़ु
वास्तुकला
##बरदस्त
Program
फलदायी
मिळणार
ख़ुदा
बिस्म
रायडू
RE
##रिश
निगेटिव
वात
our
##100
##पूर्णा
डेस्ट
प्रायद्वीप
##ोरेशन
संगठनात्मक
##भूषा
image
पस्त
रनवे
अक्षत
##ंकित
युनाइटेड
##ज्ञता
फ्रेंडली
बेळगाव
सद्दाम
##तानुसार
थिंक
comm
जन्मो
कार्यान्वित
बाउंस
1964
नकाबपोश
,...
ओमे
पैरोल
तातडीने
पेपर्स
Microsoft
##ांचल
##नेटरी
सांठ
eng
कपल्स
इन्फेक्शन
अभिमान
न्यायालयाने
अरू
लैटिन
बटोरने
##जूकी
तिमाह
खोखला
बेलगाम
विघ्न
महिष
सटा
रणनीतियों
मंडे
प्रवाश
उदित
गवर्नेंस
##ope
सौम्या
केे
मानसिंह
भाविक
##ामृत
सीकरी
छीनकर
##एसए
ऊँचा
8000
जानेवारी
फ़ा
पूर्णकालिक
Sch
मर्सिडी
##ंडरी
बढ़ेंगे
बरसाती
##भागीय
शार्दुल
##ोबत
अफरात
निरुप
##डि़त
निपु
जनजातियों
आसीन
योगेन्द्र
प्रवृति
##****************
एंटीऑक्सीडेंट
उपजाऊ
ओवरलोड
अधिग्र
ब्रिगेडियर
एेसा
पिर
शर्मिंदगी
प्रतिद्वंदी
टोंक
जयते
परिसरों
मुले
फाइव
सलवार
ऊब
रायगढ़
करीबन
सस्पेंस
##apture
पखवाड़े
##क्वार
रामू
1300
##गिरि
जुनैद
Full
##जंग
वाइन
नुस्खा
एपल
सिटीजन
स्मॉलकैप
दार्जिलिंग
पलंग
sam
एरियर
पधारे
धोका
अन्ध
Sur
संगकारा
घरात
##inks
सेहतमंद
शब्बीर
एजेन्सी
सरगु
##प्सी
बलराज
रमण
कीबोर्ड
रीडिंग
ग्रं
हैकर्स
कान्फ्रेंस
पर्यंत
हस्तांतरित
वेनेजुएला
चाई
जांब
समारोहों
##आआ
##ोवेशन
थापा
धुनाई
पौधरोपण
आदिम
क्वांट
##tr
कैंची
दोहराने
पोंछ
एन्जॉय
कांवड़
संबधित
आयीं
ya
##वमी
पाद
बंड
##हनी
##्पल
##काव्य
ट्रांजैक्शन
##्तारी
एक्साइट
पेंसिल
सज्जा
देनदारी
गेंहू
खग
जिम्मेवार
##साधारण
##omen
सक्सेस
##apoor
हिचकि
चन्दन
सुधारा
मुलाजिम
खोलें
आल्याने
अल्पा
जातो
##ार्च
##णों
सिरीज़
मुकम्मल
छीना
life
पती
हड्डियां
प्रविष्टि
फलक
मॉडलों
ब्
पुला
गंवाए
##भूतियों
अले
नित्यानंद
कालू
पहिले
##स्पेक्ट
व्हीलर
गुलेरिया
लड़े
क़ीमत
प्रतीकों
ड्राइवरों
सुजूकी
फतवा
##लेली
##करने
सामान्यत
फिलिस्तीन
शख़्स
##च्य
##रणीय
सुजीत
दीवानगी
##चुप
प्रवृ
कमांडेंट
##ांबी
टीस्पून
##नियाँ
आशि
##ен
महाधिव
know
आंगनबाड़ी
भट्टी
ऑफिसियल
पालकमंत्री
एजी
बराम
टोहाना
Hain
##फ़ेसर
मौक़ा
आखरी
चीज़ें
डैमेज
कैप्सूल
ठगा
जुगत
पेनाल्टी
लक्षात
पण्डित
बोरिंग
##फ्लिक्स
नाथन
Bollywood
होगें
##ters
##एफटी
##डीएआई
स्काउट
list
जश
पंचायतें
सतनाम
हिज़
recipe
सिग्नेचर
फ़िलहाल
पल्लवी
धोर
स्टॉ
दास्तान
बूच
हफ़्ते
जनम
बेतहाशा
कोख
वेयर
अमोल
आईएनएस
##ॉनिक
Date
रायसेन
वीरा
ठहा
नेल
Ser
ऑस्ट्रेलियन
अश्लीलता
यंत्रों
तौबा
ऋग्वेद
मेंबर्स
अप्रेल
सोहा
दर्शाने
ग़ौर
विस्म
योगेश्वर
##ayari
आँखे
राजनय
हक्क
अमरूद
पार्कों
शोज
मांज
##यामी
गु्रप
Office
मंत्रिपरिषद
##स्ले
गोदामों
नय
##own
सवारियों
फोर्टिस
प्रतिनिय
##एलवी
इंद्राणी
शयन
हैै
ब्रदर्स
धमत
देण्यासाठी
यहोवा
अंबाती
कॉल्स
चक्रवाती
ग्लूक
ma
##नीति
##फ़ोन
कुम्हार
दरिंदगी
मिसेज
उतारू
बढ़ाते
स्पाइसजेट
उख
##उल
अलकायदा
न्यूट्र
चिन्तन
एनके
लौकी
सेक्सुअल
एक्सपीरियंस
##orts
बैकफुट
Priv
ईर्ष्या
प्
चिकित्सकीय
आफिसर
##बद
युद्धक
##दुर्ग
दूरियां
##फ़्टवेयर
मरना
##ेंजों
पीएमसी
1942
GN
तिमाहियों
कलय
##बस्टर
##ोआ
माॅ
रंजना
आयल
गृहस्थ
एचएम
install
Son
ओले
बानगी
सं०
परम्पराओं
क्राइ
धुरी
##मोन
फैटी
IM
##फिन
दौरों
नरगिस
मिल्
##वर्त
वयस्कों
हँसी
प्रतियां
चहेते
##ेरियल
खात्मा
नम्रता
उग्रवादी
राष्टï्रीय
उग्रवादियों
खूंखार
##शीर्ष
वेबसाइट्स
सूर्यवंशी
अफरातफरी
एकाधिकार
करण्यास
मॉर्गन
Sal
हई
प्रोफ़ेसर
उमस
नागार्जुन
सूझबूझ
कुष्ठ
सीएनएन
जुला
मर्त
ऑग
आयुक्ता
##ोटी
व्याकुल
मातृभूमि
सरगुजा
मनमोहक
याला
##atta
शेरों
##ईएन
छोड़ना
बमुश्किल
##केलिए
##ुनवाई
बैचलर
जॉब्स
Nav
वास्ता
इल्जाम
नेटफ्लिक्स
पंतप्रधान
स्त्रियां
दूबे
रघुवंशी
##खट
##ीनारायण
गोदावरी
##बिज
Ba
अहीर
आतुर
संज
कहेगा
दुष्परिणाम
चिप्स
##भरी
इलाक़ों
शैंप
##गोश
बंसी
जांचने
एनबीएफसी
मंत्रो
304
सिलेक्शन
स्टीवन
##बियाई
पाश्चा
?'
EV
##िगेशन
बाड़
207
इंसुलिन
पोटेशियम
निपुण
ईलाज
तद
##्जर
मूलत
फर्नांडिस
##Tak
विस्थापन
तोगड़िया
जेनिफर
##कीब
शुद्घ
भिड़
##ोचित
स्टा
पैरेंट्स
List
gl
आईएल
जीर्णोद्धार
प्रिंटर
यहूदियों
मागे
छाबड़ा
मसूर
पिस
संस्त
म्हटले
शल्य
big
##ंमध्ये
##अन
म्हा
##्सी
एंटनी
अल्ट्रासाउंड
##ेले
क्यूं
रचनात्मकता
सीखी
वीन
बरबाद
##ज्जी
धुत
##istory
काढून
कौम
सादिक
समयाव
लागे
December
मैन्युफैक्चरिंग
पाड
यूज़र
द्रोणा
मंडली
एबीपी
बागबानी
##रौली
##ामि
अनभि
उपचुनावों
##ues
परीक्षक
डेंटल
सिंथ
तरबूज
##यीकरण
330
##वृद्धि
नवनिर्माण
खोप
##पन्न
राजपुरा
भात
##त्मे
नांगल
सिंड्रोम
जमाए
वाटिका
##ces
अर्धसैनिक
घनी
जसलीन
ट्यू
##चाहे
##ङ्क्ष
##जारियों
दाँ
सर्वच
आदमियों
1954
content
धर्मांतरण
उलटा
##scribe
##क्टर्स
राइटर
नीरा
लक्ष्मीबाई
यथास्थिति
हमस
##िपति
बुद्धिम
संजीदा
उइ
##िबा
स्लाइड्स
कबी
महाड
जनसम्पर्क
ईवन
एमी
गब्बर
पारस्पर
##बाजारी
पृष्ठों
सदुपयोग
महाविद्याल
##ट्री
अरहर
आबंटन
सात्विक
नाचने
विधाओं
समेकित
घरौंडा
##स्तां
दूरगामी
दुरू
ISIS
रिवाजों
नुकसानदायक
कतारें
टीजी
अजमल
टेरर
शट
बुर्ज
नवयु
##काळी
स्टेम
खेड़ी
बंजर
सूर्यदेव
##स्फोरस
साईकिल
Option
सबसि
गोत्र
प्रभावितों
बैराज
आजसू
भूपति
परोसा
सीज़न
बचकर
सकुशल
यूनिक
Bigg
whats
सीखे
छपाई
रुत
यूनानी
##ॉट्स
खुलती
क्लोज
जनसुनवाई
कंठ
रिजेक्ट
नवोदय
पनपने
रिकॉर्ड्स
इस्लामिया
वसीयत
ख़बरों
##िताब
def
##वू
आयन
वरिष्ठता
UPSC
रागिनी
डब्लू
मंगे
##ड़ित
##िटरी
पदाधिकार
कूपन
Software
महेंद्रगढ़
##िडीह
Plus
सेज
ऐश्वर्य
1930
##anguage
कटियार
##ुल्
श्रंखला
वजहें
प्रधानाध्यापक
लप
४०
बाधक
##गेन
कठपुत
##रेला
##खरी
जाऊन
शादियां
##एफएल
जातियां
##गिक
अनूठे
##कीस
##पावर
दागा
##ident
##eld
##पैट
तोड़ा
तरीक़े
उभरने
ग़लत
शहरवासियों
एयरबेस
घनत्व
##खरा
प्रचारकों
असलेले
ड्वेन
दौड़े
एसपीजी
जेठमलानी
दिशानिर्देशों
::
हाशिये
कड
##पुराण
अपेक्षाओं
हाजीपुर
पैराग
बोलत
समूचा
जलापूर्ति
##लेक्ट
टीएस
अलार्म
पांडवों
सिलसिलेवार
Hu
##दात
##मुला
About
मातरम
वत्स
बदलेगा
पूंजीवाद
Hon
##Too
##िलियन
आरोपपत्र
लहूल
पंसद
आवेश
दिवा
##न्नति
Policy
9वीं
Daily
२७
विजेंदर
लीडरशिप
बेंगलूरु
##र्याप्त
वार्तालाप
कसूर
इमान
ट्रॉली
सीन्स
बैसा
यूनिट्स
क्रियाओं
दंपत्ति
स्टेट्स
इतिहासकारों
निखारने
##भक्ति
तनवीर
शीतला
##जूर
मछुआ
पातळी
उड़ाते
अनुप्रयोगों
cha
##चर्य
##ज्य
महेश्वर
चंदौली
over
पीसीसी
छोड़ी
सुधरने
Jobs
देवबंद
पराशर
कणों
ago
फ्लैगशिप
तबदील
MA
वानखेड़े
शिल्पी
झांसे
स्लाइ
गिरिडीह
कृषकों
गुज़र
ब्रोकरेज
Per
##दारा
दोहराते
कर्मा
आलावा
पुडु
गौरवशाली
डीआरडीओ
एडमिनिस्ट्रेशन
धौलपुर
मक़
Samsung
बहुप्रती
सेर
राजपक्ष
समयावधि
##्रैक्ट
##ांद
##ेलो
रिक्वेस्ट
##ळाच्या
##बिक
सत्यता
कॉन्सेप्ट
युती
मनाही
आयुर्
उत्पीडऩ
लामबंद
##प्राप्त
गुपचुप
##क्तीकरण
रेंग
##क्न
गोयन
वेलेंटाइन
उन्हांेने
रंधा
##रियन
मोति
अलोक
बरामदगी
संपत्तियां
भदोही
दुनियां
नाथूराम
बिचौल
##बद्दल
आजमाने
##ient
प्राई
वैलिड
एयरो
टोनी
नाचते
लाएगा
सीखें
लाजिमी
अभिप्र
##irth
निशानेबाजी
बबली
##विली
##rist
##79
##ोकॉन
बोफोर्स
विश्वयुद्ध
पहनाने
ब्लेड
धरे
उपजे
प्रह्लाद
२३
पैगंबर
बहरीन
##ाहार
स्टै
बोलें
चिपक
एंड्रायड
##प्पर
सड़कें
दिय
रामबाण
##ख़्त
एआईएमआईएम
बहुप्रतीक्षित
ARP
पकाएं
वैद्यकीय
युक्ति
##ाइए
असणार्या
बगदादी
विधियों
PH
स्टर
("
word
##ताक
##ible
उपमहाद
अलौकिक
लॉजिस्ट
थैली
जीस
डीटीसी
कड़ाई
##OC
खुलवाने
Gujarat
पुलों
html
होड़
कुलवंत
विद्यार्थ्यांना
card
मड
अमले
पूर्णता
##टम
##शोध
ऊषा
किती
आंवले
नर्वस
विहारी
खिलाडियों
दांपत्य
मुखातिब
first
##र्गों
##asy
BH
##ena
डिज़
सफीदों
लहूलुहान
इंस्टीच्यूट
##RE
A5
असतात
##कुशल
शान्त
स्पेशलिस्ट
बोत
##ल्सन
##hem
##ेंगा
वित्तप
##आइटी
अग्निक
##तनों
कोना
दुखों
बजरी
BSNL
नियामकीय
अनचाहे
सालो
रेग्यु
स्वाभिमानी
संभागीय
##adha
सत्यमेव
जौहरी
रिसीव
रहै
दिलजीत
बाले
पूर्णत
फार्मेसी
##wj
कापी
मंदिरा
खिंचाई
अधिवक्ताओं
What
tra
फैसल
##chal
सेटेलाइट
##देश्य
रिष
पुनर्जीवित
साज़िश
ज्वलंत
Pak
थें
तिलहन
##िस्को
मंडा
AN
कॉक
उमाशंकर
##र्इ
एफ़
##ौच
परफ
देस
यशराज
आंका
महाले
tool
चिड़िया
अड़चन
बताऊंगा
टॉपिक
गोयनका
बेचारा
एमजे
कहलाती
।‘
प्रहरी
##फ्ता
हलकों
बंज
बसर
AD
रचनाएँ
साक्षात
इन्तजार
Board
##पीस
अमेरिक
शिक्षाओं
कराटे
इराकी
स्वतन्त्रता
##ग्वे
उपास
प्रभारियों
फ़्रांस
बँक
##पृ
सॉस
##कंठ
खिंचाव
राजपक्षे
सुचारु
पार्श्वभूमी
CBSE
उम्म
व्लादिमीर
बढे
तैराकी
जन्मोत्सव
pay
जादा
सम्मलेन
न्यायधीश
दर्शनों
पॉलिटिक्स
हिजाब
पटवार
ऊँचे
##शकों
यासीन
##जील
##पत्रित
##डिय़ां
टि्व
भूरा
##ियोग्राफी
इति
एब
शकत
लॉट
##शियाँ
अनवरत
क्वी
##वर्षीय
ननद
शाजापुर
नौटंकी
बरखा
मध्यक्रम
##एचपी
गोरखनाथ
येत्या
dev
##rypt
मचे
##ओपी
मम
आक्राम
संता
डबल्स
##ॉमिक्स
उठाएगी
बिंद्रा
##मैप
सर्कुलेशन
##नाच्या
आदमपुर
परीक्षणों
##बुद्धि
फ्लै
जूना
340
##कर्स
सेस
##तेला
सुनायी
समालखा
अलॉट
निमित्त
##oh
जाइये
पीसीएस
तल्ख
हाइट
चैरिटी
लिफाफे
पढ़ाने
Dep
संभालना
स्पून
गरु
रंधावा
घमंड
प्रतिभाव
भिजवाया
##िलाइ
रोती
गटा
गिनीज
result
दुश
विषयक
235
एडीसी
नताशा
##बड़ी
##ोपरांत
चिंगारी
अबर
##वारों
राजसमंद
सबसिडी
प्रकिया
बाबाओं
##ene
कर्त्त
महज़
जिगर
##तालवी
जहांगीर
प्रशासकीय
एस्ट्र
झटक
मांगना
##ongress
##ायम
नैप
जबाबदारी
अस्
राजपू
स्टिक
धमतरी
एनआई
मंत्रमुग्ध
##होम
लहराया
Do
प्रगा
##्लेक्स
तिगांव
##रुखी
रिटर्निंग
सूडान
सेवानिवृत
विरोधात
Sol
पपीता
होण्याची
जाखड़
गायकी
पुनराव
विद्यासागर
##ifi
वेशभूषा
सुरा
बाहुल्य
नाखूनों
गड्ढा
चिट्ठा
व्र
##क्यां
##हता
बली
मज़ाक
पिहोवा
स्वेटर
##SH
स्थाय
उच्चायोग
चॉ
चुम्ब
एसएसबी
आयुर्विज्ञान
Rail
एक्सचेंजों
फुर्सत
संक्रामक
##ूर्वक
जनवादी
नामदेव
##राहो
उदारवादी
साबरमती
307
Status
##तना
उदारी
निडर
छोड़ो
पाश्चात्य
पर्सन
मैड्र
##ोय
बैठाया
Apple
छला
तंद
मेंढ
##िनि
pass
वातान
चढ़कर
जैतून
स्मो
कठघरे
शिपिंग
लेटा
203
मलाला
बिगड़ती
औपचारिकताएं
चालाकी
पगार
##पंचायती
उबार
आनेवाले
किन्नरों
शिलाई
धाबी
जत्था
एड़ी
##back
मंदा
दलजीत
२६
उद्घोष
फली
जाण
ads
उपमहाद्वीप
बलवीर
##फॉर्मेशन
दादाजी
संवारने
मंगेतर
माझ
बातो
##ंकृत
##न्ज
याददाश्त
उद्या
950
असहमत
डिसेंबर
शीशा
करिश्म
प्रक्षे
##मारा
किसानी
आइलैंड
पूछी
serv
दुस्
बिक्रम
ईसाइयों
अलाउद्दीन
सेन्टर
##वेदनशील
##ni
क्रिश्च
comments
##ढि़
ढीला
नली
नर्सों
कहलाते
हस्तशिल्प
सशक्तीकरण
कोणत्याही
##yl
ब्लूम
Mah
अप्स
तेथे
##यक्त
ऐक्ट्रेस
MeToo
ऐं
##कुला
रॉबिन
विसंगतियों
Sar
बूँ
##ल्वर
करवाती
आत्मसात
हमीद
भाद्रपद
##board
##ियतों
##नंतर
निर्गम
डाकू
मापदंडों
ट्रेवल
नौनिहाल
बिरयानी
##घरा
करमा
नेत्री
रामस्वरूप
##्वीट
लॉबी
प्रतिमाओं
Har
बैंस
ख़तरनाक
पारस्परिक
बीटीसी
छापी
कलमा
163
##ल्यानंतर
उरांव
##्ा
##vs
एनालिस्ट
सार्क
मेघा
कृष्णन
गरबा
##airs
मणिकर्णिका
स्लीपर
निरंक
ताकतें
तरण
फाफ
पॉकेट
प्राथमिकताओं
##मंत्रियों
अन्नपूर्णा
सूत्रीय
नाइट्रोजन
##भोगी
##्पर
विंटर
अपा
चेष्टा
##ili
आशु
वेदांत
पिंपरी
लूं
##प्रस
बिरसा
गीले
जगद
ब्राउजर
दिनदहाड़े
डीडीए
घूं
##ness
ब्रै
सर्वथा
जननायक
किशनगंज
कुल्हाड़ी
रामानु
निकोबार
ज़माने
##णात्मक
ज्यादती
##लुज
Vivo
##शीघ्र
जूझते
हेक्टर
##IG
ग़ज़
##ईआरटी
इन्फ्रा
श्रेष्ठता
गाइडलाइन
एमसीएक्स
पिल्ल
केसों
ब्रॉन्
मुरारी
गर्भधारण
हेराल्ड
zwj
तराई
फर्ट
बनेंगी
##यीं
##वाहट
विस्तारित
सीरियस
ग्रामो
सराब
लॉकर
फिजिक्स
छत्रपती
##यज्ञ
पापी
161
फ़ाइलों
पटानी
टेक्सटाइल
एरिक
प्रबन्धन
उपग्रहों
##गपुर
मुक्की
##बाध
बिन्नी
##पेशा
मार्मिक
##क्वार्टर
ढक्कन
##ृष्ट
देशो
Camera
Number
181
गइल
झूले
विशालकाय
एकनाथ
बल्लेबाज़ी
##ईं
कलाओं
तोडऩे
रिजर्वेशन
जमुई
काक
डागर
मापने
Pass
##्ना
एकर
मानुषी
डालो
ग़लती
##ning
टेन
सितार
आॅन
हिलाकर
कॉम्पैक्ट
##टेस्ट
चंद्रग्रहण
रहस्यों
विधानसभ
171
सुगमता
एंथ
प्रतिल
माइग्रेन
यूनिवर्सल
छतों
सतलुज
पीसीआर
सोफिया
399
मैड्रिड
डिसू
##ापूर
##स्बियन
पीतल
बहका
विघटन
AajTak
Nar
मदिरा
लों
मैसेंजर
##ocu
CO
Sw
##ियल्स
चन्द्रशेखर
बोगी
भांड
याच्या
मालेगांव
यक्ष
##ोड़
##ोत्त
स्वार
जिंटा
जलाई
##ॅर्ड
मोर्गन
जरनैल
रेलगाड़ी
मुझमें
एनएचएआई
बांटकर
ग्राफ़
हापुड़
##डीएमके
##DS
मुरीद
हेलीकाप्टर
असमय
लूटे
एलन
जागीर
उड़द
घूमकर
भड़ाना
रबाडा
Ban
छेड
##डिस
##रम
यादी
माक
आढ़ती
यापूर्वी
अँग
##जारी
##वाईसी
चूच
class
##िलाल
##orp
##सेम
नोरा
वार्न
key
बिशप
ओट
##ओएस
पकडऩे
द्वंद
Car
गिन्नी
##ौं
सखी
अशुद्ध
माउ
स्टाक
बनारसी
जाद
महारत
सम्बोधन
प्रारम्भिक
IB
##erg
भागना
कलाकृत
मानवजाति
कैंडिडेट्स
पालिसी
संस्करणों
##ैले
अभिप्राय
##लावत
सोलो
सूत्रधार
महिन्यात
पैडमैन
आयतुल्लाह
आउटलेट
चंपा
##uy
भाषाएं
##डि़या
हृद
यथावत
होणार्या
जलते
kahani
आहुति
ज़िंदा
Application
अनुमोदित
बप्पा
##कीमती
354
##heme
खरख
चढ़ाया
टोप
पुडुचेरी
इव
इकॉन
अधिशाषी
प्रौद्योगिक
चैनल्स
निपटना
बिताते
##क्शंस
फिल्मफेयर
तड़प
Dig
##मेंट्री
तेलों
क्लीनर
उत्कृष्टता
##लात
##ंत्रिकी
अंजान
कसौली
चिटफंड
हज़ारों
टेबलेट
दिखाये
पहुंचाए
तृप्ति
##पीठा
कुआं
फित
माफ़ी
जमिनी
University
कंडा
##ify
नारंग
देशहित
follow
अनायास
संवत
बरवाला
रायुडू
मोतिहारी
बढने
डिस्चार्ज
झोला
मस्तक
केटो
215
मॉर्निंग
Any
सुबूत
रोख
जुमला
कॉर्न
स्पष्टता
7वें
¤¬
जीन्स
तोड़फोड़
नापसंद
शंभू
208
एए
##ालिक
222
फॉलोअर्स
प्रतिभावान
मते
बिगड़ी
कारनामों
##Plus
बहता
ट्रामा
खोई
वेदना
पप
रूद्र
रगड़
NDA
##केस
शेक
सुन्दरता
समलैंगिकता
हेगड़े
##वणे
बराला
निपटारे
u09
पॉक्सो
रूपाणी
हुजूम
जालौन
जन्मतिथि
चीजे
ऊन
अधीर
नेताओ
ह्यूस्टन
डिजाइनिंग
अराजक
ऐक्शन
##वाड़े
Mag
डोल
घुमाने
मुक्तिबोध
थामा
मिडिया
हाईट
##उम्र
उपेन्द्र
सांसें
बिके
शौरी
सलामत
मगध
जोहान
रिवर
na
मेहनती
एग्जीक्यूटिव
झालेली
मर्सिडीज
स्थापन
##शोधन
##िपु
वीवीआईपी
एसा
करंसी
राहू
इकलौती
सोनल
सहकर्मियों
रिक्र
महिषासुर
##oll
##ump
उथप्पा
कम्
##ंधाना
धमकियों
खगोल
कुली
##usic
वेलकम
बैलेट
310
प्रतियोगिताएं
उदारीकरण
क्यूब
साइकल
दूँगा
खजुराहो
##AY
3D
तटों
मुखपत्र
हैरिस
विव
आपले
कार्पोरेशन
##थरा
##त्ने
जोखा
महसूल
बैरक
##ंजो
सोचेंगे
कैमराम
स्वयंभू
मुगलों
Amazon
नेतृ
स्मिता
Link
खाये
सानि
कृष्णपाल
सर्वशक्ति
##रायली
1945
जरूरतमंदों
घबराने
खस्ताहाल
हाइड्रोजन
तुक
बदरी
समझाना
छूटे
सेंटरों
वज़न
निरंकुश
भुजा
वेबसाईट
संहार
275
##वांना
मृदु
##्रेक्ट
प्रतिबन्ध
मेघना
लिंगायत
make
वॉर्ड
सोहरा
##डाई
बाउल
phone
औपन
बेंगलोर
बंगलौर
महिले
##वतिया
##ोना
प्रत्यारोपण
##emb
पड़ाव
lie
यामी
मेलों
अवय
वनस्प
मल्टीप्लेक्स
लेके
साक्ष्यों
आर्से
दली
इसराइल
Bhi
एंडी
रंडी
मेंहदी
जीविका
##ello
SEO
बेसहारा
Get
अबा
पूछें
यूआईडीएआई
रविक
##चाई
##ंगो
एथली
कुपवाड़ा
३२
गांधीवादी
प्रोग्रामिंग
एंजिल
##परिषद
समझिए
कम्युनिकेशंस
कंक्रीट
नरोत्तम
शाहू
नप
वना
भांप
बांसुरी
फ़िल्में
कार्तिकेय
शबनम
##हगार
बढ़ाई
बीरेंद्र
##जाना
खेलती
raj
शौकिया
ख़तरे
नरसिम्हा
चरणबद्ध
आवासों
##ब्रो
अभिशाप
फजी
गुंड
वेरियंट
केल्यानंतर
-'
चूल्हा
कुचलने
स्नो
पोली
बीड
मिटटी
राष्ट्रवादीचे
हस्ते
मैड
##जादे
अर्पिता
##विश
सोफे
अपराह्न
325
नमूनों
आंग
##निहित
288
उन्नीस
मस्क
##केम
विभी
##सीज
मुक़ाबला
##मग्न
जमावड़ा
पहरा
मिनिमम
रसायनों
पिक्चर्स
reading
कारीगरों
कार्यपालक
##ini
परवानगी
परिषदीय
ba
दीड
ind
लाईट
बिखरा
भागदौड़
5जी
बाशि
अंतरंग
स्वीकारा
एकाध
आँगन
अनामिका
कमेटियों
##िन्
हाती
सांगण्यात
ओरल
लौटेंगे
उलटी
निरूप
ट्यूबलाइट
एयरसेल
वेंचर
##पोशी
मिनरल
खेतान
फ़िलिस्तीन
फ़िल्मी
खस
कीपर
कांता
सिटीज
तंत्रिका
पेंटा
les
अल्फा
Question
Yoj
हालचाल
खेळ
इंजीन
शीतलहर
##ोलॉजिस्ट
दिल्या
फिनिश
जुमले
अत्री
##्रर
गजान
टाइपिंग
##हब
योजनाबद्ध
##els
फ्रीडम
सताने
##र्थक
ड्रिल
बहुतायत
लार्ड
खिलाएं
stud
थोडी
karane
टँ
##ैका
जनधन
inf
चकाचौ
IIT
pub
स्खलन
मिलाते
बाबुल
जीमेल
दुकाने
##िपक्व
झूला
ग्लूकोज
होय
दर्शनीय
फॉर्मूले
जशपुर
cap
जीवाणु
ढू
बाहों
व्याख्याता
थाय
सत्ते
##त्तरी
माच
खात्मे
झोपड़ी
##td
लोगा
पिथौरागढ़
##व्स
इंडोर
##फों
##ौसी
गहनों
श्योपुर
राजनयिकों
help
latest
महानता
न्यूज़ीलैंड
उद्यमिता
बेली
स्टेनलेस
!’
bet
धनवान
##urr
बजाकर
अम्ल
अरोड़ा
अछूत
तर्कों
आईएसएम
##मानों
द्रोणाचार्य
तवा
दमक
उठाप
मिलाप
दुर्घटनाएं
बेशकीमती
दुर्ल
हथीन
मधेशी
झंझट
अपर्याप्त
कलिय
पसरा
राइजिंग
##गर्भ
पार्श्वभूमीवर
पुट
##play
##अव
जगदीप
हफ्ता
लांचिंग
##NA
वर्गीय
##दूसरे
टनल
पर्थ
कहिए
स्वामीनाथन
सेटल
##कुओं
निर्बाध
price
##त्सना
कुरीतियों
इक्की
अधिशासी
खडा
फजल
पैच
नाहर
विभूति
लोढ़ा
अग्रसेन
विलीन
बेसिन
बिकी
प्रार्थी
Create
अपोजिट
पाहणी
ईएसआई
##आरएल
डायन
ऑप्
नसों
दिलबाग
नौकरीपेशा
लगाएगा
Posted
वांट
आपली
किराना
सांय
धड़ल्ले
आईएमए
सुधाकर
सिक्युरिटी
><
Pa
बढ़ना
दोषों
मेट्रोप
नशीला
कंकाल
आक्रामकता
जोड़ता
एंट्रेंस
##न्दु
ट्रेडर्स
रोहतगी
##osh
acc
##दपुर
प्रेसी
##ध्वज
मन्नत
मैथुन
फड़
ज़िले
##ितिक
चिरंजी
कीटा
##तरह
त्रे
##स्तम
महीन
कालिदास
राजवंश
निकलें
गाजा
प्रजातियां
##बंर
##हुड
##sw
##ेडा
लगाएगी
##पलट
1946
चहु
सलू
रखिये
गहनता
Mob
मन्न
सबंध
आर्म्स
स्कार
इंटक
वीरू
1963
रिवाल्वर
वातानुकूल
सुरी
गाड़ियां
##itt
##ami
आज़म
Ay
लेयर
आउटसोर्सिंग
कुँ
बैलिस्टिक
कन्फर्म
धुंआ
##ुमार
जलाएं
दुस्साह
लड़ते
राइफल्स
नोटबुक
बेमौ
झटकों
पली
##्बे
समां
रूटों
बॉलिंग
मूंद
फिजियो
##ск
करेंट
स्वीट
धराशायी
204
मोक
मारो
अभियांत्रिकी
299
व्यवसायियों
मोरनी
##enefits
एडजस्ट
सारण
ओळख
Ant
Pur
औलाद
महिपाल
तकदीर
एल्यू
बदतमीजी
system
सेन्ट
मॉम
290
##गुड़ी
शाहनवाज
Tra
बांका
स्टेप्स
कदापि
##मुल
##िकार
फैलाना
जुड़वा
##TML
क्षित
##यूटी
इजाज़त
टेलीवि
रामनवमी
टप्प
##सम्मान
##ict
मजाकिया
गुनहगार
काउंसलर
शुद्धि
अज़
315
चतुराई
क़दम
इतालवी
जट
संचित
पढ़ती
सूरजपुर
तेंड
##DP
##माते
पदार्थो
तख्ता
##पेई
##क्सीन
प्लान्स
##फ़े
...]
लदे
इनोवेशन
हरिश्
स्ट्रक्चर
विमला
झुंझुन
जिर
##लाकि
एसवाई
ताजी
वरूण
##गणेश
##कराम
झाँ
धान्य
here
चक्की
लावा
प्राइवेसी
##खेत
सलाहकारों
उड़ने
एटीपी
प्रश्ना
पपीते
तारक
राना
##IND
हिफ
##णावर
हिंदोस्तान
##ेनॉल
Rep
पहुँचते
गुटखा
संशोधनों
फाज
मर्ज
रामसिंह
क्रिमिनल
तिला
रहमत
कार्न
रूझ
करेंगें
सहने
मुश्ताक
कूड़ा
अग्निकांड
ऐक्स
चलेंगी
बोलेंगे
Education
एकदा
वर्षीया
ऑरेंज
Cricket
##िफ़
रोंग
पहाड़ों
मिळाला
भामा
##िरण
सुखराम
मुमताज
##ंतर्गत
चिट्ठ
सलेम
##नर्स
डूडल
विभागाच्या
सरोकारों
##र्जे
अगवाई
गोदरेज
मीनार
##नाय
कार्यक्षमता
##िबिलिटी
उष्ण
नर्क
बेनीवाल
केआर
सॉरी
मृत्युदंड
सर्वांगी
वर्षांपासून
संन्या
बसाने
पूछो
स्लोगन
आनंदीबेन
दत्तात्रेय
##IK
हमास
जयस
टोटके
##ita
भूमिकाएं
बकरा
अण्
आरबी
भूलने
ऐप्लिकेशन
गुमनाम
ड्राईवर
नहि
पड़ना
4500
एप्रिल
##आला
एकमत
ट्रिलियन
पूछती
##hee
एलसीडी
Tech
##रक्षक
Social
स्टैच्यू
फसव
हार्व
ऊंचाइयों
Ja
sim
##्यूड
##देसाई
##पृष्ठ
उरु
रैपर
2025
तांबा
मुकुंद
घटनाएँ
प्राइज
बलात्कारी
Publish
संदे
सदाबहार
पागलपन
Dev
एमएच
Follow
##स्क्र
पहरे
क्रिकेटर्स
फॉरेन
अनुशासना
सफ़ेद
ट्रस्टी
आत्माओं
पंढर
यात्र
चूसना
अडिग
##bh
माफ़
चलाएं
रुपयांची
सौदागर
यंत्रणा
बतला
रावलपि
ख़बरों
स्लम
कार्नर
सराबोर
रतिया
##फीज
स्कॉट
अभयारण्य
गोंड
एआईए
यॉर्क
साहो
सदाशिव
कोणी
##स्वत
सांव
स्टां
बरनाला
बर्तनों
सीआईआई
ढोने
##रावर
##चूड़
वार्मिंग
मक्के
स्ट्राइकर
नयना
अटला
डीडीसीए
पाताल
पंगा
पुश्त
फ्रांसिस
नहाते
##तन्त्र
वेबकैम
अध्यापिका
बूढ़ा
##ategory
पाण्या
गोधरा
मोहिनी
........
साइंसेज
##ेशन्स
चाटना
##istan
राजनीतिज्ञों
यूज़
नक़
##+]
अढ़ाई
##omain
झगड़े
मैस
सूअर
शुभा
##टियों
कारवां
इज़
खोजना
भत्तों
##khand
दीख
अहमदनगर
साधुओं
##गुनिया
मुहर्रम
CS
लैला
भल्ला
मोर्ट
सार्थकता
इक्कीस
LIVE
##नार
डूंगर
दिहाड़ी
go
स्तिथि
सूंघ
start
नहरों
प्रासंगिकता
##प्राइजेज
पाखंड
Song
##ंजाल
पॅ
टीटी
विधायिका
बजाया
फला
मसल्स
अजीबो
हदें
केसरिया
स्पर्म
शैम्पू
ठहराए
काव
सोए
अविल
##वेलियन
एनीमिया
जनसमूह
But
Email
172
ठीकरा
छुड़
डिसूजा
मलाल
डरता
रचनाकारों
##रेब
बुक्स
Pe
##51
झुग्
एला
##बीज
दिमाग़
१९४
Government
##ङ्
होई
बिमारी
गावात
कटान
##utorial
लाउडस्पी
विथ
चट्टानों
##वर्द्धन
Life
##खास
मणिशंकर
जनसभाओं
[+]
##टूर
##णाचा
टेरेसा
चिकित्
ऐक्टर
बनो
##म्बू
##िंक्स
डंपिंग
हुंकार
##मूत्र
फिनाले
पचा
State
केल्याने
खेलें
बुढ़ापे
उज्
तरोता
कृपाल
गोपीचंद
राज्यस्तरीय
अपराधिक
अदनान
NP
आईने
संकल्पना
बेचता
सोनकर
techn
प्रभाष
आरडी
त्रय
वारदातें
घृणित
टर
इस्माइल
बॉक्सर
सर्विल
क्षितिज
पतियों
सर्वांगीण
##हिल
##काट
##कोला
मॉक
एसोसिए
फिसलकर
नैयर
Editor
हैकिंग
##िसाल
उत्साही
अनुशासनात्मक
अदाओं
प्रवर्तकों
कोली
अर्जन
Mal
सय
##ताली
नागरिकांना
सॉफ़्टवेयर
ख़ूब
##42
क्रांतिकारियों
मजार
परिवाद
चरमपंथियों
पाणीपुरवठा
##ंक्शन
बीडी
बंदिश
सीएमडी
##म्बना
आजमगढ़
फ्रैंच
वक्री
फहराने
RC
टियर
संपत
आईडीबीआई
3डी
रोमानिया
जलाश
काण्ड
##पूजा
समीकरणों
OnePlus
मुखौटा
मशी
तरूण
प्रतिरोधी
अल्मोड़ा
Ac
रोटियां
##blem
मज़दूर
स्थायित्व
स्क्व
मूर्त
कांबळे
##्यात्मक
सीई
##सूदन
अटके
प्रधानों
असगर
लेखी
##ely
भांजे
प्रस्तुतियां
शेतकर्यांनी
राऊत
२८
##धने
आश्रितों
whatsapp
##gn
क़ुरआन
मैडल
बाळासाहेब
चकाचौंध
पर्च
सुजाता
बरगद
निसान
व्यवसायों
भंडारा
लवकरच
¤—
बर्म
जीपी
नियु
Quotes
भगोड़ा
##वना
जोड़ों
मृतदेह
कैथोलिक
पडे़
वळ
##वस्तु
थाइलैंड
जनतंत्र
आरु
ढिल्लों
कीटनाशकों
##डब्लू
##ँगी
##टेबल
रामकिशन
देवों
##ific
अाप
खोखले
नमाज़
जातात
प्रेगनेंसी
सिलिकॉन
बम्बई
हैैं
केबीसी
##ालक
करीबियों
तहस
माफ़ी
1940
१९७
##िय़ा
निजामुद्दीन
##वय
##bject
स्थगन
गेहूँ
टर्मिन
अंजली
आव्र
ठेवण्यात
डीएमआरसी
##कप्तान
कष्टों
रॉकी
कहब
टीचरों
मानिए
अंदाज़ा
पॉलिश
मछलियां
हयात
##ंगला
वाशिंग
वैक्स
जगहें
इशरत
मर्तबा
रावलपिंडी
##ोड़ों
ऑस्ट्रिया
कर्मठ
हुकुम
वायुमंडल
डिवाइडर
रिस्पॉन्स
रचे
173
नुकसानदेह
क्विज
##ग्राही
सियार
चुकता
पोहोच
दिखेगी
bre
अलसी
रैक
प्रेरणादायक
##चौथ
रिषभ
सत्रह
Shiv
मर्चेंट
संन्यासी
खडे
डिक्स
##खनी
समयबद्ध
##शरी
असभ्य
..."
गिद्ध
सोचो
उतारना
एल्यूमीनियम
मागण्या
##प्रेमी
करतात
##ातून
मोर्चों
पंपों
रस्तोगी
इन्वेस्टर्स
व्यथित
गंगवार
डेरिव
अभिलाषा
लालजी
##ोत्साह
##िबद्ध
नरसिंहपुर
kaise
रणनीतिकार
View
बेईमानी
पैराम
मॉइ
----
अदम
एतिहासिक
##िजू
पगबाधा
कारणवश
##निष्ठा
डालमिया
माहवारी
जातिवादी
उड़ीसा
##धम
डिफ़
फॉरेस्ट
ब्लॉकबस्टर
जज्बे
सिवान
##कलैंड
वीवीपैट
नन्हें
अनुमंडल
पार्लिया
कागद
##हेड
अलख
बीटी
ट्रेनी
अकाउंटेंट
भड़क
गूँ
जलेबी
वृद्धावस्था
##ppo
वुहान
महालेखा
गिरना
अंतर्व
फारवर्ड
अब्दुल्लाह
Kaise
##्ह्ह्ह
##ries
मोग
इय
गरिया
लब
##च्चे
पावरफुल
वॉलमार्ट
ज़्यादातर
Inf
1959
राधाकृष्ण
जटिलता
इलैक्ट
##ानन्द
एंटीबायोटिक
jobs
##ाए
सामी
खोटी
ईसीजी
Wed
##पीसीए
##िक्शन
क्राफ्ट
लोया
नहस
पुरवठा
प्रवृत्तियों
अधिकार्यांनी
फिजूल
Sat
##ानक
ठोंक
सिन्हुआ
पंज
दिखावे
झप
परदेश
गोरखा
हश्र
प्रोग
एक्स्प
Movie
पावसाने
याहू
मंत्रिमंड
इत्र
इब्रा
धरपक
ब्लास्टर
##रेक्ट
वोक्स
##जई
ग्रां
बटो
उपनगर
##गाहर्ट
बुरहानपुर
##द्दार
हिंडाल
टेट
देण्याची
मार्फत
बाइपास
अकाउंट्स
रेजिमेंट
कबाड़
बैंको
##ेरा
##िकांत
183
अाैर
##of
नि०
19वें
तेवतिया
इरशाद
##put
कंगारू
सबा
रोड़ा
अहिरवार
,…
//
##4मीडिया
डेरिवेटिव
##ियट
भिन्नता
recording
##ven
एसबी
आठवां
डायट
पांचाल
वृह
##क्सीजन
चमकाने
##ama
बिंदल
कूदने
Amar
ब्रॉन्ज
एंजे
शरीफ़
ग्रैंडस्लैम
Vis
porn
अपंग
रेनू
##kt
##काराम
##र्कल
नसीरुद्दीन
लातूर
नेविगेशन
##post
##द्दे
##ape
मॅ
##बतों
परमान
अपूर्व
आवश्यकतानुसार
मृणाल
सर्वाइ
तिथ
Recipe
तेंडुलकर
पके
लाली
वेरी
गम्भीरता
लेक्चरर
##लेम
भाड़
नोवाक
चोटों
परिचायक
नास्तिक
रिजिजू
हिमालयन
##97
##लिना
खाताधारकों
बनवारी
भरसक
प्रताडि़त
##विरोधात
आक्रम
सुज
करवाएंगे
फिनलैंड
निमोनिया
Love
फनी
##आरए
दमखम
कुरू
आशियाना
बोतलों
##तीस
##ally
नतम
मानसा
थानाक्षेत्र
स्मैक
यथास
वेमुला
रूका
छोड़े
हेडली
हँसते
##001
स्टिकर
उपसभा
उपमंड
हरदा
वैयक्त
पूंजीवादी
Call
टिल
आपला
बेचारी
##टैग
गरजेचे
##कीला
इब्ने
शरत
आलस्य
पिंजरे
लायी
हरम
##very
रैपिड
##तनगर
vir
किलिंग
information
also
##ान्तर्गत
तत्वाधान
##ole
##erc
##ारात
ताजगी
बिठाया
एलएलबी
एगो
##ालिब
रेलमंत्री
स्टांप
बनवाए
उपकप्तान
21वें
245
कवय
शृ
जुकरबर्ग
खटक
अप्रा
मूंछ
वालीं
##मालिया
##ंघी
सौंपकर
बरतनी
करवाचौथ
Happy
##UT
तोड़ना
media
सोनो
Breaking
अचर
केप
295
मौह
world
मुनरो
##umbai
दरा
##बन्दी
क्षी
##प्रूफ
शुरुवात
##RCTC
टीजीटी
##ंई
जनित
दोहराई
तसल्ली
सानिध्य
##ॅस
परिल
स्टोर्स
रुपयांचा
मैसेजिंग
शौकत
चमड़े
कुमकुम
‘’
##VP
एसएल
शर्करा
स्वीटी
##पोर्टर
##ours
जेर
##ाराज
येन
कस्तूर
शैंपू
##किनी
मिनर
ट्यूबवेल
लहरिया
मैग्जीन
लूटकर
कनक
##tel
एचसीएल
विनेश
बालकों
कट्टा
##वानंद
फील्डर
District
मरु
चिनफिंग
¤¦
बढ़ाएं
यामा
अगस्ता
जन्में
तलाक़
##unny
रोमियो
शत्रुता
Det
##ेंटिस
फैलती
चर्म
सराफा
सब्सक्राइब
मदीना
जनरेशन
step
निती
संशयिता
संपी
मुब
##पाटी
ख़ाम
##idabad
कठपुतली
गुज़
स्क्री
##सानी
##स्थापना
विनती
नारायणपुर
पडल
कुला
##alp
##ailable
अपरिहार
कियारा
Br
खाज
प्रापर्टी
##da
समितीच्या
मदान
राममंदिर
ध्यानचंद
सिंगल्स
वस्त्रों
जाँ
##बैग
दिलो
पिराम
##बिलास
अवनीश
खेलो
कैरेबियाई
औपनिवेश
नाभ
यांच्याकडे
##गौड़ा
micro
version
##पेन्द्र
दुर्गंध
वधू
बेमिसाल
Pune
##================
कपा
नूड
रमाकांत
लुक्स
Sharma
##हिक
अभिभूत
##जामिन
कोणती
समेटे
सैलून
इफ
##ह्
गुन्ह
इंडिप
251
##गद
दिखेंगी
हालाकि
उधम
ऑप्टिकल
निस्स
रूल
जेफ
बजाये
पुरुषार्थ
दैत्य
इकनॉमिक
[-
##गंधा
टाइमिंग
HTML
शफी
हतोत्साह
इंदर
समझेंगे
शोले
सिलेक्ट
गियरबॉक्स
वाट्सएप
ग्
चामु
येऊन
टेस्टी
छलनी
स्कैनर
Lo
रॉयल्टी
क्रिश्चियन
मानेंगे
##शिरा
##ुप्ता
कार्यपालिका
शूर
सूजी
तबकों
पंक्तियां
log
कइयों
नईम
मार्गदर्श
पाओ
</
ढंक
##ba
##नेकर
##ामान
पेची
अंबिकापुर
##रीट
माफ़
iOS
##नाबाद
बैंकॉक
ओवरब्रिज
गोपीनाथ
पिरो
##ाता
##ved
वाढत
नवर
आप्टे
नौशाद
निचला
पशुधन
चिकित्सीय
बालकनी
हटना
राजनीती
टर्नओवर
अरावली
सप्ली
रोहतास
##शू
राहगीर
गुरदीप
क़रीब
##र्ज़
##मीनार
##CL
केवाईसी
##ोकन
टीवीएस
ब्रह्मपुत्र
गीगा
बागान
##ahin
##लीसिया
घनिष्ठ
उगाने
हीराल
##बात
चार्टर
##ग्रंथ
##ज़ाम
केडी
##िलेड
वॉट्सएप
कुलगाम
##पूर्णी
जतन
जतिन
रैगिंग
पढे
ललक
२९
मानिक
डूबते
वीडियोज
URL
जीवी
प्राध्यापकों
फाइट
समतल
##ivity
##भोज
अपूर्
##शलम
नागरिकांनी
आशंकाओं
विनी
हील
बैंच
##ancer
विकलांगता
हैंं
नागपाल
##टेड
इन्द्री
##ोडिया
ओमेगा
हीरालाल
लाशें
बंगलूर
ऑब्जेक्ट
आमादा
##्नी
##रावस्था
##46
##शीष
क्वालकॉम
भाले
संकुल
रामचरित
किशमिश
कॉस्मेटिक
##opal
राबर्ट
अनपढ़
नतमस्तक
रनर
बांधों
मधुकर
घटता
किरणें
##आल
पेच
थामे
Pet
गैल
जलोटा
फैलाकर
रौतेला
##rowser
विश्वस्तरीय
लाइम
val
##फ़ान
सांता
##णाच्या
##ature
अछूता
एसोच
विश्वभर
गैसों
##वांस्ड
मिशनरी
हिज्ब
380
Film
Back
##्युल
शील
ऊँगली
##ख्वा
फीका
Hy
##OT
उत्कर्ष
बैठें
Madhya
बिंदास
मुस्तैद
##्लीट
फिरते
बिखे
जिनपर
फूले
ठुमके
##दंग
पदकों
पोस्टरों
[-]
फार्मूले
##amm
पारितोष
##गियां
अम्म
चारपाई
एंबेसडर
असमर्थता
प्रकल्
##वायरस
अठारह
##ffer
गोमांस
खिले
बेदा
अधीक्षण
ब्रह्मास्त्र
##भगवान
पावडर
इण्टर
love
##िष्ठ
फाइल्स
मॉनी
मुकद
रेसिंग
पत्थल
त्रिकोण
महराजगंज
कलीसिया
नूडल्स
##ids
चमत्कारिक
sl
##ित्या
##ोक्रेसी
फिजी
एनसीएलटी
डरी
##ग्गल
साबुत
##मैंट
ईस्टर्न
मस्तानी
फैब्रिक
परमहंस
1958
अनीस
अटकी
बीएमडब्ल्यू
डच
ऑगस्ट
खरखौदा
लेस
हमरा
महाशक्ति
राहिले
पुनर्ज
##वेव
दिलाती
मदनलाल
फजीहत
बुर्का
ठार
##itive
घुमाया
हरिजन
अर्धशतकीय
ट्रेक
अवॉर्ड्स
तितर
मुथ
बनवाई
##णीकरण
शाट
थोप
pdf
वार्डन
Hal
मिल्स
धाकड़
फक्त
##ра
दुर्भावना
डिग्र
शौहर
आख़िर
पन्नी
एसएमई
ताजपोशी
हिज़्ब
Jans
टिश
फटका
भगवत
राजनितिक
##पत्तनम
##तेज
##orks
त्रिलो
अटेंड
खरगोश
शिष्टमंडल
##बॉलर
रामजन्म
रफ़्तार
देणार
नीबू
रिजवान
##िकोड
स्विट
application
Most
राश
##भागा
गरमी
वाळू
Si
ईयू
##ौस
बुढ
चौरा
##ster
गुड़िया
दौड़ने
बाईक
कंडीशनर
##न्डे
प्रतिसाद
15वें
गंगे
भूचाल
चढ़ाएं
##ather
##बती
संभलकर
हुस्
बीएचपी
बीकॉम
एसोचैम
##नू
##नाचा
##स्टोन
मिठाइयां
चपत
जोया
##ाप्टर
##तालिका
##dies
रिक्शे
अन्यत्र
इस्ता
डीबी
खुलता
दीर्घावधि
केरोसिन
एरो
stories
ban
ii
पठन
##ाचा
गायकों
इत्तेफाक
इंजीनियर्स
अज्ञानता
उठापटक
##जुल
ज्योतिषा
अल्पेश
Hum
mil
सोशलिस्ट
##द्धिमान
एफसीआई
निश्चिंत
स्टरलाइट
निर्देशकों
एलबी
छिपाकर
१९८
आयोगा
19वीं
विलेज
अज्ञेय
कल्लू
बाड़मेर
राष्ट्रा
मुद्रित
सुर्ख़
fil
मारहाण
रिस्पांस
वर्धा
मनाएंगे
देवना
लाइस
अग्निवेश
हँ
सोई
अर्से
##कन्या
##acts
कोठरी
शेतकर्यांच्या
Met
##ुजा
मुरु
गांववालों
शिअद
खिलाकर
निरर्थक
बूढ़ी
ट्रांसपोर्टर
##ग्राफ
जनकपुर
##़ड
मोईन
उ०
नंतर
सुपौल
टटोल
##णियाँ
##ेषण
पेराई
मालामाल
कैमरामैन
IRCTC
थके
##डीत
त्रिशूल
चमे
अमनदीप
एल्युमीनियम
घई
युगा
##ोसपा
##ल्लम
गुणवत्तापूर्ण
उद्धृत
घटाया
सहायकों
नागरी
राजमार्गों
छाछ
खाँ
होमवर्क
अंजुम
ब्राड
पाण्डे
other
सरं
वैगन
अजून
##मौजूद
name
##िवर
बच्चें
चिढ़
##ग्गर
विकेटों
सुधांशु
पलड़ा
##जण
प्रदाताओं
सभागृ
छड़ी
मैम
भाजी
##................
Gandhi
झड़ने
यूल
तेथ
लक्ष्मीकांत
रमज़ान
टोकरी
बूझकर
धमन
सैय्यद
सर्वशक्तिमान
फेश
हकीम
##स्टॉल
रामबिलास
##सलैंड
नगी
##ेग
##िकाल
##िवली
लांड
नीलेश
बढ़ाती
##ंशियल
##्ध
बाजे
तमगा
Faridabad
Att
देवेश
बारू
##क़ीन
निर्वि
बकाये
टि्वटर
##ोहर
##ृती
##चेतन
शं
कीमो
##भुज
दिवसांपासून
खरगोन
मिल्खा
बहुआ
एसवाईएल
हतोत्साहित
आबू
पीएं
##ats
बोलचाल
पहनाया
##पेटाइटिस
ज़िला
।—
324
कुटीर
255
वृन्दा
ब्राउज़
##पूल
नंदलाल
##mAh
इब्राहीम
हैली
भसीन
##मीनी
##पट्टनम
kai
केटी
धोबी
##rib
रुकना
पचौरी
आतिथ्य
सीजेएम
ईटीएफ
लॉगिन
सुधरे
##98
##ंकडून
1700
स्टीकर
CRP
##ंम
बूंदा
भामाशाह
##orrent
खरड़
खैरा
मिनरल्स
##iye
सुला
पॉश
आस्त
रेंजर
कईं
कर्ज़
पल्
##ization
मैरिट
दरबारी
मुसीबतों
साइंटिस्ट
tips
##स्तूर
तिथियों
##imited
##राला
सिकंद
ज़रिये
भाषाई
दुर्लक्ष
##उण्ड
आरए
सेलेक्शन
##ethod
जांज
सेंक
कल्कि
कालांतर
श्रीगणेश
लोहर
मूडीज
नितेश
Watch
अदभुत
फ़्ल
हटाई
महिना
कन्याकुमारी
कोल्हापुर
##ंसे
##wo
लिबरेशन
सउदी
रहिये
सुखविंदर
युद्धपो
ग्लोब
असहनीय
नन्ही
##त्ल
सोमालिया
##फ़्
इजरायली
झुकने
रानू
परिक्षेत्र
सिय
राजदीप
पाईप
ओलंप
जानकारियाँ
परिषदेत
क्रुण
भटकते
सफदरजंग
तोता
संगमर
बुलाना
चिंतपूर्णी
सत्ती
कैंब
photo
उता
पडी
पढा
रिएक्टर
ज्वैलर्स
sur
फ़ैस
तबसे
उलटे
झालेले
भाजपच्या
बकरीद
भगोड़े
अक्
स्टम्प
##ooks
क्रान्तिक
##सुख
बिठाकर
##सिब
272
३५
##िबल
206
##त्मकता
कामत
Ltd
मंटो
एकदूसरे
##्ट्री
क्रुणाल
निस्
जीतन
मधुसूदन
वामपंथियों
बंदरगाहों
बीतेगा
नंदकुमार
पैक्स
बैजल
##outh
अर्थशास्त्रियों
ऑक्सफोर्ड
गाये
स्नेहा
West
##काऊ
##न्द्रा
किस्तों
प्रान
EVM
संचय
निखर
पक्षकारों
Honor
कनी
छव
अनन्य
चुंबन
लक्ष्मीनारायण
##झम
मिलावटी
उतरेगा
लाजपत
उंगलियां
हैल्लो
खूबियों
##ोळ
##राजा
आईईडी
स्ट्रिप
एवरेज
अक्षमता
शरारत
भजनों
##ोजल
शाहजहां
ant
cum
हथकंडे
डेस्टिनेशन
डैन
##पांडे
##ौड
राज्या
दशमी
एवम्
सद्गुरु
बाध्यता
पासून
##मेहर
जॉइंट
बासी
संथ
अनसु
स्टाइ
इस्तीफ़ा
अब्बासी
##टिव
##tain
हराना
##ियांे
डीवीडी
Ek
##मठ
हॉटेल
##andh
##EB
राष्ट्रभाषा
पेंशनरों
##पक्षीय
लेल
अंकुरित
##76
वेध
मायूसी
वंशवाद
वांटेड
CL
विकारों
चारदीवारी
##41
करदाता
रालोसपा
वित्तपोषण
##जवळ
##zz
##याना
रप
##हरिया
अत्याधिक
गिरिजा
सूती
बेंजामिन
प्रशासकों
Paper
अची
##चिता
मेमन
##ंकु
जनशक्ति
##वनगर
प्रश्नकाल
ईदगाह
स्मृतियों
##पूरी
पेट्रोलिंग
ढोंग
पुष्य
सन्तान
##्ने
##शाख
##बेकिस्तान
##ross
भ्रष्टा
डोज
सीएसआर
रहम
कस्तूरबा
-----
9000
अपव
मैया
यंत्री
साहिबा
बैठाने
कॉमिक्स
ब्राह्म
वैयक्तिक
##िस्म
##ोका
##टीओ
##्लॉ
दृष्टया
आर्चर
##hag
##ॅम
तड़का
सिंथेटिक
रिएलिटी
विक्षोभ
प्रस्तावना
रॉस
MLA
##भरात
अमुक
##spot
हैच
##केन
##रोसिस
डाम
##ग्म
वाल्व
##पाने
जसपाल
अनुबंधित
दलीलों
ISO
कैमर
टाला
उम्रदराज
एक्ट्रे
यांत्रिक
भेजेंगे
##वृक्ष
##ऑन
हिमेश
बंदा
पदोन्नत
जाग्रत
Box
लहान
दादर
पंचवर्षीय
गुरनाम
बूढ़े
AS
सेवार
##रेचर
मैटर
गोवंश
लीव
परिवारवालों
उभरकर
पड़ीं
##प्रेस
शेव
पायें
मासूमों
रीट
लहंगा
इंफ्रा
विडम्बना
मध्यावधि
स्पोट्र्स
कर्त्तव्य
हार्वर्ड
रोस्टर
ट्रिक
१९६
अपरिहार्य
##लक्ष्मी
शुध्द
जयन
जीतेगी
हत्यारा
जेएमएम
मोहलत
##ाज़
दृष्टी
प्रैक्टिकल
शेफाली
##ोक्ति
नाविक
सर्फ
##ुनी
हाता
गोखले
)|
नितीश
NIA
ऑपर
सुथरी
डीड
नृत
##pr
कात्या
पब्लिसिटी
बकरे
पुलिसिया
करेगें
क़रार
पीटते
##fi
फंड्स
पीसीएच
अतीक
मिलीग्राम
छूकर
नोकरी
##इंडिया
हर्ट
सिंत
ज़िम्मेदार
##करन
##ased
##ternational
परिलक्षित
त्यामध्ये
युगों
मोटाई
कड़क
recorder
##िगा
एमआर
16वीं
भव्यता
सीबीडीटी
तीरंदाजी
हिफाजत
अप्राकृतिक
ओटीपी
पूंडरी
##फाइंग
स्नैक्स
विकिरण
##धनुष
पितामह
समीक्षक
चुर
##ंडो
दाभ
चैपल
जायरा
##ोदित
सौंदर्
Related
सोप
वॉइस
##ोलॉजिकल
लगाओ
महाकाव्य
विश्नोई
किंगडम
set
##खाई
##MI
शील्ड
अंसार
घुड़स
गुलद
कौशल्या
छेत्री
गेंदबाज़
येथून
हिमालयी
संशयित
चित्तौड़
रेनो
फ़िलहाल
प्रतापगढ़
तसवीर
पुनर्जन्म
हैकर
हॉन्ग
महफिल
दूरभाष
संतप्त
सप्तम
संबध
498
थैले
फटाफट
15000
दिव्यांका
दुर्भाग्यवश
हेजल
##दै
आईवी
व्हेल
##लाक
खींचते
नरेगा
विचरण
खरपत
##कपुर
##वाचक
बेरोज़
##माताओं
आरक्षी
गीतांजलि
सर्कस
पडेगा
##वर्ण
##alk
मिळा
रीमा
कंडाघाट
ईट
शगुन
सरदेसाई
IPS
Jansatta
सदानंद
बुढ़
तकली
चोला
कुंवारी
##ध्दि
Other
सोता
मंजुरी
##ants
Develop
वायनाड
फुटबॉलर
सम्पदा
टिन
बलो
##खेल
नितांत
एलटी
प्रतिनियुक्ति
चिड़
रिज़
एससीओ
पीसीएचड
एने
शम्
ठाकोर
कायद
झपट
भइया
...........
##ियोलॉजी
ज़िक्र
सुशोभ
परखने
ग्रामपंचायती
चैप्टर
सिद्द
लूँ
अधेड़
आंदोलनकारी
##िवादी
नाकामयाब
चरमरा
##लीजामा
##व्वार
बाघिन
मतदारसं
राशी
तारीफ़
राघवेंद्र
धुरंधर
रील
कैंडी
एडिलेड
##टनेस
बेईमान
मन्त्री
इनोवा
वीरे
कोसळ
इंपोर्ट
ध्या
सर्वेश
अदाकारी
योर
##nat
बल्ह
##ळात
##भाऊ
बेरो
##ेंदु
प्राधिकार
दिखला
ख़ान
बासु
मीडियाकर्मी
सीतामढ़ी
स्टैन
रोता
ठण्ड
##जामा
##शायर
आफताब
##थवेट
##निधि
सचदेवा
रियास
नॉर्वे
एचएएल
हिंडाल्को
LG
##नहीं
##रक्षण
सेवाद
##ार्इ
qual
##com
##ापोवा
अमलीजामा
ब्राइ
मंझ
243
माँगा
आपत्तियों
5वीं
अंम
सुनती
2100
पथकाने
मिथिल
आईएनएक्स
जीवनकाल
खटास
मूर्तिक
विवेकानन्द
भिगोकर
##chi
##थेरेपी
कब्ज़ा
बिगाड़ने
अँधेरे
धडक
हिजरी
गुप्तचर
अपूर्ण
घेतल्या
पिलाया
Court
केबिनेट
##ional
कद्दू
इनसो
##auty
टैन
केएस
##पाड़ा
indian
आलोच्य
##ï्र
एक्सईएन
चाँदी
जयन्ती
कट्टरपंथियों
ऑक्साइड
शाब्
##थली
##ïा
##ICK
po
##कलिन
कैपिटल्स
समितियां
bit
तपो
रूर
नकारात्मकता
मुस्तैदी
कोर्सेज
एसजीपीसी
हफीज
देशराज
##च्ची
हरसिम
ब्रेकफास्ट
फगवाड़ा
सुनेंगे
जिहादी
जवाली
तरकीब
चैटिंग
जीतेंगे
बालिग
पालकी
डकैत
code
##ग्ल
सामंती
शिन
##विजय
जीडी
वाचन
cam
##दाम
मध्यवर्ती
गठजोड़
इस्तमाल
कलियुग
ऐज
हाइकोर्ट
सर्विलांस
कॉर्प
ऑडिटोरियम
पत्नि
लहू
##र्पियो
कुमाऊं
इंटर्नशिप
##गड़
##गाँव
##तीब
कॉप
एमएन
हैरतअ
##ged
बोरे
number
धड़े
प्रदेशवासियों
Ins
नफ़
रूके
शाहरुख़
गौतमबुद्ध
निर्वस्त्र
car
सीवन
##ंधार
हॉस्प
rikording
बरामदे
mot
##enu
खिलवाड़
ओढ़
सत्तासीन
अजवाइन
हांलाकि
…”
##राष्ट
डैश
प्रिव
ट्रिक्स
##लूवालिया
लाशों
फ़िल्में
अनुशासनहीनता
युवी
फेफड़े
बंगाणा
मटका
भगवंत
आलेले
मार्गी
नागेश्वर
अभियोजक
मूर्ती
सेके
##साहेब
ड्रिंक्स
68500
शारापोवा
कुण्डली
##व्यात
##एव
बैरी
रोपण
हैशटैग
##oga
कुकर्म
##पात्रा
क्षेत्रवासियों
महासमु
आगर
उचल
बेयरस्टो
प्रकरणी
रायफल
विनियमन
अमेरिकियों
##षन
##्यूजी
जेहाद
ग्रीक
दुरुस्ती
विशाखापत्तनम
Affairs
जगताप
##ताराम
पहुंचाती
बिन्दुओं
कार्मिकों
##खो
हुवे
सेनाध्यक्ष
विसंगति
##वमेंट
##ason
अम्मी
याचिकाकर्ताओं
चोटियों
आरुषि
##कस
एपीजे
##र्गी
दौसा
क्वॉलिटी
अंग्रेज़ी
नागवार
तिरुपति
मध्याह्न
जलाशयों
एग्जामिनेशन
देवनागरी
रेशमा
बीई
##ोजेन
बच्चियां
मोटिव
क्य
##news
चढ़ाकर
III
नहीँ
##स्मृति
##ानुपात
##ule
गंवाया
खूबियां
रोज़गार
गद्दा
रनिंग
वामपंथ
हर्जाना
म्यून
##घी
फूड्स
…….
Ho
LED
ओशो
कटर
मंधाना
##नमेंट
निहाय
तकिया
धर्मपत्नी
असल्यामुळे
औपनिवेशिक
सुर्ख़ियों
##но
करगिल
फीकी
फाड़
छील
##ासिक
नियन्त्र
रजक
480
संतोषी
देखनी
प्रवक्ताओं
उतरता
मुनियों
अपर्चर
est
कोल्
##कांचे
अर्की
सन्यास
चोरट
ट्रॉमा
नंदिनी
ऐंठ
ऑट
दिलवाया
आमच्या
डब्ल्यूएचओ
Hello
##ंगरा
##वीत
मतदारसंघा
अवल
ताश
नीलकंठ
टापू
अकारण
लिएंडर
सारथी
सांपों
ताकी
person
sm
बानी
शाब्दिक
दिलासा
बिलिंग
टै्र
अजा
छलक
प्रतिपदा
भाट
सीरीज़
CH
निर्भी
वैक्सीन
##ेंद्रे
रेयान
युग्म
एनएसए
राजपूतों
##83
##जाहिर
शहीदी
कुचला
परछ
माताजी
लाहौल
तड़के
बस्सी
बोलताना
उतरती
Network
कन्वेंशन
ताम्र
2024
कृतियों
सौंदर्यीकरण
Friends
तदन
पाथ
क्षीण
ऊं
##दगा
##तेश
दीये
सत्यवान
भोरंज
राष्ट्राध्यक्ष
सिली
##ei
एडमिरल
एमसीए
केल्याचे
आपरेटरों
यूटिल
गावातील
जुमे
कोशिकाएं
डिवेलपमेंट
Youtube
तर्पण
चाशनी
बेअसर
अमान्य
##बासा
खुलवाया
ब्लॉकों
##वस्ती
समसाम
##पुरात
Year
आपन
##पालन
prof
##भांति
शतकों
उस्म
चण्डी
मुड़कर
##येगा
पीटना
अलाव
239
watch
Ÿà
सल्लम
!"
गेर
कोकण
जाफरी
सिन्ध
##प्रेशन
उभे
fuck
tar
##86
##चं
##ंदर्भात
उठाएगा
साम्प्रदायिकता
फिक्की
उँ
तआला
नंबरदार
दिवसांत
धड़ा
परदा
हनुमा
अंट
खटी
स्कैंड
फ़र्
रेशियो
सुदृढ़
मध्यरात्रि
रखीं
व्हि
मेहरबानी
##TI
##क्लो
बीडीपीओ
गैरी
तिराहे
नमामि
DM
##ूजन
बाजरा
##िपीडिया
##ंटित
रेसलिंग
तमंचा
पार्सल
डाक्यूमेंट
##ब्बारे
##नगरी
hell
वोटर्स
वामन
em
##शासित
##गुप्ता
##ज़ों
##ायब
मार्गावर
रिज़र्व
5वें
Rah
अजू
सोचिये
ढाबा
रहनी
बहुआयामी
कुर्द
सिंतबर
Sim
राज़
पिंटू
सहम
212
वैश्वीकरण
चिंतक
संवेदनाएं
क़ा
फैलाव
##ploy
कोसली
उर्जित
पधार
हैम
##सेज़
पेंटागन
इन्दौर
महाडिक
##43
कोमा
Information
डोमिन
जहाज़
##विषयी
##मंज
रोपाई
बौख
डकैतों
##ामीटर
सैमु
भटकाने
केय
तारीफ़
घटते
पांडव
मारकंडा
चतरा
ऑडियंस
##लाइन्स
##याज
सीपीसी
संगमा
रेमो
आबिद
सेकंडरी
चूरू
##नासाठी
हरेंद्र
संबंधियों
रेफरी
##बूती
ग्रामोद्योग
मुकदमें
वीएचपी
बर्मा
अचरज
##सिथ
ढलान
सायरा
उके
##झर
हुड
आतं
आर्थर
गर्भग
Oppo
चीमा
घनघ
सरायकेला
अप्प
उल्लिखित
मोरार
मीनू
.-
Bar
धन्
##वेला
स्लिम
मधुरता
जेएसडब्ल्यू
कौत
पछतावा
लेनो
डीजीसीए
लाउडस्पीकर
काना
विखे
जोह
चूके
हलाला
कंपाउंड
el
ज्वर
##abh
दौड़ते
वर्गीकृत
इलियाना
health
375
एआईएडीएमके
भ्रष्टाचारी
हजम
##चिकित्स
आबाद
देवल
लोम
str
##ेंक
भुवन
नज़दीक
वातानुकूलित
##ियानी
ठेले
थानाधिकारी
रातोंरात
गुदगु
पोटा
##ऑक्साइड
मुर्त
लेस्बियन
##जादा
हटाये
ग्रेवाल
मुर्म
करनेवाली
##ोटेक
व्यूज
पुं०
what
रति
ट्रान्स
जगजाहिर
##रियाल
सप्तमी
जंप
………
एसीसी
##बंधु
पल्स
तेव्हा
1953
नाईट
Char
main
छतरी
दला
विग
तासीर
जमने
वीरों
##यरिंग
मनसा
कॉन्फ़
निर्भय
फरियादी
शिंजो
पहाटे
उछलकर
एडिटिंग
स्प्रिंग
चरा
उमड़ी
##दिल्ली
शुभचिंत
निरंकारी
कुरआन
दानव
क्रॉसिंग
केलिए
प्रारूपों
भृ
देवकी
बग्गा
requ
किड्स
कुशा
निसार
##िस्ता
हंगरी
सांगत
लड़ाकों
संवेदनाओं
बंकर
##हें
क्लोन
त्यांच्यावर
डाॅक्टर
फौरी
वली
बांदी
ट्रेडम
CRPF
call
##लबजा
बंधने
गळ
मालती
इंस्ट्रू
##isgarh
वाघेला
तड
बर्गर
##eek
Name
हरिन
तिच्या
विधवाओं
##round
नथ
डोंगर
काढण्यात
मॉनिटर
इवा
##डकर
जाणार्या
##तारा
##साने
##्यूजन
सेलरी
##UL
##एमबी
मृग
tem
गेन
हरब
पूछिए
कैमरन
मुद्रण
अंतर्निहित
##िवाल
तरलता
पांचवा
खंडहर
मित्रो
उपन्यासों
##oom
टाईम
social
Diwali
सीढ़ियों
तुच्छ
##िवर्त
जिद्दी
एफआईआई
धावक
पिलाई
ऑर्ड
अकेलेपन
जेनरेट
##हली
ढूंढना
बसाया
केपटा
कोसों
##ण्डों
पीठासीन
पाश
##adav
##नाकडून
हमलोगों
पिंग
##ae
पाटन
पौड़ी
##ange
शिलाले
sol
महिलाएँ
##ारोपी
ज्ञापांक
तोल
गुंजन
बसंती
बिलख
बुनकरों
Fi
छटा
##ер
चाहूँगा
निकलेंगे
##जुब
फर्जीवाड़े
जुटाना
हजरतगंज
)'
निदा
हितेश
कायस्थ
##ph
नेमार
पीबी
जलाभिषेक
SE
छछ
##साराम
कोहनी
फेंककर
उग्रवाद
लज्जा
भागीदारों
डेवलप
झिझक
अजर
भटकने
योगासन
गाडिय़ों
ज़ु
रिचा
सत्त
देण्याचा
अल्कोहल
काबिले
ग्रेस
रोको
सैफई
यांग
सिले
अक्ल
##फ़्ट
##गठित
लिटिल
कुतु
सहलाने
लीची
इंटरपोल
आबंटित
##ढ़ियां
प्लेयर्स
##मैनी
आतिशी
बेजान
पंखा
क्षेत्रात
डिफाल
बदस्तूर
वाघा
शुक्राणु
कोचों
अल्फ
परोसने
अल्पावधि
धौ
उन्मुख
झमा
काई
अंगूठा
वारे
हुडा
केमिकल्स
##राइटिस
गाई
##तत्व
करौली
##untu
हरोली
माख
दौड़ा
##लाइटिस
वैलिडिटी
##जेन
कमीज
..!
##opular
जेएनएन
रीत
##फु
दर्रे
नवोदित
आयामों
बिजाई
टीचिंग
सुब्रह
अंबिका
दफना
char
पॉइंट्स
गर्भगृह
##ग्रे
##RD
हैण्ड
धाराएं
सटोर
जलमग्न
##ब्रु
कैरेट
समाजसेवा
डोली
##वेटिव
जुलै
छानकर
अवतरित
हिज़्बुल्लाह
उच
होइ
लिंगानुपात
नातेवाई
वर्षात
प्रबंधित
छोड़ते
,“
नेहमी
फ्राइ
डोम
##द्रीकरण
कार्पोरेट
सत्तापक्ष
विस्फोटों
पावस
इस्तांब
छै
बकायदा
अंत्योदय
टोरंटो
CG
अलीबाबा
कोरियोग्राफर
अनुकरण
संतो
क्विक
महानिदेश
संगमरमर
gam
लीकेज
रिक्ष
आल्यानंतर
पडला
यांच्यावर
##पिओ
बारामूला
Haryana
करिये
##isa
हेन
विरेंद्र
सुदामा
जड़ने
##हाज
वर्षांत
पायेगी
##थक
##क्वा
त्यौहारों
निष्कासन
सिरि
प्रगट
दुरूस्त
##ड्या
##कीपिंग
अधर्म
नोटी
खानों
##िसिपल
चौकाने
बढ़ोत्तरी
जागता
ठू
##शार
बनवाना
##ality
तोते
##urity
दरवाज़े
गोलू
##धर्मी
Install
Gl
##bi
गिरजा
##बूते
कवयित्री
कुठे
303
##फिज
नार्म
हिंदूवादी
एथलीटों
आढळून
आत्मीयता
फलां
##esari
खेलेगा
इम्ति
नरेन
चिपके
प्रपोजल
मुरलीधरन
##PM
सरकारच्या
आरकॉम
गाती
Ujala
कैंब्रिज
तरसेम
##conom
##नाप
महरूम
फिल्ममेकर
गौड़ा
लुंगी
पुष्पेंद्र
बेबाकी
सेवादल
##शोगी
चाहो
##्बोज
फूटी
टिफ
##ography
##पेर
##ंया
निकास
व्यवस्थापक
दरारें
मैन्युअल
Feat
डॉनल्ड
राजवीर
##ेंडर्स
ख़ून
अरुंध
##कंट
सींग
मुनासिब
रोहड़ू
पेडनेकर
प्रॉडक्ट्स
भूरिया
चों
##र्रे
##म्ब्रिज
खींचे
अचंभ
##मौजूदगी
बेफिक
चमका
##VI
बराड़ा
जांजगीर
एग्रो
घरो
चौप
कल्या
मलय
साये
गुब्बारे
रिक्टर
अनुकूलन
सार्वभौमिक
विष्ण
##राट
झीलों
##पेस्ट
मोर्टार
ओढ
उदर
मेंटल
पाओगे
एकलव्य
लहराते
जमींदार
##छाप
आसमानी
कृत्यों
sab
बलबूते
##म्बरम
##विलियन
महापालिकेच्या
ऑक्टा
Firstpost
##uja
##72
मेवे
जेजेपी
टार्
उपखंड
बेने
##ज़्म
यूनान
##सिफिक
नोबल
चश्मदीद
##नेता
कैशियर
फुर्ती
टेकने
न्यूरो
एंजाइ
##ेंडी
सूत
मेहनतक
sch
राजद्रोह
कंफर्म
उपहास
उड़ाई
-(
Engine
दौलतपुर
फॉल
265
आत्मरक्षा
विसर्जित
##ibaba
##ोलकर
hellip
हरजीत
##stro
##्लाइड
जोड़ीदार
important
डीएन
चस्पा
##अपने
##दलित
विभागाचे
जबान
##म्बी
उमरिया
आलसी
वीवीएस
जनाव
बफर
फिफ्टी
##artment
product
मांजरेकर
मद्य
करनेवाला
होनेवाले
निर्णया
अश्वेत
सिखाते
गुणात्मक
लेनोवो
live
इबार
नितीन
##NB
जनरेटर
करवानी
##सेल्स
खानपुर
दहलीज
शेतक
##लबजावणी
केपटाउन
शैलियों
सल्लल्लाहु
फ़ा
आजमाया
चिकनगुनिया
ग्रन्थों
##बरोबरच
बिखरी
आड़े
अपाचे
जलता
तकनीशियन
पारितोषिक
विकिपीडिया
##िटेबल
असतो
पौंड
एएनएम
आव्रजन
नॉक
##वाची
रिप्लाई
उपनाम
निकालेंगे
फ्रीज
नगला
डक
परिष्कृत
वितरक
स्वराज्य
बुत
कार्यवाई
दाईं
##नाकानी
Yojana
##ैंक
ब्रू
लड़ना
रूरल
बरकत
कालाबाजारी
मोरक्को
##नोट
##्रण
##त्सल
##ेरियन
लिपट
सूचकांकों
यानंतर
इंटीग्रेट
हिचकी
मैन्यू
हनुमानगढ़
द्वीपों
##खानों
##श्क
पहचानते
फ्रांसिस्को
वेदांता
मंडेला
##ेचे
##ेट्रिक
16वें
आइडल
राठौड़
full
खीरे
Scheme
साम्राज्यवाद
market
केएम
##ितानी
भ्रष्टाचारियों
shi
मदुर
एडवांस्ड
काँग्रेसच्या
बहरैन
##हिंद
##डीकल
प्रमाणीकरण
कुट
रेडिएशन
लाइटें
समितीचे
##दाने
##सरों
टप
स्माइल
##जीज
after
स्तो
बहे
अवशेषों
आक्षेप
##ौद
जिल्हाध्यक्ष
मटोल
##ँगा
दयाशंकर
Railway
वृन्दावन
सरला
डीई
कंवल
बोरवेल
अवे
अवांछित
##िन्दर
##ाम्प
आमसभा
अहिल्या
मधुबाला
चिल्लाते
तितली
ज़री
भिक्षु
##62
हुम
Mant
##कं
##हराना
नाज़
सम्बन्धों
कॉन्फ्रेंसिंग
##चिट
ऋणों
##ept
सुक्
सृजना
##ending
मशविरा
ग्रामों
##उप
रोबिन
ताे
संस्तुति
अंच
राज्यवर्धन
वालीबाल
सत्तारूढ़
मको
बेसु
रुड़की
dec
डोंग
कोको
फैज
गलौच
##लाधिकारी
सुव्यव
अभिनेत्र
Mess
ओक
##ब्त
1931
गुजारने
जॉइन
##दृष्टि
ओएसडी
मंसूबों
खर्ची
सिंगरौली
पंकजा
बिरंगी
शासनाच्या
रिकाॅर्ड
##जूमदार
##उंगा
text
आनाकानी
जवाद
##्यासाठी
##वेस्टर
कैड
स्कै
सुरक्षाबल
आठवड
सैंडविच
कार्लोस
ठराव
देशपांडे
पारिश
दिलाए
यशोदा
जेस
अंतर्द
बिठाने
भज्जी
जन्मों
कट्टरता
फतेहगढ़
Black
नांदे
बेकसूर
internet
##च्छू
##स्के
साँप
सम्भ
मधुमक्खी
उपकार
किशो
सवारों
##वायत
मोहिते
उखड़
दानों
बिगाड़
Ret
मुजीब
गौहर
##णाची
नोव्ह
##aker
दोगुने
खाट
##ancy
¤¡
मांगती
##एफए
##नानक
आरे
##नेई
##ाम्
देखेगा
वेस्टलैंड
नायकों
##मोटिव
भड़ास4मीडिया
एबीसी
कय
हाइकु
भुलाकर
बैसाखी
पेंड
##टोली
##rive
लुभाव
जांबाज
राजमहल
##ापासून
रोडमैप
लोंग
##थै
विकला
##ज़ु
विज्ञानी
##िमित्त
तेनाली
स्वीकार्यता
ऑफिसर्स
सुलग
सुशोभित
SD
मैला
अदालतें
मजूमदार
##ym
मापा
218
##उद
##raj
अठा
विठ्ठ
हमनें
प्रश्नोत्तरी
17वें
सियाचिन
कैलकु
gu
191
ऊर्जावान
बिरंगे
सोनोवाल
पिरामिड
Congress
हुमा
वीडियोकॉन
अवधी
अलावे
मांसाहारी
बयार
तबतक
रिझाने
मार्कस
##ोरल
बुना
प्रश्र
क्षुब्ध
ग्वा
##फ़ान
COM
##buntu
मोहल्लों
आइसलैंड
निभायी
गजेन्द्र
भुन
परफार्म
खुशियाँ
महामार्ग
मंगोलिया
सिखाता
मुर्दाबाद
शाहबाज
conf
दीर्घायु
दिगंबर
1900
रामफल
जग्गा
जगमगा
उड़े
लड़खड़ा
228
power
प्यों
मेज़
नौं
पाठि
स्वार्थों
इमोजी
प्रदाय
एनई
रियायती
##ora
बराड़
दाहिनी
रुद्रप्रयाग
मोटोरोला
तरोताजा
##रेनियम
बिछाई
Election
##यश
कांद
लगेंगी
##पुढे
##डेल
निवे
मेद
पुछ
दबंगई
तत्त्वों
निस्संदेह
ra
ख़ारिज
पहचानना
परफॉर
visit
प्रतिशोध
महायज्ञ
Bud
मौक़े
व्यभि
छोड़ेंगे
Ver
##ोदशी
इलेक्ट्रो
थामने
अर्द्धशत
लट
बैंगन
उन्मुक्त
उड़ता
ओबेर
लम्बित
##घंटा
##भागवत
लोडिंग
नवगीत
##वर्धने
##ज़्ज़
लायन
डिटेक्टर
ठगने
images
ब्वाय
##ान्ति
निवृत्त
परोपकार
रिन्यू
बीड़ी
कांफ
तालिबानी
ऐल
##61
##हाथ
भूला
द्रव
जेनरेशन
##ओँ
बाज़
देशम
##व्यूह
बेशर्मी
रिक्रूट
इम्तिहान
Tem
अटे
प्रतिभूतियों
ट्वीट्स
##ोत्स
चलीं
ज़रिये
अपरिपक्व
निर्वासित
cent
होठ
आईडिया
अप्रोच
कुरियन
पिलाकर
दिलवाले
मरहम
राजीनामा
पारिस्थितिकी
सप्लायर
मिचेल
तोर
कैंसल
##जूरी
डॉय
रैड
##वर्टर
बक्से
##CA
निवडून
जनसेवा
महिमाम
##कुर
दमिश्
हड़पने
गोंद
dr
##kart
बिचौलियों
जनलोक
वैराग
Mahar
बेजोड़
फोड़
आशावादी
Tool
चांगले
पछा
रट
पद्धतीने
##हारण
डेरी
खलि
##मिक्स
गाढ़ा
गाडि़यां
टैस्ट
बहाया
माइक्रोवेव
स्कीमों
ब्रॉडकास्ट
##JD
##निग
जन्मस्थान
मुर्मू
##action
##षु
मुज़
पडले
चोद्
Self
छप्पर
पढ़िए
गोरखध
##रेंस
##ोग्लो
फ़र्क
बहुते
परिणामी
लोहरदगा
ब्लोज
जिन्होने
धूपिया
संवत्
रेस्त्र
शीना
ऑनर्स
विल्सन
##गण्य
चात
##ोसला
शहरीकरण
गंवानी
##श्चराइ
शीघ्रता
जवळपास
समीक्षकों
बदलेगी
पले
अधिकरण
निक्की
आरएन
खोना
दायें
प्रतिक्रियाओं
गोरक्षा
जुलाना
प्राईवेट
लबाल
उपकर
आध्यात्मिकता
अंमलबजावणी
ओपिन
##नाची
##सेल्व
यावर्षी
रूझान
smart
œà
मरीन
##बेशन
चुचिया
भूलते
वाहने
##ैशियम
पहिए
उपजी
दोघे
##इनों
10th
कप्तानों
करतब
शिवसेनेचे
जनेऊ
pa
राष्ट्रहित
मारिन
गेंदें
.)।
##मण्डल
मांगो
देवदास
गणेशोत्सव
निकटता
##ारित
किमान
##वर्धा
सिकु
कैसीनो
मक्खी
बिजेंद्र
गुरुनानक
चिदम्बरम
डिस्कॉम
वाईएसआर
डंका
##ंगें
साळ
जोकर
सहेलियों
नौसैनिक
पौत्र
##्यांमध्ये
चख
##OL
##ुनझ
पैराल
अनुकंपा
रियलमी
##ोपाध्याय
ताह
निह
##जीएस
गाड़
कुपोषित
डीटीएच
il
##शती
कट्टे
##िलेटर
##वितरण
चंदू
जालसाजी
डकार
209
म्यूजिकल
पकड़ी
ओटी
३१
अफ़्रीका
शकर
बिंदी
रजाम
जालोर
सीपीएस
बिसात
रूढ़
बॉलर
##जुर्
रोमिंग
टुकड़ी
क्लो
लॉन
प्यासे
shar
Teach
तिकड़ी
##hattisgarh
##ey
गैरमौजूदगी
उबले
स्मोकिंग
रेस्त्रां
तोशाम
फरमाया
आवृत्ति
##सेल्वम
फूह
खिलाफ़
अपीलीय
उरुग्वे
friends
##च्छे
Show
क्षेत्राधिकारी
')
नइ
फवाद
रेफ
फूलने
ब्रह्मचारी
एेसी
मनमर्जी
डिफ़ॉल्ट
गोट
मचल
##्थ
कवर्धा
लिथ
विधायी
पत्नियां
सलमा
भिंडी
स्ट्रैट
##रूपता
फरियाद
लबालब
देशवासी
बुलावा
रिकार्डिंग
FR
##पय
##मित्र
##गेन्द्र
न्यायलय
पाठी
क्षीर
पाराशर
So
##ासह
##विज
Stories
वैक्यूम
इक्का
##ामान्य
##ंबन
परिवारजनों
हरसिमरत
¤¹
स्ट्रांग
बदरीनाथ
मेंस
##केटिंग
बागवान
पाटनी
जीवनदान
संदर्भों
##करिता
हरण
जलाना
मार्कशीट
झमाझम
दुष्काळ
[...]
