#version: 0.2
e n
e r
c h
Ġ d
e i
u n
i e
s t
i n
a n
Ġ s
ei n
i ch
e s
a u
Ġ S
Ġ w
Ġ un
Ã ¼
o n
g e
a l
t e
Ã ¤
Ġ m
Ġd ie
Ġun d
a s
un g
a r
Ġ ein
i t
s ch
Ġ v
Ġ b
Ġd er
e l
o r
Ġ A
a t
Ġ z
Ġ i
Ġ n
Ġ D
h r
Ġ B
Ġ au
t en
g en
u r
e m
d er
Ġ M
Ġ h
Ġ f
Ġ in
t er
d en
Ġ E
Ġ k
Ġ F
Ġ K
Ã ¶
e t
Ġ G
Ġ W
Ġz u
l ich
Ġ P
a b
i r
a ch
o l
Ġ g
t i
a m
l e
Ã¼ r
d e
Ġ T
Ġ H
Ġd as
ei t
Ġ I
c k
Ġ ge
b er
Ġ V
i er
Ġd en
Ġ L
Ġ R
Ġm it
r o
Ġ er
i s
ich t
Ġ an
i l
â Ģ
u s
r e
o m
Ġi st
Ġv on
Ġau f
i g
s en
u m
Ġ al
Ã Ł
e h
u t
r a
i sch
Ġv er
an d
an n
Ġf Ã¼r
s e
Ġ N
Ġ o
r ei
Ġ l
Ġi m
b en
l en
Ġ Z
m en
Ġs ich
Ġn icht
n en
Ġ U
f t
Ġw ir
Ġs ch
Ġb e
o ch
Ġ 1
i on
ĠS ch
s er
en t
Ġau s
Ġein e
ĠS t
in d
ĠV er
Ġd es
Ġau ch
Ġ p
Ġ (
Ġ J
Ġ es
e u
a hr
f f
Ġd em
k t
s p
a g
e hr
st en
Ġ âĢ
ie l
Ġb ei
Ġ C
ch en
Ġ 2
ĠS ie
a h
el l
Ã¤ n
ung en
ĠA n
Ã¼ ber
Ġs o
Ġ ab
ĠI n
in g
Ġ st
Ġ j
ĠD ie
Ġ t
Ġw er
Ġw ie
er n
Ġ ich
Ġ O
u ch
Ġal s
et z
i k
Ġo der
v er
i en
w ei
Ġ Ã¼ber
es ch
Ã¶ n
l ei
Ġwer den
un d
Ġh at
. .
m er
en n
Ġs ind
Ġh ab
b e
h n
ung s
o s
Ġs ein
o t
at ion
Ġs ie
ĠE r
Ġv or
ol l
u f
ti g
Ġ um
ĠU n
or t
ch t
i m
ĠE in
Ġn ach
ĠS p
r au
ur ch
e st
isch en
ei l
Ġdas s
0 0
a d
Ã¼ n
u l
Ġi hr
e d
Ã¤ t
r i
Ġwir d
g er
Ġw ar
an z
h al
e g
en d
au s
p p
Ġein en
ĠP ro
Ġ -
h e
l a
w er
Ġein er
an g
k ti
ein e
au f
al l
Ġm an
Ġk ann
te l
sch a
Ġ r
te t
ter n
g t
Ġd a
Ġzu m
l er
p f
âĢ ľ
Ġein em
Ġn och
Ġk Ã¶n
z en
z u
i ck
st e
Ã¼ ck
Ã¶ r
Ġ ent
Ġd urch
Ġz ur
b t
Ġ am
r u
ĠâĢ ŀ
i v
ĠA r
n er
r Ã¤
lich en
ar t
ch e
i gen
Ġn ur
Ġun ter
ĠJ ahr
Ġhab en
Ġab er
ei ter
Ã¤ r
f Ã¼
ĠG e
us s
r ie
ier t
h l
l ie
ĠA l
an k
ei ten
st er
ge l
or m
Ġs p
Ġ e
ar b
isch e
Ġm ehr
ĠR e
ach t
0 1
ge b
D ie
ĠA us
lich e
scha ft
ier en
Ġw ur
o p
o g
ĠM it
eh en
i ge
l in
ĠB e
st ell
Ġ "
ĠkÃ¶n nen
Ġun ser
el t
ĠâĢ ĵ
der n
sch en
ĠI hr
om men
er s
as s
Ġb is
es s
Ġ 3
at z
Ġ Ã
ĠE n
e ut
g r
k eit
h en
Ã¤ l
at en
b ar
ĠD as
Ġan der
ei ch
as sen
h er
Ġdie s
b l
h t
ĠG r
i st
ĠB er
el len
h eit
ĠD er
g lich
ah l
Ġn eu
Ġ re
f en
Ġun s
er t
Ġw enn
e x
ĠA b
sch l
Ġal l
ut z
Â Ń
ff en
etz t
Ã¤ hr
ÃŁ en
ĠV or
g es
il l
ei gen
d u
r it
s am
m e
un den
o b
Ġb er
Ġd ann
m al
m t
r Ã¼
on t
an t
Ġk l
.. .
e ben
k en
ĠA uf
il d
b st
a st
Ġs ehr
eh men
f ahr
o k
Ġg es
Ġb es
s s
a p
al t
kti on
Ġj e
Ġwie der
Ġw eiter
Ġ gen
z e
Ġwur de
Ġw as
Ġd ar
e kt
w ie
a k
n is
e ch
p l
Ġs oll
i z
w ar
Ġsch on
i c
n e
Ġ2 01
a ge
Ġim mer
i bt
Ġ et
Ġh ier
Ġ 4
ĠZ u
ĠA u
p er
o d
Ġl ie
Ġdie se
k l
ein en
Ã¶ glich
Ġh in
ÃŁ e
ĠW ir
Ġv iel
f ach
f orm
ie le
ĠZ eit
i al
ra g
eit s
Ġge w
l o
at t
ĠE s
ĠS o
Ġg ro
Ã¼ t
Ġh er
a ck
Ġ 5
f er
e b
Ġg ibt
Ġg anz
h o
ar k
lei ch
Ã¤ ch
ĠH er
Ġ1 9
ach en
Ġhab e
Ġs el
Ġk om
sch ie
m it
d em
f e
ĠG es
o sten
Ġm ir
Ġ c
gen d
f ol
el d
el n
Ġv om
it Ã¤t
f l
w as
el le
h nen
ĠM en
o hn
ĠU m
Ġz wei
d ig
in den
Ġal le
Ġbe st
Ġm ich
l os
l ung
Ġdie ser
a gen
fÃ¼ hr
on der
p t
ĠB ei
hn e
ĠI ch
z eit
b r
in der
ĠK l
Ġd u
l au
ti gen
q u
ich tig
ei te
ĠI m
u d
ĠEn t
ĠN ach
hal ten
Ġ le
ra gen
Ġge gen
ĠG esch
ĠO r
Ġ a
rei s
et t
ĠAr b
Ġk on
ÃŁ er
Ã¼ hr
au t
Ġg ut
) .
Ġge m
k te
Ġ eigen
ĠÃ ľ
Ġein fach
ĠUn ter
ol len
or d
ĠB l
ad t
g esch
sch e
v or
Ġm ein
is sen
b ur
ck en
I n
sp iel
in n
Ġk eine
r ank
ation en
Ã¼ s
ĠF l
Ġw o
Ġ Â
ier ung
ĠD eut
ĠC h
am m
Ġg er
Ġso wie
ig er
an gen
rei ch
ĠP l
ol le
Ġein es
am it
i d
ĠM a
Ã¶ ch
al e
ĠUn d
a te
ie len
ei st
Ġbe k
it z
Ġs on
Ġm al
w ischen
D er
eu te
Ġ 6
ĠL eben
ti ge
eh t
ĠK on
ich er
re u
r in
ĠSp iel
Ġsel bst
Ġihr e
es en
n et
w ick
ĠW as
Ġg r
Ġg esch
Ġb et
at ur
ab ei
r an
ĠÃľ ber
f or
un de
n ah
at iv
Ġw en
Ã¤ u
k e
ers on
a de
st Ã¤n
D as
g ab
ĠW er
in e
Ġo hne
Ġbei m
Ġj ed
ĠE ur
Ġp ro
p ro
ĠF rau
ei m
u g
kti v
im m
n o
b au
Ġhat te
ĠT h
ĠH and
o ff
n te
w e
Ġw el
s o
Ġdies em
Ġm uss
ge ben
al en
wei se
Ġet was
uch t
at er
f all
ĠL and
f ten
w end
s atz
ar ten
z eu
t eil
ti on
Q u
m a
Ġan ge
y st
Ã¶ ff
h a
Ġer st
ĠD aten
sp r
Ġd ir
Ġsein e
Ġander en
er en
d ing
ĠMen schen
) ,
Ã¤ h
Ġd eut
Ġb ie
ĠM ar
st and
i a
ĠB et
ĠK om
arb eit
t s
ar d
u st
z t
lin e
ĠS ex
Ġin s
a y
ch er
ĠR ei
e z
yst em
Ġd amit
Ġo b
Ã¶ l
Ġ2 00
ĠD u
auf en
Ġ Qu
tern ehmen
or en
Ġge l
in nen
ĠS e
Ġm achen
i de
u ten
ru ck
Ã¤ d
Ġaus ge
ier te
Ġf inden
Ġge f
Ġd och
Ġj a
Ġge ht
Ġsch n
Ġl ei
re chen
n ung
au m
Ġm Ã¼s
am en
an ge
Ġ 7
ich te
hal b
it ion
ĠPro du
s st
w eg
u te
k el
stell t
i o
ĠJahr en
b es
Ã¤l t
ĠK inder
Ġ 8
l t
ĠD a
Ġv iele
u chen
schie den
Ġj etzt
z ei
Ġneu e
ĠG er
r en
ĠL ie
ĠIhr e
ĠT ag
ĠA ut
bur g
h m
l and
ĠGr und
ĠB o
a ar
in de
ĠH o
Ġden n
s k
d r
ĠT eil
sch ei
Ġk ein
Ġge h
ĠB r
Ġw Ã¼r
Ġall es
ah n
ver s
Ġz wischen
Ã¶ s
g ang
at Ã¼r
an der
Ġ |
k eiten
Ġbe g
Ġwur den
schl and
ei ÃŁ
Ġson dern
Ġl assen
ru pp
ra d
un der
im mer
fahr en
f Ã¼r
at s
ĠB es
Ġn un
mit tel
Ġwar en
ĠI hnen
k ommen
ĠW ie
u b
z ent
o ur
s etz
c e
ich ten
g ung
I ch
w ir
i p
a kt
isch er
b ild
Ġ1 0
S t
ĠSt adt
la ge
ol og
Ġs eit
z ie
Ġe ben
ĠW elt
Ã¤ re
au pt
o w
Ġd abei
f te
ge m
Ġ 9
Ġsoll te
lich er
Ġber eits
hal t
Ġein z
o gen
o st
ann t
in gen
as se
al ten
ĠF Ã¼r
ur z
s i
r icht
Ġbes onder
an den
el e
Ġb in
lie ÃŁ
Ġunser e
rie b
ĠM us
ĠSch w
Ġm Ã¶ch
ig keit
s el
Ġer sten
ĠP erson
i um
Ġander e
es se
Ġal ler
ach e
te m
es sen
un ktion
o ten
und es
k s
Ġdies es
am t
ra ge
ro t
Ġsein er
bl em
al d
ĠP art
Ġs ei
ĠF ahr
âĢ ¦
ĠM in
Ġge st
Ġ 0
la gen
Ġk ommen
Ġ /
am il
ei g
h ol
Ġver l
ĠH aus
t ur
ĠJahr e
ch n
Ġm Ã¶glich
rei chen
ĠM on
or den
Ġb esch
Ġl etz
Ġn ie
ĠDeut schland
ĠUn ternehmen
ĠB est
ĠGe w
ĠG l
ĠF r
ĠW ei
U n
ĠIn form
sam men
stell ung
ĠM an
Ġg leich
Ġzur Ã¼ck
ĠVer s
ĠK ont
p h
ĠmÃ¼s sen
Ġzu sammen
in ter
Ġw ill
ĠW och
ĠU hr
Ã¤ uf
ĠR eg
ĠS on
al itÃ¤t
eu er
st ag
ĠP ol
au er
Ġe x
fol g
u ÃŁ
un kt
en den
ĠE x
ber g
atÃ¼r lich
Ã¤t z
Ġver schieden
Ġd rei
Ġ1 8
Ġals o
o hl
o v
Ġh eute
ind et
ĠF re
ĠArb eit
Ã¤n der
st ellen
i an
Ġ &
00 0
ĠB ild
uch e
ier ten
ern e
Ã¤hr end
Ġw eil
wer t
k lich
Ġp er
Ġda zu
ĠÃ ĸ
t schaft
er v
iv e
Ġunser er
ĠIn tern
un ter
a den
Ġk osten
z eich
2 01
Ġver s
ĠTh em
z w
Ġschn ell
t ag
rei ben
ĠA m
g l
a il
Ġ te
ĠW enn
il der
as ch
e k
ĠE l
d ung
Ġneu en
Ã¤ m
Ġkom mt
E in
ĠW eb
ĠR o
rau m
z ahl
ĠSch l
A n
Ġihr er
ĠA uch
Ġein mal
Ġ2 0
ĠB au
ĠSt ra
Ã¤ ÃŁ
m in
ĠT e
Ġdie sen
or g
ach ten
Ġi hn
t rag
Ġf Ã¼hr
h Ã¤lt
Ã¼ l
S ch
Ġsich er
i f
men t
ei le
Ã¤ hl
Ġbe f
h aus
ĠZ us
Ġm eine
kt u
kl Ã¤r
Ġihr en
Ġsch Ã¶n
am men
p r
ĠWas ser
ĠGe b
W ir
ei ster
n it
r um
s icht
ĠA ber
g ar
g ie
y m
ĠN eu
ĠDie se
Ã¼n st
is s
b el
A l
h Ã¤n
for der
t lich
ag t
ĠU r
ĠEin e
en de
Ġst eht
sch ein
Ġge b
ig n
ĠP f
i sten
am p
ĠF or
a c
ĠG em
ie s
ĠRe cht
sch utz
r at
Ġ1 5
ot t
w a
ĠK unden
ĠIn ter
Ġver b
Ġf ol
ĠG ro
g leich
rit t
âĢľ ,
Ġsein en
w ort
g lie
st Ã¼t
ĠS ti
ĠW ohn
Ġjed och
Ġje der
er e
ent lich
r em
ĠM ed
m an
ĠD es
Ġh och
h in
ien st
ge w
r on
Ġh o
m us
sp rechen
fall s
al len
Ġs ol
ĠM ann
eu ch
re cht
ĠEur o
Ġall em
ĠF rei
ĠS te
ĠC o
m ann
y p
ĠK o
gr und
ĠL e
im mt
k er
ĠO n
f ern
ra in
ĠFrau en
t re
ion en
Ġein ge
ĠwÃ¼r de
u le
nah me
ĠG en
Ġf est
nis se
Ġb lei
ĠF ot
e ter
z ial
or n
Ġ1 2
alt ung
Ġl ang
Ġ em
ri v
ĠB undes
ĠF il
le gen
zu g
or gen
Ġd ort
ĠVer b
ĠM o
ĠF all
Ġ ...
Ġv oll
Ġg ar
ĠB uch
ĠS eite
Ġre cht
en z
or f
Ġs ehen
al s
Ġwel che
Ġi hm
p rÃ¤
ĠH ier
k ehr
Ġ eh
a z
Ġd e
ck er
Ġwir klich
Ã¤n ger
en s
ĠD urch
f ang
ĠF amil
b ung
b o
v on
Ã¶r t
stÃ¤n d
enn t
Ġm acht
ck e
Ġ en
k un
ĠIntern et
a f
Ġin ter
j ekt
ri ff
Ã¤ ft
Ġf rei
ĠR Ã¼ck
ĠK osten
wer k
ch te
Ġal len
Ġkon nte
ĠM Ã¶glich
ck t
w w
ĠB eg
Ġb en
ĠPro blem
ĠD e
p ti
Ġbie tet
schie d
eit ung
Ġnicht s
M it
Ġbes ser
Ġst ehen
ĠAr t
arb eiten
Ġw ichtig
ding s
ĠL u
ĠW ar
k on
Ġn atÃ¼rlich
f Ã¤l
ĠEn de
Ġb r
m un
Ġb el
Ġb eh
ĠÃ Ħ
rie ben
i pp
gab e
an st
ĠLeben s
Ġm us
gr amm
Ġb zw
sten s
Ġs ex
um en
u er
el s
z ogen
ĠJ u
ĠF orm
ĠSch ul
lei cht
w eit
iel t
tig t
h Ã¶
ti ert
ĠDie s
f rei
scha ften
Ġletz ten
Ã¼n f
schl uss
Ġa ktu
w ohl
ĠInform ationen
as st
ie t
Ġlie gt
ei len
il fe
k ten
al is
f ort
en nen
I m
Ġ .
Ġgr Ã¶
ĠN e
ach sen
Ġda fÃ¼r
Ġw ollen
z er
Ġgen au
ra f
Ġg erne
ĠL in
E s
ra ft
E R
an is
n eh
kun ft
y s
gab en
ation s
ĠB esch
g angen
d et
Ġwo hl
ic e
wei l
ĠK ar
z immer
in anz
Ġver st
in o
ers Ã¶n
Ġer halten
h len
an s
Ġgem ein
ĠBer lin
c o
ĠmÃ¶ch te
Ġsch w
kt ur
lau b
Ġn Ã¤ch
i te
un st
Ġver w
ĠAn geb
ti er
ul tur
ĠSt ud
ein er
ĠO ber
ing er
Ġst att
Ġger ade
Ã¤ ter
v oll
Ġge ben
Ġ [
Ã¶r per
icher heit
ĠM al
n ten
ĠÂ »
ĠSt and
ĠB eh
t t
on e
Ã¤ sst
Ġein ige
l es
b ei
ĠS tel
i der
Ġ ,
it te
wick lung
Ġw Ã¤hrend
Ġo ft
Ġje den
ĠD r
ĠP reis
ĠZus ammen
Ġw Ã¤re
ĠU S
w or
et te
o te
Ġsein em
a pp
ĠOn line
Ġv ielen
ĠB Ã¼r
b et
s Ã¤tz
ĠW eg
ol it
ĠArb eits
st off
ĠL ei
V er
Ã¼ ss
it zen
Ġw e
r Ã¤n
ut ter
au se
Ġwen ig
ing t
Ġh Ã¤t
rupp e
Ġden en
ech n
Ġi r
1 0
Ġ on
ĠH och
p unkt
k om
le x
Ġdir ekt
ĠN utz
ut zen
s eite
h eim
zeu g
am pf
âĢ Ŀ
a v
ĠS el
" ,
k auf
ier e
Ġgro ÃŁe
n ehmen
Ġbei den
st ra
f il
ĠW eiter
ah er
ar m
Ġr und
ĠV ide
h and
s ol
d ruck
Ġge hen
Ġweiter e
l ig
Ġ Y
ĠP h
is k
ach te
o pp
ĠB ed
Ġ3 0
Ġh and
Ġge t
ag er
ick en
ell schaft
ĠG eld
Ġk urz
Ġl ange
Ġ â
et ten
Ġgro ÃŁen
it u
Ã¤ ss
lei st
a ÃŁ
Ġw ei
ĠGem ein
Ġ1 6
Ġbesonder s
ĠMus ik
rot z
ri ft
Ġso gar
ff e
1 9
Ġem pf
ĠSt a
Ġ1 4
Ġo ffen
ob il
b ie
Ġdar auf
Ġf r
ĠSp ort
Ġg ute
ĠWoch en
et ter
ge stellt
ei tet
ĠGe gen
ĠK Ã¼
ro m
Ġet wa
Ġb rau
p e
Ġgem acht
ĠF ach
ein ander
ig ung
Ġeigen en
Ã¼ b
Ġer ste
Ġver m
ri st
Ġbie ten
Ġgro ÃŁ
ater ial
Ġ :
Ã¶r en
ĠL eist
Ġw issen
Ġm o
ur s
ah men
ĠVer l
ativ e
f eld
Ġst ell
Ġbe sten
v en
m Ã¶glich
sch lieÃŁ
lich t
er k
ĠkÃ¶n nte
ĠK r
ĠAl s
ei gt
ĠEur op
or no
ĠPl atz
ol z
ĠSt r
n t
ver b
ti kel
Ġ u
ab en
Ġt eil
ĠM od
Ġ ch
ing s
ĠThem a
ge gen
al er
ĠS eiten
h op
ĠD i
Ġunser en
Ġ euch
Ġ Ã¶ff
ĠS a
Ġl Ã¤sst
ĠH aupt
rau en
ah len
st adt
st r
b eh
ech s
ĠMit glie
ĠBei spiel
Ġ1 7
ĠC hr
u ter
i x
ĠC om
fÃ¼hr t
zie h
j e
ĠF ar
g Ã¤n
Ã¶r der
ĠHo tel
ĠI de
le ben
le gt
ĠP ar
ĠM ill
j Ã¤hr
ĠOr t
f on
rei se
fÃ¼ l
Ġ1 00
Ġf ast
Ġau ÃŁer
Ġf rÃ¼
ĠEr fahr
au en
Ġda von
ank en
Ġw oll
Ġauf ge
. âĢľ
Â «
ol d
los sen
m ar
5 0
u he
ĠE m
au ft
Ĥ ¬
ĠN atur
wei s
Ġz ie
ĠJu gend
ĠA ben
3 0
Ġr ichtig
Ġp l
Ġgemein sam
w and
ĠS u
ĠMit tel
il t
Ġent sprechen
gen den
E r
Ġd ich
ich tet
m Ã¤ÃŁ
Ġab ge
arb eiter
ĠZ iel
ĠGesch Ã¤ft
Ã¼ d
Ġp aar
ĠH Ã¶
ĠPro zent
ti k
ho f
ĠF rage
ĠSp r
Ġinter ess
Ġ rei
sch nit
a x
ĠB ilder
Ġc a
i ster
Ġmein er
Ġihr em
1 1
ĠO b
re ffen
bild ung
Ã¤ ten
Ġunser em
S ie
Ġ X
d es
Ġp ersÃ¶n
ĠIhr er
ge hen
ĠGr Ã¼n
ĠBer eich
Ġent wick
ĠâĢ ľ
ĠD ar
! !
Ġir gend
om mer
Ġje weil
i b
ie f
ti eren
w ahl
ĠRe gel
Ġz war
in en
ĠT er
Ġhat ten
Ġw eiÃŁ
ĠPart ner
ĠK ir
g lichen
Ġda ÃŁ
Ġg ab
nah men
ĠVer ein
Ġg l
Ġin ner
olog ie
or e
Ġm ei
Ġhin ter
Ġkl eine
ĠF ol
uf en
l i
tig keit
ĠK unst
an ten
Ġher aus
ur t
Ġf indet
W enn
ĠTe am
Ġkl einen
in a
- -
Ġv ier
ann ten
etz en
ar e
_ _
Ġo f
u h
ĠF ir
ĠM et
Ġer folg
ro ffen
ĠAn t
m m
s y
at h
ĠE ner
ĠSel bst
st Ã¼ck
sch w
ĠA pp
Ġaller dings
B ei
ĠT echn
ĠF rank
Ġsch wer
Â »
ĠD en
âĢ ŀ
Ġon line
ĠR ahmen
ĠD enn
ĠIhr en
E N
ĠS icherheit
ĠT he
ĠA d
ig es
ĠT ex
ur en
re ch
Ġg ilt
pl atz
le b
Ġ1 1
em ber
isch es
Ġ1 3
rin gen
o se
ant wort
as e
w elt
P ro
ĠT est
Ġt un
Ġw ahr
ĠH in
S p
m b
ĠS ystem
ĠE igen
Ġsoll ten
Ã¤h len
ag te
Ġ5 0
am e
ar te
ur e
ĠVer fÃ¼
N ach
ĠS k
al ter
z ung
lich es
Ġder en
lich keit
Ã¤ hn
au sen
Ġunter schied
Ġn eben
iv i
Ġ el
Ġin d
am er
u p
ĠEin satz
om at
Ġsp Ã¤ter
h eiten
Ġn ehmen
ĠBes uch
Ã¤t ze
Ã¤d chen
ĠV iel
icht s
ĠM ark
at ten
j ahr
re d
sch t
eh len
Ġi hnen
Ã¤ us
Ġ201 8
ĠIn st
bl ick
Ġver fÃ¼
ĠM ehr
ik er
ĠD och
war e
b ach
Ã¤hl t
i ff
gen ommen
Ġ ro
sch er
ich tige
fÃ¼hr ung
u bl
2 0
ĠF est
ĠAu ft
inde st
Ġ19 9
ann te
Ġk am
c om
ĠT r
Ġd Ã¼r
ra kti
Ġw eit
Ġsp ez
ĠD ir
ĠGesch ichte
le ge
Ã¤n dern
Ġunter stÃ¼t
Ġbe de
ĠJ e
i vers
ĠF ragen
st ehen
I N
Ġer n
ĠM Ã¤n
ĠâĢ ¦
Ġp rÃ¤
Ġle ben
o ck
om it
ti v
mal s
Ġs agen
ber eich
âĢľ .
o ok
ĠH a
ĠVer t
sp ro
ĠV on
g st
ĠW issen
b uch
Ġbek ommen
be ding
ĠM e
Ġw orden
ĠAl l
a ffen
ĠV ol
it al
Ġst ark
k o
Ġeigen tlich
et s
ĠP rÃ¤
ĠQu alitÃ¤t
Ã¤ um
Ġn ah
ĠMÃ¶glich keit
ivi du
Ġ2 5
at te
fl Ã¤
ri gen
Ġlei cht
ind ung
on d
b all
Ġ x
Ã ©
m o
er st
ster reich
Ġwen iger
Ġer klÃ¤r
ĠL ehr
om e
ĠB el
ĠBl ick
s l
gr Ã¼n
ĠK rank
rupp en
Ġk aufen
ĠB Ã¼
h le
v ent
ein t
ver l
m Ã¶
art ner
ĠS er
Ġk einen
ze pt
arbeit ung
ĠD at
ĠMar kt
ĠM Ã¼n
lo se
un ge
ĠKont akt
und heit
k ung
Ġver t
ĠhÃ¤t te
Ġkl ein
setz ung
ĠK a
re g
1 2
ĠP at
arb eitet
ell er
la den
z Ã¼
ĠPro jekt
ru ktur
Ã¤n d
ĠAu gen
Ġeben falls
Ġsch l
ĠG eh
Ġges p
Ġz eigt
ĠM ein
Ġz ahl
icht ung
fÃ¼ hl
Ġviel leicht
Ġverschieden en
ĠN ie
ĠSch wei
Ġsch reiben
Ġkosten los
rei che
ges etzt
f r
en te
de ut
Ġf reu
rei fen
ĠW e
l ungen
at or
Ġ #
spr uch
Ġbe w
ĠF uÃŁ
C H
Ġd aher
on s
ĠBer uf
ĠVerfÃ¼ gung
ĠFil m
Ġst ellen
A uf
i ent
Ġeh er
ĠK Ã¶rper
ĠF rÃ¼
ĠE U
Ġver k
ĠGro ÃŁ
ĠMin uten
ĠG o
y n
Ġkann st
i le
bar en
o ber
ĠAut o
it y
s weise
o ol
ĠProdu kt
ĠG ott
Ġer z
Ġt Ã¤
ĠF er
Ġm einen
Ã¤r en
Ã¤ch st
a in
ĠEr geb
ĠZ ahl
ĠK ind
Ã¼ ler
rÃ¼ f
est er
st ein
F Ã¼r
den t
Ġin tern
ĠAr tikel
Ġf re
ĠEner gie
Ġau t
ĠN acht
ien en
Ġsp ielen
schei den
ich tigen
ĠC as
ĠS erv
ĠD ann
in ner
ĠT ran
Ġo pti
ĠT age
neh mer
Ġkl ar
rÃ¤ ge
her ap
ĠV ort
Ġzu sÃ¤tz
pf en
ch es
Ġs ollen
stell er
z el
ĠP er
Ġge k
ĠR aum
ĠMit arbeiter
Ã¤n de
Ġt he
s f
ĠP r
.. ..
Ġp assen
ĠB eit
Ġ qu
ĠW or
ge ber
ĠVer anst
ĠF unktion
ut t
z ess
bes ser
ĠD abei
tre ten
ĠAben d
ch ten
ation al
w ohn
hÃ¤n g
ar f
Ġb l
zei tig
eh n
ĠH am
l ungs
wend ung
. "
Ġg ing
il f
1 8
ĠS ommer
ĠD ank
ei chen
as chen
Ġwe gen
ĠT rain
ol f
Ġk ont
bar e
ĠAngeb ot
hr en
Ġ end
b in
ĠPerson en
A m
Ġsie ht
ĠSt unden
Ġgeh Ã¶rt
" .
stÃ¤n dig
ĠH ei
s ehen
Ġ2 4
Ġwer de
Ġkom pl
ĠJahr es
ak te
ti sch
ĠBet rieb
Ġz un
ĠB as
i tel
Ġw under
ĠRei se
ĠSch n
an te
ĠFl ug
gem ein
un k
ĠLand es
an ce
z lich
Ã¤ te
Ġbek annt
Ġs agt
Ġs agte
el fen
Ġan geb
Ġt rotz
ĠS al
ĠnÃ¤ch sten
ĠRecht s
m el
ĠHer r
âĢ Ļ
ff iz
Ġbest eht
sp ort
rie den
ĠWir tschaft
ĠA t
ĠW ert
age ment
ĠN etz
Ġdeut lich
wer b
le g
ĠL es
Ġblei bt
h em
f in
p tion
Ġer sch
A N
er nen
utz t
mb H
g s
ter s
ĠN amen
ĠR est
ĠN ov
ess ion
Ġf or
ab el
Ã¼n d
ĠH al
Ġmei sten
os ition
ĠK ap
Ġwoll te
Ġbis her
Ġeinz el
us st
anz en
ĠChr ist
ĠD em
Ġjed em
onder e
ĠOr g
Ġso fort
Ã¶s ung
Ã¤ f
Ġdar f
um mer
ĠW ahl
ĠL i
sp l
d ie
ĠR ad
ĠC l
ĠEnt wicklung
ĠT ele
Ġbe d
Ã¼ck en
ĠPro gramm
gen de
ar r
ĠKo pf
ĠK auf
ĠWer k
la f
Ġdar Ã¼ber
Ġk n
ĠDes ign
ĠZ um
Ġson st
ĠProdu kte
ĠG ed
ĠH e
Ġganz e
ĠFamil ie
Ġc m
p ar
Ġlei der
ass ung
lei chen
icher ung
au ber
b esch
ge f
ĠW ind
sy ch
u ck
Ã¤ch lich
sch ule
p en
wei sen
Ġsch le
Ġj em
Ġf l
iz in
ĠBÃ¼r ger
t ler
war z
ser e
ĠN icht
rau ch
m et
or ien
wend et
Ġmein em
in ge
ĠPl an
Ġh eiÃŁ
ĠG mbH
ĠWoch e
un kte
Ġdeut schen
h aupt
Ġk ennen
ĠD ienst
ik an
ie gel
rit ten
Ġf Ã¼
ĠmÃ¶ch ten
ĠG arten
ĠM aterial
Ã¶ hn
M ail
/ /
st att
ĠG el
Ġh ast
Ġind ividu
Ġblei ben
ĠPro f
la y
E ine
ab l
ĠS am
ĠFre und
ik ation
ĠAb s
ĠLu ft
and lung
ar en
ktion en
ĠEl tern
ĠEnt schei
Ġver d
ha ft
w alt
ĠIhr em
ra x
Ġf unktion
fol gt
eig net
ik en
s on
lie ÃŁen
w Ã¼r
ĠG ut
ech sel
ĠÂ «
ĠB en
ĠK n
it Ã¤ten
Ġre gel
Ġinner halb
ĠK ultur
ĠK at
ti f
ĠH olz
ĠM Ã¤dchen
Ġstell t
Ġh Ã¶
ĠFamil ien
tig ung
Ġre g
Ã¶ff entlich
it er
ĠgrÃ¶ ÃŁ
ur op
: //
ĠZ wei
ik a
au r
ĠN eben
. )
Ġ201 7
c en
ĠB and
ad urch
Ġges am
ĠM Ã¤r
hal te
W ie
Ġer war
z ip
ĠS ing
ĠF inanz
S o
m eister
ĠS uche
schnit t
ge h
Ġz eigen
t ragen
ges amt
m eld
Ġhin aus
si te
Ġo ben
Ġ4 0
v est
Ġb ringen
ĠG ast
is mus
Ã¶ t
ĠP orno
schl ag
ti sche
Ġben Ã¶
ĠT Ã¼r
ĠSch Ã¼ler
Ġ Ã¼b
Ġn utzen
te gr
ig t
ot or
Ġd ein
bes ondere
ot s
Ġje de
ĠEr folg
Ġeigen e
zie hen
ie g
ĠH ilfe
Ġer w
ĠGl Ã¼ck
Ã¶ ÃŁe
Ã¤uf ig
un i
ĠVide o
d orf
u pp
Ġp riv
Ġgegen Ã¼ber
an ach
Ã ľ
un t
ĠW inter
Ġk aum
ĠGeschÃ¤ft s
ei en
Ġs uchen
ĠAn fang
ĠZu kunft
c t
Ġg uten
ar i
z us
Ġf Ã¼nf
it ter
ten s
2 00
Ġa ktiv
Ġb itte
ent r
ĠG Ã¤
Ġh alten
Ġer k
Ġverschieden e
Ġ Ã¶
ĠHÃ¶ he
Ġh al
um m
Ġweiter en
ot he
in s
al y
ĠA k
zeich net
f est
1 5
Ġkon nten
ĠÂ §
z uf
ot wend
ien ten
ĠUn ivers
Ġh elfen
is on
ĠNe w
ĠD ruck
ĠHer z
sch ung
iz ei
ĠF ern
is e
d ienst
ĠB i
setz en
ig ht
Ġn e
Ġab sol
Ġbest imm
ĠAl le
on nen
ĠGes undheit
en zen
ĠN Ã¤
ĠB ad
ges etz
ĠKl ein
k sam
r ichten
ĠNie der
os it
ĠT our
ĠfÃ¼hr en
ahr en
ĠSch utz
be zogen
f el
s ystem
l eitung
ĠJ ul
Ġpro f
ativ en
ge st
Ġi de
was ser
Ġher vor
ĠMill ionen
og le
we gen
tem ber
Ġâ Ĥ¬
A us
ĠP riv
Ġh ei
ie b
ĠK Ã¶n
pf er
du z
Ġin form
ĠSt art
stell ungen
Ġbek om
ĠAus wahl
erson en
ĠJ an
ĠL icht
ĠP ark
ft ware
Ġbe vor
un sch
ĠKom mun
ĠBo den
Ġg Ã¼nst
Ġw eg
ĠH inter
Ġte chn
rad ition
Ġer f
ĠEr w
sen t
au ch
u tet
Ġ ar
Ġdes sen
ĠEin zel
ĠMa ÃŁ
g riff
ĠL auf
ĠH aut
st imm
iel l
Ġver sch
l ang
ter t
h ab
ĠGes ellschaft
Ġn orm
eh m
or gt
Ġ2 1
ĠH eim
ĠR es
s a
ent lichen
ĠB ar
f rage
ĠSt Ã¼ck
eh ler
d el
rax is
Ġso zial
Ã¶ sen
k ont
mÃ¤ÃŁ ig
Ġso wohl
st elle
ĠS ol
Ġ %
au sch
ĠN ord
as en
ist or
Ġs omit
ul t
os sen
ĠWei se
um s
ei den
d s
Ġ arbeiten
ĠF Ã¼hr
ber t
ĠS h
ĠVer trag
r ich
k r
Ġlie gen
ĠT em
it ten
Ġdar an
Un d
Ġ201 6
ĠM ag
ĠPol it
Ġmehr ere
- ,
op h
ĠfÃ¼hr t
a un
Ġvor h
ĠTag es
at is
. ,
p s
Ġander s
br ingen
Ġd eine
Ġm ag
w ehr
Ġver wendet
Ġum f
ĠM utter
ĠB us
A r
Ġbei spiel
ĠE le
r uf
j a
it ze
kl us
y l
i ver
ĠG est
wir tschaft
org anis
Ġg lau
iel le
ĠIn nen
rÃ¤ gt
ĠReg ion
Ġl in
ĠAn d
Ġw elt
Ġ2 2
at ung
Ã¶ nen
och en
Ġer hÃ¤lt
ord nung
fÃ¼hr er
h ein
ĠWeb site
stra ÃŁe
Ġl Ã¤nger
ĠK in
ĠMÃ¤n ner
Ġz eit
Ġhand elt
rit te
ow n
Ġmus ste
V or
n ach
Ġp ass
ĠgrÃ¶ ÃŁer
mar kt
t h
richt ung
l auf
ungs k
gesch lossen
ĠK raft
Ġent scheiden
ak ter
og raf
Ġp olit
Ġdes halb
an de
u len
ĠE is
ĠMed ien
en ten
ĠO kt
Ġs ucht
fahr t
ĠSpiel er
ĠT o
ĠJ o
ack en
ĠThem en
ei er
w issen
u per
W as
A uch
ĠLie fer
Ġer fahren
ubl ik
ĠB ro
u e
Ġsol che
Ġst and
ĠCh ar
in ne
Ġr ein
ĠL eute
ĠI st
sch ul
Ġer forder
Ġex t
Ġt ats
Ġge geben
Ġber eit
h under
ĠheiÃŁ t
ĠB on
s ie
Ġgef unden
Ġjed es
ĠF euer
Al s
Ġm eist
eh l
ĠLie be
b ahn
ick t
ĠJ uni
rit er
h ei
ĠA uss
sp iele
Ġw es
iel len
Ã¤l lt
f re
ig in
Ġun ver
ĠIn f
ĠP ap
k reis
8 0
Ġal ten
ĠT ier
f allen
rei cht
en k
gel n
f Ã¤h
ig keiten
Ġd am
ĠSp aÃŁ
l esen
im men
Ã¼n dig
ĠD amit
ĠL age
ĠT agen
ĠhÃ¶ her
Ġh tt
mit t
lie gen
p ort
w ill
geb ung
R e
bie ter
Ġzwei ten
B er
lieÃŁ lich
ÃŁer dem
ĠZ immer
Ġ Ã¤hn
te chn
f ft
al tet
flÃ¤ che
forder ungen
ĠM il
r acht
W er
k a
U m
u sch
te te
ĠMa i
ĠVer gleich
ĠSe p
ĠSo zial
Ġ +
red it
ĠUnter stÃ¼t
Ġfreu en
ĠB ay
ĠTele fon
ie ÃŁen
c l
an ger
Ġgew esen
Ġm Ã¶
Ġan d
ra gt
ĠSte uer
om ent
Ã¶ st
ĠEr k
z eiten
n tag
Ġganz en
Ġer reichen
ier ungs
ĠSch m
ĠW ahr
pe ten
ĠS m
ne te
ĠS itz
Ġ6 0
Ġ '
1 4
Ġeben so
ĠH ause
w Ã¤r
ĠBe weg
ge t
st at
Ã¼nst ler
Ġp rakti
ir t
il den
ĠdÃ¼r fen
ĠMen sch
herap ie
ĠN ur
z ig
sp h
ĠÃ¼ber haupt
ĠFot o
Ġbeispiel sweise
ig it
ĠT ur
wie sen
Ġver gangen
1 6
ĠW ein
rei bt
o o
ĠIn d
ĠS Ã¼d
is se
iv en
ĠGe bur
ĠS en
g ruppe
D a
Ġn otwend
ĠPol izei
ĠEr n
ĠWei hn
ĠP ost
te st
la st
ĠGen er
ĠK rie
ĠV oll
Ã¤n ge
Ġwel ches
teil t
ab il
Ã¼hr en
o u
ĠM ont
Ġl esen
as che
Ã¤t zen
Ġauf grund
ĠAu g
ĠUS A
sp ann
Ġ201 5
ĠBeh andlung
Ġjem and
ĠOkt ober
Ġf inde
sch rift
ĠSep tember
ĠGo ogle
ĠM ich
ĠR olle
h ilfe
ĠServ ice
ĠDie ser
al le
Ġvorh anden
u ster
asch inen
ĠÃĸ sterreich
r oll
ver stÃ¤nd
ĠD ach
ĠH eil
Ġver z
an geb
schlieÃŁ lich
m lich
ĠprÃ¤ sen
Ġbet roffen
os s
ĠSt re
Ġent st
Ġun be
Ġh Ã¶ch
Ġk ur
ĠFot os
ĠH el
p on
u ell
ĠT ra
ĠD ort
ĠAr ch
ĠErfahr ung
ĠE ben
Ġk m
1 7
ĠW ider
ĠBl ut
Ġins besondere
Ġmit tel
sp e
pl an
s b
ĠK ur
E S
ĠVer kehr
teil ung
Ġge d
ĠProblem e
et ail
Ġgew orden
Ġ2 3
ĠStel le
Ġbef indet
ĠfrÃ¼ her
tig er
re ten
ĠR ichtung
sicht lich
Ġ rau
ĠUr laub
ĠA c
ĠW ien
Ġander em
inde stens
ĠOrg anis
ĠwÃ¼r den
f urt
o c
per atur
min ister
w agen
hr e
eh e
Ġjeweil s
Ġerfolg reich
ĠE ro
ĠSch ule
ð Ł
itu ation
Ġaut omat
inn t
ĠGes etz
klÃ¤r ung
ft ung
zieh ung
ĠIn s
ĠS il
ĠCom p
f ekt
2 4
rei b
Ġs etzen
ab e
Ġein igen
s ei
ĠG ruppe
ĠBl og
ĠD is
Ġvor her
al ien
s or
Ġh Ã¤ufig
ĠMÃ¼n chen
ĠNov ember
ĠNutz ung
ĠBeit rag
h ang
ĠPf lege
hÃ¤lt nis
' s
lin gen
zeu gen
Ġ *
je kte
weg s
ĠJahr hunder
6 0
ĠGes prÃ¤
d i
r Ã¼ck
ĠMÃ¶glich keiten
Ã¤u de
Ġer hÃ¶
Ã¤uf er
l assen
ĠR om
ken nen
ĠD on
ĠFrÃ¼ h
ĠT or
ĠW el
ĠP ort
ĠEurop a
ĠGes amt
ab hÃ¤ng
Ġent fern
Ġges ehen
Ã¤u ft
am ent
ĠDeut schen
ĠZ ur
zei gt
ĠErgeb nis
ĠG ar
Ġp osit
Ġhoch wer
f rist
or ie
ĠBer g
Ġmo dern
ĠW ort
s sen
Ġp ersonen
ĠC ar
wert ung
g liche
b ank
ĠF ac
Ġw Ã¼n
Ġer folgt
ĠEs sen
Ġgr und
Ġd ank
ion s
no v
Ġall ein
Ġentwick elt
sch au
ate g
ĠEr st
lei ter
Ġbede utet
ĠW ett
meld ung
ĠZ we
iz iert
Ġintern ation
Ġan ges
ĠMitglie der
ĠGÃ¤ ste
2 5
ĠK olle
Ġaktu ellen
ĠT ipp
ĠAl t
u hr
Die se
Ã¤nder t
bar keit
ĠT re
ver t
ĠSch laf
o x
ĠS ym
rei ten
ĠH aar
ĠÃĸ ff
c a
ĠS eit
ĠF e
1 3
Ġbe ste
ktiv e
ĠW ald
ĠEm pf
Ġl eich
ĠT itel
dr Ã¼ck
z te
ĠS or
Ġsel ber
el te
201 8
ĠA pr
k osten
de ck
ie w
Ġzun Ã¤chst
ĠEle kt
m od
ĠT op
k ur
lo sen
Ġbr ingt
er r
A b
ĠR at
ĠJul i
Ġbest ehen
rÃ¼f ung
mittel n
ĠSon nen
ch mal
ĠMÃ¤r z
ĠCas ino
Ġt reffen
ei ger
ĠAuft rag
Ġ201 4
ĠNÃ¤ he
Ġ ur
Ġr el
Ġwar um
Ġ ak
m and
m iss
v olle
ob ei
Ġk Ã¼
Ġmit tler
ĠSch Ã¶n
Ġf and
m ehr
ĠTex t
Ġs uper
s uch
Ġm m
ĠSp iele
k ungen
Ġpersonen bezogen
ĠB ank
Ġm ed
ĠP o
eit ag
em in
ĠSon ntag
ĠGemein de
m ack
Ã¤m lich
Ġdeut sche
ĠS an
pro du
s ichtig
ĠI I
m ed
Ġl os
ach tet
ww w
ĠAug ust
st o
Ġb em
ĠHam burg
zent r
wei le
pp en
s h
ĠO l
aur ant
Ġbrau cht
f ter
Ġz w
Ġkl ass
ĠB ur
Ġho hen
eb ook
Ġan zu
p reis
Ġver besser
ĠStra ÃŁe
g ien
ĠF Ã¤l
ĠW and
Ġgen ug
ĠVer antwort
rei sen
Ġm indestens
ĠDaten schutz
Ġv Ã¶l
ĠK reis
ĠB ru
ĠKin dern
dr esse
ĠAl ler
se x
fol ge
Ġet c
Ġgeh Ã¶ren
Ã¤l ter
sam m
ĠschÃ¶n e
Ã¼t zen
ri ften
ĠF Ã¶rder
halt ung
ĠK il
ĠAu ÃŁerdem
A R
ĠP ass
Ã¼r f
ver ein
im a
be d
ĠB aum
Ġal t
ĠIde en
ik o
ist r
ĠS c
um ent
ĠE ing
ack t
ĠM otor
Ġempf ehlen
b ol
ohn t
ĠP fl
ĠEx per
ĠSp ez
eich er
Ġgel ten
ĠDies es
ĠFl Ã¼
rei bung
I T
s es
z wischen
Ġal te
w o
ĠDa zu
p rÃ¼
ĠB ahn
G B
il len
rÃ¤ ger
ich ter
y r
Ġl ernen
ĠR is
gel d
d aten
ĠC on
ĠFar ben
beh Ã¶r
Ġins gesamt
ĠD isk
Ġho he
Ġf ort
ĠUnterstÃ¼t zung
ro p
Ġeinzel nen
Ġtats Ã¤chlich
ĠR ein
it i
ĠD ez
ĠWie der
u ar
Ġneu es
Ġel ekt
ĠMod ell
m obil
reu de
Ã¤n dig
Ġf er
v ol
Ġd adurch
ĠUm welt
g ern
Ġvor bei
ĠB al
Ġges agt
Ġend lich
Ġn Ã¤mlich
ĠK lei
w esen
a ir
ĠSo ftware
schl Ã¤
Ġzu dem
Ġer fÃ¼l
br acht
pro chen
l ass
ĠSt ein
ĠB is
g te
er in
l ing
M an
Ġbei de
Ġopti mal
Ġge eignet
du st
ĠVer arbeitung
ar ch
p el
ĠD inge
ĠInter esse
__ __
Ġn immt
ungs ver
ne ten
ĠK ommen
B e
u be
ĠGr Ã¶ÃŁe
Ġver ein
hl t
ĠG leich
Ġsch eint
ĠF ort
u ft
Ġsel ten
Ġbel ieb
v e
Ġb ist
ho w
Ġ8 0
Ġ us
ĠR a
itz t
Ġverw enden
Ġl aufen
2 2
ig ar
Ġ19 8
ĠW Ã¼r
schlieÃŁ end
ĠJ etzt
ĠFar be
ĠW etter
Ġlie be
ĠT od
Ã¼s se
Ġ2 7
it t
ĠEntschei dung
all o
Ġj unge
ĠErfahr ungen
Ġvergangen en
ĠP rin
ĠAl ter
a ktion
4 0
ri fft
asch ine
ĠK or
rei ber
op er
Ġbekom mt
ĠPat ienten
ĠAn ge
ĠK Ã¶l
A S
ĠO der
ĠApr il
Ġst Ã¤r
a at
ĠStra ÃŁen
Ġsp ann
Ã¼ ch
A T
g n
Ġw ww
ges sen
Ã¤ ischen
Ġent halten
Ġges etz
ĠSt rom
ar ian
ĠSch ritt
ĠSam stag
ĠSm art
ĠS icht
ĠLeist ung
Ġbe ein
ĠGew inn
ĠRe gen
p or
I S
Ġ2 8
Ã¼ss el
an e
ser v
s ein
E D
au st
ĠK urz
Ġentfern t
es ser
ĠVerb indung
e cht
o der
Ã¶l ker
ĠA ktiv
ĠW o
opp el
Ġverb unden
ĠGebur t
Ã¼ gen
ĠTeil nehmer
se e
ri ck
Ġver Ã¶ffentlich
wor ten
ĠMitglie d
Ġ201 3
ĠF en
rie d
geb iet
Ġf al
pf lich
Ġe urop
ak e
ĠD ien
ĠP raxis
ĠBe deut
Ġf ahren
ĠHer aus
Ġnah e
ĠSchwei z
Ġso gen
ĠStand ard
Ã¤hr t
ĠGl as
ĠFer ien
b y
il le
ĠL og
em ent
l s
ĠS P
Ġt o
Ġer reicht
ĠBas is
Ġin dem
ĠSu per
Ġt oll
ĠerklÃ¤r t
ek ten
ĠSa ison
ĠWohn ung
ĠIde e
Ġ2 6
z ahlen
Ġsp iel
Ġb ald
ĠB ran
st ru
Ġkompl ett
Ã¶s ungen
Ġdam als
ra te
beding t
ĠKir che
wei ter
ĠPriv at
s eh
st re
Ġd anach
uch s
b Ã¼r
ĠAl so
ur f
ĠEn g
ĠD amen
Ġh Ã¤lt
ge fÃ¼hrt
h ausen
ĠProdu ktion
ĠM er
is iert
Ġs etzt
E L
r olle
ĠvÃ¶l lig
Ġd rau
ĠunterstÃ¼t zen
Ġm en
n ern
ĠW unsch
reu z
am mer
ĠKÃ¼ che
an lage
O N
ĠK re
fl uss
Ġbest immt
ĠMen ge
ĠBes onder
Ġf inanz
de cken
zeu ge
ist ischen
own lo
ro h
ei d
Z u
rÃ¤ fte
ĠÃĦ n
om aten
ĠD etail
Ġt ragen
s ver
de te
ĠO st
ĠT isch
leist ungen
Ġn Ã¤
ĠSt u
ĠG anz
schein lich
sp ar
ĠSta ats
Ì Ī
st ieg
r y
â Ĥ¬
n ess
ĠVide os
ĠP eter
sch uhe
bur ger
si dent
Ġs ah
Ġs e
ĠFol ge
ĠUnivers itÃ¤t
a el
Ġl aut
alt ungen
ĠBesuch er
am a
Ġgleich zeitig
ĠPolit ik
ĠStud ien
ĠM Ã¶
Ġaus zu
ĠAus bildung
rÃ¤ um
ĠKrank en
ti schen
k lei
Ġwer t
f ar
ĠEn d
ĠW est
ĠAuf gaben
Ġer mÃ¶glich
ĠAut or
ĠN r
Ġfol genden
Ġst ar
Ġs echs
Ġzu l
h el
fol gen
ĠIn halte
ĠAu ÃŁen
Ġsp ielt
al k
and elt
sch n
ĠVor aus
ĠunterstÃ¼t zt
hal ts
Ġun ten
ier ter
Ġsein es
Ġkein er
Ġ Ã¤u
Ġjeweil igen
re cher
ĠSti l
Ġh il
Ġkn app
zent rum
og ra
z on
be w
ĠMe er
ĠBest ell
ĠR ot
Ġs orgen
Ġzie mlich
Ġm on
ĠFir men
Ġge stellt
H ier
Ġj en
Ġw ider
lo ck
Ġein zu
den ten
mÃ¶glich keiten
Ġf rauen
ĠGe fÃ¼hl
Ġangeb oten
ĠJan uar
Ġtrotz dem
ĠGed anken
ĠB ab
et ing
Ġkom p
Ġeh em
G e
ĠBedeut ung
ĠEnt wick
s itzen
p ark
Ġ or
ĠÃĦ r
Ġz ehn
ul l
Ġ201 2
lie b
ĠSch wer
ĠG ruppen
ar s
w ind
Ġm in
ĠVer kauf
ĠRest aurant
dust rie
b and
Ġweiter hin
ĠK an
Ġsch lieÃŁlich
ĠV ater
re h
Ġw obei
ĠN ot
n a
ĠWissen schaft
ĠPh il
Ã¼ ÃŁ
zei chen
ĠM ass
ĠSti m
lei tet
Ġ19 7
ĠTer r
af ft
ĠH ig
ĠKÃ¶n ig
Ġg ern
Ġbesch Ã¤f
st all
i as
Ġr ichtige
eu cht
ĠFr eitag
ĠC he
jÃ¤hr ige
ĠzusÃ¤tz lich
v is
Ġ ðŁ
ĠFir ma
ma ÃŁ
ĠA G
f ert
Ġwel cher
lt ag
a ff
ĠStel len
Ġm ax
Ã¤ den
al if
ĠSch au
ĠFac ebook
l ad
beding ungen
ĠDez ember
stÃ¤n de
us e
Ġ =
ĠE t
Ġfre und
- )
ĠL Ã¶sung
lei sch
at ik
z eigen
ĠBeg inn
ĠS l
4 5
z ul
Ġh eu
ho st
Ġzum indest
ĠVer fahren
ĠUm gebung
Ã¶ pf
ĠD ok
ĠT ab
Ġen g
rau t
Ġbe gr
ĠF ehler
ĠL iter
rei te
Ġder zeit
ĠT ro
Ġs inn
w ig
Ġletz te
ĠIn vest
ĠMein ung
ok rat
Ġ2 9
ĠG old
ĠP unkt
Ġper fekt
k unden
ĠS w
ĠMon ate
ĠK amer
Ġsp r
ĠUnternehmen s
Ġe cht
ff er
Ġer kennen
ĠUn sere
ĠMit te
ĠT Ã¤
in k
w och
ach st
qu em
ĠÃ¼ber n
ĠB ett
ĠSta at
ĠG et
ĠN un
imm el
In nen
Ġin tegr
Ġgen ommen
a i
ĠS atz
ĠR ed
au l
g arten
Ġjeder zeit
ĠKommen t
sp rÃ¼
ĠS inn
ĠAl ltag
ĠEr d
zeu gt
ĠS ache
Ġo ber
anz Ã¶s
den ken
richt ungen
Ġmo der
ĠJ ob
alis ierung
ĠAn der
ĠkÃ¶n nten
v iew
Ã¼t zt
Ġsei en
ĠS ituation
ĠAngeb ote
ĠR el
ĠF eb
Ġher r
an en
ĠermÃ¶glich t
ĠC D
Ġper fe
ti l
x t
Ġd r
a kti
U S
w altung
aly se
ĠD ich
Ġh ol
Ġ ?
Ġber ech
sch riften
h ann
ĠHer ren
leist ung
off e
ĠWeihn acht
s se
ie ten
O S
ul ar
Ġ organis
ĠI s
ĠL a
ele gen
hol z
lie ben
Ġfunktion iert
Ġsch affen
ei sen
ownlo ad
n ungs
u x
Ġver g
Ġgesch rieben
ĠD om
Ã¤us er
ĠRei he
ĠGe f
itz er
Ġst ets
Ġander es
Ġrecht s
Ġgro ÃŁer
it ut
as h
Ġ9 0
mer z
h ard
ap an
ĠI t
k ir
ĠW Ã¤hrend
Ã¤n gt
P l
Ġer le
Ġverst ehen
ik e
O R
Ġ ;
ĠB all
ĠS and
Ġge pl
jÃ¤hr igen
ĠKa ffe
ier ungen
anz eigen
la ck
ĠP reise
ig ur
Ġsch Ã¶nen
neh m
uch te
ĠDeut sche
Ġ ehr
Ġzahl reiche
ĠR und
ĠSt Ã¤d
Ġzwei te
ger icht
ĠMon at
o ut
stimm ung
Ġbeg innt
Ġh istor
Ġg leichen
spr icht
ra un
9 9
wer te
verb and
stoff e
gesch ichte
d ass
am in
ĠFahr zeug
ĠGeb Ã¤ude
u tion
ĠZusammen arbeit
ĠP al
ennt nis
ho ben
st euer
w en
ĠAn bieter
Ġ7 0
ĠA mt
ĠNutz er
ch ter
es e
tig es
ĠK ampf
leb nis
ĠBei m
geb aut
g ut
ist ische
lei ten
ĠS inne
enn ung
Ġun bedingt
Ġlang sam
ĠFuÃŁ ball
ĠPerson al
Ġer h
la pp
ĠDeut sch
Ġt ot
ĠTechn ik
Ġr uh
Ã¼t z
tel l
d o
am es
ĠverfÃ¼ g
ĠÃ¼b rigen
ĠP orn
d at
pr ess
om as
ĠAn gaben
om eter
A ber
ĠVol ks
G r
ĠV iele
ĠSpr ache
lin ge
ĠR eich
ĠMet ho
ĠL ust
uch ten
Ġehem al
mer zen
ĠVers and
f rieden
ĠAn gst
sp ir
ĠFen ster
Ġi s
ei che
ĠMon aten
Ġab zu
schaft s
z in
Ġschw ier
ge geben
zahl ung
mer ksam
ĠBer atung
ei dig
ĠKon z
ĠBr em
ĠD rei
Ġ201 1
Ġp h
in t
Ġhil ft
ĠR hein
Ġext rem
it h
etz ung
be werb
ĠF reude
ieren den
Ġw ichtige
Ġprof ession
ĠB itte
Ġbe ant
Ã ĸ
ĠZu stand
ĠT V
ow s
Ġgesam ten
och ter
ĠComp uter
mitt lung
it en
Ġdurch aus
s eiten
ru ar
ges ehen
. -
ĠM eter
Ã¤hr ung
k arte
ĠK ateg
ĠM art
st ruktur
ann e
der ung
sÃ¤tz lich
Ġaktu ell
gew Ã¶hn
Ġent stehen
Ġ >
ĠW ander
ĠBeg riff
fl ug
-- --
d urch
arb eite
ĠHer steller
aus o
ĠK Ã¼nstler
Ġs orgt
Ġr ichtigen
Ġsp rechen
an cen
eg al
âĢ ĵ
Ġan gen
ĠA p
Ã¤ss ig
Ġt ran
Ġ201 0
ĠP osition
z ut
A L
ĠB ern
gel t
ĠE uch
ĠAn spruch
ĠBÃ¼ cher
Ġan sch
ĠOr d
Ġj ungen
Ġst e
ĠP aar
m ut
Ġihr es
Ġbest Ã¤
ĠN ational
Ġ y
a ktiv
ĠZu dem
K l
âĢ¦ ]
ir m
ĠD o
Ġwelt weit
Ġumf assen
ĠFre unde
chen k
im e
los s
Ġausge w
or gung
ĠVers icher
ĠAb schluss
k raft
bau en
s uche
Ãľ ber
rie f
Ġt ro
n ungen
ĠL o
ĠW ill
ĠhÃ¤t ten
ĠIn dustrie
) :
Ġl au
Ġhtt p
ĠP unkte
Ġl Ã¤uft
ze p
Ġunser es
Ġl o
ĠSal z
ĠpersÃ¶n lichen
ĠM oment
ĠInter essen
Ġneu er
zu stellen
ĠIm mobil
Ġle dig
ĠK redit
Ġgr Ã¼n
ern t
ĠS oll
gl isch
ĠkÃ¶n nt
Ġdar in
ĠErw achsen
ach er
Ġbrau chen
Ġman chmal
Ġt olle
ar a
Ġerforder lich
Ġsol chen
Ġgen ieÃŁen
ĠLeist ungen
ge g
ĠE ind
Ġzu vor
d a
ĠRe ch
Ġfol gen
v an
ĠL Ã¶
sch Ã¶n
ĠSch warz
ĠFeb ruar
Ġf Ã¤llt
eich ert
ĠGesprÃ¤ ch
Ġge kommen
ul ti
ĠM eister
e um
ĠgrÃ¶ÃŁ ten
un ternehmen
Ġzu frieden
wohn er
ĠAl tern
ĠPro zess
Ġp asst
Ġd igit
ĠAuf gabe
mÃ¶ glichen
Ġgen utzt
Ġer he
v iel
Ġz entr
ĠmÃ¶glich st
Ġer l
Ġledig lich
ĠT on
sch uss
Ġzie hen
f ragen
we der
z ir
ri ffen
Ã¤ ger
tion en
ĠKÃ¶l n
Ġde fin
Ġlie ber
ieren de
Ġm ass
Ġbesonder e
ĠT yp
ĠKosten los
Ġge bracht
ĠStr and
ĠP sych
f inden
ĠF arb
Ġm uÃŁ
Ġn Ã¶
ĠSo hn
olit ik
ĠGer Ã¤t
ĠCo ok
Ġaus schlieÃŁlich
ĠnÃ¤ch ste
r es
Ġz er
ĠVer k
ĠÃ¤u ÃŁer
ĠSpez ial
ĠWeb seite
utz er
stell ten
Ġn atÃ¼r
Ġunter wegs
Ġander er
au b
ĠÂ ·
v Ã¶lker
Ġschle cht
ĠArb eiten
ĠS onder
ĠBeruf s
U N
Ġgew innen
Ġteil weise
Ġer g
ĠH ome
ĠS ach
ĠK arten
ĠAller dings
host w
ĠZeit punkt
Ġent gegen
Ġgesam te
zÃ¼ glich
ĠH und
all s
lei che
f le
ĠVer wendung
Ã¶ff net
ĠTer min
s etzt
2 3
Ġaktu elle
ĠauÃŁer dem
ĠW olf
ĠGes icht
Ġeinz igar
Ġvers ucht
v ollen
Ġgar an
au ern
g ruppen
Ġ 01
ha fen
Ã¶ se
ĠAn zahl
ĠZ wischen
Ġdenn och
Ġ Ã¤lter
Ġunterschied lichen
y er
r aten
igin al
ĠI r
ĠGott es
ger ech
Ã¤n den
fÃ¼hr en
ad em
vers icherung
ĠK urs
uf e
Ġdar um
statt ung
Ġmittler weile
Ġob wohl
p ft
h y
rÃ¤ f
ik al
ĠF in
ĠL ang
ĠMich ael
ĠAr zt
k Ã¼
Ġ3 5
ĠTipp s
ĠTem peratur
S eit
b ieren
tig ten
ĠB ack
de ckt
w echsel
geh end
ist ik
etz te
ĠAn wendung
Ġverl oren
z un
Ġs ing
ĠV ier
am s
ie fer
ent rum
Ġm achte
Ġbis schen
sch rank
ĠG ra
ab end
9 0
ent liche
ir e
ĠtÃ¤ glich
D u
fre und
ĠBe k
ĠE d
ĠfrÃ¼ h
Ġd ah
att form
ver kehr
ĠS amm
ĠErgeb nisse
ĠverfÃ¼ gt
ĠVers ion
Ġp orno
ĠReg ierung
ĠMa x
s wert
ie ÃŁ
o ver
ĠAn ti
ĠO ption
Ġbet r
Ġ3 1
br uch
ĠS hop
ĠVeranst altung
Ġr es
rau cht
sp ielen
Ġaus reichen
ir n
ĠSt unde
ĠM orgen
ĠÃ¶ff entlichen
Ġvers uchen
Ġwir tschaft
Ġd rin
ĠLin k
an lagen
d lich
Ġd at
D F
w ser
âĢ ĺ
ĠDes halb
for men
ĠAu st
c ial
ĠSch aden
Ġus w
ĠZusammen hang
Ġregel mÃ¤ÃŁig
Ġein ger
ĠA ktion
Ġhin zu
Ġnach dem
ĠGesch mack
Ġer o
spr ung
samm lung
rau cher
Ġt radition
ig ten
ha fte
ĠFrank furt
fer enz
ĠV is
Ã¤um e
Ġer lau
Ġ reich
Ġw ohn
re ut
spiel er
Ġentsprechen d
ĠZ ahn
ĠB ade
Ġgew Ã¤hr
Ġein gesetzt
ĠKom bin
Ġver antwort
flÃ¤ chen
j en
p artner
ĠP fer
ĠBe zug
ĠHinter grund
ĠLeist ungs
ĠnÃ¤ her
pro gramm
u k
Ġk or
at ter
Ġbe quem
i kt
der t
Ã¤ mt
eh mer
ĠT raum
ĠS achen
Ġ Ã¼
Ã¤ dig
ĠB rÃ¼
ĠÃ¼ber r
Ġsch war
ĠG raf
Ġkl einer
ick e
Ġrau s
Ġun er
Ġpersonenbezogen en
ĠM acht
ĠAnt wort
sph Ã¤re
Ġentwick eln
ĠSch ne
setz ungen
ĠR uss
Ġent hÃ¤lt
ĠS uch
Ġautomat isch
ĠZ eiten
g art
verstÃ¤nd lich
ĠHer bst
Ã¤l te
ĠP ublik
zeich nung
ĠBay ern
ĠL ager
w ald
ĠBe f
Ġd isk
ĠpersÃ¶n lich
Ġ ad
ĠP C
ĠI T
end es
Ġerwar tet
ĠHer zen
de ten
Ġsch warz
Ġer leben
Ġbeg ann
el ten
al te
K om
ĠIhr es
ĠSch rift
ĠSmart ph
ĠN ame
Un ter
ĠF eld
p a
ĠCh ance
ĠMaÃŁ nahmen
ĠHal b
Ġdeut sch
un kten
mittel t
Ġso weit
pf el
D urch
ĠJo hann
ĠKl asse
ĠSch nit
Ġden ke
mÃ¶ gen
Ġh aus
r et
ĠAl b
Ġk amen
ĠWar en
is ierung
0 9
ie te
Ġh e
ĠÃľ b
techn ik
spr Ã¼n
our n
Ġo ffiz
ĠSt at
Ġabsol ut
Ġall gem
Ġz eig
ĠB il
Ã¤ st
ĠK er
Ġh alt
ĠAn forderungen
gang s
Ġgen annt
ĠIn halt
ĠD ek
Ġm orgen
Ġgl Ã¼ck
ĠI S
ĠUnter such
ot o
a dern
ĠWochen ende
ma zon
spr ache
Ġwen ige
Ġern eut
P h
ĠK no
ĠV o
Ġer ster
Ġbef inden
othe k
st Ã¤t
tier te
Ġbestimm ten
be g
ĠSe e
klus ive
ĠKommun ikation
ber eitung
Ġb ein
wer ke
ur m
ĠO ut
k rie
ges ellschaft
Ġk rit
Ã¼ h
Ġw Ã¤hlen
ĠBed Ã¼rf
ĠR uhe
ĠHeim at
ĠW ohl
x x
an a
im al
ĠM Ã¼l
ĠD oppel
it Ã¤r
Ġnotwend ig
Ġ[ âĢ¦]
Ġwen igen
am me
Ġge legen
Ġt ief
Ġver gessen
r t
ĠS zen
Ġ5 00
Ġgen auso
ĠMo tiv
ste chn
ĠM eine
ĠK u
ĠAl les
Ġda gegen
h aben
K on
lo w
? ?
f a
Ġ att
ĠWirtschaft s
ĠH unde
Ã¤n g
st ud
ogra ph
ĠSt ruktur
ĠVer halten
ĠEU R
ĠUn ser
wer ten
Ġ egal
ĠH y
2 7
pf licht
ĠâĢ ¢
ĠG eist
Ġlin ks
Â ®
ĠMann schaft
m ark
ĠFÃ¤l len
ĠM ess
Ġ200 9
Ġin tens
ĠPfl anzen
Ġp ar
Ġverl assen
Ġfer tig
der ungen
Ġwichtig sten
ĠBest and
d as
Ġso dass
ĠDisk uss
Ġgen er
e ck
Ġgew Ã¼n
on g
ĠBed ing
2 6
v el
Ġt yp
ĠCl ub
ĠH ann
Ġbesonder en
as er
Ġber uf
0 7
un kel
Ã¤n gen
ĠH ol
Ġj Ã¤hr
Ġf orm
Ġp reis
ĠD ein
ĠN atÃ¼rlich
i at
Ġun abhÃ¤ng
ĠT ochter
in st
Ġwissen schaft
S G
Ġwir kt
mit tag
ĠF el
f o
b Ã¼
Ġeinz ige
0 5
Â °
utt gart
ĠBr and
ĠH om
ĠVer Ã¤nder
ĠKir chen
Ġauf zu
Ã¤m pf
ak et
Ġden ken
ym p
. :
ĠIn sel
ĠWir kung
Ġ acht
Ġb ild
ĠMont ag
p ack
ĠFrei zeit
heit s
ĠK rit
Ġwar ten
ĠAn schluss
* *
ĠD ass
ĠA bt
ĠW Ã¤r
spr ach
duz iert
Ġvor aus
ank e
ide o
Ġg uter
ĠRÃ¼ck en
ĠbenÃ¶ tigt
ite ktur
2 1
n ummer
Ġd einen
ĠU p
Ġ Ã¤ndern
ĠMa il
ĠA ss
ik ro
0 6
im in
3 3
sp rech
ĠW Ã¼n
E n
ĠSicherheit s
ĠSon ne
c m
Ã¼ ÃŁe
ampf adern
u ff
s Ã¤tze
ĠMa in
hostw riter
al es
ĠH eute
ĠA mazon
Ġmehr eren
Ġl angen
Ġgef Ã¤hr
ĠM obil
ĠVor stand
Ġdurch gefÃ¼hrt
Ġlie ÃŁ
Ġgest alten
ob ile
p o
ĠD auer
ler nen
ber ger
ĠChar akter
Ġher um
ĠM iss
Ġle gen
on en
bet rieb
Ġ )
ĠV arian
i ar
ĠSchl uss
Ġirgend wie
end et
ĠverÃ¶ffentlich t
om en
Ġfol gende
ĠS ucht
Ġwe der
Ã¼ck e
Ġbeg eister
Ġgem Ã¤ÃŁ
ĠTrain ing
ost et
bie ten
ei ert
ĠS tern
Ġpass iert
Ã¤l fte
zun ehmen
o f
Ġm el
h ause
al z
2 8
ĠVer d
ĠTur n
ĠM el
ĠIt alien
ner stag
Ġin zwischen
Ã¶t zlich
ri d
ĠW ild
Ġerwar ten
ĠNach bar
Ġl ag
ĠWe ge
wend ungen
l ern
Ġf ehlen
wÃ¼r dig
Ġh Ã¶ren
wir kungen
ĠH or
an walt
z Ã¤hl
ĠAnd re
D R
st Ã¤r
ĠMar ken
stÃ¤n den
ĠEr satz
ĠE vent
ennt nisse
grÃ¼n det
Ġirgend w
E nt
0 3
ĠWeiter e
ĠT at
I E
ĠK e
ĠD aher
ĠA bl
ĠFlÃ¼ cht
ĠAn trag
ĠTh omas
wissen schaft
Ġer reich
ĠM at
ĠMed izin
f assung
ĠH off
ĠO pti
Ġwahr scheinlich
ĠD an
ĠH ar
f angen
ach el
Ġgef allen
Ġrel ativ
tig te
Ã¼r en
ic ro
Ġer mÃ¶glichen
Ġ200 8
0 8
ten t
as ino
f unktion
b s
bar er
ĠG elegen
f alt
ĠSp ielen
Ġum fang
or y
Ġver h
ĠZ eichen
ĠFor um
mit glie
r ein
ĠLi ste
isch em
ĠJ ung
Ġbe ob
eh lt
Ġzul etzt
Ġs icht
ĠWind ows
Ġd iver
bau m
ĠGesch ichten
Ġ19 6
Ġf allen
ĠGer Ã¤te
ĠAus land
lin ie
Ġ4 5
Ġlie ben
ĠSch war
Z um
v ier
is h
ei der
Ġst Ã¤ndig
Ġkosten lose
m aterial
t woch
ĠSt off
ĠÃĸ l
d ungen
ĠT ri
ĠSchwei zer
ĠV en
Ġun g
bl i
Ġver pflich
w echs
r ig
in os
ĠL ive
ĠD eine
Un sere
ĠAn meldung
ĠT reffen
Ġsie ben
k arten
Ġinform ieren
ĠBeweg ung
is er
ium s
ab et
ĠBetrieb s
ĠGeburt stag
Ġp f
Ġbet eil
te uer
Ġst ud
reu ung
ĠUr s
ĠK reuz
ĠâĢ Ķ
Ġbestimm te
Ġf ach
rÃ¤um e
ĠSti mm
2 9
Ġd ur
0 4
m on
Ġgut es
w Ã¤
lich keiten
T E
Ġj Ã¼n
G er
Ġher unter
ven tion
ĠD orf
ĠK lin
ĠEin t
ĠHand el
ĠF rie
hab er
Ġver f
ot h
lig a
in es
Ġsp richt
S V
Ġentsprechen den
ĠSchnit t
Ġgesch lossen
ĠVerkehr s
ĠG lau
ktiv en
m ie
ĠBesch wer
ĠA ir
h Ã¶r
in ess
ĠT eile
u elle
p assen
utz ung
Ġbe achten
ĠViel leicht
ĠL Ã¤ndern
b us
H allo
Ġer wei
ĠBe vÃ¶lker
Ġzahl reichen
ĠÃ¼ber all
p ol
O b
ĠEin sch
ĠVerl ag
z i
ĠSie g
A M
ĠR ie
ĠT iere
hol en
ĠEr de
ĠJ a
l eit
Ġent schieden
ĠFl Ã¤
b i
ĠO hne
Ġp r
Ġk ennt
Ã¼ss eld
Ġl and
it s
ĠG u
h ung
Ġan al
p art
ĠFunktion en
au ert
r ik
ĠL eit
ĠM Ã¼
Ġ !
ĠSp ann
tre ter
ru cken
Ġrei cht
le cht
ĠLe der
ĠKom p
Ġt ut
Ġp sych
ĠVerein s
w art
Ġt h
V on
Ġviel fÃ¤l
pp e
ver fahren
ĠBild ung
ĠT rotz
Ġinternation alen
fahr er
l ag
A dresse
Ġindividu ell
ffiz ien
ri ge
ĠP il
Â ´
Ġbes uchen
Ġentst anden
Ġer inner
Ġmen sch
g reifen
ĠEigen t
ĠHand y
Al le
3 5
l Ã¶sung
Ġbeg innen
yn am
Ġge z
ed es
ĠMet all
S ystem
schein t
bo x
ĠEr inner
ĠSch ei
A G
ĠImmobil ien
ĠTr end
ĠLie bl
Ġgen annten
ĠG eg
ĠT ats
Ġent weder
ĠS emin
ĠN a
ĠSchl ag
ĠGrund lage
miss ion
ah nen
ekt or
Ġnach hal
H er
ĠFeuer wehr
eu ten
stat tet
kl asse
ĠgÃ¼nst ig
l l
ie gen
ive au
ĠSer ie
gef Ã¤hr
le gung
ĠS eine
ĠBon us
Ġ arbeitet
ĠR u
Ġbest ellen
le fon
Ã¤d ag
Ġr ies
ĠHotel s
z um
Ġs org
ĠFÃ¼hr ung
ĠPart ei
ĠFrank reich
ĠLes er
tif iz
ĠNach richten
i os
z ur
sch ungs
ĠLei p
ĠThe ater
Ġ ag
ĠVort eil
!! !
Ġgest ern
ar kt
ĠF Ã¤h
ĠAn lage
ber eit
Ġnie mand
ob by
wind igkeit
em ente
ĠK unde
ĠLin ks
ĠVol k
ff ekt
ĠSing le
ele v
Ġglau be
J e
der s
Ġver n
em pf
ĠZwe ck
ok al
ge legt
tier ung
ĠEx t
sch te
ĠK ern
ĠS ein
Ġschnell er
Ã¼ ten
fl Ã¼
s ser
ĠZ entrum
p lay
ĠEro tik
ĠP oten
ge ord
or k
ĠT radition
Ġd i
ers eits
G es
Ġausge stattet
ĠVeranst altungen
ĠMart in
ĠBer eichen
Ġkommen den
b le
ĠAuf ent
Ã¤n gst
Ġgr atis
Ġsp ort
Ġer gÃ¤n
ĠL Ã¤nder
Ġun mittel
Ġan t
C h
ĠBÃ¼r o
Ġbet rÃ¤gt
ĠKaffe e
ĠFor schung
qu alitÃ¤t
p asst
ĠSch uhe
ĠA lex
ĠBest e
ĠSt ar
ĠD el
ĠRom an
ĠBo ok
ĠGe fahr
l Ã¤ss
p unkte
olog ischen
Ġunterschied liche
s ion
w urf
ĠG rad
and eln
g o
Ġan s
Ġp artner
ar zt
zep te
in kel
stell te
ĠBeding ungen
ra h
ĠKil ometer
fil m
ĠRis iko
E T
Ġt rÃ¤gt
ĠHo f
ĠInform ation
Ã¶ ÃŁen
Ã¼nf tig
ĠMark eting
ol e
Ã¶ ÃŁ
zahl t
ide os
ĠLin ie
ĠA mer
ĠbenÃ¶ tigen
enn e
hal le
ott o
Ġk Ã¼r
Ġin stall
Ġklein es
Ġer scheint
Ġall eine
ĠRei sen
recht s
ĠZu g
Ġerst ellen
ĠGew alt
Ġbew usst
lin ien
ĠSpr ach
Ġheu tigen
m essen
tern ehmer
Ġsch rift
Ġges ucht
ch em
ĠDon nerstag
Ġsicher lich
rie be
ĠC amp
ĠFahr t
ĠWar um
ĠgrÃ¶ÃŁ te
ĠFr anz
Ġgem Ã¼t
ack te
Ã¼ck sichtig
ĠverfÃ¼g bar
g al
Ġd auer
Ġ3 00
ĠO ffen
man agement
g ten
ĠKr ampfadern
Ġbe zeichnet
cl ub
ĠJahrhunder t
fÃ¤l le
Ġges etzt
Ġpro blem
ĠÃ¼brigen s
Ġunterschied lich
Ġb ilden
Ġs auber
Ġzun ehmen
m aschine
s burg
ĠwÃ¼n schen
Ġm er
ĠAu ff
B l
olog ische
ĠTran s
Ġb as
Ġk re
Ġb lau
ĠF ein
Ġnah m
0 2
ĠPap ier
ĠS ter
Ġein gesch
ĠKat zen
ĠUm gang
en ze
ĠU N
ĠBe w
ĠOrganis ation
ss ystem
d igen
ĠE he
ang t
vol ution
ĠL aut
ĠExper ten
Ġerz Ã¤hlt
ĠW echsel
ĠP an
Ġge halten
ĠBed arf
wert ungen
kt or
i ft
ĠL Ã¶sungen
ger Ã¤t
ĠKar te
ĠMit twoch
ĠCook ies
ourn al
Ġverbesser n
angeb ot
gr ess
rÃ¤ gen
ĠgroÃŁ es
ĠPro jekte
Ġmus sten
mo sphÃ¤re
Ġ at
entlich keit
ĠW il
re ck
ber n
U R
ĠD ownload
u gend
Ġf ur
ĠKo oper
Ġgesp eichert
ĠTrain er
on es
ĠBro wser
b ad
k or
ĠBab y
alen der
ĠKombin ation
ĠZ uf
ĠLehr er
Ġ200 0
ĠW h
ti c
Ġinteress ant
ĠGr enzen
ro chen
Ġre ag
I D
k u
ĠSt Ã¤r
ĠH Ã¶r
ĠCh em
Ġl etzt
ĠZ eu
pf l
ikan ischen
ĠDa fÃ¼r
ĠSch on
ĠP lay
om m
ip s
an ien
s inn
Ã¼s sen
Ġver schw
ĠDetail s
ĠZu gang
ĠV i
ĠVer gangen
ĠSt uttgart
Ġmittel s
Ġvor stellen
schlÃ¤ ge
Ġgel ungen
ĠÃ¤hn lich
ĠLiter atur
ĠU l
Ġmit einander
Ġprof it
ĠWer be
ĠKon zept
ĠFre e
fÃ¤h igkeit
ĠFrÃ¼h stÃ¼ck
V O
kr et
ĠS im
ĠMark e
se qu
au chen
Ã¤ ck
ru g
a der
Ġw Ã¤ren
ĠK al
b ilder
ĠKl assen
ĠH Ã¼
Ġkom bin
Ã¤m pfen
ĠGew icht
ĠH ilf
d auer
ha ften
Ġvoll er
men ts
ĠSer ver
on ie
on n
ĠBerlin er
ist isch
i ste
J Ã¤hr
Ġentsprechen de
Ġgeb oren
ĠerhÃ¤lt lich
os oph
Ġwir ken
201 7
ĠJ es
ĠKrie g
ei ge
Ġfol gt
Ġ200 7
v in
s um
Ġf ein
gÃ¤n ge
Ġd einer
ur g
Ġsch auen
ĠGesundheit s
p ublik
ĠH immel
ĠNetz werk
ab t
ĠP rem
Ġst ra
ĠO per
ie bt
ĠGrÃ¼n den
tier ten
ic a
ĠW eiÃŁ
ĠRe chte
ĠA ktu
ĠFr em
un n
ag no
Ġgrund sÃ¤tzlich
ĠUnter richt
om in
ĠprÃ¤sen tiert
ern er
ĠK ol
Ġj ahr
ĠStra te
ĠT rau
Ġin nov
Ġern st
ĠLei der
Ġt rifft
Ġin nen
ĠH ans
son sten
ĠH Ã¤lfte
Ġb i
Ġs Ã¤mt
ĠSP D
am mt
Ġes sen
D en
la fen
M S
ass ungs
s em
ĠF C
Ġz eich
ĠKl ima
ĠZ er
ĠIn tegr
Ã Ħ
ĠEin kauf
ĠBe ziehung
bild ungs
Ġk o
w ach
ĠR en
ĠWeihnacht s
hol t
Ġf ragen
Ġdar unter
ĠZahl ungs
ĠEin fluss
J a
ĠâĢ ļ
L e
ichte te
Ġfr anzÃ¶s
T e
rin k
u hl
Ġhab t
g ro
ĠN o
serv ice
dr ich
i den
ĠK ann
Ġange geben
Ġpl Ã¶tzlich
p age
ĠM ir
ĠDar Ã¼ber
ĠF it
ĠAl ters
Ġbe weg
Ġ ti
ition en
Ġaus drÃ¼ck
ĠVor der
Ġk r
ant as
st eh
ĠB ier
Ġ3 6
G en
Ġn eg
ĠMÃ¶ bel
Ġh eim
A P
ĠJ ack
h et
sp f
ĠN orm
Ġab geschlossen
ĠOr iginal
Ġbede uten
ĠUm setzung
Ġzie ht
ĠDat ing
ĠEind ruck
Ġur sprÃ¼n
s ucht
le ger
Ġre ch
ĠVer besser
ĠÃ¼ber nehmen
ĠM und
nit ten
ber icht
ks hop
F l
stÃ¤nd igen
ĠH ard
Ġver treten
ĠN or
ĠC ont
forder ung
ĠF leisch
ĠJe der
Ġvoll stÃ¤ndig
ĠGeh eim
Ġan schlieÃŁend
ĠFahr rad
ĠG as
ĠLebens mittel
Ġs uche
Un ser
ĠH ein
I L
ĠElekt ro
ĠpersÃ¶n liche
ĠF ans
Ġmoder nen
T he
4 9
ĠGes chenk
ĠKamer a
Ġk Ã¶rper
Ġauf genommen
Ĩ Ĵ
k unde
ĠBe zir
ĠR icht
Ġge fÃ¼hrt
Ġwichtig er
ĠSch iff
ĠerklÃ¤r en
Ġgew onnen
Ġs an
lie fer
ĠStand ort
ĠBe wer
l Ã¤nd
Ġnie der
ĠM aschinen
rei f
Ġgel esen
etz ten
Ġge zeigt
ĠI P
ĠPr esse
Ġd ritten
Ġdrau f
k ampf
Ġ as
ĠTÃ¤ tigkeit
ĠWer bung
M od
Ġatt ra
ĠE del
ul ation
ĠVergangen heit
ĠAuf bau
ĠT herapie
eil ung
Ġein geb
m und
i us
V ers
z esse
re chte
Ġstell te
stÃ¤nd ige
kom mt
ĠV it
ic s
ĠM iet
Ġb auen
r ing
ĠMaterial ien
Ġm Ã¤n
ĠStud ie
ĠM icro
Ġw achsen
Ġber ichtet
st Ã¤
Ġf icken
ĠT abl
alis iert
h och
ei ern
b eit
ĠRo ck
rei g
Ġbesch rieben
Ġge be
ĠW al
it es
ĠK och
ĠfÃ¼ hlen
ĠBest imm
ĠBesonder s
ĠF rieden
ĠD ro
ĠM or
f an
Ã¼ ÃŁen
Ġwel chen
f rau
ĠÃ¼ber zeugt
Ġein st
ĠF a
be k
ĠT al
Ġeinfach e
t es
ĠLu x
Ġs amm
D es
Ġf rau
Ġerlau bt
Ġw ann
ĠP ersÃ¶n
hin dern
ose x
ĠGeg ner
h an
ĠT a
Ġf indest
ĠZ ahlen
Ã¤n e
acht ung
Ġp ol
Ġbek annte
ĠAus stellung
achel or
atz e
Ġerhe b
wei te
ĠR unde
ĠIm mer
Ġerw Ã¤hn
auft rag
ĠR Ã¶
ĠB io
o hlen
ĠVerb raucher
Ġspez iell
sprÃ¼ che
ĠBet eil
oll ar
Ġam er
Ã¼r t
ĠKolle gen
Ġpassen de
ĠKl ass
Ġw or
ĠBevÃ¶lker ung
Ġzu erst
kont akte
walt ungs
Ã¼ se
Ã¤dag og
au p
ko hol
and id
ĠdÃ¼r fte
p ul
3 6
Ġd ient
Ġnoch mal
Ġpriv ate
Ġber aten
E x
isch ung
Ġtot al
ĠP or
Ã¼ st
st a
ĠHerr n
Ġw echs
ma il
us ste
b ett
ĠfÃ¼hr te
Ġspr ach
Ġmed izin
ĠBeh Ã¶r
m aschinen
bo den
ĠEin en
ĠProdu kten
ĠTe en
Ġerst mals
gel assen
ĠWett bewerb
Ġbegeister t
peten z
Ġmodern e
us sen
Ġged acht
ĠZ w
ro ck
ĠStra f
Ã¶rder t
ĠSch ulen
7 0
Ġw ichtigen
d ungs
ĠBru st
ĠGelegen heit
nis sen
ver trag
ĠVort eile
ĠSt ahl
gest altung
Ġelekt ron
ĠBestell ung
d ate
Die ses
d ien
Ġger ing
Ġe ffe
ĠFreund in
ol den
ĠBild ungs
re en
k n
ĠChrist ian
r ufen
ĠPlan ung
ĠFil me
ĠS ehr
ĠFol gen
Z ur
ĠP rÃ¼f
om ie
ĠE ss
Ã¤ umen
de u
ĠB rief
Ġsozial en
k re
ĠKosten lose
Ġbr eit
ĠDien stag
ĠT anz
Ġ Q
Ġl ust
ĠSchl Ã¼ssel
z eh
Ġhin ein
ĠEis en
Ġz ahlen
ĠWohn zimmer
ĠAn al
ĠE reig
ig ital
Ġdar aus
W eiter
Ġst eigen
ĠMan agement
Ġtro cken
t eile
iv al
Ġj ung
ĠGro ÃŁe
ĠÃ¼ber prÃ¼
ĠTran sport
ehr t
rÃ¤n kt
ĠÃĸff entlichkeit
Ġlie b
A pp
Ġperfe kte
n etz
Ġgen Ã¼
Ġfal sch
ĠMill iar
Ġpolit ischen
ĠL eiter
Ġkur ze
ĠÃ¼ber w
ĠR oll
Ġentst eht
Ġ19 5
Ġl ok
Die ser
O L
ger Ã¤te
sch irm
ipp en
ĠBesch Ã¤f
R E
r Ã¶
Ġzu k
m esser
ĠGer ade
ĠF akt
s an
Ã¶r dern
Ġun ge
ei tern
ĠD adurch
amp ag
sch reiben
rem e
ĠSmartph one
Ã¼n dung
Ġverantwort lich
fer nen
ĠM ikro
ick s
ĠWel che
ge ht
9 5
ĠzusÃ¤tz liche
Ġhochwer tige
z y
ĠVor sitzen
ab le
ĠUn fall
Ġdisk u
ĠF isch
Ġposit iv
ĠB ud
inder t
ĠMa ster
Ġauf s
ĠInf os
ĠInst itut
er weise
ĠK rÃ¤
ĠIn iti
Ġgek auft
Ġg leiche
t o
ĠCh at
Ġaus fÃ¼hr
ĠJ apan
Ġverk aufen
Ġb lieb
Ġs en
ĠInst rum
ĠM y
Ġsch reibt
Ġf lex
l d
ĠVerantwort ung
Ġver hindern
ĠGeb rauch
at oren
Ġf ehlt
tre ffen
ĠPublik um
et a
Ġver urs
eh me
s g
tell igen
ier end
ĠKrit ik
Ġdein em
gr amme
ĠEigen schaften
Ġst arten
fer tigt
o de
ĠInternet seite
Ġwoll ten
in form
wer be
ĠW under
bl att
Ġ200 6
ĠBeit rÃ¤ge
t Ã¤
m achen
ĠO pfer
Ã¤hl te
ĠtÃ¤ tig
ĠSing les
Ġ15 0
Ġs Ã¼d
zeich nen
or te
Ġkur zen
Ġf rem
ĠUnter schied
ĠbeschÃ¤f tigt
gesch rieben
I C
7 8
Ġersch einen
Ġverpflich tet
Ġh offe
lad ung
ma ÃŁen
ĠP e
ĠB aden
Ġhtt ps
Ġges ellschaft
Ġt ollen
zei ge
ra ktion
ĠFrei heit
ĠGer icht
Ġgesp ielt
Ġlei sten
Ġzu verl
ĠRel ig
ĠMil ch
h Ã¤user
ĠLei den
3 8
ie fe
Ġf il
ie fen
ĠPart y
reg ierung
hl ight
ĠLeip zig
it ar
ĠPro t
Ġk ultur
Ġeurop Ã¤ischen
ĠEin fach
or ben
ĠZ it
ĠMin ister
Ġâ ĨĴ
ĠSym bol
ĠMod elle
ĠKateg orie
Ġeng ag
s itz
ĠW eil
A D
ĠL Ã¤nge
or s
ti ment
fil me
ĠB ot
ĠFern seh
ĠK ant
Ġ ed
ra el
4 8
sch lieÃŁen
Ġausreichen d
ĠauÃŁer halb
N eu
iel ten
pl atte
b as
sl am
lie fert
frist ig
ĠMed ik
Ġ achten
Ġent spricht
ĠFlug hafen
ĠBo x
isch t
le hr
ĠKom pon
r and
ĠInter view
Ġr Ã¼ck
E G
ahr ung
Ġeinzel ne
Ġvor ber
ĠM erk
il la
. [
p ap
ĠBus iness
hand el
dig t
Ġex ist
Ġver gleich
A C
Ġd ienen
ym n
r ess
ĠSp eicher
pf lege
Ġent decken
ĠOr ts
ĠDok ument
umm ern
ĠSchlaf zimmer
Ġglau ben
i bel
Ã¼ m
scha ffen
ĠIn nov
k urs
Ġd re
ograf ie
jen igen
wer ben
k an
j ekten
ĠEr lebnis
ĠNeu e
Ġsch Ã¼tzen
ĠP rÃ¼fung
ĠF alle
Ġreg ion
o ben
Ġc asino
ĠL ab
ĠT el
ĠBer icht
s Ã¤
ĠAt mosphÃ¤re
li ste
ar tige
ĠP op
ĠT w
Ġhin gegen
r asch
Ġbem er
ĠZu sch
ĠK art
Ġh ilf
ot os
Ġz Ã¤hlt
ĠLand kreis
Ġ orden
ĠerfÃ¼l lt
ĠA s
Ġein iges
Ġprakti sch
ak ten
Ġer stellt
st eiger
Ġaus geb
ĠInform ations
ĠStim me
zen z
Ã¼ hm
ges p
ĠStud ium
Ġbetroffen en
ĠArbeit geber
ĠBe wertung
et isch
forder t
k Ã¼ndig
Ġwes entlich
ĠFahr er
ĠTeil nahme
ĠN och
ĠW achst
ĠGeb iet
Ġgef Ã¤llt
ĠDr es
I CH
P S
ĠD reh
N eben
p ert
ĠVertrag s
ĠCh ina
Ġaus ger
ĠS ign
wÃ¤r ts
amp e
l aufen
rei tet
ĠM uster
ĠKÃ¼ hl
sk i
ĠKÃ¼ chen
Ġle bt
Ġinteress iert
zieh ungs
me ter
Ġpassen den
ĠÃ¼ber tragen
ĠD Ã¼sseld
Ġkom mun
b eu
Ġ200 5
sei tig
O M
Ġbeh andelt
ĠSp itzen
c ess
Ġgew Ã¤hlt
ĠL ern
Ġweiter er
ich ert
ĠT aschen
Ġbes itzt
ĠH um
ĠB lack
ĠErk rank
ĠD anach
ĠUr teil
S T
ĠZ Ã¼r
Ġzu gleich
Ã¤r m
ĠKar l
ĠL Ã¼
Ġpriv aten
Ġher gestellt
7 5
ab er
S h
Ġleich ter
Ġf rag
Ġzeig te
Ġl ohnt
pl Ã¤tze
ar if
ren nen
ĠAr ten
ĠL ED
ĠWÃ¤r me
ĠF o
ang s
eg t
ĠFor schungs
ĠKont akte
d essen
nah m
ĠErn Ã¤hrung
ĠN ummer
ĠCh ancen
k ul
ĠSchw anz
ation alen
Ġr uss
I I
ĠZ iele
riter ien
gew icht
Ġte lefon
Ġs ehe
amp en
O r
ĠRuss land
ĠP aul
Ġung laub
ĠRech nung
ĠGlau ben
Ġbeein fl
eich ern
at isch
ĠGest altung
ro id
Ġwir st
Ġerst mal
ĠR ab
l ament
ĠAn frage
ĠM ig
Ġkon zentr
Ġsinn voll
Ġvor ne
Â ²
ra gend
Ġsp aren
ĠViel zahl
Ġn ennen
er gie
Ġgaran tiert
Ġ3 2
ĠF ett
Ġk ostet
ĠZ entr
Ġverw ende
ri b
Ġp orn
ĠGet rÃ¤n
spl atz
ĠWor te
Ġwunder schÃ¶n
Ġg eist
ĠG ir
ti m
as zin
ren z
ĠVer z
tel n
w enden
w ander
ĠerfÃ¼l len
ĠE p
frei e
ĠHann over
Ġmus st
rain ing
Ġz Ã¤hlen
ĠZu cker
te sten
ĠWeiter lesen
ĠAn alyse
ĠAktiv itÃ¤ten
at ische
ĠAll gem
j ob
Ġent lang
ĠHin weis
ĠNach dem
ĠverfÃ¼ gen
ĠAn teil
4 4
ĠMilliar den
c tion
Ġgemeinsam en
ĠFrie drich
iv il
ĠPl us
k rank
Ġein iger
ĠR os
ig ungs
ĠKonz ert
ĠPro fil
ĠVert rieb
M ehr
ĠServ ic
ĠSp e
aler ie
v o
ag d
k ultur
ĠDeutschland s
ĠDe ck
Ġbek annten
Ġe vent
ĠA gen
ĠFor men
Ġl eist
201 6
f igur
Ġk at
Ġselbst verstÃ¤ndlich
sp artner
ĠW ol
u ellen
ĠF inger
sp iegel
Ġopti m
it or
ĠSe kunden
ĠP la
it iv
ige m
schei det
Ġstark e
Ġer geben
Ġget ragen
Ġsogen annten
Ġin klusive
rit z
ital ien
Ġumf asst
stell ungs
ĠC or
is st
duz ieren
ĠÃľber blick
Ã¶r te
K W
ĠIn ner
Ġverst Ã¤r
ĠZeit ung
ind ungen
er ei
ĠAus gabe
ĠWas ch
ond on
Ġher zlich
ĠSch reib
ĠZeit raum
c y
Ġindividu elle
L AN
k rÃ¤fte
ĠTex te
ĠTechn ologie
Ã¤uf e
kti en
b ack
ĠMit tag
en ter
ĠBl umen
Ġp rÃ¼
ĠAr m
ĠS how
sp ez
Ġg eile
ĠD eb
ĠnÃ¶ tig
Ġh art
ĠAu ge
Ġwieder um
Ġr en
Ġver Ã¤ndert
ĠD rit
Ġinteress ante
ĠKont rolle
isten z
T V
Pro du
ĠDienst leistungen
hn ung
Ġstar ken
Ã¤ ische
c el
ĠGegen satz
ber atung
t eilen
Ġn utz
ĠkÃ¶n ne
y le
I G
Ġin vest
ĠFre unden
ĠTeam s
Ã¶r ung
ĠMin ute
ber ech
amil ien
ĠBur g
spl an
ĠAn griff
ĠZ ul
Ġz erst
Ġ ei
sprechen d
spruch s
M ein
ĠA dresse
ent wicklung
rÃ¤ umen
ĠH Ã¤nde
ĠB or
! âĢľ
Ġtechn ischen
k ap
bed arf
Ġs itzen
c on
te xt
ĠB lau
G esch
ĠLiefer ung
o tion
Al so
ĠA f
ĠR ob
z a
Ġm obil
I P
Ġweiter es
Ġbeh aup
ĠM esse
vers orgung
usch i
Ġsch m
ĠBet roffen
ag es
ĠI hn
Ġe ure
3 9
re ff
ant ie
Ġange zeigt
en a
ĠL ad
wer tet
au te
Ã¶r ter
ĠÃ¶ sterreich
ĠA ch
Ã¼ nen
ĠSt amm
Ġm od
auf nahme
Ġget r
alt ungs
u al
Ġreg istr
sp ekt
1 00
Ġkont roll
z ellen
ĠSil ber
B es
Ġfr isch
Ġein deu
Ġer folgen
ĠG al
ĠEin fÃ¼hrung
mun ity
ĠEin ige
sch ten
lie gt
tiv e
S er
g Ã¤nger
d io
Ġext ra
wei ÃŁ
ĠðŁ ĺ
m ine
ĠSen i
Ġg eil
alis ieren
it a
Ġdat ing
ĠUm satz
Ġfrei en
ĠSta aten
spann ung
Ġbesser e
usst sein
an ischen
m acht
ĠB lock
st es
ĠMetho den
Ã¶r ungen
he ber
Ġhin ten
Ġin kl
ver sammlung
gesch Ã¤ft
a ce
ĠJ ur
ĠBau ch
van gel
Ġschn elle
ĠAus druck
A u
sch ulen
r am
hÃ¶ he
umen te
itu ationen
zÃ¼ ge
ag ten
ĠChe f
ĠRei fe
eu ert
ess el
stÃ¤nd nis
sch m
inn ern
ĠOrd nung
ĠMus eum
ĠDiskuss ion
- /
ge fÃ¼hl
ĠVer hÃ¤ltnis
ann en
ig a
Ġklass ischen
zie ht
ĠFÃ¶rder ung
Ġeigen es
Ġan bieten
Ġz weit
alis mus
Ã¼ ter
Ġkomp lex
geb racht
Ġh aupt
Ã¶r se
ĠA tt
ĠPrin zip
Ġviel es
ĠSch loss
Ġvor gestellt
zieh ungen
Ġverk auft
Ġm ache
Ġverm eiden
est e
Ġf e
l Ã¤nder
Ġd achte
aut omaten
Ġgef ragt
ie d
Ã¤d t
ĠErwachsen e
ĠMo dern
ĠWÃ¼n sche
Ġ: )
ok us
ĠG ang
ĠVer f
ĠSchw anger
ĠW ichtig
ĠApp le
Ġaus ges
ĠAuf nahme
reu en
l y
ĠInst all
Ġge grÃ¼ndet
ĠHig h
Ġide al
sl etter
gemein schaft
Ġwen den
ĠWer te
er klÃ¤rung
ĠKrank heit
3 4
ĠH at
Ġt eilen
ĠP S
ĠSo und
B eim
Ġlie fern
Ġbis lang
Ġen gl
Ġnie dr
N un
Ã¤t ter
hÃ¤n ger
v id
Ġindividu ellen
3 1
ĠH Ã¤nd
aler weise
ik ations
under t
Ġver lie
ĠBÃ¼ hne
ver anst
Ġehemal igen
ag s
ĠH u
ĠKooper ation
O P
Ġi den
Ġgepl ant
k Ã¼n
ĠJugend liche
ĠZus atz
opp en
ord in
Ġsch ul
eu ern
ĠJ unge
ĠP ul
____ ____
Â §
l ager
ĠK lo
ĠK op
Sp iel
o ge
Ġmein es
lie genden
Ġg rau
for schung
ĠZu behÃ¶r
Ġbr achte
Ġmus ikal
rÃ¼ st
Ġwel chem
ĠGrÃ¼n de
Ġ3 8
ĠprÃ¤sen tieren
st eigen
ĠStre cke
rin ken
n icht
! )
e p
Ġs er
in i
ĠP et
tig keiten
wir ken
Ġl Ã¤ngst
D eut
ĠAn lagen
au schen
ĠP rakti
os k
Ġ4 00
Ã¼l tig
Ġk g
ĠK abel
iz ieren
so ft
Ġsogen annte
ĠF le
ĠÃ¶ff entlich
ĠGrund stÃ¼ck
ei se
ap e
3 7
Ġe ur
ĠP ay
V D
it is
A ut
zuf Ã¼hren
Ã ¡
Ġangen ehm
Ġpolit ische
s uchen
c ri
ĠDen k
g ig
Ġget an
s eits
Ã¤ch er
ĠJ ungen
Ġfre e
ig ner
upp en
ĠerhÃ¶ ht
we ge
ĠSp iegel
Ã¤us e
ĠKon kur
Ġinform iert
Ã¼r e
m ung
m Ã¼
ĠT her
Ġc om
ĠS et
ĠMin i
ĠAb satz
ĠmÃ¶ glichen
ĠEurop Ã¤ischen
Ġst abil
ĠKont o
T echn
ol er
zip lin
Ġwei ss
ĠK ein
ĠS ehen
ĠAr me
ĠS achsen
ĠM ulti
lie sen
A B
ĠAl ten
ĠO ff
il ler
Ġau ÃŁen
ĠH D
ĠM otto
erv ice
Ġd unk
Ġf alls
Ã¤tz lich
Ġverm ut
ĠEin richtung
ĠW es
Ġget roffen
ĠWor kshop
st ahl
ĠS V
den burg
angeb ote
ĠRad io
ĠG rie
Ġs eiten
ĠAnt worten
Ġlei den
ĠgrÃ¶ÃŁer e
k at
Ġ0 8
Ġk rank
ĠMo de
mod ell
Ġm ark
met ho
ĠK enn
b is
Ġst aat
ĠZu griff
ĠSe ele
ĠSchn ell
Ġd est
ĠStu denten
ĠTrain ings
merksam keit
ĠJahr zeh
ĠÃ¶ff nen
s w
ĠLand schaft
zus etzen
Ġt reten
Ġbetroffen e
v a
ĠHand els
ĠS icher
4 6
ĠRegel n
ĠDank e
ĠEn glisch
Ġschwier ig
C D
Ġhal b
Ġ arbeite
fil ter
D och
O T
eucht ung
m l
ĠVer waltungs
ĠHoch zeit
ĠSchne e
am b
ra struktur
Ã¤h ler
ĠAltern ative
bÃ¼r ger
Ġn atur
ĠVer g
ĠKunst stoff
Ġso fern
ol t
Ġne un
le bt
ĠAlb um
hel m
Ġent fernen
i men
Ġt r
ĠWar e
ĠRe zept
ĠVert rauen
ĠFit ness
ĠL esen
far ben
ĠmÃ¼s ste
ĠÃ¼ber zeugen
h Ã¶ren
v al
Ġgesetz lichen
Ġb ill
tem berg
ĠBen utzer
H eute
ate ur
Ġnahe zu
ĠH art
ger ufen
ĠHome page
I M
3 2
Ã¶ tt
l uss
be weg
qu e
ol a
weis ung
az in
Ġel eg
ĠJugend lichen
rain er
ĠAut os
ĠWahr heit
5 5
Ġfreu e
ĠPer spe
ien te
ĠGem Ã¼se
Ġ rot
Ġvermut lich
ess our
fÃ¼l lt
Ġent deckt
ru he
ĠKon fl
schl ossen
ĠKar r
ik ationen
ĠF ran
ĠVoraus setzungen
ĠS ei
leist et
ĠZ ut
Ã¼r n
ĠB unde
ad a
Ġallgem einen
Ġkom peten
N icht
Ġjeden falls
ĠEmpf eh
Ġpriv at
ĠA g
ĠW ell
. Â«
ĠE i
ĠVer Ã¶ffentlich
ĠKl aus
ĠRe de
ĠSt ock
Ġi Ph
gel s
ĠAben teuer
ĠM ut
w ay
ĠVersicher ungs
maÃŁ nahmen
ĠS au
ĠH an
el en
Ġverl ieren
Ġb o
z ern
Ġf ahr
Ġ Ã¤r
Ġent sp
Ġwar m
Ġ <
ikan ische
ge wiesen
b eln
M ar
ĠSti ftung
Ġbe wegen
Ġregel mÃ¤ÃŁ
ze pti
sam en
ĠAust ausch
Ġwechs eln
Ġd auert
ĠGut schein
arb eitern
r is
ĠL ondon
al og
Ã¤hl ten
ĠK eine
Ġtechn ische
ig uren
wor tet
Ġre st
ĠAn zeige
ĠG i
ĠNach mittag
ĠDÃ¼sseld orf
ĠUn ion
ĠFall s
ĠS Ã¼
Ġben utzt
ĠR and
lieÃŁ t
an ische
hn t
ĠB rot
te ten
ĠBedÃ¼rf nisse
fÃ¼l lung
Ġ eignet
ĠHig hlight
Ġh Ã¤ngt
ĠAndre as
Ġvor ge
g ier
ĠMass age
ĠF ur
Ġle gt
Ġgest altet
Ġeigen t
ĠPrÃ¤ sident
a ster
ĠVers uch
Ġein s
um in
Ġber Ã¼hm
Ġange messen
wie gend
Ġwill st
ĠD ial
ĠS ind
ĠEng agement
ĠglÃ¼ck lich
ĠEin richtungen
Ġge eig
n ei
Ġgesch Ã¼tzt
Ġ200 4
ĠL aden
or ten
ym bol
Ġgemeinsam e
ĠC re
ĠPl attform
l as
k und
s m
p olitik
ĠBÃ¼rger meister
s n
an dern
hal ter
ĠstÃ¤r ker
ĠVer waltung
un a
Ġsch wei
Ġw ith
Ġw est
iert es
ĠBed ien
agen tur
ĠB M
h ler
Ġs etzte
zeich nis
Ġbe zahlen
ĠJ ournal
ĠInter ess
ĠJahrhunder ts
ind ust
Ġab end
ĠH yp
ub il
ar tig
ĠVerb and
Ġspez ielle
ĠV om
Ġd ek
ĠK Ã¶r
il de
Ġm aÃŁ
ĠÃĦn derungen
is ieren
ĠPf licht
ĠM indest
r eit
Ġ7 5
Ġ1 000
sam e
bli othek
ort s
ĠAnd roid
Ġgesch affen
Ġirgendw ann
ĠD igit
Ġ italien
Ġelekt r
ĠBil dern
Ġman che
Ġge gangen
Ġer innern
ĠbestÃ¤ tigt
ĠunabhÃ¤ng ig
Ġaus einander
Ġerle bt
Ġver ab
S P
ĠVer treter
Ġm ann
ĠL au
ĠS E
ĠDres den
Ġerinner t
as i
we ck
rech nung
ĠSt ad
Ġmei stens
ĠKap ital
ĠBau ern
ĠSw inger
ges prÃ¤
ĠJ ohn
ĠUm fang
ĠausdrÃ¼ck lich
ĠS at
pp ich
mus ik
ed ia
ĠSch merzen
ĠKranken haus
Ġsch afft
Ã¼ mer
b indung
ud wig
201 5
ĠP DF
Ġer leich
ĠZwe cke
ĠBel ast
st ar
ĠA ktien
ĠÃ¶ff entliche
m ach
Ġl Ã¶sen
ĠBru der
Ġ3 4
Ġprofit ieren
arb eits
ĠZusch auer
fahr ung
ĠM and
Ġan erk
ĠE hren
ĠSch reiben
I hr
Ġkor re
ĠAr g
il ien
ĠBer at
Ġz og
leg ten
Ġl Ã¶
ar n
ĠW a
Ġver ste
Ġbeg leitet
Ġin spir
ĠPf arr
ĠAufent halt
ĠVer mÃ¶gen
Ġoffen bar
ĠL eitung
D at
b u
klei dung
ĠRe fer
Ġd Ã¼n
ĠÃ¼berr aschen
B et
Ġletz ter
ĠerklÃ¤r te
ĠAut oren
Ã¼l len
lo ud
ĠP re
ul iert
B ild
ĠJ ose
p rÃ¼fung
ĠAuf merksamkeit
ĠR ett
stru ktion
ĠTÃ¼r k
Ġaus pro
Ġinternation ale
Â» ,
ĠJ ungs
ĠSte fan
Ġr um
Ġgeb aut
ĠÃ¼bern ommen
ĠVer stÃ¤ndnis
ĠStÃ¤d te
ĠLauf e
bar ung
Ġ ra
W Ã¤hrend
R eg
Ġl aden
ĠÃ¤uÃŁer st
arm on
ess or
ver waltung
Ġkurz er
par atur
Ġun gefÃ¤hr
ĠGe fÃ¼
sch auen
ti s
ief el
am ing
Ġc ool
ĠStimm ung
okrat ie
ĠBahn hof
ĠM io
ĠSchw ier
ard s
ĠGener ation
ĠNew sletter
ation ale
wohn ung
ĠB in
med izin
Ġhol en
ur n
ĠHei z
olog ien
un ken
Ġb ilder
Ġer hoben
ĠW agen
lich em
ĠB ord
ĠDir ekt
sicht s
ĠU ser
an o
ĠSex y
ĠÃĦr zte
Ã¤te stens
e w
ge d
ĠAn f
ĠStr ess
Ġge he
Ġwas ser
ak er
Ġge zogen
b rechen
ĠauÃŁer gewÃ¶hn
ĠRe al
Ã¼t ter
ĠGeschÃ¤fts fÃ¼hrer
ĠN erv
L E
Ġk inder
ĠVer m
Ġwunder bar
ĠD arm
p ass
Ġeinfach en
ach ter
Ġruh ig
ĠG olf
for dern
ĠW affen
Ã¼l le
Ġf ot
anz e
Ġeinfach er
Ġsollte st
osex uell
Ġh ell
lei sten
Ġerh ielt
rei ter
Ġgl ob
sf Ã¤h
ĠB Ã¶
Ġhistor ischen
en der
ĠLiebl ings
Ġre chten
u z
ĠT hr
inder ung
be ck
ra ges
Ġ5 5
sp art
Ġh eil
ĠZÃ¼r ich
ĠRestaurant s
ĠT ick
wir kung
Ġl ive
ĠM att
d rucken
ĠGemein schaft
ĠN et
d f
Ġh Ã¤uf
Ġgew Ã¶hn
all er
ĠGr ill
ĠVerÃ¤nder ungen
prÃ¤ gt
lo ÃŁ
sie ht
ial e
Ġaus sehen
Ġt ritt
ĠSchwer punkt
Ġho her
ĠSch Ã¤den
ĠPar is
Ã¼hr t
licher weise
ĠE cht
is en
ĠN utzen
ĠL ernen
hal tet
d ler
Ġhei ÃŁen
ot ten
ĠHal le
Ġge legt
mal e
ĠKom pl
ĠGener al
ĠMa c
M eine
k us
e y
ĠB ra
ĠAbl auf
ĠMed ia
fÃ¤l lig
rÃ¤ ch
Ġoffen en
ĠM ad
ĠBal kon
ĠStr eit
Ġunbe k
ĠerhÃ¶ hen
ĠRo h
ĠGr atis
ĠB ir
wor ben
wer ks
ĠWir d
o pf
Ġbild et
Ġintens iv
Ġgeh abt
Ġ201 9
Ġdah in
geb nisse
wir t
ĠCD U
ĠMÃ¼l ler
ĠAl kohol
ĠB ill
ĠFÃ¤h igkeiten
at ch
far be
ĠPol y
ĠsÃ¤mt liche
ĠSor timent
Ġsozial e
ĠfÃ¼ hlt
ko pf
ĠS omit
L and
ĠHin weise
sto ffen
ĠGer man
ĠS um
ĠKomment ar
ĠMetho de
ĠAr sch
Ġb eit
ĠG ute
ĠViel falt
bo ok
ĠÃľber sicht
si denten
Ġ4 8
f unk
b il
ĠB anken
Ġgel ang
ĠJ ust
ĠSp itze
ĠRo sen
ĠAmt s
Ġte uer
hol ung
indust rie
fÃ¤l lt
g f
ĠE ich
z ten
Ġt rain
druck t
ĠHoff nung
Ġf Ã¶rdern
ĠÃ¼ber sch
sp or
be f
Ġdes wegen
az ier
Ġall gemein
ĠiPh one
ack e
Ã¤us ern
Ġhervor ragen
I st
ĠKom fort
Ġpl atz
Ġwei b
st uhl
ĠM as
k le
p al
ĠTats ache
Ġsicht bar
Ġsch rieb
ĠJes us
Ġan ti
ĠT itten
ĠF okus
ĠSchul d
Ġersch ienen
Ġn o
Ġmon at
pr et
... ]
ĠEin kommen
ĠHa fen
Ġ0 9
sel ben
ik on
UN G
Ġauf merksam
Ġbes itzen
gesch lagen
ĠMon ats
Ġ200 3
hl ung
Ġgesch afft
ĠR enn
ĠPart eien
Ġk rÃ¤f
sie he
4 7
ĠR ollen
ĠY ork
ig i
ĠEin blick
an c
ĠZ oll
Ġben utzen
Ġw usste
Ġre den
Ġbek am
ĠschÃ¶n er
ĠDenn och
A U
5 00
in u
ĠHa ft
Ġmo tiv
ĠG hostwriter
Ġh ielt
Â« ,
ĠMedik amen
r ang
Ġbeg onnen
ĠC ro
ĠS y
ĠSemin ar
ĠPark platz
Ġ12 0
E M
Ġjen e
ann ter
Ã¼ te
Ġdest o
r hein
Ġ raum
ĠH on
Ġt rau
Ġver lei
ĠT im
r ollen
Ġkl icken
ain er
ĠEben e
ĠS ho
ath em
ĠAus wirkungen
ĠBet reuung
ĠVarian te
Ġsch me
Ġhier bei
6 6
ĠgrÃ¶ÃŁer en
Ġ reichen
Ġintern ational
ĠDar stellung
ĠVerl auf
trag ung
st ern
ĠNach richt
ĠHer stellung
b art
ĠT rink
ĠGrund lagen
Ġ0 7
Gr und
Ġvor gesehen
Ġte sten
Ġan sehen
Ġd ro
h eil
ĠUS B
s Ã¤chlich
ĠStel lung
âĢĿ ,
ĠAus nahme
ausen d
g riffen
Ġan hand
L ie
el che
4 3
Ġspez iellen
h es
t Ã¤u
t au
abil itÃ¤t
ĠO pen
Ġp oten
ad s
Ġer Ã¶ffnet
Ġerg ibt
Ġbes ucht
Ġkom fort
sp recher
Ġerst es
Ã¤ fte
ĠWeb seiten
wei st
t l
Ġ200 2
Ġak zepti
Ġqu alif
Ġe chte
her r
Ġst anden
Ġnorm al
Ã¼r k
ĠBrem en
ĠWeihn achten
ĠFr ont
essour cen
ĠWer ke
ĠfÃ¼r s
Ġver bringen
ĠNew s
ĠAb m
ver mittlung
ĠK ab
Ġb y
Ġg ingen
ĠB ig
W ar
r ichtet
st anden
, -
ĠB eine
lin es
Ġf iel
a ktionen
rin zip
ĠM ie
ffizien z
rah men
t op
i i
ri c
er ischen
m st
Ġf u
Ġ3 3
ĠZu hause
Ã¶ff nung
ĠN ah
G em
Ġf air
Ġst er
z wei
fÃ¤l len
ĠL im
ĠK Ã¤ufer
og a
on a
ĠSk i
ĠMar ia
b ald
ĠHeraus forderungen
st aat
ĠVort rag
ĠBade zimmer
ĠK Ã¤
t r
al it
ĠUn ternehmer
lo ser
ĠG riff
lei ben
ĠN orden
Ġdies mal
ĠT eilen
T S
ĠerwÃ¤hn t
o sen
Ġal tern
ĠBl u
ĠCas inos
ĠL at
Ġsol cher
od y
ĠB ein
ĠV ari
ser t
ĠBehÃ¶r den
ĠSym pt
Ġf aszin
Ġv ollen
Ġger echt
Ġgen auer
Ġge Ã¶ffnet
J etzt
au ben
an er
Ġver br
ĠQu ad
ĠFl or
R W
ĠAus gang
ger t
ĠB u
spro zess
ant ast
S hop
z iel
Ġen orm
Ġerl Ã¤u
Ġk ap
I V
ĠR ichter
201 4
Ġwill kommen
ĠAut ob
ĠN ote
Ġver Ã¤ndern
Ġ2 50
ĠVor bereitung
C he
Ġnie mals
fÃ¼hr ten
Ġteil nehmen
Ã¶l f
ĠOber flÃ¤che
Ġb rit
Nach dem
ymn as
ĠIntegr ation
ĠAut om
etz ungen
an ter
kir chen
Ġmit ten
Ġeinge laden
Ã¶rder ung
ĠB und
ĠO bst
ĠjÃ¤hr lich
ĠPo wer
Ġh a
Ġspez ial
den k
Ġverl etzt
ĠSch atten
D ann
Ġge pf
Ġk rie
Ġ Ġ
sor ge
Ġ3 7
Ã¤tz ung
ĠP unkten
eld et
Ġausge zeichnet
F or
Ġlie fert
ĠUnter kunft
ĠFahr zeuge
Ġw and
en zt
ĠArch itektur
ĠGr Ã¶ÃŁen
ĠSch we
Ġbeh andeln
rei ft
ĠSzen e
Ġst immt
gerech net
ĠKap itel
ĠF ab
ĠHaar e
ĠHeraus forderung
ĠSo cial
. ).
Ġle cker
e c
Ġho ffen
! "
Ġr unter
ar tet
ĠBei de
u cken
Ġstatt finden
stechn ik
ĠKl ar
ĠMit arbeitern
ze ption
on y
spe kte
ĠH oll
ĠDan iel
Ġj eg
pl atten
P f
Ġverz ichten
ĠÃ¼bern immt
ĠBunde stag
JÃ¤hr ige
E U
ĠF u
ĠH obby
ĠR um
Ġw eb
ĠArbeit nehmer
Ġver arbeitet
Ġst ren
Ġr elev
rau ben
fe ktion
app en
ĠBr un
ĠN iveau
schie de
ĠK Ã¼r
ĠF ick
ĠmÃ¶glich erweise
Ġvoll kommen
ur laub
Ġf anden
ra st
ul ieren
Ġein schlieÃŁlich
E l
st ation
ĠDat ei
frei heit
Ã¤u b
ĠVerbesser ung
wend ungs
Ġl a
ĠS ub
P rÃ¤
Ġaus geschlossen
Ġbeg leiten
Ġab wechs
Ġfrei e
Ġl es
ĠWachst um
re gel
ĠP ool
ĠL eg
ĠP en
ĠschÃ¶n sten
er al
ĠK ino
d am
em en
Ġsich ern
ell es
ĠDurch fÃ¼hrung
ĠUntersuch ung
ĠH aben
opp elt
F il
ĠUm feld
ĠP ubl
ĠAn leitung
Ġb undes
ar tikel
Ġmel den
ĠA cht
hÃ¤ng ig
Ġm ar
leg te
Ġfre ut
hei mer
u hen
ĠIns gesamt
Ġs k
ubil Ã¤um
st ren
bÃ¼ cher
Ġverg leichen
M o
ĠM assen
ĠH als
gr Ã¶ÃŁe
ĠAn aly
V iele
ĠQu alif
ĠBeh and
ĠKa iser
g as
ger ichts
ĠS T
rÃ¤ glich
Ġoptimal e
ĠBr enn
Ġdur fte
ĠnatÃ¼r liche
f rauen
Ġviel er
Ġw id
ĠAm b
W est
euch tigkeit
he bung
ĠD S
ĠWider ruf
l Ã¶
Ġauf treten
Ġhervor ragend
Ġleich te
ĠF ehl
ĠK os
Ġverd ient
schei dung
ĠK eller
stÃ¼ck e
hÃ¶ rigen
kl ass
Ġ6 5
ĠTerr asse
wer den
gel Ã¶st
ĠMicro soft
ichte ten
ĠBer eiche
ĠN ein
Ġum gesetzt
w Ã¤hlen
Ġmein t
r ats
pro blem
ĠF an
krie g
ĠmÃ¶ gliche
k eln
Ġnorm alen
on str
H and
Ġmehr fach
adem ie
Ġf arb
p osition
Ġn ett
st immen
y a
ĠschÃ¶n es
t on
ĠPrÃ¤ sent
ĠAn lass
ul in
Ġkom me
ĠEntwick lungs
ĠKlin ik
ĠEntschei dungen
6 5
unter richt
Ġch rist
p ekt
in ken
ra ÃŁe
ĠBeschwer de
ĠK riterien
ĠB it
Ġbe stellt
ĠT ief
deck ung
b iert
ĠBran chen
S U
ĠSchw ester
ĠNach w
ĠSoll te
Ġverst anden
r unde
ĠL udwig
Ġw eite
ĠBes itz
s icherheit
fol ger
Ġmax imal
ĠHÃ¶ hen
kehr t
ĠErw art
lapp t
Ġre al
F r
Ġide en
ĠReg istr
ĠMus e
ar ben
ĠKl Ã¤ger
stehen den
Ġkein es
ĠGraf ik
Ġ ..
ĠWir k
Ġabsol v
r as
tern e
ĠSchm uck
ĠR ennen
l Ã¶sen
Ġbet rieb
ĠL ast
ĠKarr iere
Ġpro duziert
ĠSon g
ĠLie b
Ġf eiern
ehr en
ĠCo ach
sch merzen
ĠFrem d
ĠGel Ã¤nde
ĠSystem e
Ġd ran
ĠEr klÃ¤rung
Ġm Ã¤dchen
d is
ĠQu elle
ick er
wer ken
Ġfrei will
Ġbeh alten
ĠhÃ¶her e
Ġs itzt
end ung
ĠSch ok
sto ÃŁ
ĠfrÃ¼ hen
Ġerz Ã¤hlen
Ġkeiner lei
ĠB em
m ag
Ã¼t te
ber ater
ĠMittel punkt
âĢľ -
ĠC ity
Ġverst eht
Ġsex y
ĠHoch schule
Ã¤r t
id s
k k
" -
d ige
co de
ĠKl im
ĠKlei dung
ĠRo bert
em m
az it
ĠEr weiter
Ã¤r ten
ĠK enntnis
ĠBet reiber
ĠBe wertungen
ĠEro tische
p ern
ĠW esen
ge fÃ¼
osoph ie
D ar
Ġver mitteln
Ġgesp annt
ĠWir klich
ĠN Ã¼rn
z iger
hÃ¤lt nisse
ĠP ok
r Ã¤t
ĠSp anien
ĠAuss age
ĠAus stattung
ĠD ollar
ĠC an
ĠS ens
G H
Ġdigit alen
Ġst eigt
Ġdar gestellt
ĠVor stellung
Ġhand eln
Ã¶ hnen
lich ten
Ġpass ieren
minister ium
Ġ 000
Ġwir k
ĠAgen tur
Ġs ystem
ĠK uchen
Ġge Ã¤ndert
ĠH en
ĠÃľber rasch
ĠOption en
Ġbe geg
Ġl og
Ġbel iebt
Ġgel angen
mel den
ĠRei fen
h or
ĠBer eits
H o
ĠerhÃ¶ h
ĠGe org
ĠAuss icht
Ġ3 9
l an
St ud
Ġvers ehen
Ġge prÃ¼
Ġst ammt
fern ung
Ġ200 1
Ġrei fe
ĠB atter
d re
rÃ¼st ung
ĠC al
D amit
ĠSeni oren
Ġeigen er
sch lagen
ĠB re
ĠOb jekt
des ign
ĠR ang
Ġsp Ã¤t
imm ern
ĠP ause
ĠF ischer
ĠAuf wand
Ã¼l l
s dorf
ĠR uf
gem Ã¤ÃŁ
m as
ĠVier tel
ĠWolf gang
Ġschl imm
ĠGr enze
ĠDi pl
Ġst ammen
Ġkl ingt
stÃ¤t te
Ġab gesch
ĠFrÃ¼h jahr
ĠInd ividu
D S
gl Ã¼ck
Ġf Ã¤hrt
Ġs enden
B o
ĠSchÃ¼ler innen
eg a
Ġgeb raucht
gen er
p ers
Ġbeob achten
ĠT rick
Ġdeut scher
4 2
hand lungen
ĠW M
ĠLie bes
ĠW in
? âĢľ
b ay
ic al
Ġv ideo
ĠF ass
Ġh Ã¶rt
8 8
ĠStrate gie
ĠVer sch
ĠprÃ¼ fen
ĠFrÃ¼ hl
ĠRe chn
f ur
on ym
Ġk auf
ĠC am
ĠM ak
ĠPar lament
ĠC H
Ġeinger ichtet
w ein
ĠF und
Ġbetr achtet
ĠSch ritte
iz ierte
Ġv ia
ĠOb wohl
m at
ĠTurn ier
ĠTemperatur en
Ġsamm eln
af Ã©
ĠAn zeigen
ĠC ol
be cken
ĠAn n
ar akter
ĠnatÃ¼r lichen
R O
ĠK Ã¼ndig
ĠG rau
Ġt ra
ĠR em
ĠC ap
ĠE ier
ĠG ru
Ġd ritte
kir che
co unt
Ġsch lieÃŁen
ĠSch lei
ĠZ un
D e
ĠGesch windigkeit
Ġber ichten
Ġ orien
eren z
St and
ĠO hr
in er
gÃ¤n glich
Ġweiter lesen
ĠKind es
Ġposit ive
g a
leist ungs
Ġst euer
ĠDek or
ĠA tem
ĠS old
is ierte
A d
at es
ĠGesch lecht
Ġunmittel bar
ĠR ing
eta ill
ĠGemein den
Ġneue sten
Ġm oment
ĠRo hr
ĠI N
will igung
jahr es
ĠEl emente
Ġdurch schnitt
Ġkompl ette
Ġbest immen
Ġbisher igen
ĠH Ã¤nden
Ġstar tet
et h
Ġmit ge
Ã¤ ser
ĠD ist
ĠSch merz
Ġhier zu
f alen
Ã¼cksichtig t
Ġpl anen
Ġnoch mals
frei en
pr ession
rei he
umin ium
Ġverb inden
Ġm ach
s ung
d ach
B itte
g ra
Ġet abl
he ben
pro jekt
ĠVerl ust
ĠRein igung
Ġempf ohlen
y e
ĠIs rael
p at
ĠBaum w
Ġsch au
st unden
ut sch
ĠGen au
mm ern
ĠW urz
r amm
Ġge arbeitet
b a
sp unkt
ĠS Ã¤nger
ĠZus Ã¤tzlich
el be
Ġan zeigen
Ġh Ã¼b
n eu
4 1
wei ten
gend es
ĠA R
ie ur
ig te
ver kauf
Ġgel ernt
ĠQu ellen
ĠY ou
ron en
Ġr ichtet
il itÃ¤t
gl as
Ġmax im
Ġ( âĢŀ
fÃ¼hr ungen
rit ts
S oll
ĠDi agno
ahr ungs
Ġproblem los
Ã¶r sen
ĠP aket
eb el
f it
ĠAn gel
ĠðŁ Ļ
au ff
V iel
ĠEing ang
br an
Ġirgend wo
Ġschwer en
Ġv irt
Ġd unkel
ĠBe ob
n d
ĠGr enz
ĠLeiden schaft
k Ã¶rper
ĠD ritte
ĠKre ativ
Ġn utzt
em pl
Ġt hem
ĠAb stand
Ġso bald
ĠKrie gs
Ġkennen lernen
201 3
ĠW all
k Ã¶
ĠDa vid
ĠMÃ¤n nern
ĠBesch reibung
ĠVerantwort lichen
Ġlie f
Ġmein te
Ġdiver se
Ġnie d
ĠTab ellen
Ġauf gebaut
Ġent spann
Ġbet reffen
ĠTe e
o us
los igkeit
Ġge p
ĠVerk Ã¤ufer
Ġvert rau
ĠGr Ã¼nen
ĠWien er
az z
a a
ind lich
at tet
Ġem otion
st immt
Ġk enne
ei cht
ĠT asche
produ kte
c am
Ġhaupt sÃ¤chlich
ĠEr gÃ¤n
Ã¶pf e
Ġl Ã¤dt
Ġsch icken
ĠG umm
tem peratur
ĠGer ichts
w est
In ter
Ġzuk Ã¼nf
Ġdrau ÃŁen
e e
Ġoffen sichtlich
Ġbesch lossen
ur st
Ġg rÃ¼
c c
ĠRei hen
n Ã¼
Ã¤ch s
Ġm achten
ĠS em
gemein de
ell schaften
ĠHaus halt
ĠD re
s ack
t ra
ĠL ohn
Ġbe stens
amil ie
ĠO ne
ĠWeb s
Ġ rad
Ã¼r gen
G ro
Ġeinge stellt
h u
Ġfunktion ieren
ĠSu pp
eut r
ĠVert eidig
W elt
8 5
wei chen
ĠVer br
Ġhin sichtlich
ĠErinner ung
ĠRe alitÃ¤t
ĠPfer de
ĠGegen teil
Ġehr lich
Ġbe zahlt
ĠM r
ĠhÃ¶ch ste
Ġc o
Ġerwei tert
Ġj ur
Ã¤ hne
ĠApp s
ĠKomment are
w enn
Ġdam al
ver gleich
ĠF lex
Ã¶ m
ĠzusÃ¤tz lichen
ĠSch lieÃŁlich
all el
ĠN ik
b ilden
Ġg gf
Ġan spruchs
Ġver geben
ĠR essourcen
ĠGro ÃŁen
ten d
ĠN av
ĠhÃ¶her en
ĠVer pack
de cke
ĠH istor
Ġn ennt
dig ung
ri p
Ġsch rei
ĠStim men
Ġschwar ze
Ġt Ã¶
ĠÃĦn derung
ĠV ir
Ġum ge
ĠE ck
Ġges prochen
ĠT rum
ĠBek annt
ĠAn wendungen
o ÃŁ
o ter
ĠErn st
ool s
ĠM ischung
re cken
Ġhochwer tigen
Ã¼n den
ĠRe paratur
n itz
ont o
achelor arbeit
ĠH aust
stÃ¤ndig keit
Ġwir ksam
Ġher z
ĠAus bildungs
ĠGe werbe
ber eiche
ĠBer eit
Ġbein haltet
ĠKl ang
Ġunter scheiden
ent wick
u el
m Ã¤n
p aar
kom pl
ĠSÃ¼ den
hand lung
Ã¼r zt
ĠH Ã¶ch
ho tel
Ġges und
do or
l ub
ĠÂ °
ĠA fr
ĠTw itter
ĠWe sten
Ġb un
Ġb uchen
ĠZ auber
D P
ĠgenÃ¼ gend
ĠBo ot
Ġver anst
Ġent f
kl ar
ĠWider stand
D E
S el
ĠC O
Ġvor zu
ie ht
ĠO ster
as ste
ĠB Ã¤
Ġe chten
Ġspann end
ĠMont age
Ġgew isse
system e
ĠLux us
Ġerfolg reiche
ik at
zug s
ĠF icken
ĠhÃ¶ch sten
ien s
Ġal ter
k aufen
ĠEdel stahl
Ġges undheit
stÃ¤t ten
ĠA B
Ġsel ben
ĠFl uss
l ings
Ġzunehmen d
I R
ĠDien ste
ier er
S S
h i
7 7
ĠHÃ¤nd ler
ĠW ik
Die s
ĠE gal
ĠA ktionen
a ste
Ġent stand
Ġk Ã¼nftig
ĠArb eiter
ger echt
ast rop
Ġverd ienen
Ġver an
S chn
and t
Ġerfolg reichen
f lex
ie den
ĠVer n
Ġbet rieben
ro st
ĠKir ch
Ġange kommen
Ġwes halb
Te am
J ahr
r ation
9 8
F orm
Ġh olz
Ã¼hr ung
Ġw eich
ĠK le
ar l
ic o
Ġe v
ell a
ĠMus kel
b te
str ich
st em
kÃ¼n fte
ĠUn i
ĠS yn
tag s
Ġsei d
Ġhier fÃ¼r
st il
ĠP ack
ĠEin stellung
z ehn
Ġg ra
C om
ĠW LAN
ĠMil itÃ¤r
ĠL ok
ĠBe ziehungen
qu ar
ĠBe weis
ĠZentr al
eig ern
g i
Ġsing le
Ġber lin
ĠmÃ¶chte st
uch er
akti eren
lei ster
Ġan genommen
sp er
B is
ĠG eile
Ġex klus
ĠA sy
ĠÃ¼ber t
Ġeinz igen
ĠA spekte
F A
ĠFÃ¤l le
war d
ĠAn sprech
Ġa pp
ĠAlex ander
en ken
ĠKlo ster
ĠFlÃ¤ chen
Ġfreund lich
yp en
Ġbet rifft
bar es
ĠH abe
h aut
ĠSchm id
ĠArch ite
Ã¶n e
ĠD DR
Ġste ckt
Ġdigit ale
il fen
Ġspiel te
ver schluss
Ġ4 2
ĠAuf grund
Ġer setzt
ĠmÃ¤n n
bau ten
wÃ¤ sche
Ã¼ hen
ĠSamm lung
chen ke
ĠVo gel
ut h
ĠZahl ung
Ġver mittelt
ĠZ eich
h orn
um p
ĠPersÃ¶n lichkeit
ht t
ĠM asse
Ġd auern
othe ken
verb rauch
Ġkosten losen
Ġb itten
ĠSch ie
ĠKom petenz
Ġre duziert
Ġeindeu tig
Ġhilf reich
ĠW art
Ġgew issen
Ġden k
st ab
scha ff
Ġverbesser t
ĠInstall ation
ann er
ĠBei spiele
ĠSte u
ĠAll ein
ĠDen ken
Ġh off
ol ine
anz ler
ĠG ab
Ġro man
or fer
p olit
s c
ĠF utter
ĠIniti ative
w Ã¼n
k ern
Ġb au
ĠHaupt stadt
ĠKateg orien
ĠGl ob
sk on
Ġlin ken
ĠL ein
Ã¤ sser
ĠDatenschutz erklÃ¤rung
Ġs w
Ġange passt
ĠT rÃ¤ger
Ġleist ungs
Ġimmer hin
ĠSie ger
form ular
ĠE hr
ĠVor gehen
ĠM om
ĠSt att
Ġbeteil igt
ĠBran che
we be
ĠA st
f Ã¶r
ĠR Ã¤ume
ĠBeweg ungs
behÃ¶r de
Ġklass ische
geb nis
form ance
ĠBerat ungs
mer k
Ġorganis iert
Ġge fahren
O n
Ġn a
Ġein sch
Ġgeb lieben
Ġvorber eitet
ĠWor ten
ograph ie
au men
zeich nete
ĠgewÃ¤hr leisten
Ġoft mals
ĠVers orgung
Ã¤t zt
m ass
ĠEr schein
F ahr
Ġevent uell
Ġs erv
Ġber Ã¼cksichtigt
Ġsol ange
Ġgel ingt
ff el
ĠE mail
Ġg laub
Ġorden tlich
ĠgÃ¼nst igen
st Ã¤d
) ;
M ark
ĠO tt
Ġdie jenigen
ĠSch uh
T M
a sten
ĠBestimm ungen
ĠZu ge
st rom
Ġj apan
is ion
Ġab hÃ¤ngig
ĠAus fÃ¼hrung
ĠV al
ĠBon n
Ġver p
ĠGÃ¤ sten
umen ten
ampag ne
Ġch ines
fÃ¤h ig
D ass
ĠAl te
ob ald
Ġbrau ch
Ġgeb oten
k um
ĠK Ã¶
ĠW illen
ausen de
ĠD VD
Ġberech tigt
Ġ6 00
Ġschwar zen
ĠE cke
ĠP last
tig ungs
or fen
eig nen
ĠTrotz dem
em it
schl Ã¼sse
H aus
ĠT om
S ehr
ĠGlÃ¼ck s
Ġsp iele
Ġk alt
ĠInst itu
Ġzu g
spez if
ĠFil ter
ĠM uschi
ĠfÃ¼ hl
Ġspez if
av a
ĠBestand teil
Ġgleich er
Ã¤hr ungs
ĠM ilf
ĠI dent
ĠJohann es
Ġverh indert
ĠA L
Ġsp Ã¤testens
l Ã¤
gr enzen
ĠAn sicht
ck te
ĠI slam
ĠLand wirtschaft
nehm ern
Ġges amm
Ġst imm
ĠSon gs
at ers
Ġein setzen
ĠZu stimmung
ĠA dr
ĠWell ness
ĠmÃ¼s se
ĠZ ivil
ĠK ost
ĠWohn ungs
ĠZeu g
ti ere
Ġfest gestellt
il ber
ot te
ĠSchÃ¶n heit
Al l
h am
N atÃ¼rlich
zen e
ĠH alt
S ti
ĠWohn ungen
k i
ĠMusik er
ol ogen
ĠOpti m
bild ungen
d ar
ul a
ig ungen
Ġgel Ã¶
ĠSt ich
ĠR et
rein igung
ĠD igital
ĠAd vent
o ÃŁen
Ġan f
Ġspann ende
Ġzw Ã¶lf
ĠH Ã¤user
ĠGe gend
br ing
ĠH allo
ĠInf rastruktur
lei ÃŁ
ĠTod es
ĠH ot
ĠUr heber
Ġden kt
Ġend g
ĠX xx
ĠVarian ten
Ġdir e
ĠStud io
ĠK andid
iz ierten
ĠWil helm
un e
Ġab sch
ĠS Ã¤
v gl
k ord
Ġnotwend igen
k ar
Ġrech nen
g igen
ĠDort mund
Ġver wir
qu enz
ĠF igur
gesch oss
Ġer Ã¶ff
ĠPr ess
ĠMehr heit
ĠKonkur renz
wer fen
a ft
Ġbe zÃ¼glich
ĠG itar
l uft
s wÃ¼rdig
ch ester
G E
ĠAn s
Ġst olz
ĠO sten
ĠII I
Ġst ruktur
ĠArch iv
Ġk Ã¤mpfen
Ġo hn
ĠEin heit
Ġst il
pap ier
ver hÃ¤ltnis
ĠZ in
D aten
Ġide ale
Ġm il
ver halten
ĠHam burger
zen s
g Ã¼nst
ĠD ate
ĠPrem ium
ĠH ell
haus es
Ġn erv
ĠAnder e
isch of
ĠFlÃ¤ che
t or
beg inn
ir r
ĠEr z
Ġg hostwriter
Ġhe f
Ġdefin itiv
Ġver teilt
ĠEin stellungen
ĠHa ftung
ĠÃ¼berprÃ¼ fen
le y
Ġverschieden er
ĠOl ymp
kun st
Ġbeant worten
mitglie der
ĠVerÃ¶ffentlich ung
ov e
ĠErk enntnis
s ichtigen
ĠH ab
le un
sen den
Ġkont akt
R A
ĠGrie chen
off er
f red
Ġp erson
ĠStÃ¤d ten
p la
ĠSer ien
at ischen
ĠðŁĻ Ĥ
lÃ¤ss lich
sch ech
fel der
ĠBe wohner
Ġunglaub lich
Ġf roh
form ation
ra y
Ġbeweg t
Ġk Ã¼nstler
app e
Ġerz ielen
ĠGefÃ¼ hle
Ġsch ein
Ġg reifen
k m
ĠHilf s
gesch ichten
Ã¼ cher
ĠjÃ¼n ger
ĠH ir
Ġ0 6
ĠEr l
m mer
N ur
ĠAl uminium
ĠR ich
ĠK la
201 2
z eits
olog isch
ĠZut aten
Ġt Ã¼rk
SG VO
Ġw Ã¤r
wissen schaften
ĠKl eine
Ġansch auen
ĠZ war
9 6
ĠEurop as
ĠMÃ¼n ster
ĠFr ucht
ĠPorn os
hÃ¶ hung
ha f
ĠTÃ¼rk ei
Ġs ub
l im
ĠBet racht
ĠZwei fel
ĠKon d
ĠErwachsen en
ĠP ri
Ã¤l lig
Ġ ter
ĠDu sche
ĠUm stÃ¤nden
ĠGar antie
ĠGemein sam
b ro
Ġv ari
Ġse par
ĠKar ls
Ġm iss
ĠKap it
ĠRe aktion
ĠNeu es
Ġl i
Ġt op
Ġdrin gend
est ern
ab schluss
ĠEr f
ĠBe arbeitung
ĠNach frage
r ol
Ġletzt lich
ĠSp enden
aus schuss
in sel
ĠF al
ĠJu den
ĠkÃ¼ mmern
ĠVer pflicht
ĠT Ã¤ter
de x
ĠAn satz
y d
ĠStel l
ĠGast geber
Ġso was
U r
ĠLei cht
ant eil
ĠEben so
Ġbesonder es
Ġschn ellen
ĠDis play
r esse
Ġehr en
ĠT arif
Ġf eier
Ġh om
Ber lin
Ġwei ÃŁen
L eist
rit zen
besch ichtung
Ġbesser en
Ġanal ys
ĠGanz e
od es
Ġb raun
amer a
ĠPriv ate
ĠN ackt
Ġer m
ar tigen
Ġwenig stens
produ ktion
ĠV an
spro gramm
ĠAn sprÃ¼che
ĠFlÃ¼cht linge
ĠMotor rad
ĠT ank
Ġnach fol
Ġauf nehmen
B ook
Ġge prÃ¤gt
ĠAuf lage
ĠF ried
iel te
Ġst arte
st rÃ¤ger
g no
ĠSp ar
Ġsowie so
M ed
sch iff
ag ra
zen ten
z one
ĠForm at
ĠSchul ter
Ġero tische
Ġt iefer
f akt
ĠTerr or
and a
ĠF antas
ĠO ft
Ġdar stellen
ĠS uchen
Ġver stÃ¤nd
ĠPolit iker
w inkel
Ġsch lagen
sch ritt
S C
Ġehemal ige
W Ã¼rt
ĠN ase
on us
ĠÃ¶ k
ĠS ituationen
othe ke
g rad
Ġm Ã¼
ĠFe der
ĠM agen
Ġt au
ĠKr atz
eist ern
rich ter
ĠK alender
m Ã¤r
Ġsorg fÃ¤l
as cht
Ġvor genommen
ent al
ĠN Ã¤ch
Ġan sonsten
le ute
Ġbestehen den
men s
ĠC loud
Ġzu ge
D em
ĠIn g
ĠSchw Ã¤
S te
ei s
erk ennung
gr enz
Ġdeut schland
G eb
ĠQualitÃ¤t s
Ġschle chte
ĠgÃ¼nst iger
n immt
ĠN RW
ond s
Ġge g
ĠDi abet
ĠN euer
Ġt rinken
ĠKlei der
b rÃ¼
ĠReg ionen
sp reis
ĠDu ft
ĠGeh irn
ed t
ĠThe orie
P al
t u
f leisch
eh le
k inder
urop a
fahr ten
ĠBe sten
inu ier
ĠM ach
Ġf ern
Ġ[ ...]
Ġle gte
ĠR ud
N r
ĠI ll
ĠUp date
Ġen glisch
hÃ¤n ge
w ahr
ĠFrank en
pl ant
Ġhin weg
bo ard
Ġsie he
wor k
ĠHaus es
Ġqu asi
Ġte st
ĠW en
amen s
ĠOr te
Ġdek or
M us
zeich nungen
ĠGen uss
E C
kon zept
Ġs im
ĠSp er
g yp
eint rÃ¤ch
av e
scha fter
WÃ¼rt temberg
gr Ã¶ÃŁ
Ġw eist
o ir
ĠPol en
ti al
Ã¼ck t
ĠbeschÃ¤f tigen
ĠGrÃ¼n dung
ĠBe am
Ġfor dert
ĠBet rag
Ġt raum
m pf
St art
n ur
Ġg arten
7 6
---- ----
ĠC a
. Â»
Ġer worben
e f
ĠWerk zeug
Ġ0 5
Ġoffen e
Ġverl angen
Ã¼r ger
eh in
ĠursprÃ¼n glich
ne y
g ibt
Ġph ys
ĠBl att
rank en
fÃ¤l l
Ġfest ge
ap s
Z us
ĠSchwanger schaft
af el
ĠFakt oren
ĠEint ritt
Ġn ix
Ġn ackt
K E
Ġviel mehr
ĠMer kel
ĠB raun
ĠEinsch rÃ¤n
k w
ĠS n
Ġab geb
b ogen
ĠB reite
je ktiv
an alyse
ĠAus sch
ĠAn liegen
ĠAus flug
Ġun gewÃ¶hn
sp olitik
test et
ĠUrs ache
Ġm obile
grÃ¼n den
utt on
ĠWor ld
ĠProf essor
ĠJ ed
Ġange kÃ¼ndig
Ġsch laf
ett bewerb
ĠPart ie
ĠK atze
Ġau st
Ġman chen
ast ian
C hr
ĠEng land
ĠK ass
ĠJ agd
vor sitzen
ĠGeh alt
n acht
hal len
ist in
ho fen
ĠAn gabe
Ġd ok
âĢľ )
c ore
ra ht
ĠW ellen
B ahn
ck s
an w
ĠMan ager
al a
at a
br ig
Ġentwick elte
. âĢĿ
s au
od urch
ĠEr ste
ĠNÃ¼rn berg
Ġprakti sche
ĠAnsprech partner
S ervice
Ġ: -)
Ġkombin iert
ĠDem okratie
at iver
ein satz
ĠVor stellungen
bet rag
Ġd etaill
p ot
ĠKon zentr
ĠL ade
Ġch at
ĠServic es
ĠSpann ung
ĠCo de
Ġabwechs lungs
ĠSl ot
Ġt at
ĠHer kunft
du str
ĠVers icherung
ĠM aschine
Ġansch lieÃŁen
Ġqu alit
Ġkl are
Ġjem anden
l og
ĠM c
ĠDat um
organis ation
reg ion
Ġv ideos
e ten
Ã¤ch eln
ĠS Ã¤u
p os
is ierten
ĠPro stat
ĠHand eln
ĠmÃ¶ gen
tik eln
our en
ĠIn spir
. ),
ĠL os
Ġro ten
itÃ¤t s
Ġd is
Ġsch ien
Ġn ord
Ġsch licht
ib ilitÃ¤t
Ġbe ziehen
ĠBild schirm
ĠS orgen
Ġinstall iert
st ufe
ĠMa ÃŁe
ĠAm ateur
arr iere
ide en
ĠG alerie
Ġerreich bar
ĠfrÃ¼her en
Ġun ternehmen
Ġanges ehen
ĠD am
ĠEin ladung
B N
Ġster ben
ĠBer ech
Ġbe ding
ĠFern sehen
ĠjÃ¼n g
ĠAus bau
Ġverb indet
ĠLin ien
ie hlt
ĠergÃ¤n zt
st eil
Ġdir ekten
ĠgewÃ¼n schten
ĠÃ¼ber legen
ĠSu bst
ĠSchw imm
s berg
ĠVorder grund
ĠAus einander
âĢ ¢
ĠF eier
ĠAn schlieÃŁend
Ġbesch reibt
ok oll
Ġ199 8
Ġm y
or ge
Ã¤m pft
ĠKrÃ¤ uter
ĠIntern ational
ĠF ast
an bieter
t ritt
ĠBundes regierung
Ġ4 4
ĠVerÃ¤nder ung
ĠK G
Ġj Ã¼d
ser ie
B ay
ĠB ach
ĠMer c
Ġ4 6
ĠGr ab
geb Ã¤ude
Ġkont akte
Ġpl us
or et
ĠEin wohner
ĠÃľb ungen
ron e
Ġprofession elle
ĠPartner suche
Ġinteress ieren
t he
ĠSe c
ĠB enz
Ġm Ã¤ch
reich er
Ġkein em
Ġk lin
le hen
wen der
ĠL euten
inform ationen
ir ol
ĠAuftrag geber
Ã¤ gt
ĠD or
Ġgl Ã¤n
Ġun zÃ¤hl
ĠAu dio
Ã ¨
prÃ¤ sident
Ġger aten
Ġb ay
ĠRes erv
Ġaus ser
s icher
ĠwÃ¼n sche
zeu gung
B A
Ġklein ere
gew inn
B est
f euer
Ġo k
ichtig ung
Ġ199 9
Ġlau tet
F unktion
ĠMark us
ĠAn ruf
ĠSol ar
ĠR enten
ĠAl pen
W o
st eine
it ation
ĠPl Ã¤tze
Ġunter sch
Ġr as
ĠJ ubilÃ¤um
hÃ¤n dler
Ġunter en
ĠC y
ĠJe de
bau er
Ġz it
jÃ¤hr iger
be stand
ĠOrganis ationen
ĠAsy l
Ġf a
ĠIn halts
beh alten
plan ung
Ġge fÃ¼hl
Ġda vor
ĠWe gen
fÃ¶r m
Ġintegr iert
zw ungen
ĠEnt fernung
Ġn ehme
wohn ungen
D enn
Ġb ar
ĠGew Ã¤hr
ĠVoraus setzung
vers icher
wer bung
ar ischen
ĠH essen
ahn sinn
tre ff
Ġwo hnen
ĠN ackte
ĠTer mine
Ġverl angt
bed Ã¼rf
ĠSt aub
et tet
ĠF uss
iel ler
ĠM eld
ĠGetrÃ¤n ke
ĠEr fÃ¼llung
ĠA v
ĠÃ¤lter e
Ġgew ann
ick te
In s
ar y
Ġeffe ktiv
Ġd omin
schnit tlich
Ġo per
wach ung
Ġbed arf
ĠAn hÃ¤nger
Ġw odurch
F rei
ĠP reisen
Sel bst
Ġs l
ĠBeg r
ĠSp recher
p reise
ĠBezir ks
Ġkont inuier
ĠD Ã¤m
t hm
I A
Ġeinzigar tige
k Ã¼r
ĠtÃ¤ glichen
men sion
ĠAuf lÃ¶sung
ĠAllgem einen
Ġum s
Ġgro ss
ĠEr b
ra k
Ġr ie
ĠA ff
c ort
ial en
Ġhei ÃŁe
ĠVor schriften
Ġ4 9
ron ik
ĠDat eien
z elt
Ġverb oten
Ġero tik
Ġgez ielt
m il
ot herapie
beh andlung
euch ten
ĠPh ase
Ġsicher e
ad el
ahr t
den s
b rit
ul d
no w
ĠAu str
ĠAll gemein
ĠY oga
ĠPhil ipp
b rauch
M A
ĠGr amm
Ġmensch lichen
ver arbeitung
Ġend et
ehm igung
ĠSehen swÃ¼rdig
ĠV ielen
ĠPro zesse
beweg ung
ĠNieder s
ĠS auer
ĠL en
voll er
ĠÃ¼berr ascht
ĠF iguren
ĠNutz ungs
so zial
ĠFor scher
Ġsich eren
ĠF rist
ru st
ĠRis iken
i am
ĠSp uren
ĠSo ft
Ġfrag te
an spruch
F re
Ġun kompl
ĠfranzÃ¶s ischen
Ã¶ h
Ġreag ieren
Ġerst aun
V ert
reu e
M en
ĠO ma
te am
klÃ¤r t
Ġle er
ĠWissenschaft ler
ĠKon sequ
ar ische
ĠAuss agen
Ġohn ehin
ĠgewÃ¤hr leistet
ĠM ix
Ġschwer e
ĠAn walt
sch Ã¶nen
wo od
Ã¼ bung
ĠH it
Ġdire kte
Ġs h
Ġgesch ieht
ĠL och
de st
ĠP ir
fen ster
Z eit
g ige
ah e
ĠInf o
ĠNach hal
Ġf uer
ĠFl Ã¼ss
s recht
Ġbetr achten
ur er
Ġzuverl Ã¤ss
ĠSch icks
ĠgeprÃ¼ ft
ĠGe fahren
ĠCh or
verl ust
Ġverurs acht
ĠTÃ¼r en
ĠTour ismus
Re cht
war en
n amen
ĠgelÃ¶ scht
lie ssen
Ġge fertigt
Ġrecht zeitig
schein lichkeit
rie ch
Ġw Ã¤chst
verl auf
Ġfot ograf
Ġ8 00
Ġzeich net
ĠDial og
sch wer
zus ehen
ĠJ er
Ġp ost
ul Ã¤r
Ġs ign
Ġn ein
ĠI V
ĠM esser
ĠSchau spiel
Ġy ou
ĠS C
ĠStern e
ĠFot ograf
ĠHand lungs
st itu
rÃ¤ der
ka sten
ĠT um
ĠD ame
ĠS ab
l Ã¤uf
g y
p Ã¤ck
Ġkon kre
ĠstÃ¤r k
ivers itÃ¤t
Ġerk annt
ĠRelig ion
ĠZ y
leit ungen
Ġf rage
ĠC ent
Ġ199 0
An geb
ĠverstÃ¤r kt
B esch
ĠBeschwer den
ĠRab att
ĠSympt ome
ĠEin willigung
hÃ¤n gen
hr t
ĠBl Ã¼ten
ĠPol iz
Ġdiver sen
s et
Ġver arbeiten
Ġsp ont
or se
ungsver fahren
l assung
aut omat
ĠEin er
ĠBetroffen en
U p
org ungs
ens ion
Ġschn eiden
ĠGr unde
geb iete
ĠAc cess
ĠH altung
ĠHom osexuell
g ing
Ġerk enn
Ġzentr ale
ĠGleich zeitig
ĠP u
o fen
Pro f
ĠBM W
Ġunter sucht
ĠK am
ĠAuft ritt
ĠK ul
w id
âĢĿ .
Ġt rat
kon om
Ġnach voll
ĠðŁĺ ī
Ġp art
ĠFest ival
ein s
ĠBes itzer
Sch on
6 8
Ã¼l ern
C o
Ġle ck
ĠStÃ¤r ke
ĠCamp ing
Ġtradition ellen
vers ion
bl og
ĠE ffekt
ĠÃ¶ fter
Ġent scheidet
ĠEx istenz
Ġfest stellen
Ġh Ã¤ngen
ĠKompon enten
ĠHand werk
vis ion
Ġn ot
n es
Ġge testet
Ġrel igi
ĠSpiel automaten
ĠRe publik
Ġd rÃ¼ck
ĠAk ku
ĠBe werb
Ġamer ikanischen
fÃ¼hr te
drÃ¼ck t
ĠS ur
Ġbrau che
il er
ĠMen Ã¼
ĠDaten bank
ĠQu er
ĠMitglie dern
K inder
ĠUrlaub s
ĠH itze
ĠSch le
ĠMe tern
w s
ĠEn gel
Ġge liefert
Ġh ieÃŁ
ĠL ippen
ĠT enn
h au
Ġschle chter
ĠUnter schiede
schl Ã¼ssel
ĠHein rich
ĠAbt eilung
Ã¤ cht
Ã¤ÃŁ t
ĠFl ucht
ĠL ook
Ġgesch ickt
Ġgro sse
Ġer werben
Ġsch lafen
ĠBÃ¼ ch
Ġst rate
ĠSold aten
Ġin halt
ĠS ar
i ÃŁ
arch itektur
ord nen
ran s
ĠM aus
or a
ĠSch alt
n Ã¶
ĠSchwier igkeiten
b ten
at in
ot ter
ĠLi zenz
ib le
R o
ĠQuad rat
Ġzwei mal
Ġv olle
ĠEntwick lungen
gesetz es
zut age
Ġch ron
Ġgener ell
l et
Ġsp eichern
Ġb reite
as ser
Ġbeeinfl ussen
ĠB aut
T ER
kl ang
âĢ¦ .
dr Ã¼cken
Ġ Ð
Ġst at
n am
ĠS S
ĠPfer d
201 1
G o
Ġallgem eine
Ġ 00
ĠS eb
an isch
Ġver folgt
Ġwei sen
eut zutage
ĠB a
metho den
Ġsch einen
Ġf uhr
ĠOber flÃ¤chen
ĠSex kontakte
Ġger inger
ĠA kt
ĠWeiter bildung
ĠKom mission
prÃ¤ sent
ĠKinder garten
ĠD ampf
Ġkat hol
ĠLie d
nehm ung
Mit glie
Ġeinge tragen
Ar t
sp eicher
ĠgroÃŁ zÃ¼
ĠL ack
H E
ĠKo hlen
Ġ0 4
ĠTour isten
Ġhal te
pp s
ir l
ĠF ra
ĠProblem en
ĠDes igner
ĠSp ekt
? "
ĠSchok ol
Ġtats Ã¤ch
ber ichte
ĠK ro
ĠA si
Ġbevor zu
Ġst Ã¼r
och e
ĠUnter lagen
Ġwer fen
ĠInvest ition
ĠD unkel
Ġl anger
Ġmoment an
anz eige
i ment
gesprÃ¤ ch
ĠBew usstsein
ĠAus kunft
O C
Ġwissenschaft lichen
ĠJ Ã¼rgen
Ġver kauf
Ġgel assen
Ġch em
kont akt
Ġ- -
Ġar ch
Pro gramm
ĠU lt
Ġlie ÃŁen
ĠR auch
ĠRechts anwalt
Ġschrift lich
sen z
ĠBet reu
Ġgegeben en
ĠHÃ¶ch st
ret ung
9 7
Ġab ges
ĠEr stellung
Ġn ette
z end
ir men
ĠRech ner
ĠTre ff
te ste
Ġvor n
Ġposit iven
pp chen
anz lei
s werte
ĠHer stell
Ġgetr ennt
mitglie d
Ġein stellen
ĠE vangel
Ġober en
ĠMatt h
ĠGesprÃ¤ che
.... ....
brit ann
Ġkurz em
il ian
Ġ Ã¤lte
ĠMo der
Ġerk ennt
stÃ¤r ke
p erson
Ġzu gÃ¤nglich
Ġf ragt
ĠStruktur en
Ġr ichten
z ell
ĠP od
ĠSti ft
ĠGew inne
b ein
ĠMedikamen te
o ffen
ĠL ap
ĠPro jekten
dien ste
Ġempf iehlt
ĠKontakt anzeigen
ĠGegen wart
Ġd ynam
Ġnach zu
stell bar
ĠÃ¤hn liche
ĠGesetz es
ĠF unk
ĠErwart ungen
Ġ; )
Ġerw achsen
Ġaus sieht
aus bildung
Ġunter b
ĠG erne
ĠDi ff
Ġzu stÃ¤ndig
ĠSp ur
Ġsch aut
Ġersch ien
Ã¤um t
ĠS ich
Ġbe endet
ie der
p um
Ġgesch ehen
ĠRe volution
f amilien
ĠN ahrung
ĠPort al
Ġ eignen
Ġber uh
Ġg o
le der
ĠÃ¤lter en
z nei
reich es
ffe kte
ĠDro gen
ĠZ en
Ġent tÃ¤u
ĠMie ter
ĠTele kom
kÃ¶ mm
us ion
k ra
b orn
Ġf ix
ĠSeiten sprung
Ġglau bt
Ġ8 5
ĠT un
Ġan ger
ĠFinanz ierung
ge laden
ac t
Ġdes ign
Ġd ick
ĠSchwar ze
ĠUrs achen
ĠIn gen
zu stand
Ġwar tet
Ġbekom me
ĠSp azier
ĠRett ungs
ex t
ĠKart off
w es
S eite
IN G
sch icht
D A
Ġ4 7
ĠL ange
Ġlo cker
Ġf liegen
ĠTe ppich
Ġkont aktieren
mann schaft
ĠApp l
Ġzu hause
ĠGeb Ã¼hren
schei d
Ġi P
Ġkon sequ
ein richtungen
ke a
ĠS us
ĠEinkauf s
Ġbe ziehungs
ra c
ĠEl ement
ad ies
sen dung
ĠG re
ĠKlei d
ĠArbeit splatz
uss y
Ġin telligen
ĠAt om
Ġerheb lich
ĠKonfl ikt
ĠT u
ĠL iga
gesch windigkeit
f inanz
ĠA ro
Ġwohn zimmer
ĠKonz ern
al so
v ort
ĠÃ¼ber wiegend
ĠPro gramme
Ġgenau e
ĠAut omat
fur ter
ĠR au
Ġeiner seits
Ġnorm ale
id a
Ġabend s
al tete
Ġeh e
u ver
ĠM os
R ei
le ch
ĠBewer bung
ĠSpr achen
ĠBuch st
Ġperfe kten
ĠVerfÃ¼ g
ĠBundes liga
ĠmÃ¼s sten
sam keit
Ġzu folge
it sch
auf gaben
kti ver
Ġbe werten
ĠRie sen
Ġnorm alerweise
ĠKn ie
ĠNachw uchs
r or
Ġkosten frei
b w
ber uf
um fang
Ġdisku tiert
ĠPat ient
Ġ; -)
k ind
ĠR Ã¤
m acher
ĠD J
Ġer zeugt
ĠD SGVO
Ġteil s
Ġm et
Ġbeh err
ist ent
Ġh undert
G ut
Ġbeit ragen
af r
ĠM obile
ĠBr as
ĠB utter
ĠTrink wasser
Ġp o
re publik
ĠTrum p
lÃ¤nd ischen
ĠbestÃ¤ tigen
ĠR ichtig
Ġpassen d
zahl ungen
ĠD einen
ĠPh ys
Ġdauer haft
r Ã¼cken
Ġgew innt
ĠInnen stadt
Ġauspro bieren
Ġfor dern
ĠAus gleich
B undes
et tel
Ã¼n de
j et
ĠOr ten
ĠHel fer
ĠO hren
ĠD IN
ĠC enter
ĠhÃ¤uf iger
sph ase
ĠFÃ¼hr er
Ġprakti schen
ĠEd ition
f ried
sp aren
fÃ¼l len
Ġ4 3
stehen de
f utter
h agen
ĠBe kl
Sp ort
land schaft
z o
Ã¼ ge
lo cken
ĠKl ick
Ġh armon
ĠFrei burg
ht ml
ĠG ame
Ġaus wÃ¤hlen
ĠVor feld
ĠSehenswÃ¼rdig keiten
Ġre duzieren
Ġherunter laden
Ġgro ssen
Ġerf asst
ĠWirklich keit
al ition
ĠBundes land
in ten
is a
ĠSchwe den
ĠK rÃ¤fte
hÃ¶r er
ĠOut door
hy thm
ĠD einer
Ġlieb sten
Ã¼cksichtig ung
gen t
c i
Ġst et
ĠFe atur
al b
ĠergÃ¤n zen
ĠDrit tel
Ġ0 2
E igen
gesch nitten
bran che
ĠKommun ikations
i ffe
C O
ĠAu gs
ĠhÃ¶ch st
ĠWebs ites
Ġangeb lich
form at
or al
H ol
S e
ĠReg ierungs
ohn e
ĠR eh
l Ã¤nge
ti scher
ĠEntwick ler
Ġc on
ĠTabl et
Ġmen schen
8 6
Ġgew ohnt
Ġhistor ische
Ġfe sten
ĠVerb rauch
ĠSoll ten
ie ben
it ur
Ġf Ã¼n
I hre
Ã ³
ĠHier bei
ĠEreig nisse
Ġlok alen
ot oren
Ã¤ nen
Ġtoll es
her e
Ġk Ã¼nst
Ã¶l l
ĠFin ale
k as
Ġan melden
ĠErkrank ungen
ĠB arb
on te
Ġ18 0
ĠHoch zeits
Ã Ń
Ġum so
Ġf ehl
ĠÃ¼b lichen
mÃ¶ bel
ĠWerk statt
Ġbef est
ĠIn n
ĠAb schnitt
reib ungen
am burg
ĠH au
ĠOr ien
ĠF inden
ste te
lie ss
Ġ $
ĠSt abilitÃ¤t
N och
Ġgr Ã¶s
ĠPhil osophie
Ġex pl
ĠG ibt
ĠMit tler
Ġsp iegel
ĠLehr e
en e
D abei
k Ã¤
ild et
Ġpartner suche
Ġvor an
Ġvorhanden en
ĠSitz ung
Ã¶ ger
gn Ã¼gen
pro zess
nungs zeiten
b aut
ĠstÃ¤r ken
ĠEnt spannung
ĠAlt stadt
e get
ast ur
ĠIn tens
Ġf und
ĠR ost
Ġbesch reiben
per ten
et o
gem Ã¤
ĠzurÃ¼ck ge
recht lichen
ĠA kte
War um
ber eiten
ĠHaus halts
Ġb reiten
Ġs a
er ung
Ġdank e
Ġbe zieht
st ande
qu elle
Ã¶ ss
Ġbet reiben
U M
ĠB raut
Ġdurch fÃ¼hren
Ã¤m pfer
Ġs or
m ein
Ġausges prochen
Ġwirtschaft lichen
Ġdok umen
ĠEin stieg
Pro jekt
W eb
Ġan fangen
Ġmorgen s
Ġdre hen
Ġth is
H och
ĠBet on
Ġi l
usch el
ĠTro cken
druck s
zuf Ã¼gen
ver k
up s
ĠSt ory
ĠFrei en
201 0
ĠInnov ation
Ġbeein drucken
Ġn Ã¶r
Ġre zept
ein heit
Ã¶s ungs
ĠEr werb
Ġm u
Ġfol gte
ĠC afÃ©
besch reibung
ĠKon zer
lin ik
Ġbeziehungs weise
ĠKÃ¶n nen
Ġmass iv
Ġs ach
ĠEvent s
urt eilen
gar n
Ġniedr iger
ĠPl ug
ord net
Ġwichtig ste
ĠPer formance
geb lich
ĠD ingen
ho se
ag ue
k rÃ¤
Ġer zeugen
er ische
v i
ĠF euchtigkeit
ĠGrÃ¼n der
ĠFa vor
ĠlÃ¶ schen
schn eiden
ĠAu di
mus eum
fÃ¼l l
ĠMar c
Ġun mÃ¶glich
ĠDurch messer
Ġ @
Ġf antast
w achsen
ĠPro p
ri a
hn acht
Ġgaran tieren
ĠBest Ã¤
ĠSt iefel
Ġstatt f
ĠJust iz
ĠAngeb oten
art s
Ġt raf
ĠLie der
Ġgest artet
ĠExt ra
gen au
b aus
N ein
ĠKn ochen
Ġk enn
Ġ( "
ĠFe ed
Ã¼n der
ĠTechn ologien
ĠUntersuch ungen
ho ff
Ġall zu
ien ce
ĠBesch luss
Ã¼t ze
Ġeinge hen
Ġh um
Ġoffiz iell
ĠKrank heiten
ĠSing leb
ĠBer Ã¼cksichtigung
re ktur
Ġvor sichtig
Ġweit gehend
ĠStre cken
wei ler
Ġverwende ten
rÃ¤n ken
Weiter e
Ġoffiz iellen
rieden heit
be auftrag
Ġd o
T C
us h
Ġ9 5
ĠDurch schnitt
Ã¼ ben
ĠN ichts
" )
ak a
ĠMon d
Ġwei ÃŁe
m uster
ĠH em
Ã¶ gel
Ġehren amt
bl au
ĠSte ck
Ġg olden
teil te
Ġleich ten
ĠSystem s
ĠSchl es
Ġstrate g
ĠPl atten
om et
ter e
ĠB ast
ran ten
ĠCh amp
ĠSt ufe
ĠKre bs
Ġjen er
ĠlÃ¤nger e
ĠB einen
g in
P ar
ag o
ĠCom munity
Ġvers uchte
stag ram
st ark
v ideos
em ann
ĠM ech
ungsk osten
ĠB GB
ĠFr anzÃ¶s
ĠJ edes
re ckt
ĠT ax
g au
ĠR uck
ĠKu gel
ver d
Ġn ahmen
ĠG B
Ġfr ischen
ĠD E
ĠTh Ã¼r
Ġempf angen
kle ber
mie ter
ĠAn na
Ġber Ã¼ck
tif iziert
Ã¼ ht
ĠprÃ¤ z
ĠStat us
ĠDie sel
ver ordnung
ikan er
Ġbas iert
deut schen
ir d
w ende
Ġverl iert
Ġun verb
ĠSch ild
Ġ6 4
? !
Ġbeg eistern
Ġd el
Ġverb reitet
r ische
Ġst elle
Ġnachhal tig
Ã¶ch er
Ġsonst ige
ĠBe zeichnung
ron omie
ĠEigent Ã¼mer
ĠF Ã¼ÃŁe
T eil
ob b
Ġlie bt
ĠC r
Ġer setzen
Z wei
k olle
T ra
K reis
Ġzuverl Ã¤ssig
Ġp fl
ager ung
b reite
ĠN az
ĠJose f
ĠAb wehr
ist et
Ġbelieb testen
ĠHin sicht
ĠP a
kl assen
Ã¶ff entlichen
ĠÃ¼ brig
wei len
ĠL assen
Ġschl Ã¤gt
ĠIns besondere
al itÃ¤ten
5 8
ĠProduktion s
ir ekt
ktiv itÃ¤t
ĠRe cher
pfl anzen
ĠSam sung
qu ote
Ġnach t
ĠVeranst alter
voll es
ob el
ĠPrÃ¤sent ation
z ert
ur teilt
ĠJ azz
ĠJahrzeh nten
Ġschein bar
gesetz ten
ĠVerl etzung
ĠV W
ĠGriechen land
Ġb il
Ġver lin
ĠIm pul
out ube
ĠV orm
m s
Ġsol ch
ĠSt ation
Ġum welt
g leichen
ĠAn wesen
Ġab nehmen
ĠG ames
sch eine
Ġan sprechen
ĠÃ¶ff net
ĠBi bel
m ess
flÃ¼ ge
f els
ĠT eig
ĠDigit alisierung
ĠHeil igen
T h
britann ien
om a
G l
ĠSl ots
ĠN otwend
ah ne
ĠAn erkennung
Ã¤ ste
ĠVer eine
wei ch
peten zen
Ġbel egt
N a
w n
ĠStÃ¼ck e
ien e
ĠZ wie
ĠSp ir
Ġlaufen den
] .
L eider
ĠKe y
ĠWider spruch
Ġbet ont
Ġbe z
Ġ org
ĠM auer
Ġr etten
ĠIde al
ĠVeranst altungs
te x
ĠG reen
st ant
ĠSt au
ĠS yr
ĠGew inner
hÃ¤n omen
ro hr
gem acht
ur o
Ġsp Ã¼ren
ath ie
cri pt
ĠSupp ort
sei tige
ĠSteu ern
Ġwunder schÃ¶nen
ĠWill kommen
ĠMÃ¼n ch
u gen
ĠAutob ahn
w al
Ġges unde
b anken
ro man
Ã¤ hnen
ĠMen gen
ier s
ol en
Ġanges prochen
I ON
Ġtechn isch
h Ã¤usern
ĠBer ater
ĠChrist us
mÃ¶glich keit
ĠB rau
ank ing
ĠW alter
Ġvers orgt
ĠM uss
ul ette
Vers ion
P reis
ĠW Ã¤
un dern
Ġn en
Ġausge st
weil ig
ĠB Ã¼nd
z Ã¼ndung
p ool
Ġausge fÃ¼hrt
W e
Ġanges ichts
ĠWer den
Ġein heit
w unsch
ĠT rage
Ġ9 9
ĠInstrum ent
ack er
ĠA hnung
st eht
ativ es
Ġsch lieÃŁt
hÃ¶ rige
ti tel
ge kommen
Ġ4 1
ĠM ord
ĠAnf Ã¤nger
Ġv is
ĠT iefe
ĠEin bau
ĠGer Ã¤ten
ĠL aser
Ã¤nd ige
mach ung
!! !!
Ġerwei tern
ĠSch Ã¼tzen
ĠN oten
P o
6 4
ĠTab elle
eh end
ol fen
Ġver folgen
ĠLiebl ing
k Ã¶n
ĠKr imin
sta aten
ĠKÃ¼hl schrank
Ġg riech
ĠDiabet es
ĠFar bt
T ube
Ġgef Ã¶rdert
ĠFÃ¤h igkeit
schl uÃŁ
verstÃ¤nd nis
v ern
sp rÃ¤
ab y
P C
Ġbesonder er
ĠNeu en
ĠP iz
Ġn am
Er st
zeich neten
ad d
ĠTex til
ĠBr Ã¼cke
Ġan geschlossen
ĠFl ach
H R
Ġgesch m
ĠVer wand
ĠF akten
ist ischer
b ul
m Ã¤ch
Ġverein bart
Ġerfolg te
zen sion
W E
N ew
ĠAf D
Ġger ech
ĠF liesen
ĠgefÃ¤hr lich
ĠEx empl
bÃ¼r o
ĠMotiv ation
ph ase
ind liche
ĠS Ã¼ÃŁ
ĠBud get
ĠEnt steh
Ġverein bar
ol i
ĠfÃ¼hr enden
ĠBran denburg
ĠKlass iker
ĠAl p
ĠWahr scheinlichkeit
her steller
Ġst eigern
Ã¼n det
In st
Ġauf re
hem en
ĠB R
ay s
ĠAnge legen
Ġr ufen
gr enze
Ġsp Ã¼r
ĠLog istik
ĠL aun
b ungen
k ammer
ĠVor gaben
Ã¼nd igen
fer ien
bie tern
Ġberuf lichen
pp ing
stand s
ĠFrÃ¼hl ing
ro s
Ã¼t ten
Gem ein
al i
ĠV in
Ã¼ hle
ĠRegel ung
wir kt
l ein
ĠG Ã¶t
ĠberÃ¼ck sichtigen
io de
oll t
/ -
wer ber
u ste
ĠLog o
Ġfest e
ĠÃĸ k
6 7
ĠDok umente
ĠSchmid t
Ġlang fristig
Ġwahr en
ur teilung
Ġp op
ĠSchÃ¶n e
woch e
ĠIS BN
w elle
be stimm
Ġange fangen
arbeit ungs
es h
Ġange legt
ĠP um
Ġste cken
etz e
ĠG Ã¼n
L in
ĠD ing
ur a
ĠStud ierenden
ĠL aufen
ĠSt reifen
ĠE M
Ġrei sen
ti en
ĠOn lines
ĠVit amin
Ġgeb rau
pp er
dat es
9 2
ĠBehand lungs
ĠVor lage
ĠGr an
Ġinnov ative
ĠM athem
ĠHin blick
ĠW erner
u ht
Ġinner en
ĠIr gend
Ġentsp annt
ant rag
ĠÃĦ hn
ĠSch Ã¼lern
lie be
ĠPaar e
v ider
Ber eich
ĠHei del
ĠSchau spieler
Ġander erseits
ĠK iel
ĠgrÃ¼ nen
fol io
Ġtelefon isch
Ġu p
ĠErfahr ungs
d lichen
ĠFer tig
Ġst ill
Ã¤ len
ĠDe fin
ĠIdent itÃ¤t
rin ge
Je der
port al
S A
Ġsch merz
ĠTenn is
ĠKno w
ĠA M
att ung
ĠAnt on
ĠFor derungen
Ġz iel
ĠMo unt
fl Ã¼ss
P ort
ct or
gef unden
Ġgesamm elt
Ġsch Ã¤tzen
ss el
Ġverschieden sten
ĠJ ava
Ġbegr Ã¼ÃŁ
Ġinvest ieren
ĠBot schaft
ĠT G
pro f
ge len
H L
Ġd an
w in
ĠAn wendungs
ĠSpiel s
ĠMan chmal
bach er
ĠRegistr ierung
ĠNachbar n
Ã¼t tel
ĠHo hen
ĠKon struktion
ĠBes ser
ĠSt urm
fon ds
ing u
Ġspezial isiert
us sten
end orf
men ge
ĠB art
br and
pf ung
att formen
Ġer weiter
Ġre chte
ĠBas el
ĠN at
mit tler
iz ont
auf e
is ser
Ġtran spor
ĠwunderschÃ¶n e
ĠgÃ¼nst ige
Ã¤dig ung
ĠH ung
ĠChrist oph
.. ...
c ast
Ã¼n kt
as mus
Ġbe zogen
ĠHand t
zu cker
n utzung
ĠâĢ º
ĠB an
Ġattra ktiv
ĠM ahl
Ġabge geben
Ġr asch
ĠDesign s
ĠEr mitt
Ġver schl
me ch
auf bau
ĠE N
ĠZ Ã¤hne
Ġgef eiert
ĠP fe
Ġer mittelt
st ock
ĠN ic
Al les
Ġb loÃŁ
t her
ĠÃľb rigen
Ġher kÃ¶mm
bet reiber
ĠErweiter ung
ĠM ama
lo gen
gn or
Ġd iff
k ette
Ser ie
ĠLein wand
ĠNieders achsen
Ġjeweil ige
ĠUnter haltung
ĠRhein land
Ġ ï
meld ungen
p ersonen
ĠMeer es
ĠAr znei
ĠB Ã¤ume
ier bar
. /
T L
P er
Ġerforder t
ĠT eu
ĠLab or
ĠI l
ĠPsych ologie
y si
ĠTrick s
ĠWorkshop s
Ġfr ische
Ġf ehler
ĠGro up
ĠKon text
ĠSch uppen
ĠGe werk
ĠB am
ĠD Ã¶r
Ġbestehen de
ĠkÃ¼r zlich
Ġbe ge
so fern
ĠKo ordin
or b
Ã¼ ste
Ġho hem
ind lichen
Ġ ende
ĠK enntnisse
Ġerz ielt
ĠForm ul
Ã¶ sterreich
Ġbe arbeiten
ĠPlast ik
+ +
ĠSp eisen
ir ts
Ġflex ibel
ĠB ul
ĠT ieren
ĠPerspe ktive
Ġs age
Ġzu gelassen
O ber
h od
ĠangekÃ¼ndig t
ĠSchei ben
ĠRat haus
liefer ung
zeit ung
Ġumfassen de
ĠVoll zeit
Ġst Ã¤d
geg nung
Ġreag iert
V om
ĠOpti k
ĠEn gl
ĠAuf nahmen
reg ungen
teil s
M in
Ġgeh Ã¶r
Ġkonkre te
Ġkorre kt
grÃ¼n de
bl ut
Ġeinge fÃ¼hrt
ĠSeb astian
ĠMann schaften
9 4
Ġk W
S E
Ġausgew Ã¤hlt
D r
ĠG Ã¶tt
Ġgemein t
il s
Ġpro du
ĠSor ge
b io
ierte m
ĠV f
ĠEr halt
ra tet
Ġgeb unden
ĠRe c
ĠAutom obil
ord s
Ġeinzigar tigen
Ġro te
M ag
D i
ab len
T ag
ger s
m es
ein richtung
un s
Ġfinanz ielle
ĠPoten z
Ġseiten s
Ġkon stru
p rechen
ĠOper ation
geb Ã¼hr
Ġn ackte
ĠAugen blick
stre cke
G anz
l Ã¤ndern
ĠM Ã¤d
cen ter
Ġein richten
an leitung
ĠRei ÃŁ
Ġg Ã¤ng
if est
Ġgepl anten
S a
Ġsing les
ĠKon s
ĠG ymnas
ĠW ag
Ġver sp
ĠRegion al
Ġinstall ieren
Ġor igin
B r
onder s
p lex
Ġdurch ge
Ã¶ ck
ĠA pfel
ĠV Ã¶lker
Ġbe wertet
ĠM B
ĠB om
ĠHand lung
ip edia
ĠW Ã¶rter
r el
fahr ungen
ĠgewÃ¼n schte
h st
ĠArbeit spl
ĠMod ul
ĠMerc edes
ĠU V
anz ig
Ġg Ã¼l
ĠTre ppen
k reten
ord nungs
un sten
p le
g g
ĠO f
em enten
Ġ ap
Ġlie fer
schaff ung
ĠF Ã¼nf
ab teilung
geord neten
ĠE R
ĠStu hl
ĠAn nahme
ĠspÃ¤ter en
ĠS endung
ĠKreativ itÃ¤t
lie gende
ĠTo il
ĠSign al
ĠK ath
ĠGesch Ã¤fte
for um
b ungs
schie ben
ĠNachhal tigkeit
ĠBetrieb ssystem
et tern
ĠN ahrungs
upp e
lehr er
ĠSum me
Ġw echsel
ĠKÃ¶nig s
ĠEmpfeh lungen
gÃ¤n gen
Ġdar stellt
z Ã¼nd
Ġberech net
Ġprofession ellen
ĠAd min
ĠT ore
ĠSta ffel
und et
ĠEr zÃ¤hl
Ġlie st
Ġso g
ĠBeg leitung
le hnt
Ġ q
Ġvor ab
be griff
Ġb ad
Ġ Ã¤ndert
M et
s Ã¤u
Ġauf einander
j o
ĠKrank enk
M on
Ġzu stÃ¤ndigen
Ġst immen
N etz
st isch
Ġwahr e
ler s
ĠTelefon nummer
ĠK und
mal en
ĠEr Ã¶ffnung
kra ine
ĠMan gel
ĠNord rhein
Ġf Ã¶rdert
ent licher
ĠJed och
Ġorganis ieren
ver zeichnis
er o
ar ma
Ã¤mpf e
ĠDokument ation
Ġbe fÃ¼r
T rotz
ĠPro be
ĠChr isten
Ġsol ches
ĠZ weit
H in
wer ker
Ã¶n t
f ehler
Ġ199 7
ĠKon ferenz
zie her
Ġst ehe
ĠWÃ¼n schen
ph an
tel s
l isten
ĠV illa
ste ck
bring ung
Ġl ern
U T
Ġn ationalen
ĠBeteil igung
ĠNach folger
ĠIn halten
ĠPoten zial
Ġ5 2
Ġv ierten
ĠDein em
ingt on
ach s
ĠM ei
in kt
ĠLes b
ir ma
Ġdah inter
g u
Ġzentr alen
Ġev tl
ĠAb sol
ĠK as
Ġrein igen
ĠZeit schrift
c es
5 6
ĠQu art
ĠErinner ungen
Ġhal be
Ġeurop Ã¤ische
Ġsw inger
oir es
Ġaktiv en
lin der
ĠRes pekt
ĠSalz burg
Ġun angen
Ġl asse
Ein en
ĠS eg
ĠKarls ruhe
stra te
Ġfal sche
bet reuung
5 7
Ġum gehen
ĠL eucht
ĠPro vin
ĠWelt krieg
ĠVer st
fin ale
Ġaus gesch
ĠHo se
^ ^
ter nen
ĠMÃ¼ he
ĠReg isse
8 9
Ġz auber
Ġ0 3
ĠNa gel
Ġgr Ã¼nd
ĠNamen s
ĠBer ge
ĠUn abhÃ¤ng
I K
ĠHam mer
ĠAfr ika
ĠD os
per rt
ĠBeg leiter
ix el
8 7
zus agen
ĠKl einen
ĠJahres zeit
ĠCl ass
Ġzur echt
Ġdr Ã¼cken
ĠA N
Ġ Ã¶rt
arr y
ĠOtt o
Ġdur ften
ĠKant on
ĠBezir k
ie ber
ein heiten
Ġzerst Ã¶rt
ĠErkrank ung
ĠZur Ã¼ck
in fo
Ġbed ienen
inder ten
Ġ5 6
Ġlang frist
ĠDom ain
ĠIn telligen
Ġhal ben
teil ungen
ĠLap top
Ġpersonenbezogen er
ĠWo hnen
beit rag
ĠAn sonsten
ĠTour en
ĠHoch schul
ĠBeteil igten
Ġdre ht
bl ock
ĠAut omaten
Ġer richtet
ĠÃľ bung
Ġ ass
ĠChe ck
ĠBer ichte
ĠRe zepte
f ot
ver standen
Ġf Ã¼llen
laub nis
ĠS aar
Ġren omm
Ġverl Ã¤nger
ĠKr ise
Ġauf ger
ake te
la de
ĠBl Ã¤tter
st art
Ġm e
ĠL G
Ġan passen
ĠD ritten
Au ÃŁerdem
Ġaus sch
Ġser i
ĠKÃ¤ se
wor fen
v enz
fre unde
Ġaus s
ge tragen
Ġil leg
ver antwort
I F
fahr zeug
ĠNeu bau
ĠBel euchtung
ĠzurÃ¼ck zu
Ġfest gelegt
ĠEigen tlich
p Ã¤dagog
Ġkon kreten
b al
ĠEin trag
ist an
ĠSter nen
Ġzusammen gestellt
Ġaktiv e
ĠBÃ¼ hnen
West falen
ĠS obald
W ei
m ungs
Ġan fang
kehr en
Ġerreich te
ĠgroÃŁ em
H e
g ess
Ġdeutsch sprach
m utter
Ġge werb
Ġd reh
ĠW ehr
Ġk op
ĠVor jahr
Un ternehmen
Ġum zu
ĠMatth ias
Ġs ech
ed ig
m art
ĠFreund schaft
Ġver Ã¶ffentlichen
Ġkonzentr ieren
ĠA D
ĠAutor in
ĠGeheim nis
ĠInstitu tionen
ĠKÃ¶r pers
ick el
ĠPartner schaft
ĠÃľber setzung
w etter
Ġsch Ã¼tzt
Ġdem okrat
Ã¤ le
Ġl Ã¤ÃŁt
Ġaut hen
Ġun nÃ¶
Ġ01 80
S ol
Ġger ingen
inst rum
Ġbesch rÃ¤nkt
ĠPl Ã¤ne
ĠMin eral
Ġfinanz iellen
Ġh aut
ĠAnt rieb
ĠNe ur
met ik
ĠAb sch
och um
Ġgen annte
ĠSmartph ones
ĠJ ak
ĠKÃ¼ndig ung
ĠP R
rie ster
ĠSon st
b em
Ġbemer ken
ĠBr on
Ã¤ng nis
Ġan gesch
ĠDar auf
ĠAus gaben
ĠVerkauf s
id ar
Ã¤nd igen
ĠD ynam
s al
9 3
ĠA achen
ĠS in
p uter
ĠAn wender
ĠM inder
Ġv i
ad o
Ġwissenschaft liche
ĠM ul
war tet
Ġschme ckt
ĠTeil nehmern
Des ign
ĠT rag
Ġ tier
z ungen
ĠD ol
ĠAc tion
spf licht
ĠKo alition
Ġumfang reiche
il a
ĠZ e
ett o
ĠKur se
ber eichen
ĠChem ie
ĠRechn ungs
au ten
ĠMehr wert
ĠEmpf ang
mun ikation
ĠBeg eister
St adt
ĠWand el
ĠErk enntnisse
aff ung
ĠK ammer
ĠF ak
k rÃ¤f
ger Ã¤ten
Ġj ugend
herap eu
Ġausge hen
sprÃ¼ chen
zei tige
Ġletzt es
Ġsonst igen
w itz
s hop
Ġgesch nitten
kret Ã¤r
ĠL ind
om an
ymp ath
leb nisse
rist all
Ġ euer
ein igt
ICH T
ri x
Ġdamal igen
ĠTest s
Ġeinz eln
Ġklein eren
b len
ĠBo gen
en kt
Ġs au
Ġn amens
och t
Ber eits
d pa
Ã¤ ud
ĠBaumw olle
ĠkÃ¼r z
ĠB rit
Ġopti sch
Ġb uch
ĠEnt wurf
Ġd icht
Ġgek enn
schnit te
ĠHei ÃŁe
ĠH ub
Ġdurchschnitt liche
ĠAuf stieg
euch te
ag ern
ĠVor haben
ĠSch atz
Ġschle chten
im me
A V
Ġunver zÃ¼glich
auf wand
ĠK offer
ĠHard ware
aus stattung
ĠR uhr
ĠR Ã¤um
kon ferenz
ri sten
ĠZ o
ĠH allen
P art
ĠmÃ¤n ner
ĠGebur ts
anz t
Ġ it
iv es
htt p
ĠVorstand s
Ġgrund legen
ĠNav ig
Ġpf legen
ĠRegel ungen
me er
ĠGal ax
ent sprechend
ĠK ok
ĠgemÃ¼t lich
in gend
F alls
st ie
ĠP au
Ġan statt
akter ien
ĠBundes republik
ĠBelast ung
Lie be
ĠIn stagram
200 9
az itÃ¤t
ĠNatur schutz
ĠWol ken
ĠF onds
ha fter
eil er
ĠFlug zeug
ĠPosition en
p assung
ĠAn g
Ġ arbeits
ar z
ĠS G
Ġkon kret
ĠÃ¶sterreich ischen
ĠF eiert
Ġdefin iert
ĠÃľberrasch ung
ĠKind heit
ĠM ex
Ġabge stimmt
e ber
Ġs elt
ĠAuss ehen
Ġwirtschaft liche
dat um
Ġvers uche
ĠH Ã¶l
ĠK assen
ĠHalb zeit
Ġvert raut
ĠF ell
Ġl it
ĠNerv en
A c
ĠIm mun
Ġs amt
Ġbegr enzt
ĠE th
Ġwes entlichen
Ġange ht
Ġk ar
Ġauf gestellt
weis ungen
tig ungen
ĠSch ub
st ritten
ĠBi bliothek
Ġmobil en
schei ben
Ġber ichtete
Ġheu tige
Ġinner e
ĠR eit
Ġbeob achtet
u ÃŁer
ĠDiagno se
ĠPh ot
ĠDe cken
Ġbes ei
s zeit
ĠLes ben
ĠM un
ĠAmb iente
ĠErfolg s
ĠDrit ter
ĠC lau
ĠÃ¼b lich
ĠAn regungen
Ġ199 6
Ġbe zeichnen
Ġkon zip
ĠT rÃ¤
ĠWÃ¼r de
p ut
Ġf it
ĠKla vier
m esse
enn er
ĠNieder l
geb Ã¼hren
Ġger e
ĠSk y
ĠTo pf
ĠVor schlag
re st
Ġries igen
Ġwar men
rÃ¤n ke
ĠDach beschichtung
D anke
Ġerforder lichen
Ġh eutzutage
Ġerk unden
J o
Ġsch aff
ah me
s ache
tember auben
schein end
E IN
der e
b und
Ġwor auf
ĠFrei will
Ġum geben
Ġgegen seitig
ĠSch ein
ĠerlÃ¤u tert
ges ellschaften
T est
ĠZ iff
ĠkÃ¼ mmer
verein s
r ischen
her z
ĠTran spar
ul Ã¤ren
ĠInd ien
ĠEr folge
Ġwert volle
pl emen
om b
ir ur
Ġgute m
Ġhinter lassen
ĠPrÃ¤ sidenten
Ġk Ã¼nf
ĠM Ã¶n
Ġzeich nen
ĠHÃ¶he punkt
ĠTrend s
ĠWar te
l Ã¶sungen
P U
ha ar
ĠGroÃŁ britannien
Ġzeig ten
ĠN Ã¤hr
ĠÃ¼ber geben
f ass
ĠR as
ind ungs
ĠT ube
Ġr eine
ĠBet r
spro chen
alte ten
ĠBe cken
Ġpro duzieren
Ġbet reut
schei be
ĠJe den
ĠBesuch ern
ĠWeiter en
ĠGer ichte
bet eil
ĠberÃ¼hm ten
atur en
Ġm ech
ĠGener ationen
ĠJournal isten
d om
Ġg alt
re den
Ã¼r tel
ĠC olle
ĠSchles wig
ĠYou Tube
iti ative
n ische
Ġjahr el
beu tel
ĠStaats anwalt
ĠSchn eider
b it
Ġqualit ativ
ail le
ĠR unden
G ruppe
ir ten
ig sten
ail s
ĠGroÃŁ teil
f reude
a ffe
Ġinteress anten
S c
E ben
Ġabsol ute
lie ger
ĠsorgfÃ¤l tig
Ġk ir
Ġw ild
ĠVerd acht
ĠVorsitzen de
Ġl ernt
ĠArchite kten
ge stellten
ĠDipl om
sch Ã¤den
Ġangegeben en
ĠG R
ver treter
ieÃŁ t
p unkten
Ġentscheiden d
5 9
ge legen
ĠPfe ffer
ĠL eich
ĠVers ionen
ĠÃľber nahme
st edt
Ġver spricht
ĠVor gÃ¤nger
ĠDie sen
gel aufen
Ġsch ar
sch uh
euer ung
ehr te
ĠAbend essen
Ġf in
Un iversitÃ¤t
Ġgesetz liche
Ġro b
Ġerleich tern
Ġd icke
ĠProf i
Ġkl asse
Ġe ffiz
Ġs Ã¼ÃŁ
Ġangeb racht
ux e
ĠErd be
ĠHer mann
T A
Ã¶r g
be kommen
bahn hof
Ġb ot
l ist
ĠKont roll
ĠMain z
Ã¤dig t
ĠOb jekte
Ġsch arf
ĠZ elt
ĠBe gegnung
ĠW ord
Ġas iat
Im mer
bild et
ĠEreig nis
ĠAugs burg
g ast
ĠPay Pal
Ġpolit isch
Ġries ige
ĠWissen s
Ġdisku tieren
ĠBeweg ungen
ĠAk ademie
Ġ che
ĠTre ffer
ti ven
ĠUm zug
Ã¤mpf ung
a is
k rit
ĠGes ichts
ĠHier zu
Ġhervorragen de
Ġdies jÃ¤hrigen
upp ert
ĠEx pl
ĠArme e
ĠGir ls
Ġst re
z iele
ĠPen is
Ã¼t ung
ĠâĢ ĺ
ĠB rie
schnit ts
Ġmil itÃ¤r
ĠH all
t liche
ig h
n ummern
b ahnen
B uch
v ideo
d icht
du le
ĠÃĸff nungszeiten
Ġe ffizien
b Ã¶
ĠPrÃ¼f ungs
Ġgew al
z we
L eben
ĠB ischof
Ġm ieten
st unde
tic s
A ch
F ach
ĠMÃ¼l l
ĠBe ach
ĠtÃ¤ gliche
, ...
ĠGer Ã¼
ĠSteuer ung
ĠMÃ¤n gel
Che f
amer ika
ĠJob s
co in
ar be
ĠT oten
amm ern
la ppen
ĠMittel alter
ĠWeiter entwicklung
ĠAus blick
gefÃ¼ gt
ĠAustr alien
r imin
Ã¤n glich
it as
ol and
ĠSchicks al
wohn ern
ĠGi pfel
Ġeinz us
Ġk rei
Ġbehaup ten
ekt ak
Ġan meldung
ĠStadt teil
Ġbelieb ten
ĠSa una
qu ellen
ge halt
Ġab ger
Ã¤u schen
Ã¤nger ung
ĠRed aktion
Ġjung er
ĠSpiel othek
Ã¤r zt
Ġd oppelt
ĠBegr Ã¼ndung
ĠT au
ĠVer ordnung
7 2
Ġper man
ĠZuf all
li ver
vier tel
ĠModern e
Ġleben s
ĠAn leger
hem a
ĠGegen stand
ĠGeh Ã¤use
Ġunver gess
ĠAmer ika
ĠMittel n
Ġf ried
7 1
ĠverstÃ¤nd lich
ĠC ur
P O
ĠBeschÃ¤f tigung
ĠDis ziplin
ĠVersand kosten
h Ã¶rt
em ark
ĠGe pÃ¤ck
Ġspann enden
In tern
rin t
Ġt reiben
Ġunter scheidet
ĠMensch heit
bl Ã¤tter
ĠTem po
gen ossen
tel le
ĠRe form
Ġg reift
Ġruss ischen
Ġumfassen den
wÃ¼r fe
Ã¤cht nis
m ern
gerech te
Ġunter halten
st ufen
Ġreich lich
Ġbeant wortet
k ter
ĠF ritz
ĠEmpf Ã¤nger
ĠExt rem
ĠVer mieter
ĠStandard s
Ġmoder ner
ĠvielfÃ¤l tigen
ĠEner gien
ĠÃ¼berprÃ¼ ft
ĠLe on
ĠMiss ion
A F
ĠEing riff
ĠTr ennung
Ġgesellschaft lichen
Ġe uren
ĠMÃ¼nch ner
deut schland
n i
p rakti
Ġbein ahe
Ġschwer er
ĠAuf sichts
Ġle g
kom fort
ust r
u c
st reifen
a j
ĠJe ans
ĠVen en
ĠWei s
Ġp ubl
ĠGr and
ĠW inkel
n ischen
D I
r sg
ĠL ob
Ġs uch
verband es
5 2
ĠAnder s
ĠMom ente
ĠRes ult
Ġ14 0
ĠVerl etzungen
age ments
ĠTechn iken
r asse
Ġp ort
ĠSchl acht
ĠFlex ibilitÃ¤t
si ver
ĠPan or
gie b
ĠSt offe
ĠnÃ¤ch stes
ĠNacht eile
ĠK oll
Ġschlaf zimmer
ĠVerb indungen
iet ung
meld et
ĠmÃ¼s st
tifiz ierung
emin ar
Ġ199 5
Ġin fo
f rÃ¼
ĠSch al
der te
sol venz
ĠH ex
Ġgeh ei
5 1
Ġpro gramm
un en
t al
iel d
ge gangen
ĠSpiel ern
ne ter
ĠO ste
Ġt rag
rei en
ĠForm ular
J ugend
ag ert
ĠEm o
ĠFÃ¼hr ungsk
Ġarbeite te
ĠausfÃ¼hr lich
ĠT it
ktion s
Ġbest and
Ġum gehend
L i
Ġbegr Ã¼ÃŁen
behÃ¶r den
Ã¤t te
re al
ĠK lage
Ġsch ade
ol oge
ĠSp ark
Ġvert eilen
ĠMÃ¤r chen
ĠBatter ie
ber gen
ĠL oc
arbeite ten
ĠAus fÃ¼hrungen
wander ung
ĠV eg
ein igung
ĠPr im
per imen
ut her
Ġaktiv iert
el emente
ĠOnlines hop
ĠR asen
bes itzer
str asse
âĢ ĭ
am ik
ĠH eiÃŁ
ĠP ast
Ġh y
ik te
Ġan stren
ĠAtt ra
fol gung
T R
ĠJ ens
K urz
Ġbekom mst
ĠFeed back
re ht
Ġtradition elle
Ġneg ativ
ĠEurop Ã¤ische
St raÃŁe
k enntnisse
ĠS eh
Ġgeh eim
ak u
ĠEr sch
Viel leicht
ĠR eiter
Ġj etz
Al ler
Ġtyp ischen
Ġge fÃ¼llt
Ġherr scht
Ġmehr mals
p ost
ĠS CH
Ġgesch Ã¤ft
ĠMax im
f otos
Ar b
ĠIns eln
ĠN ation
ĠArg ument
ĠGesetz e
Ġseit dem
Ġkontroll iert
sb aden
Ġle gend
Ġ5 1
Ġ1 10
ĠVerein barung
scha den
ĠProf ession
liess lich
Ð ĵ
ĠT herap
Ġfal schen
Ġgegebenen falls
um e
ĠMan che
ipp e
M ann
Ġ( Â§
w el
Ġm g
st he
Ġp ur
ĠEigent um
ĠGro ÃŁer
ĠgewÃ¼n scht
eigen t
ĠSt or
mod elle
lau ch
ĠRÃ¼ck kehr
D is
s Ã¤tzen
ĠWei le
S k
ĠAllgem eine
ĠTerr assen
ĠLei b
ĠSk la
ĠHon ig
f ein
Ġ1 30
iter atur
Ġw Ã¶ch
ĠDes wegen
Ġtra fen
B S
f as
ĠFrÃ¼ chte
ĠWahr nehmung
ĠÃĦ gyp
ĠCon tent
Ġgeh olfen
ic es
il i
200 8
Ġstra hlen
Ġsen si
re gung
ĠK alk
Ġgegen wÃ¤r
K ont
ĠAr men
ĠGr Ã¼ÃŁe
Ġvor Ã¼ber
meister schaft
Ġelektron ischen
Ġ199 4
t a
ĠSpr ung
ĠTÃ¤ tigkeiten
war ten
ĠF lo
ĠAn fragen
Ġb aut
aus wahl
gen Ã¶ss
Ġgepf legt
ĠPlan eten
F est
w eb
Ã¼st et
sk osten
Ġr at
rum pf
ĠGen ehmigung
mÃ¼ hle
Ġo ption
Ã¤t tern
7 9
Ġst ieg
Ġab s
Ġdem nach
z essen
ĠM S
ĠUhr en
Ġver ring
ĠEt was
ĠAn kunft
es p
ĠF assung
rÃ¼ck e
ĠBef rag
5 4
n ame
ĠEntsteh ung
ĠD M
ĠBe ge
Ġgesch lagen
sp rÃ¼fung
aust ausch
Ġst ation
mer kt
M ich
ĠD ritt
ĠR E
ĠTrau er
ĠK f
ĠK Ã¤lte
st i
lei ste
ĠEr hÃ¶hung
stud ium
ĠBrÃ¼ ste
k uchen
ĠVis ion
Ġerkenn bar
zent ren
ogra fen
ch ron
g ungen
Ġein ander
ĠUnter halt
son st
ĠFrank furter
Ġerle digt
sp itze
r ichtig
ĠM em
ĠZ ell
ĠGro ss
geb ieten
? )
ĠÃĦ uÃŁer
ĠIm press
ĠfÃ¼hl te
Ġfl Ã¼ss
ĠIs land
Ġwunder bare
Ġver hei
ĠT omaten
Ġf eine
ĠP hÃ¤nomen
ĠSp ass
ĠSchul den
ĠG n
Ġl eiten
ĠSch uss
Ġpr im
z ungs
ĠT SV
Ġk ochen
Ġdurch schnittlich
ĠForm el
ĠZeu gen
ĠK aufen
ver treten
Ġprofession ell
ĠAuseinander setzung
5 3
Ġf oto
ĠB ass
och ten
ĠW Ã¤l
unn el
ĠO fen
re chn
Ġ5 4
d ner
Ã¼n chen
Ã¼t t
p il
Ġge fordert
ĠStu dent
ent in
gel Ã¤nde
Ġbeeinfl usst
Ġbe arbeitet
ĠLauf zeit
Ġkon f
Ġschrei be
ĠF la
s be
Ġgeh Ã¶rte
Ġm erk
ĠFl asche
ĠNieder lage
im i
Ġgeb ucht
ĠAu ÃŁer
Ġger inge
8 2
ĠU kraine
ĠRich ard
lÃ¤nd ische
t lichen
ur i
hÃ¤n gt
Ġzu t
br em
ĠT ot
Ġk lappt
Ġf rom
ĠR Ã¼
ich ern
ĠM achen
Ġf eiert
gehen de
S on
tag es
kt op
i or
ĠInvest itionen
ĠLÃ¶ schung
it ch
fol ie
Ġab geben
Ġver rÃ¼ck
Ġbe weisen
Ġbe ster
uff et
ĠDe cke
Ġ6 6
ir ektor
um b
ĠSpiel zeug
ĠFor st
H S
Ġdank bar
ĠEmpfeh lung
Ġanerk annt
Ġen ger
Deut schland
Ġoptim ieren
ri pt
ĠHal te
Ġeigent lichen
B au
Ġmin im
ers atz
Ġumfang reichen
bew usstsein
... )
stra hlung
Ġexist ieren
ĠDeut scher
Ġdunk len
sen der
ĠSp ons
ĠBo ots
ĠHo st
ĠL as
ĠM osk
Ġzum al
h ers
ap ter
R ad
sch ritte
Ġwas chen
7 4
Ã¶pf ung
ĠBen utz
Ġerlau ben
ĠF DP
ar io
low job
p oten
ĠGew Ã¼r
Ġregion alen
gr ammen
Ġliebe voll
Ġges ichert
al f
ĠFernseh er
ĠMann heim
ĠFor derung
ĠOff ice
ĠvielfÃ¤l tige
ĠCh a
Ġmit hilfe
ĠBestimm ung
dis ziplin
L og
Ã¤t sel
gesch ritten
ite d
ach im
Ġmedizin ischen
Ġletzten dlich
ĠBewer ber
B ER
F e
ĠKan al
ĠBil anz
Ġbed anken
N A
Ġerleich tert
ant es
So ftware
ĠSen der
ĠBegeister ung
Ġunterschied licher
Ġ7 00
ĠA S
wie s
Ġr unden
ĠGegen stÃ¤nde
jen ige
Ġmedizin ische
â Ĩ
Ġl ux
Ġab gesehen
C on
ĠRicht linien
ĠStre et
ber eitet
Ġoptimal en
Ġsan ft
Ã¼ bt
Ġlust ig
Ġfr Ã¶h
Ġver Ã¤nder
sen s
ĠMag azin
ĠBe vor
Ġ5 3
ĠK ult
sert ation
O K
ĠSt rei
Ġerst klass
Ġlei se
verb indung
Ġel f
aus gabe
ĠÃ¼berraschen d
Ġgew achsen
Ġtran s
k reuz
ĠM ol
Ġmensch liche
Ġgelten d
ĠH orn
ĠKl etter
ĠAltern ativen
ĠH as
ĠS ant
le chter
Ġv eg
re gen
ĠRe chen
auf nahmen
Ġzu zu
W or
ĠF raktion
Ġsch Ã¤d
Ġexist iert
sam t
Ġnachhal tige
Ġhei sst
v arian
Ġwoll t
Ġger ufen
Ġbes etzt
Ġdarauf hin
ĠMathem atik
Ġver halten
Ġi gnor
ĠOl iven
ĠNorm al
Ġteil te
ĠSch ach
b an
Ġg eilen
ĠSch rank
Ġsp ektak
Ġs olle
ash ion
Ġgesetz lich
ĠLie ben
Ġein verstanden
Ġschw anger
ĠVerf assungs
ĠGes chenke
verb ot
iz ierung
ĠMount ain
Ġhinter her
ut ten
al em
g eist
ĠO pp
geord nete
s ive
7 3
sk om
Ã¤l tigen
8 4
Ã¤h le
k am
mÃ¤ÃŁ ige
Ġaus gesetzt
Ġzw ang
Ġgel Ã¶st
che f
recht lich
Ġe chter
Ġâ ľ
Ġverz ichtet
b lich
ĠN u
Ġaufge fÃ¼hrt
Ġb achelorarbeit
B B
ĠC reme
sei tigen
Ġhoff entlich
w ider
ĠL etz
Ġben ach
Ġh ilfe
ĠR uh
Ġqu er
n orm
ĠKÃ¶l ner
Ġverlei hen
le hnen
ir ge
r end
bel ast
Ġh Ã¶rte
Ġm l
S ex
ĠKat astrop
z weck
Ġdr am
ĠHei zung
Ġneu gier
steuer ung
Ġengl ischen
ĠKolle ktion
ĠGl anz
ĠSo fern
ĠH ass
ĠT onnen
ĠFl aschen
P A
bes uch
ĠPerspe ktiven
Ġoffiz ielle
B M
X X
ĠBuch es
Ġmer kt
Ġklar en
ds m
M ir
ĠRÃ¼ck seite
ĠVor bild
ĠLad y
f amilie
Ġge laden
mann s
9 1
B ox
b chen
ĠT uch
is burg
Ã¶ d
ĠAn im
wechs lung
ĠA C
ĠEur e
Ġnotwend ige
Ġintens ive
ir gend
ath on
Ġte en
Ġben utz
end el
Ġs c
Ġt iefen
gew al
Ġen er
u hren
ĠSpekt rum
ell os
Ġauf t
ĠIn se
n Ã¤chst
ĠE v
Ġde aktiv
ĠRe port
Ge gen
verl etzung
B en
ĠSch all
ĠLe vel
Ġle uchten
mo de
Ġex akt
Ġson n
Ġun end
te d
Ġf erner
lei den
is ation
ĠwÃ¼n scht
Ġkurz fristig
f ab
mit ten
Ġr ief
Ġein setz
form ationen
Ġbew Ã¤hr
Ġunkompl iziert
ĠKandid aten
8 3
unsch wei
k g
ĠBeruf ung
Ġeinzigar tig
K ann
ĠR Ã¤umen
Sp ez
ĠJ ac
ad resse
ĠIS O
Ġm essen
ĠSuch maschinen
ĠA spekt
P ol
ĠGer Ã¤u
Ġitalien ischen
dig er
ĠEurop e
V G
Ġw in
fle chte
tisch es
Ġgel angt
ind el
ĠP ots
Ġan dern
Ã¤r chen
Ġch arakter
Ġr Ã¶m
rie s
spro blem
ĠSan ierung
f arb
el a
em a
ĠF ax
Ġb lieben
ĠInternet seiten
ĠLiefer anten
ĠM u
ut schen
aus stellung
ĠVer w
Ã¶ ÃŁer
Ġges unden
ĠSp err
ĠSt d
p ause
Ã¤ss igkeit
ĠSo fort
br Ã¼cke
Ġrecht lichen
Ġa temberauben
veranst altungen
ĠPart nern
deut sche
ĠB achelor
Ġunterschiedlich sten
ĠErgÃ¤n zung
ĠFÃ¼hr ungs
ĠJ og
Ġgibt s
Ġspont an
L aut
ĠUm frage
ĠDiskuss ionen
Ã¤l le
er er
f uÃŁ
ĠZ igar
ĠNach weis
chen kt
tag on
ĠEin mal
Ġ19 80
spr achen
ste ckt
Ġw olle
ang aben
ĠTem pel
Ġvor liegenden
re geln
ing ern
veranst altung
ĠEin fl
ĠD F
ann y
ĠVorsitzen der
ĠKÃ¼ ste
Ġbrauch st
Ġwieder holt
ĠBedien ung
ĠRe kord
lo hn
ĠE leg
ter min
abet h
Ġb unt
ĠW C
Ġber Ã¼hrt
ĠStrate gien
g asse
m ont
ĠVert rau
ĠL Ã¤cheln
ĠSzen en
anz er
ĠÂ ©
k in
ĠKon sum
Ġausgew Ã¤hlten
ĠAbend s
d y
M arkt
y al
Ġ19 45
ĠM ale
men gen
bed ien
kl ein
man gel
g or
gesp ielt
Ã¤ ppchen
ĠM P
ĠS eil
ĠL ine
w anne
eh er
Ġzu fÃ¤llig
ĠNov oline
ĠP in
ĠTick ets
ĠGesch w
ĠBern d
Ġein drucks
m g
ĠK ub
ab or
N E
ĠOptim ierung
Ġmaxim ale
âĢ¦ )
ĠDruck er
sche f
Ġo ut
land es
Ġeigent liche
produ kt
Ġbehaup tet
ĠGes ang
ĠMill ion
ĠAb stimmung
pl Ã¤tzen
k et
ĠJ on
wir ksam
Ã¶ tet
ĠL Ã¶sungs
K unden
ĠC ast
ĠZ ellen
ĠSchreib tisch
ne e
Ã¤n ner
Ġn eutr
ĠDi am
ik i
spro du
ĠD R
Ġstell ten
Ġgest iegen
P lay
ĠKonzentr ation
im eter
Sch w
os m
k al
Ġo ff
Ġs ymbol
ĠBÃ¼ch ern
Ġbel ast
Ġkor rig
b Ã¶rse
3 00
Ġauf weisen
Ġgeeig nete
ĠB ienen
W ill
hard t
Ġpro bieren
H abe
ĠAr n
ĠAuf ruf
Ġ16 0
an al
Ġgem essen
Ġges orgt
vert eidig
ĠCar l
Ġstet ig
ĠTrans fer
o be
sa ison
ĠWie sen
Ġun ber
Ġlang jÃ¤hrige
ĠWie sbaden
ĠPro test
h ier
Ġs ympath
Ġiden tifiz
T ipp
Ġendg Ã¼ltig
ĠGraf iken
ĠM ent
ĠRein igungs
ĠPass wort
ĠSch icht
leg ungen
âĢ Ķ
ĠGeb Ã¼hr
ĠSa al
ĠSie d
sch lei
m i
ĠLe ber
ĠMuse ums
Ã¶ff el
verkehr s
ĠVerpack ung
Ġver eint
as y
Ġunter liegen
Ġar g
ĠT schech
ĠM ur
ĠZ ie
ĠC ons
Ġf ac
iz it
Ġan halten
am ts
y wood
ĠT ob
t ro
ĠSport ler
ei de
am eter
Ġvor kommen
ĠSchw ein
ĠSal at
S CH
ut in
ĠSil v
Ġ ....
ĠR am
ĠM isch
ĠAuft akt
i ze
ĠBras ilien
Ġv an
ĠFak ult
ĠvielfÃ¤l tig
ĠH ut
ĠVer stÃ¤r
T EN
** **
V P
ĠSchokol ade
kont o
ĠEr sten
ĠWurz eln
ĠDom in
Ã¶ pfen
Ġsorg te
Ġent deck
ĠHum or
funktion en
Ġauf wend
ĠÃ¼ber lassen
a e
Ġuns icher
alt h
ĠZin sen
Ġpar allel
Ġpoten z
ĠB ochum
ĠBen utzung
Ġkombin ieren
Ġauf w
zens ionen
ĠK ennen
an y
Ġbegeg nen
ĠÃľb ungs
Ġaufge hoben
cht ung
Gesch Ã¤ft
Ġy our
ĠSymbol e
ĠHel den
ĠSyr ien
Ġattra ktive
ĠC at
ĠBuch ung
I ER
ĠGew issen
6 1
Ġlang weilig
Ġres ul
Ġg old
Ã¼nkt lich
ĠNot fall
W ohn
ĠUn garn
klei der
l ar
Ġg aben
Ġrest lichen
P artner
u ckt
Ġange wiesen
ĠD Ã¤n
spro zesse
H err
Ġes s
w jet
Ġst arb
ĠInter pret
z gl
ĠVor schlÃ¤ge
ĠCo uch
6 9
ĠB ody
ĠDir e
ĠA sp
ĠPfl anze
Start seite
Ġk ulin
ĠU fer
ĠMag net
ĠIn solvenz
ĠT hre
hab e
Ã¤ be
Ġn Ã¼tz
ĠB utton
eid igen
Ġstehen den
ĠGast ronomie
Ġverst ehe
h ilfen
eiger t
Ġzu greifen
ĠZer tif
if ik
ĠSchrift steller
Ġa c
hem ale
ĠSte phan
ĠInvest oren
Ġbe eintrÃ¤ch
Ġein t
Ã¤ud es
ĠZ ir
il en
Ġ6 8
len burg
ÃŁ t
ĠBab ys
j acke
Ġ5 8
ĠregelmÃ¤ÃŁ igen
ier st
ĠB lei
Ġauf geb
Ġverschw unden
Ġkl Ã¤ren
sp uren
S uper
Ġum setzen
b leiben
l Ã¤sst
Ġbemer kt
k redit
P D
Ġp df
ĠGemein der
ĠOrd ner
r iss
k abel
mel de
sch es
ĠW att
Ġph il
Ġkompl etten
ĠRat geber
ĠAnge hÃ¶rigen
sch rau
ĠJ Ã¼n
Ġbelieb te
schlÃ¤ gen
Ġganz heit
le hre
Ġbrit ischen
Ġk unst
ĠF un
ĠLaun e
ah nung
Ġge zwungen
ĠWÃ¼r mer
ĠFot ografie
A ktu
Ġ199 2
ĠfÃ¼ hle
Ġgew Ã¤hrt
Ġfrem den
Ġentspann en
ĠEin haltung
ĠNational park
ĠG rÃ¤
ĠDir ektor
Ã¤ chen
ĠA kten
ĠRegisse ur
ĠdÃ¼r ften
Ġs ilber
ĠSol che
metho de
ĠUm bau
Ġverk nÃ¼
ĠSe gel
ĠBegriff e
ĠBet ten
Ġsah en
Ġecht es
ĠCo ver
Ġzahl t
au lt
ĠlÃ¤nger en
ĠVer mittlung
ĠInspir ation
ĠZ erst
Ġ7 2
Ġb elegen
ĠiP ad
Ġirgendw elche
Ġen ge
Ġh arten
Ã¤u den
fle kti
ĠI M
Ġstatt dessen
us en
ĠPok er
ĠK issen
flÃ¼ gel
Ġren ov
ĠE ffizienz
ĠAlltag s
Ġ art
ĠZun Ã¤chst
ĠL ande
Ġd ownload
Ġnach ts
z burg
an kt
ĠF A
hei zung
Ġkre ative
ĠG E
Ġi kea
ĠI ran
zuf inden
ĠursprÃ¼n glichen
Ġeinge gangen
Ġerfahren en
Ã¤ her
ĠBeam ten
Ġverschw inden
ĠVerfÃ¼g barkeit
ĠFr isch
Ġgeeig neten
ĠN ationen
Ġer mitteln
h art
ĠWir bel
Mus ik
Ġregistr iert
Ġakzepti eren
Â» .
ir che
freund lich
ĠMit teilung
ĠVers orgungs
yl l
ĠDar lehen
Ġverlei ht
ĠS MS
ĠC op
Ġge bildet
p ir
li ent
rat zen
Ġd igital
ĠkrÃ¤f tig
ĠfranzÃ¶s ische
ĠSchuppen flechte
rei de
sch ild
ĠAuf klÃ¤rung
Ħ ¢
echs elt
Ġun besch
omm ern
k op
ĠW Ã¤nde
ĠJ Ã¤ger
ĠCH F
Ã¼ hlen
ĠregelmÃ¤ÃŁ ige
ĠPfarr er
H z
Ġtrain ieren
ĠDeck el
Ġamer ikanische
et ik
sent wicklung
Ġsch reck
ĠK etten
ĠS un
p aket
Ġer leb
Ã¼ pfen
iz z
Ġmer ken
Ġk raft
Ã¤n gern
ĠG Ã¼ter
On line
ĠÃľber gang
Chr ist
Ġs onder
ĠenttÃ¤u scht
ĠÃ¼ ben
orien tierte
Ġhaus arbeit
ĠPap st
Ġw itz
op tim
b rief
ĠRo ulette
ies sen
Ġzu kunft
Ġ3 60
Ġein wand
ĠKom petenzen
B ez
klÃ¤r ungen
aun en
ĠRe b
Ġgebe ten
ard inen
ok er
cri ption
og ramm
ĠFlÃ¼ss igkeit
ĠÃľber leben
Ġwichtig es
ge zogen
ie tet
fr ischen
Ġex ternen
ĠWett kampf
Ġm ore
Ġ199 3
Ġjem als
st Ã¼r
ĠTur m
id o
ĠD Ã¼n
ĠJak ob
sprech ung
Ġver wei
lie der
ĠOrg an
Ġab schlieÃŁen
schl oss
ĠL iv
ĠSti ck
ĠP riester
ĠR itter
ĠOrien tierung
sp unkte
6 3
n Ã¼tz
Ġstarte te
ĠKo hle
Ġgleicher maÃŁen
ĠM all
ĠAb schied
Ġlok ale
ĠMe ck
ĠKass el
ĠL okal
ĠPort ug
ĠAp art
D ollar
ĠGew ichts
ĠDe v
ĠV el
ĠSo fa
ĠLe ague
Ġd aten
Mail s
Ġlei tet
st Ã¶rungen
B eh
ĠT auch
ĠAn bau
ĠAus Ã¼bung
empf eh
ĠBo hr
ĠO P
ĠK ob
ĠSt eiger
ĠM Ã¼tter
Ġw h
Ġzuk Ã¼nftig
ĠSt ufen
Ġbem Ã¼ht
Ġf einen
Ġelektron ische
ĠChar me
ĠW Ã¤hlen
Ġverl or
ĠK ie
ĠÃ¶ konom
Ġsing leb
Ġf amil
at hl
f eier
zei tigen
T our
Ġauf bauen
Ger ade
ĠC all
Ġangeboten en
Sh irt
ĠNotwend igkeit
Ġsicher zustellen
F C
Ġh amburg
ĠW oll
Ġschw ach
system s
zieh bar
ĠPrin t
Bes onders
sch wei
ĠKa is
ĠEben en
ĠKomp lex
ĠBestÃ¤ tigung
Ġanfang s
ĠLu c
Ġruss ische
S icherheit
Ġausger ichtet
Ã¤tz chen
Ã¼l lt
ĠEr ziehung
Ġk Ã¼ndig
Ġf arben
ĠImmobil ie
aut y
Ġgekenn zeichnet
ĠEs cort
ĠN ight
Ġin dustr
Ġber eitet
ĠKommun en
ĠÃ¶ st
w Ã¶rter
med ia
Ã¼ ster
ĠL ay
ĠBe fest
ĠTranspar enz
d ro
Ġt rug
ĠJ ames
u a
ĠZwei ten
Ġent nehmen
ĠGer ech
Ġbe grÃ¼ndet
er gebnisse
ist anz
ĠKor rektur
B E
ĠEisen bahn
ĠGef Ã¤hr
roh ung
ĠAufent halts
Ġgen ial
ĠVerein igten
Ġan nehmen
ĠK ampagne
on de
ĠRo ute
ĠNutz ern
unter such
Was ser
Ġunter halb
ĠMal er
ich en
ĠL ou
ĠDek o
ĠKno pf
ĠB ist
iele feld
ĠVerpflicht ung
ĠAus wertung
recht liche
ĠDi Ã¤t
ĠH P
Ġvor geschrieben
K T
Ã¤l l
inst itut
ĠPro mo
Inst itut
ĠGes ell
Hol stein
Ġb lock
on om
ĠFlÃ¼ gel
Ġver raten
ĠÃ¤hn lichen
ĠM ang
Ġinvest iert
Ġun tern
rot t
ver mÃ¶gen
Ġange meldet
ĠSim on
f eln
ĠMÃ¤d els
ĠErn Ã¤hrungs
h end
6 2
Ð ¾
fach en
at sch
Ġver sen
ĠBi bli
Ġw ien
vol umen
o e
ĠDefin ition
ĠAbm agerung
PrÃ¤ sident
ĠS ir
krie gs
ĠB akterien
ĠStart seite
el and
afr ika
Ġschl immer
Ġs aÃŁ
Ġkonzentr iert
ĠGl Ã¤ub
and al
Ġst euern
ĠMein ungen
Ġgelten den
Ġbun ten
ĠgrÃ¼n e
ĠIn haber
O G
ĠLes e
ĠMobil itÃ¤t
ĠWor k
ĠKlein anzeigen
Ġange t
ĠGef Ã¤ngnis
ĠKonsequ enzen
ein gang
ĠSach ver
no ten
s icherung
ĠBuchst aben
Ġ198 9
w Ã¤nde
D ienst
Ã¤rt ner
ĠZ eilen
Ġer ober
Ġbesch leun
ĠVol umen
eto oth
Ġgl as
ĠSpe ed
Ġl Ã¶st
n iveau
klei d
ĠMann es
ĠSper ma
Ġv ol
uver Ã¤n
ĠBenz in
Ġaufge fallen
R L
s eller
ĠBet riebe
her ren
ĠStÃ¤r ken
lei hen
Ġw eh
fahr zeuge
amt es
ĠGr as
ĠMittler weile
Ã¶ ten
Ġt our
ĠSt ore
Ġho hes
p end
ĠhÃ¤ufig sten
F oto
ĠS tem
ĠGesch irr
Ġganz es
ĠTick et
ĠBeh inderung
V B
8 1
Ġber eiten
Ġeinz ig
o cken
ĠOl d
Ġwider rufen
ĠO s
ĠSp eise
Ġwer det
Ġe w
m otor
lin k
ĠT ool
Ġd rÃ¤n
agno st
ĠK ing
Mod ell
ĠDeb atte
ĠP ussy
ĠWe ber
ĠDist anz
gr aben
ĠUr lau
ĠÃ¤r zt
Ġkultur ellen
v as
bo ot
ĠFerien wohnung
Ġ9 00
ĠL Ã¤rm
Ġtran spar
ĠFle cken
Ġerf Ã¤hrt
ĠVerhalten s
Techn ologie
o zi
Ġkeines wegs
Ġbeh Ã¤lt
ĠDie ter
la ster
ĠKompl ett
Ġgen ossen
ĠZiel gruppe
Ġbe auft
ĠGut es
Ġr Ã¤um
ĠTyp en
ĠG T
Ã¤nder ungen
Ã¤ss igen
as sten
Ġ arbeit
s ab
ĠSchm utz
ĠHein z
ĠKredit karte
uss ion
Ġzu stande
z ige
ĠStad ion
ehr ung
b raun
Ġvert rauen
ĠHe ck
j i
Ġe Bay
ĠRei s
alis ierte
Ã¤st het
Ġun gew
ĠBrÃ¼ der
ĠP KW
ober flÃ¤che
Ġher an
Ġl at
irur gie
ĠKon zepte
Ġbet onte
ol in
Ġb it
g Ã¤rten
Ġl auf
sk raft
kont rolle
Ġgel d
geh Ã¶r
ĠZen ti
Ġauf gew
F rank
sch on
ĠAl bert
ĠRu br
ĠNe um
ĠJahr gang
Ġall tÃ¤
am i
ĠMus ic
ĠHung er
Ġgl att
ĠTher m
ĠFerien haus
ĠNeben wirkungen
ĠMon ster
t ran
g Ã¤ste
Ġet liche
ĠE hem
Ġheraus ragen
ĠDenk mal
ĠVerbr eitung
hand els
ĠÃľber tragung
ĠT ast
Ġein laden
Ge w
ĠSo weit
m orgen
Ġun ent
ĠI C
Ġvoll stÃ¤ndige
Ġdurch zufÃ¼hren
ĠAc count
Ġpersonenbezogen e
Ġer t
ĠBl itz
an schluss
ĠLaut sprecher
ĠCh in
ĠD A
ĠPl atte
ĠSe en
Ar tikel
Ġverurs achen
ĠJur y
ott es
it ute
Ġkosten gÃ¼nst
Ġ are
ĠDie t
ĠG olden
B as
Ã¶ bern
ĠEing abe
Ġs u
ĠL angen
ĠBehÃ¶r de
ĠM Ã¶ch
= =
ĠMod ellen
sa al
ĠP L
Ġwest lichen
schlieÃŁ t
Ġerle digen
ĠElekt ronik
yl on
Ġi OS
Ġz Ã¼
Ġausge fallen
ĠKontakt daten
Ġ5 7
Ġgepl ante
Â« .
Ġre alisieren
Ġsp rich
Ġnun mehr
Ġk an
ber ge
Ġtyp ische
ĠauÃŁer orden
ek ul
p ed
Ã¼ch tern
t yp
" :
n chen
ĠGut achten
Ġr uft
ĠBe zahlung
unter lagen
Ġniedr ig
ĠP ick
Ġbet reibt
k asse
Ġges perrt
ĠT ar
n y
ĠÃ¼ber nahm
ĠF azit
ĠVer h
ĠBewerb ungs
Ġwahr genommen
K at
ĠInteressen ten
roll er
Ġbed ient
och te
Ġ6 9
ĠEmo tionen
ĠerÃ¶ff nen
ĠSch aum
Ġi slam
ĠT eller
em an
ĠMit be
Ġhin auf
hoch schule
ei gung
ĠProvin z
Ġt re
iel les
ĠC E
stud ien
ĠVer mut
ĠK ochen
Ġi d
g reif
ter ung
ĠHe ft
Pl atz
ĠB ond
ĠKal i
lie hen
Ġso viel
ĠHighlight s
ĠSch rauben
ĠN Ã¤h
ĠAuf bew
Ġengag iert
Ġbe enden
Ġh Ã¶r
ĠW eine
Ġkonsequ ent
v ater
ĠSo wohl
ĠE L
Ġthe oret
Ã¤ ften
Ġe vangel
m ord
ĠGesch ehen
Ġk alten
w ochen
r und
ĠPri or
ĠStat istik
stud io
ak s
ĠMa y
Auf grund
Ġbreit es
ĠS amen
D ER
ĠEin nahme
ho fer
Ġb ett
Ġor iginal
ĠBerech nung
ĠHin zu
Ġan lÃ¤sslich
ĠT en
ĠA qu
Dat ei
Ġb rÃ¼
Ġnied rigen
ĠP rei
Ġan scheinend
Ġwei chen
reff end
last ung
Ġb ade
fÃ¼ hlen
' ,
ĠEben falls
sk y
ĠÃ¤u ÃŁ
ĠS icherung
ĠGottes dienst
ĠGrund schule
Ġso zusagen
ĠS U
v it
ĠjÃ¼ng sten
Ġgel aufen
Ġt ausend
atur e
inder te
ĠRe ferenz
Ġzusammen gef
kom petenz
200 7
af tet
Ġ5 9
Ġbe zahl
u en
Ġan onym
Ġd ez
ĠR h
ĠMod el
kur se
ĠMitglied schaft
antas ie
a ik
bestimm ungen
Ġre alisiert
olog ischer
ĠBer gen
br ett
Ġen gen
Ġab weichen
â Ħ¢
r ung
ĠK amin
Ġdro ht
ĠDon au
ĠgemÃ¼t lichen
ĠK lapp
ĠVer handlungen
Ġent schied
ĠA P
ho sen
Ġfreiwill ig
Ġbei der
Ġk unden
pro be
Ã¤ ge
ĠWander ung
Sch l
Ġstell vertreten
fer tigung
sch i
Ġd icken
d liche
Ġentscheiden de
ĠÃ¼ber aus
lie d
S cript
Ã¶ÃŁ t
ĠC up
Ġar ab
ĠGeist es
ser n
ĠW ann
g ru
H rsg
Ġverbunden en
qu id
ĠverfÃ¼g baren
ĠDrei er
ĠBe ck
be zir
Ġnachfol genden
Ġver schaffen
ĠUl rich
ĠErschein ungs
St ar
ausch al
Ġum zusetzen
Ar ch
ĠAs ien
Ġin ten
ĠIm age
her m
Ġvon einander
c or
Ġgem eldet
ĠAus rÃ¼stung
ĠO m
w etten
stie gs
Ġ6 2
Ġkrit isch
Ġkom merz
ĠMus keln
et was
Ġder art
ĠV aters
Ġein gebaut
Ġkap utt
rÃ¼ hren
ĠUm stÃ¤nde
mark e
Ġstattf indet
Ġberech nen
ĠSt eine
ĠAdr essen
ĠVer hÃ¤ltnisse
ich e
Ġbest ehend
ĠAr mut
F F
ĠO liver
ĠAbt eil
Ġausge legt
ĠGer hard
Ã¼h mt
se hr
ĠkÃ¶rper liche
ĠBÃ¤ cker
Ġ199 1
Ġwir ft
ĠProf is
p hen
ĠRicht linie
ĠArznei mittel
Ġlie genden
de burg
ĠKat alog
ĠFab rik
grund lage
be arbeitung
ĠS AP
Ġunter halt
ĠVor bereit
ĠEigent ums
ĠEin zahlung
ĠgenÃ¼ gt
ĠV ar
Ġverz wei
ĠfÃ¼hr ten
ĠP rÃ¼
ĠGed uld
ĠTex ten
o ire
ĠM eg
ĠTran sa
Ġwas ch
ĠBis her
anis mus
Ġvor behalten
be ziehung
ĠC le
H ome
geord net
ĠKon figur
ah ler
p raxis
sch Ã¤tzung
Ġl Ã¤nd
ĠWik ipedia
ĠInse kten
ĠAb wechslung
ur ity
ĠIntern ationalen
d acht
ĠP V
ti st
ĠMet rop
Ġverste ckt
im it
ĠMeld ung
ĠBest ehen
Ġ9 6
gien e
ĠDem onstr
ĠS urf
sch Ã¼ler
ĠMittag essen
og ar
Ġstren g
olog y
eil t
geb oren
Ġber uht
ĠShop s
ge fahr
ĠnÃ¶ tigen
ĠK Ã¼nst
fr ont
ĠAn passung
Ġb Ã¼rger
ic an
bl r
Ġwes entliche
Ġkontroll ieren
d ia
ĠSe elen
ĠW Ã¤hler
P ress
Ġent schlossen
it tag
ĠCy ber
ĠSor ten
ĠD IE
ĠHeidel berg
ĠB B
Ġex perimen
er te
Ġverst orben
H K
d orfer
Ġteil t
as on
F rÃ¼
Ġgesch ichten
Ã¼ hl
ĠD icke
Ġz weck
Ġinter pret
Ġwo hin
Ġb Ã¶se
on line
Ġerhe ben
ĠN ull
ĠWohn raum
Ġmittler en
Ġb ast
fakt or
ĠQuart al
Ġporn os
ĠB Ã¶rsen
ĠDo ktor
f uhr
ĠUnterricht s
ĠFeatur es
ĠImmer hin
Ġs ingen
Ġstud ierte
E d
ĠStaatsanwalt schaft
ĠHel mut
Ġkontinuier lich
o on
Ġl agen
Ob wohl
be finden
ĠAb sicht
ĠTra ck
Ġun ivers
Ġ6 3
Ġakzepti ert
Ã¤nder ung
ĠM essen
Ġverlie bt
unschwei g
ĠJ ud
ĠB eu
Ã¤ss ige
ĠÃľber prÃ¼fung
Ġrelev anten
ĠDienst leister
bÃ¼rger meister
Ġ197 0
co ver
un fall
Ġder selben
B eg
ĠAr ab
f ord
ĠSelbst verstÃ¤ndlich
Ġschl ug
Ġt iefe
beh alt
c ar
ĠTo uch
ĠTeen ager
Ġfer tigen
ĠL ib
Ġwar me
ĠEr holung
ian a
ĠO S
Ġempfehlen swert
Ġt rennen
Ġregion ale
ah m
D ruck
Ġf f
ĠJack e
Ã¤uf en
ĠF oren
Ġte urer
ĠMon itor
ĠF aust
Ġumfassen d
ĠSch riften
ĠP ig
Ġf assen
ĠM ehl
eite te
Ġw ind
ar isch
Ġp osition
H aben
o den
ĠGalax y
ĠSt Ã¶rungen
ĠAuff assung
kÃ¼ che
Ġhin zufÃ¼gen
ĠH under
Ġan fallen
ĠArbeits markt
Ġdem nÃ¤chst
oler anz
ĠN S
Ġm arkt
ĠBlog s
ar ren
Ġaus gebaut
ĠKl icken
men schen
fahr ts
ĠEin nahmen
ĠAr tikeln
Ġx xx
ĠS af
ĠF air
ĠTeu fel
Ġintegr ieren
ĠVert rÃ¤ge
Ã¼ gel
Ġl ese
R ed
w Ã¤l
ĠR ap
f Ã¶rderung
ĠKat hol
kom bin
ĠH eu
K K
ĠBlut druck
ĠV ic
ĠC ann
A k
Ġheim ischen
u i
ru h
s eln
Ã¤h ern
ĠRecher che
ĠV ul
r ent
Ã¼ch ern
G eh
ĠH Ã¤
ĠGew Ã¤sser
ĠQualif ikation
bl auch
y k
Ġfu hren
) )
br aten
Z iel
Ġs ag
id es
Ġbeding t
ĠAr mb
ĠBr Ã¼cken
Ġst unden
Ġkann te
int age
Ġglob alen
ĠKÃ¼ sten
ĠF Ã¤hr
mar ken
Ġst raf
G leich
an i
Ġmass age
Ã¶ cke
ri o
Ġzw ingend
pol ster
arb on
Aller dings
ĠQu ar
ik es
Ġan zusehen
ĠKultur en
c ol
ĠD I
Ġjeg liche
W ert
Ġm ulti
ĠS ig
ver se
ĠReich weite
sfÃ¤h igkeit
Ġinnov ativen
em p
iv als
ĠL ight
B us
ĠSp Ã¤ter
ĠGemein schafts
Ġmonat lich
Ġvers orgen
ĠB eute
ĠverÃ¶ffentlich te
Ġveranst altet
Kl asse
st age
Ġ20 20
Ġsex kontakte
ĠUN D
Ġtrau rig
ĠMerk ur
ĠerhÃ¶h te
D ank
w ellen
Ġzwei ter
B ran
Ġp Ã¤dagog
ĠRechts anw
f al
arm onie
Ġ( =
hythm us
Ġver urteilt
fl Ã¤ch
Ġth at
Ġn ational
k issen
ĠB auer
zÃ¼ gen
l Ã¤ufer
ĠJ Ã¶rg
Ġfil m
ĠInstrum ente
ĠInner en
hn er
h Ã¼tte
ĠR ies
Ġdurch s
.) :
Ġstand ard
ĠPro gno
ĠGest alt
ĠF etisch
Ġzu ges
Ġex zellen
wie gen
ĠDr achen
ĠBesch eid
akte ur
ĠHin dern
c al
ĠKom mand
ser ver
Ġde cken
ĠGerman y
ĠÃľber wachung
sch ungen
Ã¤ ht
ĠTrÃ¤ nen
ĠGe webe
ĠSwinger club
ĠF R
ĠEinschrÃ¤n kung
F ans
sn ab
Ġanzu bieten
ĠKon sol
Ġher stellen
ĠRe aktionen
fÃ¼ gen
ph one
o ster
le hnung
Ġgest orben
ĠE hre
f aser
% .
ĠK reu
k ore
ĠEin es
ĠAltern ativ
ĠStud ierende
ĠFakt or
sk ont
ĠSt ationen
ĠGlauben s
ĠEinzel fall
le uchten
K Ã¶n
ĠWes entlichen
Ġorganis ator
ĠT rom
ent scheidung
ĠHor st
r ise
od ie
ĠPro tagon
Ġb innen
eigen en
ĠGlÃ¼cks spiel
Ġbel euch
W elche
man ager
ĠCook ie
Ġzentr al
ĠR od
wand el
den z
Ġge folgt
ĠVerteidig ung
om o
bl ing
T op
Ġeur er
ĠN ebel
ĠE cken
er z
ĠGeschÃ¤fts bedingungen
ĠB ag
ĠPrÃ¤ vention
ĠLÃ¶ wen
Ġ- >
Ġf leiÃŁ
Ġgelegen tlich
Ġd or
zus ammen
Ġtoll er
ro w
ĠÃ¼ber mittelt
ĠW ach
ĠJul ia
ĠS W
T o
Ġgerech net
Ġd oppel
ĠEinsch Ã¤tzung
ĠMotiv e
ĠSch ad
ĠD ay
ul dig
ĠMein ungs
fest e
inter est
ul Ã¤re
rech ung
ĠKan ada
ĠTax i
Ġf Ã¤ngt
h istor
ĠPro je
ĠBedÃ¼rf nissen
ĠEin zig
ĠDarm stadt
ĠmuÃŁ te
Ġunter suchen
ĠHand buch
ĠCro ss
ĠGerech tigkeit
Ġgro b
ch at
ĠAus zeichnung
ĠFranzÃ¶s isch
Ġbei des
Ġeleg ant
Ġc an
Ġmit nehmen
ĠEn sem
ĠPoliz isten
ei f
inde x
ein kommen
Pf alz
ĠT OP
ĠBr uch
sch reibung
ĠAcht ung
dre hen
bereit schaft
________ ________
Ġblau en
Ġpl ant
ĠAb hÃ¤ng
Ġsch enken
re de
Ġhin gewiesen
ĠSpezial isten
ĠSe kunde
< /
Ð °
ĠK urt
ĠDienst leistung
ĠWerk zeuge
ĠPhys ik
ĠSchie ds
ri an
ĠS M
material ien
fach e
Ġerstaun lich
ĠDekor ation
ĠSpazier gang
Ġgew alt
ĠDar um
ĠReiÃŁ verschluss
Ġch ar
er isch
Ġan bie
ĠSt rÃ¤n
Ġentwick elten
Ð µ
ĠAl li
Ġhier mit
Ġk ost
T P
Ġ tem
for n
ĠStil l
br ingt
ĠKon gress
ell o
Ġl ande
y t
sp olit
Ġbeteil igten
ĠK ids
Ġbedeuten d
ĠVerb rechen
aÃŁ t
ĠIn zwischen
ĠFried hof
Ġg ast
a w
c er
Qu alitÃ¤t
Ġvor liegen
ĠDes ktop
Ġfrei er
âĨ ĳ
fÃ¼hr ungs
gr Ã¶ÃŁen
Ã¤n ze
Ġ3 50
c reme
Ġdi pl
rei fe
ĠMill imeter
Ġe wig
r unden
ĠG elt
sch reiten
app y
ĠOr igin
F i
Ġerh ielten
Ġgen ehm
ĠMerk male
ĠP ant
U L
Ġl ass
ĠverÃ¶ffentlich ten
ĠE C
ĠF as
Ġpoten t
arch iv
Ġh aar
ĠunzÃ¤hl ige
Ġs etzten
ĠSt ate
Ġl iter
spro jekt
Ġfol gten
ĠSch u
Ġg riff
it im
E ner
Ġeffiz ient
ĠB A
t age
stitu tion
ĠEin heiten
wor te
ĠPass ag
men sch
ĠF Ã¼ÃŁen
Ġf lieÃŁen
Ġsp Ã¤ten
Ġbe werben
ĠAn stieg
Sch Ã¶n
Ġmusikal ische
ĠSon y
ĠE ber
ster min
ĠTal ent
all tag
lie bt
ĠSp rÃ¼
or men
Ġgere gelt
Ġsp er
ĠN ad
et he
ĠKer zen
Ġbel eg
ĠIn dex
h h
stÃ¼ck en
ĠRuck sack
ĠL KW
Ã¤r zte
Produ kt
ĠAccess oires
T H
Ġinten siver
Ġre par
ĠHo sen
ĠFil men
Ġbundes weit
ĠLin ux
orien tiert
pro jekte
ĠSpeicher ung
ĠProstat a
ĠM w
Ġaktu alisiert
ĠverlÃ¤nger t
f assen
ĠFol genden
ĠAnaly tics
ĠWag ner
ĠzukÃ¼nf tige
Ġg Ã¼ltig
ĠIntelligen z
Ġunter st
ĠSp a
Ġkonzip iert
Ġdem onstr
Ġm eldet
ĠR ass
ĠIn c
b liche
pro fil
Ġbeteil igen
Ġdein es
ĠKu pfer
a ktive
ĠT iefen
bo y
IN E
Ġbef and
ĠBlu etooth
Ġdies be
ti z
st amm
bes itz
an sprÃ¼che
all y
4 00
ĠV Ã¶gel
Ġvorhanden e
g han
mÃ¤ÃŁ igen
ĠChamp ions
ĠS ne
Ġausgest atte
le kt
k ab
Ġschwei z
ir ls
u tern
Ã¤r te
ot a
Ġzul Ã¤ssig
Ġbill ig
Ġf ind
ĠH alter
ĠFavor iten
ĠDel uxe
ĠY o
Ġberuf liche
ĠF inn
V ideo
Ġges onder
ste cken
ĠWohl befinden
lei der
enn ungs
ĠSex treffen
Ġw ach
ĠSuper markt
Ġbeein druck
ĠH orm
Ġunter einander
n s
] ,
Ġaufzu bauen
Ġgest attet
gl anz
ĠFakult Ã¤t
Ġk Ã¶st
ĠR ande
se y
W eil
se kretÃ¤r
st uf
ĠNacht eil
B i
ei z
ĠAb itur
gr unde
Ġ12 5
ĠZ ucht
fer tigen
ĠA x
rat es
ĠG ur
Ġgesch mack
Ġ> >
ĠRahmen bedingungen
ĠC SU
ome tern
ĠHeil ung
r atze
ĠKontakt formular
ĠFel der
ĠC el
ĠBel eg
Ġaktiv ieren
arbeite te
kre bs
W erk
ĠÃ¼ber zeu
ĠgefÃ¼hl t
rei z
bet ten
ĠAn dr
san ierung
Ġruh iger
ĠHoch schulen
Ġfl ach
Ġherr lich
rech ten
ĠInform atik
Ġhol te
land s
Zu dem
Ġstaat lichen
ĠSie ben
ĠK ra
stre cken
Ġausge glichen
ĠSchul jahr
s id
ard in
grÃ¼n dete
ch ancen
Ġl achen
ĠLe cker
b inden
ĠAnder en
sst elle
ĠWel ten
dr ing
ĠA quar
Ġverein baren
Ġg Ã¤be
ĠEntschei dungs
ĠĠ ĠĠ
Ġget Ã¶tet
ĠRÃ¤um lichkeiten
st ars
ĠFlor ian
ĠVer gnÃ¼gen
Ġchines ischen
Ġt reu
Ġp raxis
a aten
ĠKr isen
ĠJes u
Ġkir ch
Ã¼ch tig
ĠI den
wer fer
ĠGra z
ĠPlan ungs
Ġbed ro
K unst
R und
Ġf ick
Ġsp ir
rÃ¼ ger
gesetz te
ĠSch los
Ġger Ã¤t
ĠBr eit
Ġausgew ogen
ĠKonzer te
ĠSp Ã¤t
wie der
Ã¤ fer
ĠT i
rei bst
Ġw omit
ĠJahrzeh nte
ĠMat ch
k ann
ĠDa von
Ġdan eben
Ġkre ativ
ĠI sol
N e
Ġlau ter
ĠT ools
Ġauf gerufen
Ġ ordnungs
Ġvor gegeben
Ġh el
kor b
ok uss
Ġwirtschaft lich
mÃ¶ gliche
ĠThÃ¼r ingen
ĠDu isburg
ampag nen
S et
Ġge leistet
Ġge gessen
so ftware
ĠH il
ĠFlÃ¼cht lings
l och
ild o
produ kten
ĠAb wicklung
Ġum sonst
per te
Ġex terne
ĠKos metik
K ur
m Ã¤h
ĠCharakter e
Ġkommen de
H D
ak es
ĠVerfahren s
Ġpf lege
ĠJe an
ad bach
Ã¤chs ischen
F rau
ĠSem ester
te ch
ĠEr nte
ĠMar s
zahl ungs
Ġneg ativen
ĠGed anke
ĠBege gn
Dar Ã¼ber
ĠRei z
ĠGeb raucht
ser fahrung
Ġin cl
Ġattra ktiven
ĠFahr zeugen
ĠE st
ĠWar m
JÃ¤hr igen
Ġein her
ĠGer uch
Ġb reiter
ĠM i
ĠH ack
ĠWir ksam
med ien
ĠÃ¼ber legt
pp t
S Ã¼d
ĠÃ¤hn liches
O B
Ġverw Ã¶hnen
ĠR end
zentr ale
erk rank
ĠmÃ¼ de
ĠM ov
Sch ule
ĠLand schafts
Ġstark er
ĠKont rast
Ġdort hin
tern ehm
Ã¤ch ter
ĠBl ue
Ġkomfort abel
Ġbe urteilen
?? ?
pro bieren
ra glich
u eller
ĠErmitt lungen
ĠFein d
k amp
ĠEp is
ide e
h ilf
he ft
Ġc l
Ġgeh olt
Ġaus gieb
ris iko
Ã¶t chen
ĠbegrÃ¼ÃŁ t
ell ung
Ġer teilt
Ġres erv
g ste
P at
D on
Ġvor nehmen
Ġeingesch rÃ¤nkt
ĠCoach ing
we en
ĠFer tigung
ĠSt ars
Ġag gress
ĠTro ck
k och
Ġrei bungs
Ġregistr ieren
C ar
ĠS org
ĠSt ark
Ġtro ck
ĠWeiter hin
ĠRo se
leben s
Ġver trag
Ġselbst stÃ¤ndig
200 6
Ġtyp isch
richt ungs
ĠF els
ĠNote book
ate d
ĠBeschÃ¤f tigten
Ġweiter entwick
k art
p sych
Ġeigen em
Ġkultur elle
ie h
in f
k Ã¶r
Ġw andern
ĠZuf riedenheit
Ġpl an
ĠAl arm
Ġfinanz iell
Ġauspro biert
f tet
ĠSch e
ĠAktu ell
Ġverlie hen
ĠMaÃŁ nahme
ĠK ohl
ĠAndre a
zep ten
ĠJo achim
Ġschwier iger
ĠHard core
Ġauf zunehmen
ĠRe flex
werk statt
ĠK ell
Ġl ock
Ġin f
eln d
ĠBern hard
Ġvor liegt
Ġf ing
ĠAn bietern
Ġdro hen
ot ing
B el
ĠBereit stellung
sch alten
Da zu
Ġre flekti
ĠHy per
ĠN eg
gel esen
ĠfrÃ¼her e
Ġw ahl
g old
on i
ĠM astur
ĠDat a
ĠGegen Ã¼ber
ĠH irn
f u
O der
Ġzum eist
F ol
vor gang
ĠLat ein
ĠPartner vermittlung
Ġdunk le
ĠLi fe
G el
B and
ĠBro sch
ĠprÃ¤z ise
Ġt itten
ok ument
ĠL abel
p orno
Ġgef angen
ĠE g
Ġwie so
in ent
ĠEr hebung
reich ung
Ġm ater
be wertungen
c amp
ov a
ĠSt irn
ĠL ow
ĠpersÃ¶n licher
sb ruck
t asche
ĠD raht
ĠM eilen
ĠArbeits zeit
achte te
bet riebe
ĠAp otheke
our s
ĠFr is
ed el
ĠBundes wehr
ĠP ic
ĠMr d
P R
ĠN ud
Ġl ack
Ġt ag
ĠAus richtung
Ġtradition ell
Ġangen ehme
Ġange wendet
ĠAusgang spunkt
Ġneben bei
Ġzwei er
ĠVer zeichnis
ĠH unden
Ġgr and
C lub
ig an
ĠP ension
stra hl
ĠFl u
Ġge lo
ĠS auber
ro ss
Ġgesch w
ĠT rÃ¤ume
ĠFrei e
Ġh arte
Ġw em
r ab
ĠKno blauch
pon enten
Ġak adem
Ġentscheiden den
Ġneg ative
itz ung
fÃ¤h ige
ian o
end em
Ġ6 7
d ies
Ġm a
em men
b rid
ĠLe er
ĠKinder zimmer
sÃ¤ ure
ĠK anzler
aus weis
ĠGumm i
n och
ĠÃ¼ber s
ein halb
Ġm achst
ĠReg ie
ĠGef angen
u alitÃ¤t
ilder t
Ġh eilen
ul ierung
ĠnÃ¶ tige
Ġspiel ten
ĠÃ¼ber setzt
wer tige
ĠLebens jahr
ĠGru ÃŁ
ĠIntern ationale
Ġzu geschnitten
ĠBrem er
p ubl
Ġintern et
ĠDÃ¤n emark
ĠBe urteilung
wa ffen
ĠM A
Ġbest anden
ĠDiff erenz
TM L
Ġent s
Ġm aster
ir bt
ĠK ette
ĠDam als
lei d
Ġan n
ĠIngen ieur
minister in
lo ver
ad et
Ã ¢
ĠEin zug
ant ra
rÃ¤ u
Ġen ergie
ĠP ier
r al
ĠF ull
ĠRis ik
ĠSchwar zen
ĠVor sicht
ES T
Ġ198 8
be wertung
Ġver bracht
L G
Ġstud ieren
ĠG uten
Ã¶ re
ĠL ampen
ĠhÃ¶ch stens
lin ks
F rauen
Ġger Ã¤um
Ġg rad
Ġvorber eiten
ĠBit coin
ĠK au
ĠAus stellungs
ĠHand hab
Ġsie hst
h elfen
Ġant worten
anst alt
ĠPreis vergleich
krÃ¤ ften
Ġgerade zu
Ġk auft
Ġberuh igen
S pr
br onn
ĠVer fassung
ĠV R
ĠB bw
cke y
ĠBetroffen e
Ġnach gewiesen
Ġ9 78
Ġschwier igen
ĠZ wer
sch alter
P eter
Ġneu em
c is
D rei
Ġkonf ron
ĠStra ft
ĠMuse en
ĠVers uche
organis ationen
ĠF ashion
ĠKer l
ĠGeb ieten
Ġjen en
Ġlange m
Ġre d
b ot
ĠAn lauf
m u
ĠBau en
ĠBel iebt
Ġq m
ĠTro pfen
Ġinter nen
O ut
ĠzukÃ¼nf tigen
Ġauf bew
ĠGed Ã¤chtnis
ĠKlÃ¤ger in
Ġbie te
id as
qu is
r yl
w ettbewerb
b or
ĠB d
fÃ¼ t
ow ski
ĠÃĦgyp ten
osk op
Ġer for
ien ste
Ġb acken
Ġruh igen
ar ien
ĠE h
Ġges chenkt
Ins gesamt
Ġbef reit
om er
Eigen tlich
mod us
Ã¤ch ern
ĠBel gien
ie ts
ĠVi ze
Sti ftung
ĠEr lebnisse
ĠMeck lenburg
ĠSauer stoff
Ġgef ickt
ĠfrÃ¼h zeitig
ĠL isten
gent in
ystem e
Ġver passt
at o
ĠMig ration
u den
mil ch
ul pt
Ġmusikal ischen
ĠBesonder heiten
Ġleiden schaft
D o
ĠLie gen
ĠLux em
Ġent h
ĠL Ã¶cher
Ġerf assen
rei ÃŁen
Ġerf reu
ĠOr chester
vor schriften
is abeth
ir gt
ĠH ast
la sten
Ġfrem d
Ġ9 8
Ġan geben
Ġgenau en
so weit
Ġbevorzu gt
bl icken
ĠAus lÃ¤nder
ĠkÃ¼mmer t
in stall
Ġeinzel ner
ĠLand tag
Ġw eiten
ĠFl ag
ĠMeister schaft
ĠCor por
her stellung
Ġangemessen e
gel te
abl auf
Ġange f
Ġschrift liche
Ġleben sl
Ġumge kehrt
ĠRe zensionen
ĠCo unt
wor tete
Ã¶ te
K o
ĠPf ad
geb urt
Ġbrit ische
ungsver hÃ¤ltnis
zen te
ĠAktiv itÃ¤t
ĠMitglieder versammlung
ĠVorsitzen den
Ġ3 000
ĠA U
ĠKer amik
Ġkrit isiert
Ġzweit es
ĠR auchen
oll er
pl us
ĠHand lungen
Ġsport lichen
ĠH eb
ĠPf lichten
ĠKontakt aufnahme
ĠS L
ĠJose ph
ĠH d
ĠFel ix
d in
abl etten
f elt
ĠR ichtige
Ver lag
Ġkon serv
so hle
akti k
in itiative
Ġdeutschsprach igen
ĠExper imen
ĠBe at
ĠPrÃ¤ senz
ias is
ĠEinblick e
Ġbef reien
ĠWel pen
ĠWh ite
ĠR Ã¤tsel
b rot
ĠAus zahlung
Ġfamil i
ĠC oll
el tern
ĠpersÃ¶n liches
mass age
Ġvor der
ĠR ente
qu alif
ĠA GB
ĠOut fit
ĠWh ats
spez ial
ĠKolle g
ĠLei d
ĠFerien wohnungen
ĠUnivers ity
Ġb itter
ĠD aumen
ord nungen
ap ier
Ser ver
k anzler
ĠDu sch
ĠMar io
ĠFl irt
tur m
Ġaus gelÃ¶st
ĠGest alten
ĠD ER
Ġeingeb unden
h ington
p rÃ¼f
ĠFunktion alitÃ¤t
ĠB ol
ĠHa ken
ĠT ragen
ap el
gr ill
j ugend
Ġange p
Ġschw ed
ĠFo od
Ġl anden
ĠWar enk
ĠUnivers itÃ¤ten
ei det
ss icherheit
ĠSt rau
âĢ ī
teil ten
ĠK anzlei
ĠH ahn
ah a
ĠPorno filme
ĠBef ehl
Ġbew ahren
arb urg
ĠAb fall
ĠBrun nen
ĠW eit
K eine
ĠChr on
kÃ¼ ste
r er
Ġdeut liche
Ġrob ust
ĠW i
grenz ung
Ġvoraus sichtlich
w ann
ĠD et
Ġb rennen
Ġr einen
Neu e
m asse
bas is
Arb eits
pum pe
un ion
com munity
or ca
ĠCo ckt
or es
d l
Zus ammen
Ġflex ib
ĠR oten
O W
ĠSÃ¼d t
Ġmin imal
len z
sen de
Ġweib liche
red ite
Ġab gew
d ann
ĠMan fred
f ters
ĠÃ¶rt lichen
Ġst ol
ĠSchwei ÃŁ
ĠLeit ungs
Ġerz ielte
ĠS Ã¶
lei h
ĠRubr ik
st est
ĠZu verl
ĠT afel
Ġzu grunde
ĠTre ppe
Ġkomplex e
K arte
Ġbek amen
ĠClub s
ĠFel sen
L ehr
ĠT enden
ĠTa sten
ĠIn fektion
ĠjÃ¼d ischen
Ġd etail
kl am
wa ff
ach ing
ĠInvest ment
ĠGl Ã¤ser
ĠO ffiz
Ġleben dig
ĠmaÃŁ geblich
Ġbetreffen den
ĠRegen sburg
ĠEnt sch
Ġmit unter
AN D
ĠCha os
ichter stattung
Ġd anken
O h
Ġ6 1
bezogen e
ĠT ut
d isk
St G
ur de
b isch
uppert al
A ben
Ġneugier ig
Ġerfahren e
Ġabge lehnt
Ã¤l de
ĠPots dam
ĠVor gang
se ud
z ucht
H aupt
Ġlin ke
Ġchrist lichen
asch utz
ĠW itz
Ã¼t tern
ĠDu b
ĠgÃ¤ng igen
Ġm oral
Ġbes uchte
ĠE ffekte
Ġhol t
W issen
ar ina
ĠE qu
Ġgr at
ĠLie ge
Ġkomp at
ĠBlog ger
reut h
ĠF ord
vert rÃ¤ge
ĠDaten verarbeitung
ĠHerr schaft
ĠdÃ¼n n
ĠO p
ran ge
ing st
ĠSol idar
ĠAus stellungen
ĠMe yer
ungs los
Ġ8 9
Ġausgew Ã¤hlte
e en
Ġbekannte sten
m ir
achst um
ar me
ĠT H
Ġh aftet
ĠHoll ywood
ha ven
rÃ¤n k
ĠBe auty
Ġzusammengef asst
pp el
ĠSteiger ung
ĠAn kÃ¼ndig
ĠMar ien
E t
ĠE tik
ĠHandhab ung
Ġgesellschaft liche
ar ia
us el
Ein ige
ĠgroÃŁ artige
ei fen
Ġfinanz iert
Ġbr achten
Ġ7 7
Ã¶t z
Ġ ort
Ġauf gel
Ã¼b ungen
leiter in
Ġbegr enz
ĠEr ziehungs
ĠSchw ule
Ġau gen
ungs zeit
s iv
r elev
ĠVi br
Soll ten
ĠFot ografen
ĠW ut
ĠF Ã¼lle
ĠL ungen
auf ent
ĠC ab
ĠStatt dessen
Ġviel fach
ac y
and in
Ã¼ sten
ĠN ieren
Ġge klÃ¤rt
Ã¶ die
Ġer arbeitet
rate gie
bedien ung
ĠVor les
el ing
ĠBarb ara
ĠPro ben
pro gramme
Ġanbie tet
wach s
ĠE D
ĠT ruppen
ĠSch a
ĠW ahlen
Ġb al
ĠVit am
Ġbun te
ĠProt okoll
Ã¼t zlich
c ard
os se
d ose
rie digung
Ġre cher
Ġsicher er
Ġbo den
s u
ĠZum indest
ĠBe denken
we sten
ĠW ende
ĠOpp osition
ox id
Ġn etten
! Â«
ĠMich el
ĠKal orien
kon struktion
ĠWart ung
ĠEin klang
bar ungen
ĠweiÃŁ t
Produ kte
en ster
ch tet
ĠR ent
ĠP as
ĠP ed
riv e
Ġf rank
Ġintens iven
ck el
ĠMo z
ĠWei ss
Ġrecht liche
ĠKlima anlage
ĠBrÃ¼ ssel
es er
be am
ĠB achelorarbeit
ite kt
ack s
ĠMiss brauch
Ġs eite
W G
om Ã¶glich
ĠB ull
br un
ĠI hm
ĠFrieden s
Ġg raf
m eier
ĠL E
A A
ĠFinanz en
Ġt a
fab rik
pl o
Ġgeh andelt
ĠM iete
ĠNik ol
verb Ã¤nde
Ġher bei
d h
lei det
Ġelektr ische
Ġvor erst
den kt
zu bilden
beteil igung
wÃ¼r dige
Ġerz Ã¤hlte
ekt ar
haupt stadt
ĠWer ken
eben e
ĠFach bereich
ĠEhe frau
Ġver legt
ĠTex tur
ĠD B
val u
ĠVerl Ã¤ngerung
Ġ( *
Ã¼h ungen
kul atur
ĠB ielefeld
Ġerw Ã¤hnen
Ġsen ken
R es
dig keit
ĠGes p
le uchte
Ġhef tig
sÃ¤u le
og an
ĠD ick
Ġwunder baren
on ne
ĠReihen folge
ĠImpress um
Ġgen utz
Ġb inden
Ġschme cken
Ġsp art
Ġr isk
ĠM au
k amera
F Z
ĠSp itz
ĠSat tel
di mension
Ġun Ã¼ber
Ġent worfen
ĠM ake
ĠTh ail
ĠW im
Ġmittel alter
kl icken
ĠF ische
Ġ Ã¤sthet
Ġzwischen durch
m Ã¤dchen
Ġverl Ã¤uft
Ġsch loss
P ark
ver hÃ¤ltnisse
Ġle bte
ĠR ainer
ĠW it
Ġg Ã¤n
ĠSa tell
ĠL am
Ġ19 60
ĠSch am
ĠRe chten
ĠH Ã¼tte
ri z
lau t
krank ungen
zul ernen
ĠPort folio
Ġge leitet
ĠG aming
ĠMw St
Ġvers etzt
ĠEigen schaft
ten nis
ph p
ĠG PS
reg ister
spekt rum
Ġzw ingen
Ã¤n zer
Ġein ges
f aden
akt or
Ġschw immen
Ã¶ pft
ver g
ĠZ ins
Ġbeein druckt
k ost
Ġbew Ã¤ltigen
b ang
mÃ¤r kte
W eiÃŁ
ĠMosk au
Ã¤ ure
Ġm ut
Ġerf reut
sp ur
ĠEl f
Ġ[ *
p acken
ĠFern er
ri ppe
ĠRe ad
Ġbisher ige
ĠVort rÃ¤ge
ĠU we
Mod us
ch o
ĠNÃ¤ gel
ay a
Ġtrain iert
p rinzip
Ġle cken
zon en
ĠH i
bi bliothek
stÃ¤ tigung
ic tion
ĠPoly ester
ĠÃľber n
Ġverl aufen
ĠArbeitspl Ã¤tze
Ġbe denken
F S
ĠRud olf
ĠMobil funk
ĠBra unschweig
ĠL etzt
c ont
be eren
ĠV irt
Ho tel
ĠAnfang s
re e
ĠB ang
ĠK ron
Ġan kommt
Ġc lub
ĠgrÃ¼nd lich
ĠEx port
Ġbefest igt
snab rÃ¼ck
kap ital
ĠPat rick
Ġex klusive
Ġle hr
ver f
Sp iele
ĠSamm el
Ġn ationale
V ielen
ĠP assen
ech te
ĠRecht sprechung
re che
ĠT U
Bet rieb
Ġw ich
ĠÃľber setz
ĠAn kauf
lÃ¶ ser
Ġvor geschlagen
part y
Pl an
ĠGeb Ã¤uden
ĠAdr ess
Ġg Ã¶n
ĠSe eh
ĠSpiel tag
Ġsport liche
II I
Ġf ett
ĠM id
Ġh or
an ik
Ġp at
ĠD rag
ser klÃ¤rung
Ġd ruck
Ġ Ã¤
ĠÃ¤lte sten
Ġanalys iert
ĠL it
C l
Ã¶ pfer
vor sorge
gehen den
Ã¶ gern
ge webe
ir chen
H A
tert ain
be zug
ĠAnge la
ĠWirksam keit
ĠL or
Z immer
P G
er es
ĠVer schw
Ġst reichen
ĠLebens qualitÃ¤t
z em
Pl attform
an ie
ĠFort schritt
was ch
ĠE w
Ã¼tz ten
Ġver nach
ĠChem nitz
Ã¼l ler
ĠJava Script
Ġ7 4
ĠBand s
ĠTats Ã¤chlich
prÃ¤ sen
aktiv itÃ¤ten
Ġbet ragen
Ġvoll stÃ¤ndigen
ar ing
ĠBest seller
Ġfolgen der
Ġabge legt
ĠKr y
ĠG lei
kr atz
ĠPrem iere
ĠN acken
ren ten
ĠMet al
Ġkre ativen
re form
Ġs ur
tre tern
ĠZusammen fassung
eigen schaften
ĠLebens dauer
y nt
Ġf amilien
no te
ĠUr sprung
ĠBe frei
ĠT ape
mittel ten
ser satz
Ġ licht
Ġm inder
Ġneu este
wahr scheinlich
Ġdokumen tiert
ĠUp dates
esch Ã¶n
Ġver sprochen
ĠAktu elle
ĠWurz el
ĠBal ance
Ġzw anzig
Ġweib lichen
ĠDe al
Ġengag ieren
ĠZahl ungen
Ġum stritten
ĠUn s
r us
ĠAn stren
ĠBay er
ĠLang zeit
ĠL y
Ġro bu
gelen k
ĠPir aten
ĠS oph
ĠFilm s
ĠA gr
ĠH ill
ek ter
Ġein geben
ĠKauf preis
Ġti pps
ĠVer teilung
S ind
ĠSt Ã¼r
N ord
geb unden
problem e
Ġfol gendes
spiel t
ĠWeb cam
ĠGebrauch s
ĠO R
Ã¶hn t
stand es
h s
l Ã¤ufig
Ġg ames
ĠV eget
Ġk ind
et it
ĠPl attformen
Ġb rechen
Fil m
ĠH ang
Ġlo hnen
Ġl as
wirtschaft lichen
ner s
Ġsport lich
ĠG Ã¼nst
Ġerheb liche
ob s
el den
ĠAus sen
Ġ8 8
B ro
Ġhochwer tig
ĠN ehmen
Ġin mitten
Ġbek annter
ĠTabl etten
l ust
H at
Ġw ohnt
ĠDer zeit
V A
ist iken
Ġm Ã¼nd
ha in
ĠSa ft
Ġidentifiz ieren
ĠA ward
M ass
Ġver passen
ĠWettbewerb s
Ã¤r kt
ges chenk
M I
z icht
ir oler
str and
auber n
freund liche
Ã¤ he
ĠIntens iv
ĠFlÃ¼ ge
Ġverw andelt
Ġbe achtet
ĠEing angs
Ġis rael
K ultur
= "
Ġlei det
Soll te
Ġintegr ierten
Ġver grÃ¶ÃŁ
ĠVermÃ¶gen s
iv a
Ġwieder hol
ĠHyp ert
Leist ungs
Ġver sprechen
ander s
Man agement
Ġsch lie
or etisch
Ġmitge teilt
ĠSch ritten
ĠKlin iken
Qu elle
ĠW id
ur ce
ang riff
ĠStand orten
gem achte
Ġpartner vermittlung
ĠErsatz teile
ĠG au
ĠB lowjob
Ġmon tiert
Ġunter gebracht
ĠIn fl
mit te
Ġdem entsprechend
ĠherkÃ¶mm lichen
Ġgef reut
ver teilung
ĠS Ã¤tze
cel ona
Ġdass elbe
Ġschl ank
Ġkathol ischen
Ġfor derte
Ġvertrau ens
Ġst Ã¶rt
ĠF asch
» ¿
schied et
Ġverwende te
Ġvor ange
Ġn et
ĠInstitut s
ĠPal ette
ĠS GB
Ġher zustellen
Ġanalys ieren
on ach
ĠG Ã¤rten
Ġp lay
ĠB Ã¤r
ĠEind rÃ¼cke
Ġd ritt
ens eits
aut or
st ad
ĠFl ash
ĠWachst ums
ĠSt ro
ĠZenti meter
ĠS ehn
Ġstaat liche
Ġlang leb
ĠGel b
ĠFort setzung
zentrum s
ĠKomp osition
Wie der
ĠM otoren
ĠErgebnis sen
a al
Ġenorm e
mpf e
ist a
ĠB ug
ĠRei cht
ĠSemin are
ĠF ro
Ġserv iert
zess in
Ġbr ut
ĠH arry
ĠkÃ¼ hl
ĠberÃ¼hm te
Ġlang jÃ¤hrigen
Ġan legen
ĠZwe cken
Ġnutz e
ĠEinschrÃ¤n kungen
F er
ipp er
af eln
ĠAn ges
Ġhin weisen
ĠP ausen
Ġernst haft
ĠKf z
ĠVor sorge
ĠBestell ungen
Ġw Ã¤hlt
ĠE S
end ungen
ĠB uchen
ĠTo de
ĠB E
minister iums
ĠSch Ã¤d
ĠAns ichten
Sch ul
ĠOrg asmus
ĠUhr zeit
ĠFrÃ¼ her
um me
ĠGrund satz
Ġgel b
eiter t
v es
p osit
ĠRelig ions
S eiten
ma x
it at
ĠDaten Ã¼ber
ĠNetz werke
ĠWill i
ank auf
Ġzeit genÃ¶ss
h und
g rau
E gal
ĠKond itionen
ĠGut scheine
ĠEcht geld
I B
ĠS D
Ġexklus iv
T B
ĠFl ur
ĠBar s
Ġver glichen
ĠÃ¼berw inden
ĠNÃ¤ch te
Ġbesser es
Ġzu geordnet
ĠH agen
ĠFuss ball
ĠEin leitung
ĠMar co
ei dung
ĠZ unge
ĠMag deburg
ĠReich s
ĠF ingern
yp e
Ġv o
Ġabsol uten
Ġf ile
Ã¶ ser
all t
ĠG eht
ĠE va
Ġsex uelle
unter gang
Ġzu kommen
Z wischen
Ġger ichtet
Ġbede ut
ĠVer schieden
ck ten
ĠI G
ĠgewÃ¶hn lich
V ol
Ġ Î
ĠStoff wechsel
fÃ¼hr ende
Ġenthalten en
ik ern
ĠRund funk
ĠA z
ĠtatsÃ¤ch lichen
ĠGen ossen
sk ammer
Ġunbek annt
. ;
ĠK Ã¼n
Ġbeant ragen
âĢ¦ âĢ¦
Ġhervorragen den
Ġaus k
Ar beit
ĠBr ett
ĠPlay er
ĠR oland
ĠRost ock
Ġbetrieb s
m Ã¤ssig
Ġrecher ch
ĠWÃ¤ sche
Ġzur zeit
Ġinnen architektur
ĠGir l
Ġintegr ierte
ĠGe orge
ĠKunden service
Ġi sol
Ġinspir ieren
h inter
Ġa fr
Ġs ens
ĠZahn arzt
I de
ĠUnabhÃ¤ng igkeit
Ġged reht
S onnen
I r
Ġgew iss
âĢľ :
Ġm uschi
ĠEt wa
ĠPh asen
ĠM ater
Ġviel seitig
ĠAn ordnung
ĠProjekt s
ĠKennen lernen
Ã¤m mer
Ġvereinbar ten
Ġange hen
Ġbrau chte
ari fe
ĠSol o
st u
ĠVerein igung
ĠSp rech
Ġn Ã¼tzlich
ĠStra fe
Ġc ir
ĠT eich
Ġbede ckt
ĠHel m
sor iasis
ĠSy nt
ĠMed ium
Ġbesch Ã¤digt
pro ben
wissenschaft ler
Ġan schau
ĠDe f
Ġbein halten
iden z
Ġaus gerechnet
ahn t
S ow
ĠKon zeption
ĠE k
Ġvern Ã¼nf
Ġeinge st
ĠO k
mo tiv
ĠK asse
ĠZu erst
bst ahl
Ġso for
G O
ĠRen ov
eim ar
ĠKar ne
ĠW andern
ĠkÃ¶rper lichen
Gro ÃŁ
ĠG ift
ĠRob oter
on ien
ute te
ĠTechn ische
Ġalt es
Ã¶ op
sie d
Ġer r
ĠS now
8 00
Ġverab schiedet
Rei he
O hne
Ġautomat ische
ĠBÃ¼nd nis
Ġin folge
d irektor
ĠL enk
Gen er
Form at
Ġm ilf
ĠHo use
Ġkl im
Ġz eige
d ichte
st ift
ĠFre undes
I O
Ġabsolv iert
Ġerhoben en
Ġent z
ĠVersicher ungen
mon at
h ot
ĠÃľber legungen
b Ã¤ume
pol izei
ĠInnov ationen
ĠÃ¼ber ein
ĠGleich gewicht
ĠB y
ĠR ub
belast ung
Ġange wand
ĠEm p
urn ier
ĠLebens lauf
ake ten
ĠfrÃ¼ he
Ġer frischen
ste ten
An t
ĠT irol
ĠK orn
Ġweiter gegeben
ĠR alf
alis ierten
Ġzug unsten
ĠBay erischen
Ġaut o
alen te
st eig
Ġhin unter
ĠHerz og
ĠRichtig keit
zu halten
Ġvers and
Ġtr end
ĠBeg leit
Ġan wenden
ss atz
od a
Ġbr ach
ĠF aden
st anz
Ġeinzus etzen
ĠW E
ĠStÃ¤r kung
Ġar sch
ĠGeb Ã¤udes
Ġzeit lich
Ġleck eren
ĠEben holz
ĠSt reich
Ġexklus iven
ĠnÃ¤ch st
ĠPf anne
Ġitalien ische
or ial
ĠEinzel nen
Ġgeschlossen en
ĠStaat es
ĠDar in
ĠProf it
Ġher ab
Ġ7 6
Ġgeb rochen
bl es
ele ase
Ġverw and
Ġsch mal
ĠPoten tial
Ġengl ische
wÃ¼n sche
ĠS ven
ĠP kw
b rau
ĠAl len
sex t
ĠGitar re
h Ã¤
Ġfrem de
pl Ã¤ne
En d
Ġ {
ĠFranz isk
Ġn annte
el ekt
r iel
ho use
Ġschw anz
Ġk olle
ĠC R
ab schnitt
het ik
ĠAt lan
ĠVari zen
ill on
Ġt reibt
Ġgleich nam
ĠGeb iete
m ak
lie s
ĠGlob al
ĠFahr en
ĠNavig ation
gel ernt
ĠGesch ichts
ĠSch alter
âĢ ¹
ĠSho pping
ĠB ie
sam er
fer enzen
ĠE u
Ġleck ere
ĠÃ¼ber leben
ĠPiz za
bel euchtung
ĠF alten
Ġan treten
sem it
Ġvirt uellen
eh nt
mungs aktiv
Go ogle
Ġirgend ein
ĠU RL
ĠSc ience
ĠSt all
stra fe
Ġkompeten t
s fÃ¼hrer
ĠZ DF
zei le
ĠAngebot s
ĠglÃ¤n zen
a unt
W ichtig
Ġkon vention
ĠP i
Ġall mÃ¤h
itz el
stra ÃŁen
fÃ¤h igen
ĠBeschwerde fÃ¼hrer
ĠBo ck
ĠAkt ie
ĠY outube
T er
ĠT ech
ĠVertrieb s
ĠZeit schriften
ĠS i
EL L
ul ator
Ġ/ /
ff in
verl etzungen
A t
Ġleist et
ĠgroÃŁ artig
l Ã¤uft
Ġb rem
ĠMex iko
ĠauÃŁergewÃ¶hn liche
ĠStr assen
ĠSch lieÃŁ
ĠBes atz
sch laf
ĠPap a
ĠM eist
ĠG ig
ĠMa j
la w
ust ik
Ġanges agt
K A
k raut
Ġverhei ratet
M aterial
er l
hn te
Ġspir itu
Ġel ast
Ġp reise
wer ter
ĠÃľber zeugung
ti se
ĠMÃ¤r kte
ĠB lech
z eln
ĠSt yle
Ã¤hr en
ĠUnter kÃ¼nfte
ĠBek annten
ĠL ar
ĠHand werker
Ġkonfron tiert
ĠKamer as
ĠPh arma
t our
Ġverb leiben
ĠL ex
Ġge lieb
ĠM ust
mar sch
ĠHaus halte
Ġvor wiegend
ĠFest platte
ĠBekl agten
Ġkon stant
Ġausge wiesen
ĠInn sbruck
ĠV Ã¶l
ĠKn ei
ĠSens or
stag s
ĠKlim aschutz
Ġent gehen
Ġpro duz
p orn
Ġkommun izieren
stand ards
frei er
S tel
ĠVer wir
Ġre volution
kr ise
ir a
ĠBill ig
ĠDan eben
e ffizienz
op s
den klich
ĠPromo tion
ab elle
Ġkontakt anzeigen
E mpf
Ġeinz iges
Ġauf geben
Ġein f
Ġun klar
ĠOst see
ĠNor wegen
ist rat
Ġern euer
enn y
Ġorien tieren
ĠÃĦ l
ĠZul assung
ĠMarkt platz
Ġkomplex en
ĠFach krÃ¤fte
ĠAbhÃ¤ng igkeit
uch tet
ĠW ahnsinn
ĠK it
Ġein ig
Ġge kl
ĠEl isabeth
cy cl
ĠLiefer umfang
ĠViel mehr
Ġgen ieÃŁt
Ġoptim iert
ĠD og
Ġfreund lichen
bas ierte
ĠR Ã¼st
ĠK ick
G G
ĠH TML
ĠDem o
stra hlen
ĠP utz
K ar
Ġaltern ative
Ġrei fen
kt oren
Ġirgend was
Ġpro m
ĠD est
ĠHon or
Ġco uch
Ġlei d
ĠkÃ¼ che
sp ark
l itz
Ġge lebt
Ġ enden
ĠFuÃŁ gÃ¤nger
Ġman cher
ĠMig r
p ommern
ĠWarenk orb
pr esse
ĠL achen
ĠPrÃ¼f ungen
ĠT R
ĠGe ben
Ġaust auschen
ĠB ell
Ġbegeg net
H inter
ĠM oll
ĠfÃ¼n ften
ĠKom pro
pr es
l ampe
ĠhÃ¶ re
ed a
at i
Ġro sa
Ġs ommer
Ġso oo
Ġman geln
Ġres pe
Ġreich hal
Ġf Ã¤llig
ĠFlÃ¼cht ling
opp t
S how
ĠK rei
Ġverl Ã¤ss
ĠÃ¼ber sichtlich
ĠBetracht ung
r w
200 5
E vent
Ġwid men
Ġgew isser
ĠB len
ab ile
ĠWeiter gabe
ĠEng ine
ĠGen ieÃŁen
Ġwie s
sie ger
ĠLeistungs fÃ¤higkeit
Ġkennen zulernen
bio tik
Ġk a
L ink
sch un
ĠCom ic
Ġb lo
ĠPo ster
ot herap
Ġw inter
re ens
ket ball
Mitglie d
M ain
ĠAro ma
ĠP oppen
m ien
ĠÃĸff nung
Ġtechn ischer
ĠGest altungs
op e
Ġge bur
ĠAus ser
x id
ĠAkte ure
ĠbenÃ¶ tigten
Ġh under
Techn ik
att oo
m anden
ĠEnt spann
ĠSor te
al in
Ġins zen
ĠAn sÃ¤tze
ĠM einer
ĠsÃ¼d lich
em and
Ġ arm
6 00
ĠBeliebt heit
Ġorien tiert
part ei
ĠSch iffe
il deten
Ġwieder holen
c ing
Ġvers ichert
Ġkeines falls
el f
nach mittag
Ver hÃ¤ltnis
k y
amer ikanischen
ĠR on
Ġmotiv iert
Ġi ll
Ġunmittel barer
ov olt
gew orfen
ĠBes ondere
Ġgemein nÃ¼tz
Ġg ucken
Ġmodern es
ial is
ĠKartoff eln
ĠL ong
Ġunverb indlich
Ġeingesch altet
Ġb ra
ĠQuadrat meter
Ġangen ehmen
ĠH Ã¤usern
ĠZw angs
ĠWal zen
ĠFre quenz
Ġzu stÃ¤ndige
Ġendg Ã¼l
ĠNachbar schaft
ĠKok os
F in
Ġwelt weiten
t temberg
ĠHÃ¼ gel
sch ale
Ã¼l tigkeit
bau ung
ĠSab ine
inform ation
ĠGar age
ĠInterview s
Ġ ÂŃ
ĠFol ie
ĠSch ool
Ġle ute
ĠZuverl Ã¤ssigkeit
ĠAb gabe
ph y
Ġre gen
ĠBÃ¼r gern
ĠProt ein
or ger
ĠK alt
Ġer arbeiten
ĠEin steiger
Ġinteress ierte
dr Ã¤ngt
Ġgew orfen
Ġpr ima
Ġdauer te
St re
ĠB ald
ĠEhem ann
Ġse el
ĠD orn
Z ug
ĠAb bildung
Ġdiff erenz
ĠKratz baum
ĠB Ã¶rse
om s
Ġbestimm ter
Ã¤u ÃŁer
ĠSystem en
ĠW obei
ĠRum Ã¤n
ĠBl asen
Ġeinz uf
inter ess
ĠEin em
eu en
ĠerhÃ¶h ten
ĠVerpflicht ungen
ok raten
ĠRos a
ĠStra hlen
m or
ĠBack ofen
ĠSt rick
ĠKon f
empf ehlen
ĠG eister
vis or
Ġk Ã¤
ĠPubl ikation
ĠMedikamen ten
ĠWar n
Ġre duz
ĠAus schuss
t rÃ¤ger
Ġs Ã¼ÃŁe
ĠPil ot
Ġs uchte
B ar
ĠV ER
ar tiger
angeb oten
ĠA V
Ġv ierte
ĠHaus frauen
Ð ¸
ĠDienst leistungs
il y
ru p
uÃŁ ball
Ġsl ots
op tionen
Ġp Ã¼nktlich
ĠS R
2 000
utt o
ym ph
Ġinternation aler
ĠVertrau ens
ĠCas h
Ġver schen
ap h
ĠG rupp
ĠZ oo
Ġn ich
Ġs eht
Ġs inken
C ont
Ġende te
ĠW Ã¤re
Ġr aten
ĠH Ã¼r
Ã¼ len
je ktive
ĠH ug
ĠR y
ĠOr gel
ĠmÃ¤ch tig
ĠMar x
Ġfil me
wick elt
s werten
ĠStr ich
Be vor
c s
o is
ĠHaus arbeit
ĠH S
ĠBr ille
ĠMar ie
ĠTast atur
ĠA cker
splan ung
Ġge lingen
S til
sto ÃŁen
schm uck
ch or
Ġab seits
Ġz ivil
ĠBar celona
AR T
Ġ8 2
ĠBrem s
ĠH ert
ĠÃĦr ger
Ġgeist igen
ĠgÃ¤n zlich
Ġsp anischen
ik as
ĠD Ã¼
Ġmittel stÃ¤nd
ĠA K
andin av
b ation
M e
ĠPrÃ¤ z
ĠPublik ationen
ĠBereit schaft
ĠDel eg
ĠG ehen
Â ©
Ġw a
Ġausge geben
ĠM alt
ĠB L
ĠPat ent
ĠMass iv
G VO
ĠgemÃ¼t liche
stell ern
n ot
ĠGe geben
kl ima
Ġpfl anz
icht lich
schul d
Ġerst reckt
ĠNie mand
haus halt
ungs voll
Ġabsol uter
ĠAn k
Ġeurop Ã¤
Ã¤ ler
K osten
Ġder artige
ĠVern etzung
ĠNe ck
sor ten
Ġverm ieden
te lefon
uz z
aus fall
ĠInteress ierte
s heim
ĠIm pf
ungs system
R Ã¼ck
X L
ĠCont ainer
zw ald
Ġerreich ten
ĠAn schrift
ĠEcht zeit
ĠSchul tern
p g
P M
Ġun ein
ĠTrans formation
ĠB w
ild es
i j
lei hung
ĠClass ic
Ġst Ã¶ren
ĠA ar
ĠPress emit
schie ÃŁen
Ġfreund liche
tau scht
ĠProdu zenten
ĠZeit alter
ĠSie gen
ke pti
Ġerfolgreich er
Pro blem
ĠB reiten
ĠSw iss
Ġver ank
ĠHei de
C C
wirtschaft s
Ġsch ick
ver m
Ġein gel
Ġ7 8
ĠRÃ¶ mer
techn ologie
ĠLÃ¶ sch
Ġfehlen de
Ġn irgend
io se
ĠP H
ĠPh ysi
Ġbeh er
K ein
me tern
ĠG Ã¼rtel
ĠgÃ¼l tigen
ĠZahl reiche
ĠM ega
wes end
ĠF ix
Ġ8 6
ĠP osit
ĠGymnas ium
ĠAn reise
ĠT unnel
ag a
low ak
se g
ĠPol ster
gesch n
f ast
sau ger
at ing
ĠHier fÃ¼r
Ġstud iert
ĠFantas ie
Ġland es
ĠVerband s
ĠZeit ungen
ĠEr fassung
ĠC ru
st ationen
ĠSchn Ã¤ppchen
ĠWÃ¼r zburg
Aut o
Ġp en
ĠBedÃ¼rf nis
Ġdrei mal
ĠFrem den
geb uch
aun a
ĠPor sche
ĠD ur
wie se
ĠMedik ament
Ġf ung
Ġein kaufen
Ġaufge geben
us alem
ĠIn stand
vers and
em mt
wend bar
Ġc le
AN N
Ġverm ehrt
Ġber ufen
heim ischen
Ġetabl iert
Ġbedro ht
ĠK Ã¤r
ĠSorg falt
chn ik
ic ation
ĠE if
h at
Ã¶l n
ĠClau dia
ĠEin sÃ¤tze
Ġk ol
ĠAuft reten
Ġheil igen
s ich
Ġbl og
ĠB os
ĠFrei spiele
ĠEle ct
ĠHypert onie
c ia
be stimmung
O pti
ran sport
pf legung
ĠAn hang
ĠFot ze
att le
Ġbenach bar
ĠAn blick
ar ter
grÃ¼n dung
v ille
Ġher ange
Ġda te
ĠRe zeption
met all
Ġteil zunehmen
ĠZeich nungen
Ġerw ischt
bew usst
wÃ¼r digen
opp elte
ĠjÃ¼nger en
be kleidung
t chen
P N
Ġj enseits
ĠP aten
Ġst irbt
ĠDir k
ĠgrÃ¶ÃŁ ter
ur y
ĠWie se
ĠLi quid
Ġmit bringen
kom mission
Ġhinzu gefÃ¼gt
ĠP ixel
Ġst adt
zul ande
Ġzer tifiz
Ġfoto community
Ġmit zu
Ġinteress anter
Ġbeant ragt
ĠÃĸsterreich s
hor st
Ġwie viel
ĠP Ã¤dagog
Ġzu geben
Ġin t
ied elt
Ġam bul
ĠKom mt
Ġz ogen
ĠP y
Ġaus fallen
gr Ã¶ÃŁer
Ġbe geben
Ġunter m
f irma
Ġnachhal tigen
ĠN ICHT
Her z
rau l
ĠF liegen
ĠFinanz amt
Ġgesch Ã¤tzt
Ġm Ã¼h
ĠSpann ungs
ĠS ack
verein barung
op tion
ĠK en
ĠKonfl ikte
ĠFarbt on
Ġmit teilen
ĠWett be
T F
schen den
Spez ial
steiger ung
Ġjeg licher
ĠSch auen
Ã¤mt liche
neh mlich
ri um
ari at
Ġer gab
Ġgew Ã¤hlten
ĠImpul se
K ap
Ver fahren
Ġko oper
ĠNeu gier
ĠK iefer
z iert
h ub
-------- --------
pul ver
ĠSch lauch
ĠL ag
Ġ19 50
c u
Ġ tisch
ĠNr w
ĠH av
Ġblau e
person al
ĠSch ade
l or
aus s
ĠFÃ¼r sten
fe kte
Ġgest altete
rich en
ĠSen at
Ġdr Ã¼ber
P ost
ĠWeihnacht sf
ĠPrin z
ĠZ Ã¼ge
Ġw onach
gra de
Ġherr lichen
ĠThail and
so fa
ĠMitarbeiter innen
Ġp re
N acht
k enn
ĠAuftrag s
L a
Ġverl ang
abhÃ¤ng ig
Ġw ochen
os h
ĠMitglie ds
ĠMittel meer
beit rÃ¤ge
Ġnie manden
ĠHe ad
zwe cken
ĠâĤ¬ .
Ġveran lassen
an ch
ĠVert rages
Ġschl ag
ĠAus nahmen
Ġw ahnsinn
ĠI D
res erv
if iziert
schutz es
In f
Ġgesch ul
st urz
Des halb
Ġfest er
orien tierten
Ġ9 2
ĠAb weich
b ier
ĠschÃ¶n ste
ĠWelt meister
ĠWer kt
ĠL inden
ĠK anten
Ġfeier te
Ġeinfach es
ub le
K arten
aut o
ateg orien
as ing
ĠEx press
ĠP for
ĠEr ster
Ġgeb acken
Ġnach weisen
ĠUnter grund
201 9
Pro zess
ĠL Ã¤ufer
ĠAd d
Ġb richt
Ġintern e
ĠBar geld
vert retung
rans fer
ĠSonnen schein
Sch utz
ĠSchei be
ĠWa ffe
Ġvergleich sweise
Ġgelegen en
los es
c le
at ien
in tens
ateg orie
Ġvergleich bar
ĠKrankenk assen
Ġgew id
Ġwar f
ĠZ ehn
ĠAn lÃ¤
ĠUn ternehm
' '
ĠSh irt
N orm
Ġeurop a
Ġre alen
ĠPl at
Ġbr and
ĠSie he
ĠK i
Ġver schlossen
Ġh ellen
ĠSch af
ne cht
ĠBesonder es
rit ing
ĠPar ameter
ĠKry pt
ĠStem pel
ben e
viel falt
Ġauf recht
Ġschaff te
ĠVir en
ĠW eich
mag azin
Ġex tern
ĠDunkel heit
Ã¶r n
ĠUn bek
Ġbef asst
ĠLa sten
ĠausfÃ¼hr liche
az ieren
ĠH imm
rei hen
K n
ĠVerbesser ungen
lo h
Ġober halb
ur es
ĠAn schaffung
ĠAus flÃ¼ge
Ġw omÃ¶glich
Ġsch reib
Ã¼ber greifen
ĠLieb haber
Ġentsprechen der
er ing
Ġmittler e
ĠSch rÃ¶
Ġerl angen
Ġ ).
ab sichtig
fer tig
H ey
ĠJ h
ĠOst ern
Ã¶r tlich
sp itzen
ĠAb kommen
ĠVor sprung
Ġbe wiesen
Ġempf ehle
ess eln
An halt
atis iert
ĠPar adies
F arb
Ġgemeinsam es
as k
Ġs yn
Ġpart y
ĠnÃ¶r dlich
Ġbekannt lich
hol ungs
Ġgesp eicher
Ġdurch setzen
kon stru
sch reiber
Ġbelast et
Ġed el
geb irge
ungsk raft
Ġeur em
Ġelektr ischen
ĠAn ne
au x
auf lage
ĠHerstell ern
b Ã¤nder
w ahlen
ĠSp ende
ĠF ut
ĠHalt barkeit
ĠStellung nahme
Ġun i
Ġ7 3
Ġschrift lichen
ag on
Ġ ulti
Ġst ress
Ġrund um
Ġgew ohn
Ġ( âĢ¦)
Ġausgeb ildet
dat eien
ĠGlau be
Ġdefin ieren
Ġwir kte
ĠGewinn spiel
ian er
Ġgek lappt
T rainer
ĠKÃ¼nst lern
Or g
Ġ4 50
br Ã¼ck
Ġh ind
Ġst Ã¶r
ĠQu al
ator in
ĠSec urity
ĠG ol
ikan ischer
rei be
ĠSpr uch
ĠVer stand
ĠH R
Ġdreh te
jahr e
Ġein schlÃ¤
ĠUm stand
Ġwei che
ĠUm kehr
ĠWasch maschine
ĠL ichter
Ġeinmal ige
Ġun heim
Ġdenk bar
Ġin st
ĠunabhÃ¤ng ige
k es
ĠGel enk
upp ort
wÃ¤ sser
olle y
ĠMit einander
ĠAngelegen heit
Ġform uliert
ĠMal erei
ĠSch wert
gerichts hof
g Ã¤u
ĠInner halb
Angeb ot
ĠWas hington
ĠDat es
ĠK im
ĠÃ¼ber flÃ¼ss
rit zt
UN D
ĠFreiwill igen
Ġ7 9
ĠLand gericht
rid ge
Ġwei hnacht
ĠB W
ĠVerb ot
qu enzen
ischer weise
Ġvert eidigen
ĠTest ament
A uft
ĠAd am
ĠM etz
jÃ¤hr ig
vor aus
Ġsch ief
ĠG ust
Ġsp ringen
gÃ¤n gig
ĠAuto fahrer
ĠL eh
ĠMig ranten
D isk
Ġweiter zu
ĠHor izont
un ternehmer
bl umen
Z E
ĠAR D
Ġverp ackt
ĠB auf
min uten
gemÃ¤ ÃŁe
y en
strate gie
ĠW elle
ĠG anzen
Ġeigen s
ommer ce
ĠGesetz geber
ĠK upp
ĠUntersuch ungs
ĠTag ung
an aly
auft ritt
ĠK aum
Ġvorher igen
ĠBeitrag s
ĠAntrag s
um pf
Ġwo fÃ¼r
i ation
Ġverw alten
ĠTob ias
mb h
ĠHand ball
Ġsex uellen
Kom mission
Ġer zeug
Ġbege hr
F ern
b undes
ĠkÃ¼ hlen
ĠGesprÃ¤ chen
ar at
in chen
ĠEurop Ã¤
edig lich
s bach
Ġein ladung
ast ik
! .
ĠGrÃ¼n e
ĠZit at
Ġm athem
ĠH Ã¤n
Ġk alte
berech tigten
orien tierung
ĠD ess
ĠKapit Ã¤n
ĠAus zubilden
ĠGitar ren
ĠB Ã¤umen
Ġs m
ĠZw ang
ĠFÃ¼hrer schein
ĠS hemale
ĠDi mension
ĠB GH
ĠN ort
ĠStand orte
Mark eting
Ġben annt
zen en
Ġh Ã¤r
F H
Ġer kl
ĠGrund sÃ¤tzlich
Ġnach weis
ĠBeh aupt
ĠMÃ¼ hl
Ã¼r fen
ĠStil le
ĠAuft rÃ¤ge
u v
hel fer
ĠVorm ittag
B ilder
ĠÃľber nacht
wirtschaft liche
klÃ¤r en
hunder t
ĠSch Ã¤fer
Ġmehr erer
spezif ische
ĠR ast
p riv
Ġsh ort
ĠDynam ik
ĠHo he
ĠFÃ¼hrungsk rÃ¤fte
L Ã¶sungen
ĠResult at
ĠLebens mitteln
ĠAmts gericht
ĠÃ¶sterreich ische
k lapp
ĠHer bert
Ãľ R
Ġd rucken
auf gabe
ĠDeb Ã¼t
ĠBes ichtigung
ti mer
F L
ĠgrÃ¼n dete
ĠSp l
Ã §
schnit ten
ĠRe zension
Ġr an
p eln
Ġsl ot
ĠDon ald
Ġbast eln
c ause
k ochen
zu behÃ¶r
Ġu eber
tau cht
rÃ¤ g
Ġsuch st
Ġb ook
Ġjapan ischen
Ġbel ohnt
ĠLandes regierung
ĠÃ¤uÃŁer en
ar o
Ġ15 00
sch ub
ĠB ob
ĠZusammen hÃ¤nge
de kor
nen t
ĠC ard
ĠEr furt
ĠFest stellung
sch atz
ĠE last
ĠMenschen rechte
ĠNetz werken
Ver kauf
Ġverm uten
Ġversch oben
ĠN ick
ĠRecht sst
ĠMar i
ĠSon n
it us
Ġreich te
m assen
ha i
Ġerf reuen
ĠVerl uste
O D
Ġp ul
ĠArg umente
ĠSch irm
Ã¤m me
Ġ1 01
Ġbl icken
ĠChr is
Ġ2 20
en ke
ĠF uchs
ĠallmÃ¤h lich
Ġfair en
ĠZu schau
ĠSilv ester
ĠN AT
ut scht
Ġgriech ischen
Ġinspir iert
ĠgefÃ¤hr det
ĠLay out
ĠSch immel
ĠS ogar
lo ok
ĠGemeinder at
S ymbol
Ġw ander
ÃŁ ig
ĠRo uten
ĠN adel
sel bst
ĠKÃ¶nig reich
ĠRÃ¤ der
Ġver hand
ĠA T
T un
Ġbel asten
ĠKÃ¶n igin
tertain ment
Ġhochwer tiger
Gr Ã¼n
ĠSp in
d rom
stre ben
Ġe p
S erv
Ġflex ible
sch Ã¼t
m ond
ĠAb stieg
ĠM es
ĠRet ro
ĠTreff punkt
ĠMon te
ĠHan se
ĠProjekt es
r un
k alender
Ġer lernen
ein stellungen
ĠAb fahrt
Bl og
ĠRo te
a o
Ġeinz ur
ĠSchw estern
rÃ¤ te
on anz
ĠAuf satz
ĠOrd nungs
fÃ¼hr enden
Ġbet reffend
Ġp unkt
Ġent schul
ĠGesell schafter
ate x
Ġk ass
Ġbes orgt
ĠGeschw ister
Ġkrie gen
ĠPl Ã¤tzen
ĠEi weiÃŁ
St ra
F T
ĠFin al
ĠErschein ung
E X
ĠCons ult
dat ing
ĠStr asse
ĠNahrungs mittel
bl Ã¼
ĠBÃ¼rger innen
z ettel
C ook
ausen den
Ġs att
end igung
E urop
Ġries ig
si sten
ĠGem Ã¼t
un ft
Ġvers icher
ĠPeter s
G erne
Ġselbst Ã¤ndig
ĠVoll stÃ¤ndigkeit
Ġc ont
ĠL av
ĠSchaden sersatz
Ġweiter empfehlen
Ġo p
Ġunter s
Ġverb reiten
Z er
ĠAb geordneten
Ġwenig sten
ĠKÃ¼r ze
ĠHit ler
ĠGÃ¶tt ingen
b elt
Ġ9 4
ian ce
ĠO snabrÃ¼ck
ĠVic tor
rÃ¤ gern
om bo
ĠFahr ten
ĠPortug al
200 4
ĠH Ã¤ufig
Ġid yll
ĠReg ister
ĠFantas y
ĠMall orca
ĠKredit karten
Ġt auchen
Ġgeht s
Ġ ^^
Ġwachsen den
ĠAus dauer
ĠC ra
Ġl Ã¤st
ĠEin s
ĠArbeits losen
kon zert
ĠW uppertal
Ġausge stellt
il dete
Ġsoll tet
ĠDok umenten
ĠP el
Ġbes prochen
Ġex o
Ġrelev ant
ĠSar ah
ĠAl fred
ĠPr ime
K olle
Ġkl ang
Ġz eu
ym met
Ġge teilt
ĠRo yal
Ġ9 7
ĠSeni or
F R
S ign
F raktion
B L
ĠH amm
Ġbes prechen
ĠO t
ĠZusammen spiel
Ġumfang reiches
O ff
Ġhom osexuell
inten do
vers uch
Ġnachvoll ziehen
ar is
ĠÃĦ st
ente st
ĠV amp
en g
ĠSpe cial
Ġkompeten te
T itel
ĠÂ§ Â§
Ġweiter ge
Ġbeauft ragt
ĠtÃ¶ ten
ĠKil ometern
ĠÃĦr zt
M ax
Ġb onus
ĠC ott
ĠReg al
ĠdrÃ¼ck t
ĠAnaly sen
vorsitzen de
spiel zeug
Ġt anzen
du ktion
ĠBeg rÃ¼
S pe
Ġda zwischen
ĠBeob acht
Ġ8 4
Ġr unde
ss on
ĠzurÃ¼ck zufÃ¼hren
Ġwid met
ĠPrakti kum
Ġange griffen
ĠSt olz
ĠÃľbern achtung
Ġ198 7
Ġplatz iert
optim ierung
Ġein nehmen
Ġfehl te
Ener gie
N atur
ĠS ession
rÃ¤um t
ant rieb
ĠtatsÃ¤ch liche
Ġ7 1
stÃ¼t zung
S l
et sch
fakt oren
ĠAnge hÃ¶rige
verein igung
ĠRot h
Ġjahr e
Ġspezif ischen
r isch
bl ig
wert ungs
ĠP osten
b ische
G u
f indung
Ġanzu passen
Ġer hol
ĠKa sten
ĠAngelegen heiten
ĠEr leben
ĠGrÃ¼n dungs
P ass
k etten
Ġ17 0
Ġbeleuch tet
ĠMittel feld
ĠSport s
hy d
Ġs af
ge stellte
fol gend
ĠEnt decken
ĠungewÃ¶hn lich
ĠZ ier
kir ch
isch te
ĠPor tion
ĠW Ã¤nden
um er
B I
E lekt
Ã¤r er
Ġk lingen
Ġan im
Ġbill iger
Ġge hoben
ĠBehand lungen
f ro
ĠKais ers
ĠSt Ã¶r
gel ung
ĠAb bau
ĠC art
ĠGes ichter
ĠFran cis
ĠMag ie
o ckt
ĠKant ons
ĠPod cast
lei te
Ġbew undern
Ġtranspar ent
sp oten
Ġmet all
schen kel
ĠBes etzung
ĠÃľber ein
ĠN asen
il dern
ĠPan ik
ĠKap azitÃ¤t
W S
ĠSk ulpt
ĠThre ad
ĠT ru
ĠK ita
ĠDF B
ĠW eimar
utt gar
schun gel
ĠZusammen setzung
ĠSp Ã¼l
ĠSo zi
B in
ĠDe te
ĠBelast ungen
ĠHell igkeit
Ġer lang
Ġbes uchten
ob i
et ische
ĠKart on
ĠS qu
ĠGr em
ĠSil ikon
ĠSch ichten
ĠÃĸff nen
ach se
ĠfÃ¼hr ende
ĠG am
Ġbest icht
ĠLi ft
verb indungen
ĠAus gangs
Ġ198 6
ĠSE O
Ġaus gel
ble ch
ĠKrie ges
ĠP RO
ĠL uther
Ġchines ische
ĠauÃŁergewÃ¶hn lich
B ad
ĠN est
ĠWirk ungs
w all
ĠPig ment
j agd
ĠGetrÃ¤n k
ĠAus maÃŁ
ĠPer len
Besch reibung
ĠSp eich
ĠDe fen
ĠPanor ama
ĠunzÃ¤hl igen
ĠSchw immen
ĠzuverlÃ¤ss ige
Ġpro biert
Ġt ags
Ġausge zeichnete
ĠO ze
ĠZerst Ã¶rung
de fin
ĠTh or
ĠmÃ¤nn lichen
Ġd umm
k amer
ĠVerz Ã¶ger
f ans
lad ungen
Ã¤t ten
bil dern
ĠBatter ien
ĠAn mer
ĠE G
ĠBe achtung
ĠGes ellschaften
ĠUnivers al
ges undheit
Ġgebur t
ĠKont ra
ĠT asse
Ġf angen
p ackt
A ktiv
ĠAr ena
Ġf liesen
ĠP ie
rech ner
ol o
ĠLu kas
bie ters
Ġulti m
ĠBo ard
ĠÃ¤lte ste
Ġverl Ã¤sst
ĠL aub
ĠAuf kleber
Ġverste cken
swert es
cycl ing
ĠInterpret ation
ĠFrÃ¼hl ings
Ġ198 4
Ġzu bereitet
Ġfestge halten
op tik
ĠSeit dem
gef allen
Ġd istanz
ĠSchul z
ĠL id
ĠP soriasis
por ter
ĠBekl agte
lich ter
i ffen
s ommer
us se
f isch
Ġwissenschaft lich
ĠO mas
ĠKl Ã¤r
ĠAf ghan
samm lungen
asch a
ĠMod us
ed y
ĠSchw ung
ĠAn zeichen
ĠV I
ĠLand schaften
ĠNational sozial
Ġst oppen
Ġverd ammt
ĠAk adem
Ġgeheim nis
ĠCo up
AS S
Ġuns icht
ag n
rÃ¤n kte
Ġun glÃ¼ck
T O
H i
ĠAnge kl
ĠAngriff e
ĠÃ¶ fters
ĠLin z
sch altung
ĠErd geschoss
ĠAb sprache
er kennen
ĠMin im
Ġver rÃ¤t
zei gten
ĠAsi atische
ĠKon serv
st au
Ġbeg angen
ĠVerd au
ĠD L
Ġlust ige
Ġr ass
ĠNor men
Ġm otor
Ãľ V
Ġbegann en
Ġabsolv ieren
Ġperman ent
Ġman uell
ĠF reu
Ġwahr nehmen
ĠP est
ir urg
rasch all
sem ester
Ġbereit gestellt
ĠAb gaben
Ġ2 30
Ġbe cause
Ġz art
C ode
wei ger
g itter
lei b
iz er
rat h
ei tigung
Ġschul d
ist isches
w il
geben d
spf lich
j Ã¤ger
or ch
vor stand
ag ung
uÃŁ t
M otor
ĠLin ke
ĠAn sprÃ¼chen
Ġeinwand frei
unk eln
j ack
M al
ĠAmer ikaner
Ñ Ĥ
f iguren
ĠN ass
Ã¼ me
K G
park s
jÃ¤hr iges
J uni
ĠWahl kampf
Ġer fordern
ĠFund ament
ĠM ist
ĠR av
ver kus
ĠRÃ¼ck sicht
ĠNeu igkeiten
ak i
K r
ĠNeu stadt
bet rieben
Ġ5 000
ĠT Ã¼b
bei spiel
reu ÃŁ
St ation
Ġ \
ĠAnkÃ¼ndig ung
ĠKno ten
Ġh ielten
ĠW ester
Stand ard
ĠKons umenten
CD U
sti ftung
Es sen
ĠunabhÃ¤ng igen
ti me
Ġvoll em
hÃ¶ h
ĠÃ¼ber mitteln
s hafen
he ater
Ġkrit ische
ie ger
sl eitung
ĠC lient
ĠgewÃ¤hr en
Ġausge tauscht
ĠHerstell ers
ĠC ost
Ã¶ der
Ġer schaffen
ĠVer einen
ĠjÃ¤hr lichen
Ġk Ã¤mpf
ĠFr ise
ĠB j
ym pt
W M
ĠRe view
Ġgewid met
ĠEr haltung
ĠL ass
s ituation
Ã¶s se
Ġjetz igen
Ġbet reten
Ġsch aden
ti ck
Ġn ass
ĠR aub
Ġunangen ehm
ĠgrÃ¶ÃŁten teils
ĠT reiber
ĠGo ethe
ĠW ww
d reh
ĠB ike
ĠBand breite
ĠSpiel zeit
Ġp ein
K V
Ġrenomm ierten
p an
ĠEr laubnis
Ġver kehr
ĠGeb et
Ġfahr e
ĠHilfs mittel
dienst es
regel ung
ĠL ampe
w an
Ġdies elbe
ĠMin er
ĠKommun al
kon zern
s zene
ĠBegegn ungen
ĠBr ut
ĠIm plemen
ĠKranken versicherung
f Ã¤nger
ĠDies mal
Ġ: :
sp aÃŁ
Ġpro min
ĠFinanz ierungs
A gen
eidig t
ĠP rag
ĠOn lin
z immern
Ã¼ pf
ĠBox en
ĠGeh Ã¶r
Ġk redit
ro se
ĠTr ier
Ġsol ide
Ġerwachsen e
ro cken
au gen
ĠSo cken
Ġ ~
an sicht
oll o
de uten
ĠSie b
Ġsozial er
L auf
ĠT ausende
Ġfaszin iert
ĠLin ken
Ġsicher gestellt
ĠBem Ã¼hungen
b Ã¤
ohn heiten
ĠG ay
ĠK ast
Ġam b
ĠKlei dungs
Ã¤ gen
Ġfort geschritten
Ġm ischen
t z
zept anz
Ġer b
ĠO pern
Ġhier zulande
Ġ198 5
ĠFass aden
ĠK rau
ĠLuxem burg
ĠPul s
ber at
Ġaufge fordert
deut sch
ĠSpezial itÃ¤ten
ĠB inde
Ġan kommen
Ġpolit ischer
ĠL ekt
ĠSchwier igkeit
Ġge fl
hol d
ader born
Ġt rop
beh and
K lass
ĠPro vider
st einen
Ġvor gelegt
Ġbeherr schen
Ġuner wÃ¼n
Ġverw andeln
Ġeinmal ig
ĠToil etten
entr al
ĠFr ische
Ġg n
H ein
beweg ungen
ĠPrÃ¤ par
ĠD C
Ġheraus zufinden
Ã¶s ser
ĠB od
z ins
ĠgrÃ¼n den
ĠMo dule
H ab
Ġeleg ante
j unkt
g it
ĠOr ch
Ġkon figur
Ġjapan ische
ĠRo ad
at ischer
ven ten
Ġdazu ge
l u
Ġl Ã¤ch
ĠKrimin al
ĠD ichter
ĠEnt deckung
war ds
ĠO ver
uttgar ter
f acht
ĠZu bereitung
Ġdurchschnitt lichen
ĠEnt weder
Ġinteress ierten
riter ium
Ġverb aut
For um
ĠverrÃ¼ck t
l em
ĠPark plÃ¤tze
ip ment
ĠArtikel s
ĠSpr ing
ĠWar entest
gro ÃŁe
System e
la v
ĠSchw eine
Gen au
J ul
ail len
ie ÃŁe
Ġsch ickt
ĠFl yer
ĠQu ell
grÃ¼n der
ĠEr be
ĠRett ung
Ġko ordin
ĠLeip ziger
ĠGe denk
Ġrei z
Ġerf unden
ĠSch rau
d ringen
Ġant wortete
Ġschwar zer
I X
ĠBeit rÃ¤gen
Ġsp ar
Ġbade zimmer
ĠInner e
ĠC orn
Ġgrundlegen de
ĠHeraus geber
Ġw agen
Ġkennen gelernt
ĠSch ock
ru der
ĠTages ordnung
A K
stÃ¤d ter
Ġbl u
Ġst ein
ĠIm plant
ĠTum blr
ĠFla ir
ann a
ĠSch Ã¼ssel
ĠAlli anz
fe ktionen
ĠSchn Ã¼r
t Ã¼r
ob jekt
gend a
an forderungen
ĠAn schlag
ĠMan uel
Ġleben den
Men schen
N S
ĠB lo
ĠW ich
ĠD iv
ĠtÃ¤ tigen
Ġh euer
O st
ĠB ann
ei tig
anis men
ĠL ove
ĠH eld
Ġlux uri
Ã¤ sse
ĠAust ria
Ġre prÃ¤sen
Ġ8 7
Hin weis
sch Ã¼tzen
Ġin tu
S en
ĠR hythmus
Ġab stra
ĠV intage
Ġentf alten
Ġlangfrist ige
Ġanzu wenden
v iele
ĠH obb
ĠZ immern
mel zen
l ach
A dr
Ġreligi Ã¶sen
ĠVer gessen
Ġer bringen
Ã¼t zte
verkus en
ĠToil ette
Ã¼l lung
ĠSchw ach
tur e
ĠRicht ungen
g uss
ĠG aumen
ak el
Ã© e
ĠRei chen
ĠBrie fe
brÃ¼ che
Ġkom isch
d own
S uche
ĠSt ab
ad y
ĠG m
aff el
br unn
B Ã¼rger
Ġbeeindruck end
pr im
Ġsch aute
Ġt herapeu
ĠGab riel
Ġiden tisch
ĠBesonder heit
ĠCamp us
ĠbestÃ¤ tigte
rigen s
w ich
ĠWei ÃŁen
ĠCh ip
s ieg
ĠtÃ¼rk ischen
ĠI rak
S mart
Ġmit machen
ĠE IN
ĠChrist i
Stud ien
prÃ¤ sidenten
Ġver deut
ĠT C
Ġh elle
Ġaus lÃ¶sen
Ġrecht lich
Ġdes cription
ĠHir sch
ĠHum an
as p
de d
ĠSingleb orse
ĠG ei
ĠL euchten
oren z
gro ÃŁ
Ġemotion al
Ã¤hr ungen
rech nen
Ġcir ca
ĠK y
m auer
rein iger
Ġhilf s
rei fer
ĠNicht raucher
Ġaus zut
Ġwert voll
Ġverb orgen
Ġfur cht
ĠPal Ã¤st
ĠSp an
Ġf ickt
ĠLetz ter
Ġb rÃ¤
t ar
Ġl Ã¤ng
zus p
ĠSan kt
M P
ĠH ektar
B eit
Ġumfang reich
ĠBade wanne
ĠVer handlung
ĠAus schluss
Ġbeschrieben en
ĠB ucht
ĠprÃ¤sen tierte
ĠC C
ĠEnd lich
bay ern
Ġt rage
ĠVor satz
ĠTot al
ĠSchwÃ¤ chen
ĠH ER
ĠhÃ¶ch ster
Ġeinger eicht
ĠTisch tennis
ĠThem atik
ĠKop ie
ĠEnsem ble
ĠLo unge
ĠB un
ĠMiet wagen
el ie
Ġger einigt
k enntnis
ĠWei ber
gesch Ã¤fte
hr op
pfl anz
ĠIr land
Kl ein
stell ers
Ġfor um
ĠBundes kanzler
ĠHo sp
ĠHaupt bahnhof
Ġphil osoph
Ġsign ifik
sp err
zum achen
ĠGet reide
ĠPrivat sphÃ¤re
sp w
T yp
gesch mack
T ele
ĠA y
ank ungen
S terne
ster dam
ĠPar allel
htt ps
st el
ers dorf
Ġs al
ik ate
Ġbevor zug
vor schlag
ĠP ho
ĠStellen wert
J edes
Ġw endet
Ġbesch eiden
ĠSchaden s
Ġunend lich
ĠSchauspiel erin
ĠO pel
Ġweit aus
Mit arbeiter
kan al
S ommer
ĠBesch l
ar ot
ak ademie
w elten
tel ier
Ġher ein
de utet
ĠhÃ¼b sche
Z ahl
schein ungen
ĠMy th
r ieren
affen heit
zu legen
ried igen
ĠIns zen
ĠAro men
ĠÃ ł
ĠK reise
Ã¤u ÃŁ
ĠTeil zeit
ĠEn kel
ifest yle
ant s
W ien
ĠBr ig
le uten
iat rie
Ġverm eint
ĠK rem
ĠBÃ¼r os
Ġun vor
ĠS O
ĠIn dustr
st euern
Ġwohn ung
et ch
ĠW urst
ĠSch ilder
Ġdetaill ierte
kÃ¼ hl
ĠC it
ĠDi kt
ĠLand rat
ĠBaumw oll
ĠDS L
Ã¶s es
aus gaben
spezif ischen
Ġbe an
ĠOber bÃ¼rgermeister
ES S
Ġwert vollen
ĠBo sch
s arbeit
Ã¼ sch
ĠOliven Ã¶l
Ġruh ige
Ġeinge halten
Ġein genommen
a ats
Ġkom mst
ĠAmer ican
ĠDar unter
ĠÃľberrasch ungen
Ġman ip
de cker
ĠBes p
hal s
ĠSel ten
for scher
Ġge achtet
ĠSubst anz
Ver anst
ĠT sch
Ġauf kommen
ack ten
Ġal kohol
Mitglie der
Ġaus lÃ¤ndischen
ĠBau stelle
ĠJahr est
ĠHer d
Ġeigen stÃ¤ndig
vert rauen
k rain
ĠSchwer punkte
beu gen
Ġg Ã¶tt
Wir tschaft
vert rages
ĠPfl anz
ĠAnge stellten
Ġg rib
I s
Ġ !!!
ĠG Ã¤n
Ã¶ bel
SP D
tige m
op ol
grÃ¼n deten
sfÃ¤h ig
ĠW Ã¶l
ĠMinister prÃ¤sident
Ġan grenzen
ĠT oll
w ell
ĠSp rechen
ter te
ĠSt oÃŁ
ĠGlÃ¼ck wunsch
ĠR itu
Ġdauer hafte
ti pp
Ġselt sam
ĠTats achen
ĠPr es
ĠX box
ĠF ehlen
os a
Ġh eben
Ġh ob
Ges ellschaft
Ġ( +
ï »¿
Ġbesei tigen
ĠKon stru
ĠLand tags
Z B
Ġ8 1
ĠIniti ativen
Ġn omin
struktur en
Ġwechs elt
ĠP rax
sh ausen
gel b
ĠZ eile
vor haben
ĠspÃ¼r bar
Ġbew Ã¤hrt
Ġwo zu
Ã¤ qu
Ġsch ritt
ĠKopf hÃ¶rer
Ġle be
ĠEl ite
g ische
ĠÃ¼ber sehen
ĠFor ex
Ġd iente
Ġs ho
Ġunbek annte
il ie
Ġaus fÃ¼hren
Ġtranspor tieren
So fern
ĠS ekt
ĠSpons oren
Je de
Ġmark iert
icht ungen
w achstum
Ġl ine
ĠDiagno st
EN T
al m
ĠPul ver
Ġw ussten
ber s
zeit lich
Ġinhalt lich
ĠS we
or er
ĠM ah
Ġso uverÃ¤n
lie ge
c up
Ġver schieben
eb urg
L Ã¶sung
ĠEr g
ĠEr fahren
ĠSch ale
ĠHerzen s
be er
Ġst abile
ĠEl ementen
Ġanspruchs volle
el ement
ĠLÃ¼ beck
B R
oll te
Ġgelungen e
ge ts
Ġt ur
Ġo st
hin ein
ĠP ion
ĠÃ¼ pp
ĠV il
ĠE len
A lt
Ġf Ã¼ndig
fl asche
H O
ĠK rone
Ã¤m m
Ġver hÃ¤lt
Ġdeut lichen
Ġgew e
ĠWer de
ett s
ehr ten
ĠspÃ¤ter e
ĠverknÃ¼ pft
ĠPro m
Ã¼ss eln
sa ft
emit tel
bÃ¶ den
ĠS ahne
h ans
ĠAuf l
man tel
Ġverbunden e
Recht s
An bieter
ĠwÃ¶ch entlich
ĠÃ¼bersch ritten
Ġunbek annten
aler ien
feuer wehr
Ġs Ã¼ÃŁen
Ġget rock
ĠEm iss
ĠJer usalem
h auer
Ġbl asen
ĠP ink
K ommen
ĠKÃ¼ndig ungs
Reg ion
usch eln
Ġstud ium
viel fÃ¤l
fre quenz
Ġtau cht
ĠP okal
nah e
ĠErscheinungs bild
hÃ¶ fe
ĠR olf
ol stadt
d rÃ¼
Ġlegend Ã¤ren
c ent
ag in
Ġp oppen
Ġ Å
ĠTab ak
Ġberuf s
Ġwo her
ĠBe endigung
h ut
men te
versicher ungs
Ġâľ ĵ
ĠChar l
Ġverf asst
ĠB indung
zei len
ĠNet work
Ġland et
ĠUm stellung
Ġbestimmt es
H ei
) -
ĠDank eschÃ¶n
ĠExper te
A CH
Q L
ĠBe cker
Ġbe wirkt
Ġn imm
Ġst ri
Ġf okuss
Ġ á
at zen
Ġfinanz ieren
ĠSie mens
n uss
f oto
Ã¤ hen
ĠCh ines
ĠW alk
Ġver senden
V arian
Ġand auern
Ġpassen des
Ġger ettet
ĠArmb and
sta ats
d t
ĠWÃ¼r fel
Ġnacht rÃ¤glich
brun nen
Ġoffen er
k lichen
Ġgest Ã¤rkt
air e
ĠUn glÃ¼ck
Ġf all
Ġal ters
f rem
ĠC L
M eister
ier endes
Ġb aden
Ġk lapp
system en
Ġk u
um mel
amp ie
ir en
ĠH ess
jahr en
ĠAn st
Ġunver zicht
Ġ9 3
ĠVerg Ã¼tung
ĠGen re
Ġkrit ischen
ĠF Ã¤cher
Ġp ark
Ġaktu alisieren
ro gen
ĠPhot ovolt
ic en
ĠSchwar zer
Ġkompl iziert
ĠzurÃ¼ck greifen
ĠZuschau ern
stat us
ĠB usch
ĠgÃ¼nstig sten
ĠStra ÃŁ
ĠRechtsanw Ã¤lte
ĠCamping platz
Ġst Ã¤ndige
ĠS ul
Ġbet reuen
ĠkÃ¼rz ester
W el
ĠDar aus
arn ing
de ko
on ial
Ġrie sen
Ġgen iessen
ĠT aten
ĠBur gen
ĠFlÃ¼cht lingen
ĠO h
ymn astik
ĠBeob achtung
y o
Ġf eucht
B enz
F inanz
ĠMÃ¼n zen
ĠBel ohn
Ġv s
ĠEr zieher
ungsver mÃ¶gen
ar tiges
ĠBer t
ĠUmsatz steuer
lei tete
L o
zut reten
ĠL ediglich
ess ung
In formationen
Ġrezept frei
ĠFest ivals
ell i
ĠKrank heits
M E
one y
in tern
Ġmaster arbeit
ĠEr richtung
ĠG Ã¼te
ĠW Ã¤hrung
Ġresul tieren
ĠEl l
ĠHy giene
chte te
ĠRÃ¼ck tritt
Ġd Ã¼ster
N ie
G ar
empfeh lung
Ġener ge
S icher
ĠSchieds richter
ingu cker
ĠSolidar itÃ¤t
ĠX L
ĠOr ange
iz ierter
Ġs ervice
kom plex
ĠR elev
ĠK rist
ĠFort bildung
ĠGelt ung
Ġverbesser te
vorsitzen der
ĠB Ã¶se
ĠhÃ¼b sch
ĠM E
ĠB ik
ĠG eil
ĠGerÃ¤u sch
ĠAc ryl
Ġm un
ur teil
ĠÃ¤r ger
Ã¤ tigen
Ġgeist ige
Ġgef asst
ĠEss ay
Ġschau e
Ñ ģ
Ġverm utet
ĠEn ter
Ġhand elte
Ġ- ,
ĠHar z
ĠBer ichterstattung
vor schlÃ¤ge
Ġv en
ĠFass ade
ĠVerb und
K S
ĠOl denburg
k andid
ĠHand werks
Ver Ã¶ffentlich
Ġeinsetz bar
ĠTest bericht
Ġausge wertet
Ġgest oÃŁen
ri ce
ĠKartoff el
ĠVir us
Ġdeaktiv iert
ĠGu ide
Ġun auf
Ġtranspor tiert
kÃ¼ hlen
schei dungen
ĠWahr scheinlich
ĠIm per
sch ichten
ĠTrau ben
Ġgesch ah
ĠauÃŁergewÃ¶hn lichen
Ġan zunehmen
ĠH ip
ĠM aul
D ach
ĠL einen
ĠSÃ¼d afrika
R est
anz ug
ĠBro ker
ĠmÃ¤nn liche
yr am
ĠBl Ã¼te
ĠPersÃ¶n lichkeiten
and et
schaft liche
tur n
ad or
ĠIngen ie
ĠFol ien
f ett
ĠW etten
Ġgew echselt
s achen
ĠSo wjet
Ġs ek
k ol
ĠSehn sucht
it o
Ġbei getragen
S yn
Z un
ĠkÃ¼nstler ischen
mÃ¤r kten
ĠN intendo
Ġde v
ĠRechn ungen
g ischen
Ġeinz iger
sch le
kon omie
Ġgest Ã¶rt
ĠPil z
ĠGed icht
ĠZ aun
ĠSe kund
hof ft
spart ei
Ġzerst Ã¶ren
ĠAnder erseits
W ind
ĠVer sammlung
beh Ã¤lter
ĠursprÃ¼n gliche
ĠUl m
ĠB eil
wer f
ĠExper tise
ĠSch affen
Ġv eget
setz te
ĠE volution
ĠLesb ische
ĠHand ys
ĠZiff er
Ġjemand em
Ġr Ã¼cken
Ġglob ale
Ġauss age
Â ·
ĠK um
gel der
M Ã¶ch
ĠLoc ation
Ġfehlen den
k linik
schaft lichen
telle ktu
Ġkurz frist
ĠMed itation
ĠV iew
c ed
Ġs hop
and ra
C ommerce
Ġaus geben
ĠCorpor ate
Ġ Ã¤us
K auf
ĠF rost
Ġschon mal
ĠLand haus
Ġvernach lÃ¤ss
k ant
Ġneu sten
ha ken
Ġge form
zug reifen
? Â«
ĠÃľber gabe
N ational
h Ã¼lle
ĠPass form
miss ar
antwort ung
r essen
Ġstehen de
az on
Ġheraus gegeben
st etten
ĠVer schluss
ĠMar cel
Ã¤uf ers
ĠKrit iker
Ġangen ehmer
Ġver wiesen
ĠLog ik
ĠP ad
ĠMand anten
ĠSus anne
Ġzer tifiziert
ch tem
D ort
ti pps
ut s
ĠK M
So zial
Ã¤ tigkeit
ĠstÃ¤d tischen
Ġaus b
Ver b
ĠHaust Ã¼r
ĠVf L
ĠSe gen
h Ã¶ch
isten ten
gar antie
dern e
Ġsor tiert
P L
ĠAusland s
ĠElekt rom
ĠfleiÃŁ ig
griff e
ĠWer ten
ĠIn tel
yr ight
varian ten
Ġge stellten
Ġg u
acht eil
200 3
ĠEr zeug
g Ã¼ter
Ġklass isch
ĠKap u
Ġspiegel t
ĠSel ber
liefer ten
ĠAb wasser
por te
ĠKat al
rakti ver
ges ucht
ĠBÃ¶ den
A ss
ĠFl at
Ġiden tifiziert
Ġauf hÃ¶ren
ac ebook
Ġdi agnost
ĠEr stellen
ĠBron ze
Ġh arm
Ġte x
Ġwider sprechen
ĠMad rid
c ons
ikt or
ger ichte
Ġweite m
M edia
ĠUmwelt schutz
ĠS ele
ĠH atte
ĠL isa
W h
ĠTra iler
in dern
Ã¼n ster
ĠPet ra
Ġet h
Ġdah eim
m y
Ġteil genommen
ĠInnen raum
ĠSubst anzen
Ġr Ã¼ber
all i
ĠBas ketball
Ġt ru
uss ia
Ġnachvoll ziehbar
ent um
l Ã¤ssig
ĠkW h
Ġ one
ĠHar n
ind lichkeit
Ġsch ieben
Ġir re
st on
Ġverschw indet
Ġwe cken
el ine
h urt
ĠsÃ¼d lichen
ĠnÃ¼tz liche
ĠKro atien
ĠMail s
beauftrag ten
ĠT rÃ¼
Ã ¸
ĠVen til
ĠFach wissen
it Ã¤ren
Ġg rauen
umm eln
on ischen
ĠSter e
eigen e
Ġt ab
Ġbes ichtigen
ĠÃĦr mel
ĠSÃ¤nger in
ĠC S
ett a
be ziehungen
frei es
V oll
ĠWill iam
geg ner
haft es
ĠT ritt
kÃ¶n ig
sp ringen
Ġkr atz
ĠAb bildungen
b rochen
ĠRed uz
Ġ12 00
ab is
Ġd amen
ĠH auch
ĠGÃ¶t ter
Ã¤ glich
ĠC hl
il o
ĠYo ung
Ġent lassen
Ġmel de
Ġeffe ktive
gesch ehen
ĠGewÃ¤hr leistung
ĠR TL
ĠF ul
Ġer wiesen
ĠN an
Ġregel n
sext rem
Ġklein ste
ĠprÃ¤ sent
ĠPrinzip ien
ron g
rÃ¤n kung
un ts
ĠRo ut
Ġges amt
ĠPubl ic
er ten
ĠRes ort
Ġok ay
R eise
Ġbelieb ter
ĠZeug nis
Ġâ ĸ
ator s
Ġverantwort ungs
p df
lau bt
Ġange ordnet
ĠBek annte
ĠK Ã¶st
ĠBed rohung
Ġein tragen
Ġausge gangen
Ġin iti
âĢľ ).
ar men
ĠSp ritzen
k os
geb r
oc us
' .
ĠFahr bahn
h us
ĠSatz ung
h ammer
ĠAb stÃ¤nden
ĠHallo ween
P rot
br ille
ĠVor lagen
ĠAn halt
Ġp al
Ġausge prÃ¤
Ġbek Ã¤mpfen
ĠprÃ¤ ch
ĠL eb
t herapie
ĠJ os
ĠBen ed
Ein fach
stark e
org an
Ġan wesend
ĠR aten
ĠMas ke
ĠMÃ¤n n
ĠKur ven
scha fft
ĠÃľ bel
ĠAd apter
S ein
sp ritzen
Ġbr ill
ĠAb lehnung
Ġgrund sÃ¤tz
l ime
alb um
be st
if ikation
B ank
ĠT an
Ġgeb Ã¼r
Ġstark es
ĠEr trag
Ġerheb lichen
k ino
od or
h uren
ĠKl ub
amen te
ĠF erne
ĠO K
gerech ten
Ġbe weist
S ho
Ġt auschen
bÃ¼ hne
ĠMess ung
c ts
og ie
vers uche
ĠBer Ã¼hrung
ĠLa w
Ġqualif izierte
der ungs
k auft
ĠS echs
% ,
Ġ( !)
stand ort
ĠZwie bel
ĠMitglied staaten
Ġun gen
dienst leister
ĠI d
Ġu ber
ĠKil o
Ġag ieren
Ã¤ch tigen
ĠkÃ¼nstler ische
ĠJ ena
Ġge zahlt
in haber
gr enzt
chen gl
at iker
ĠÃĦn gste
mÃ¤ÃŁ igkeit
ĠHer unter
ĠP anzer
Ġausge tragen
An lage
Ã¶r tern
pf ern
an fang
spf lege
ĠDis co
ĠgehÃ¶r ten
A ug
geb ungen
Ġ8 3
Ġlaufen de
ĠR asse
ov o
ĠVerb indungs
arte ment
str Ã¶
ĠH Ã¼tten
ĠJuni or
Ġemotion ale
B O
ĠAuf stellung
N et
ĠEle f
ss icherung
Ġkostenlos es
, .
Ġder er
Ġh ome
ĠerlÃ¤u tern
. ]
ĠCh ic
ĠGesch ick
d Ã¼n
ĠTier schutz
m ischung
Ġauf weist
ĠUrheber recht
st aub
Ġrech net
ur ger
ĠEnt tÃ¤u
ĠKraft stoff
leb itis
j amin
Wir d
u ti
Ġkr imin
ĠZu gangs
ĠPrin zessin
Ġunter liegt
mal t
un fÃ¤higkeit
uf akt
ĠSach verstÃ¤nd
ĠNaz is
ĠW urf
ĠLou is
ĠMan tel
ĠKob lenz
ĠT Ã¶ch
Ġbed roh
ĠAfghan istan
ĠAus fall
se ktor
ĠJournal ist
ĠT ÃľV
Ġw uchs
Ġt ube
ĠProtagon isten
ĠKinder tages
ĠSaar land
ĠCa fe
Ã¤ch te
ĠRumÃ¤n ien
sum me
Ġe G
C enter
OR T
Ġvers uchten
rang ig
Ġm isst
Ġstatt gefunden
schlÃ¼ssel ung
ĠSchwimm bad
ĠlÃ¤nd lichen
ĠB la
at us
ĠBegrÃ¼ ÃŁ
ah nte
pr ise
ĠÃ¤uÃŁ ern
Ġf Ã¤h
ug h
ĠD AS
rech ter
ĠP av
ĠKa der
Ġl u
ĠF ru
ĠSt uttgarter
Ġgest anden
Ġfest legen
C E
ess ungen
ĠMak ler
Inter ess
ĠAn ten
S eine
Ġalles amt
Ġchrist liche
Ġstra p
zÃ¼nd ungen
ĠMinister ium
Ġleicht es
ĠT rinken
Ġverring ert
aus gleich
ĠL ot
p ad
ĠVorbereit ungen
P aket
ĠSchul ung
Ġf ielen
tif unktion
ĠOb jektiv
ĠTabl ets
iter ran
gesprÃ¤ che
Vor pommern
Ġk Ã¤mpft
Ġbem Ã¼hen
Ġo ffer
ĠH ingucker
Ġphys ikal
Ġhum or
am eister
Ġver arbeiteten
gef angen
ation aler
ĠSt urz
ĠSchm etter
ĠRe alisierung
b om
junkt ur
az itÃ¤ten
ĠDis sertation
fÃ¼ gt
last et
ĠNiederl anden
ĠLi ber
ĠT oleranz
Ġgest alteten
gehÃ¶r igkeit
ĠG allen
Ġer fahr
Ġbe kl
Ġan rufen
Ġer fahrungen
ĠProf ess
Ġin sofern
ĠKreis lauf
Ġlat ein
ĠR elease
art h
L icht
ru ption
ĠPrem ier
ĠN ummern
ĠV iet
S teuer
Ġberuf lich
Ð ½
untersuch ung
R ock
Ġn em
ĠRe vision
sprÃ¼n glich
f reu
ĠReh abil
Ġs am
Ġvari ieren
Ġf lieÃŁt
steh end
ĠMag az
Ġab gelaufen
C ard
wÃ¤r me
ĠBevÃ¶lker ungs
k ass
Ġindividuell es
Ġunein gesch
ron om
ĠNor bert
ste am
Ġnach denken
ĠFort schritte
ĠK ot
Ġhei raten
ĠZu hÃ¶rer
ĠEr klÃ¤rungen
Ġnah t
ÃŁ end
ĠKreuz fahrt
ĠDurch schnitts
familien haus
Ã¼ber wachung
hop Ã¤d
ĠProgramm s
Ġaut or
Ã¶nt gen
ĠMass agen
box en
av ig
or p
Ġbit tet
ag anda
Ġangesch aut
ĠW eite
ĠTrage komfort
ĠR A
bau te
ĠG reg
ĠL eu
Ġst Ã¤ndigen
fl os
fl aschen
Ġgez ielte
p zig
g alerie
Ġer baut
ĠKrankenk asse
ĠFÃ¼r st
ĠgewÃ¶hn t
Ġn rw
ĠKin os
Ġbe wirken
ĠVer sprechen
ĠB Ã¤ren
gl Ã¤ub
ĠCl ips
is ierungs
or derung
Ġkompat ibel
ĠP end
ĠL em
ĠJul ian
af il
St unden
l Ã¼
N ieder
k eine
schÃ¶n e
Ġber Ã¤t
dem okrat
ĠWort es
ĠKr im
sch war
Ġsch lau
Ġab gerufen
u u
ĠPV C
ĠS ak
Ġvert ritt
ir st
ĠWander ungen
tier ter
ĠVeg as
ĠbenÃ¶ tigte
Ġ19 33
ĠKatastrop he
ĠWirk stoff
do sen
Ġt raten
Ġbay erischen
Ġweb site
Ġver tik
Ġausge liefert
Ġge kon
Sie g
Ġam ateur
ĠVerlag s
Ġre gener
ĠBlu es
ĠAgr ar
Ġkom m
Ġ ult
est and
Ġd Ã¤n
ĠAnti biotik
ĠH undes
Ġges ell
k Ã¶pf
e der
Ġs il
f ind
Ġein bringen
T r
Ġlau ten
Ex perten
Ġhochwertige m
Ġerweiter te
Ġbed acht
ĠF S
pack ung
w olle
ausch ale
ĠSex filme
ĠL obby
ĠHÃ¶l le
Ġb lin
Ġinter disziplin
geschn eider
ĠTier arzt
ĠHinter grÃ¼nde
ĠerÃ¶ff nete
schl Ã¼ssen
Ġs eh
sk op
Ġfrei lich
ĠAk kus
hol m
ï ¸
ĠKil ogramm
ĠG Ã¼
Ã¤dig ungen
stand ard
ĠGem Ã¤lde
ĠColle ge
Ġf liegt
Ġerforder liche
op ro
ende te
Ġb aum
ir o
press ionen
ĠUm kreis
Ġselten er
Ġdamal ige
ĠAuf lagen
A ktion
ĠK lagen
schn ell
p i
Ġ7 50
ĠBundes lÃ¤ndern
Ġdor tigen
use um
ĠJack pot
ĠRass ismus
ĠMountain b
Ġhe bt
ĠW itter
Ġver weisen
vÃ¶lker ung
ĠSel f
versicher ungen
E uro
Ġne w
Ġm ochte
Ġsich ert
ĠH asen
Ġhind urch
sport ler
ĠSpiel platz
ĠkÃ¼r zer
ĠDr ess
Ġschm utz
Ġvirt uelle
ĠBes uchen
ĠR un
m ix
ĠZertif ikat
Ġseit her
ĠÃĦr zten
ĠBett wÃ¤sche
ĠEin bruch
K onto
ĠSch r
ĠWest ern
Ġbl ickt
ĠW ollen
rÃ¤n kungen
ĠG S
An schluss
ĠSpir itu
Ġm Ã¼ÃŁ
Ġlauf end
ĠHem d
1 01
Ġle b
Ġherunter geladen
Ġin soweit
Ġaltern ativen
Ġinform ation
ĠRoll stuhl
lich te
ĠVan ille
Ġw etter
k reise
V ier
ĠSoft war
ĠT ime
si der
ĠKlar heit
ĠKÃ¼nstler in
ĠExempl ar
ard o
Dat eien
sh ip
on omie
ĠZ ielen
Ġgolden en
ĠSchnitt stelle
f ield
ĠBur ger
ter rasse
ĠSchw ul
Ġberech tigten
Ã¤tz ungen
it hm
] [
ĠHy brid
ĠMann er
Ġempf unden
Ġb ran
B ed
lei bt
N ov
Ġer we
ĠGÃ¼n ter
ĠAk zeptanz
ĠL IN
Ġzit iert
ĠDu o
Med ien
ent wurf
ph il
sk ultur
ĠVolk es
ĠAm sterdam
ĠVor wurf
Ġ ten
ĠSÃ¶ hne
ĠB innen
ĠMor al
Ġklar er
rit ter
Ġho fft
ĠRab atte
ĠHaft ungs
Ġspezif ische
ĠBetreu ungs
Ġexpl izit
t wicklung
er lebnis
ab wicklung
Ġg igan
schul den
ĠBl ond
z ahn
A ir
ĠM ath
schw ing
ĠnÃ¤ch ster
ĠD rum
haf tigkeit
P olit
Ġre prÃ¤sent
ko hle
Ġber Ã¼hren
Ġtrocken en
herr schaft
ĠSonnen untergang
ens ystem
un ten
ĠUn is
ĠR inge
Er folg
Ġfest zustellen
ĠkÃ¶rper lich
c us
Ġthe oretisch
ie sen
ĠFir st
Ġengag ierte
pl attform
l Ã¶s
Ñ Ģ
N L
ĠSne aker
ĠPar ad
schrau ber
ution s
ĠZ one
Ġpro jekt
ĠFranz osen
ĠMeld ungen
ov ic
Ġp acken
k orn
Ġbef assen
ul ationen
fa ce
Be weg
Ġausge de
ĠAb rechnung
z elle
Ġqualif iziert
Ġge treten
ĠEr ich
ĠInhalts stoffe
Grund sÃ¤tzlich
Ġ24 0
D anach
R icht
ĠSchw ing
ĠGesch Ã¤ften
ĠVor jahres
ĠEint rÃ¤ge
Ġw Ã¼ten
ĠExper iment
Ġschlimm sten
im t
ĠAus schnitt
Ġjahrel ang
Ġmass iven
i od
Intern et
ĠErf indung
R aum
ĠkÃ¼nf tigen
Ġk Ã¼ndigen
IS CH
Ġcool e
Ġ19 20
ĠÃ¶ff nete
Ġdeut licher
W C
ĠDurch gang
ĠUnivers um
ĠzurÃ¼ck halten
ĠHeiz ungs
et scher
Ġab zum
Ġsinn volle
Ġk ehrt
Ġzwang sl
ĠPh antasie
ĠWiderruf s
Ġge wartet
Ġander wei
arch ie
ĠSch ienen
ĠAktu alitÃ¤t
ĠHaar en
Ġerinner e
Ġide alen
ĠWord Press
ch i
Ġan leitung
Ġm ill
ĠWÃ¤l der
Ġt rin
ter en
ĠSan itÃ¤r
Ġschwier ige
Ġgewerb lichen
V ER
Ġsch alten
ĠInst itute
fÃ¤ll ige
b Ã¼chern
ĠSch Ã¤r
chengl adbach
N C
bÃ¼r os
ĠB aus
el eist
Ġver weist
Ġunter richtet
x e
Ġw ilden
ĠAn melde
Ġl imit
eier mark
ĠNa ja
Ġab ente
ke y
ĠGesellschaft s
Ġbelieb ig
ĠFr on
ĠBet a
1 50
ĠLeich tigkeit
Ġheraus finden
w urst
br Ã¼cken
ĠVerl angen
ĠVer tretern
ĠBedien ungs
Ġst oÃŁen
ĠW atch
Ãľ b
ĠRes e
ĠG Ã¼ltigkeit
ĠverstÃ¤r ken
ĠT S
F ast
on na
ĠN E
ĠBond age
ĠK ore
ĠKenn zeichen
Z entrum
ĠSp ren
ĠMor itz
o zial
Ġbevorzu gen
ĠF aszin
Ġfotograf ieren
Ġ198 3
ĠAr gentin
Ġan ziehen
stre ck
reu ÃŁen
reg al
Ġr u
Ã¼n dete
ĠNeu kunden
Ġd uf
Gesch ichte
% )
Ġanstren gend
ĠWei zen
w urz
Ġdir ekter
ĠBl as
ĠInstitu tion
ĠD ark
ĠS ech
ĠUlt raschall
ĠE ffe
ĠMehr ere
Ġ196 8
ĠMus ical
omb oph
mel der
ĠLe verkusen
ĠG L
Ġver legen
ul ierte
gewinn ung
ĠEr mittlung
ĠausfÃ¼hr lichen
stÃ¤ tigkeit
ĠHar ald
spl attform
ĠSch affung
ĠFil iale
ĠLa ien
ĠVer folgung
Zus Ã¤tzlich
ĠerwÃ¤hn ten
ĠF I
ĠAd ler
ĠL Ã¼n
Ġschwei zer
Ġbet rug
Ã¤l len
t y
ĠAn sehen
ĠBundestag s
ĠNikol aus
ĠGet riebe
por tiert
ĠR ac
ĠSa int
ĠGed ichte
au scht
zu bringen
will ig
ĠGesch wÃ¼r
Ġr et
ĠNiederl ande
ti le
ĠTenden z
ĠK el
erkrank ungen
Ã³ n
Ġ- --
ĠB anner
vert rÃ¤glich
ĠAb zug
Ġte uren
sp rit
Ġber uhen
Ġfr uch
Ġausreichen de
ĠVert retung
ymnas ium
Ġge prÃ¤
ĠL Ã¼cken
un er
Ġdipl om
was chen
ĠEin wohnern
Ġst yl
h Ã¼ter
ĠunnÃ¶ tig
ĠS itzen
Zun Ã¤chst
ĠKath arina
ĠWider spruchs
ĠPil oten
ĠR i
ĠT hal
al tern
ĠW olle
ĠTag s
aktiv en
Ã¤r bt
Ġ198 2
ĠF inde
finanz ierung
ĠVer gabe
Ġzeit weise
ĠSt ol
Ġrad ik
H a
ĠThe ologie
M er
ik ator
ĠPsych otherapie
ut sche
ĠB lin
Ġver ant
e vent
hoch druck
Ġan stelle
ĠW Ã¼ste
O ffen
ĠB H
ĠBeruf ungs
ĠOrganis mus
Ġerhe bt
Ġgel andet
bl Ã¤ttern
be stÃ¤tigung
ir us
ĠT akt
ĠR eu
ann over
ho de
v ok
Ġgleichnam igen
S am
ne ws
ĠK aka
Ġein fallen
ĠTran sen
inst anz
ĠBe eintrÃ¤ch
res pon
ĠP ur
P riv
ĠOrg ane
lieb haber
age gen
o z
p reisen
ï¸ ı
wer en
ĠAnwesen heit
Ġder zeitigen
Ver ein
Ġk al
Ã¤ che
ri f
Ġeinge geben
ĠN etto
meister schaften
bef riedigung
ĠKonsequ enz
Pl us
die se
ĠStud iums
Ġsteigen den
ĠM ike
g ottes
in halte
ĠF eiern
bezir k
ĠSa arb
Ġhal bes
Play er
W Ã¼r
New s
Ġbeg Ã¼nst
Ġge drÃ¼ckt
ĠH enn
ĠK un
Ġd rast
ĠKoordin ation
Ġar men
ĠRoh stoff
g ames
ven tionen
En de
Ġst Ã¶ÃŁt
.... ..
Ġaktu eller
sisten z
rag ten
m ischen
ss ituation
ĠAm ate
ĠMaster arbeit
ah le
ĠDi ak
Ġle eren
ĠEich en
Ġmass ive
ĠAngel es
ĠNe use
ĠBer echn
ĠbeeintrÃ¤ch tigt
zus prechen
L ED
ĠEn tertainment
ĠUlt ra
Ġdiesbe zÃ¼glich
ĠEhren amt
ber ichten
ĠVerstÃ¤r kung
Ġan zuf
wissenschaft lichen
ĠWohn sitz
K Ã¼
Ġaufge fÃ¼hrten
ĠA ur
ang abe
ĠW itt
ĠP ak
M ont
ĠWir t
ĠAn weisungen
icht lichen
ĠLe op
kore a
P P
ĠKon rad
ĠRÃ¼ck stand
stÃ¤ be
omboph lebitis
ĠGewerk schaft
ĠSkla ven
Ġbeeindrucken de
ĠP insel
L ang
ĠProgno se
ĠEint racht
wissenschaft liche
ĠW urm
str al
sver kehr
ĠWeis heit
ĠAb b
Ġvorher ige
Ġzusammen ge
Ġabge stimm
gemein schaften
ĠEin richtungs
rei tete
Ġal arm
ĠBe fÃ¼r
ĠVerz wei
G A
Ġverd anken
ĠEt agen
ĠDreh buch
ĠFl ammen
o or
ĠUn recht
ĠEleg anz
Ġb Ã¼r
Ã¼hr ungen
ungs mittel
Ġaufgel istet
Ã¼ber sicht
j u
Ġte ure
sk alender
ĠSt Ã¶rung
an ischer
ist ern
Ġpro p
ĠEnt sprechend
S al
ĠVol ker
Ġger man
ĠTra ding
Ġl Ã¼cken
Ġfr ucht
ĠSÃ¼dt irol
schie bung
ĠFrage stellungen
Ġgleich mÃ¤ÃŁig
Ġplatz ieren
ĠArch Ã¤
P erson
Ġ: -
Ġber Ã¼hmt
pf leger
ber lin
Ġjur istische
kl ick
Ġverwir klichen
l iteratur
ĠCh i
ĠAuÃŁen bereich
ĠR S
ond a
Ġwei se
p utz
sf Ã¶rderung
plan er
Ġbeh and
B aden
ĠSt ri
c reen
Ġges undes
klus iv
v ia
Ġb arriere
sf el
Ġkosten pflich
ĠBlick e
ĠO x
Ġbes orgen
ĠLu zern
istr ation
ĠBr Ã¶tchen
ĠA o
ar ier
ĠKapit alismus
O ption
Er n
Mich ael
Ġw ilde
ĠD own
Spiel er
M Ã¼nchen
Ġzu stimmen
ungs mÃ¶glichkeiten
Ġpro test
ĠIn t
Ġent sch
Ġbe zeichnete
ĠT oren
ĠKlass ik
mark eting
Gemein sam
ei sten
on st
Ġmit genommen
Ġwachsen de
ĠRe den
Ġerw Ã¼n
geh Ã¤use
ĠAp ost
Ġabente uer
Ġein treten
ĠBet rieben
E ffekt
ra it
Ġ( ...)
U l
Ġte xt
Ġak ust
ĠPressemit teilung
ĠM ore
zeit raum
ĠS itze
ĠR io
Ġ ol
ĠFreund innen
ĠVerk nÃ¼
ĠT am
Ġauf gelÃ¶st
Ġun ab
Ġb at
Ġversen det
ĠÃ¼ber zeug
ma ster
sprÃ¤ sident
Ã¼s ste
Ġgolden e
ĠG M
, ,
ĠZentr ale
N o
ĠH uren
stre am
Ġer sichtlich
an hÃ¤nger
ĠP aderborn
Ger man
ĠAnt rÃ¤ge
ĠS he
Ġst eh
ĠBoden see
ĠÃ¼bert rieben
Ber uf
Ġschar fe
zuf riedenheit
ĠMater ie
kÃ¼n ften
Ġhum an
position en
Ges etz
Ġd pa
Ġherr liche
ĠNeuer ungen
Ġsch utz
j ung
ĠI b
Ġdunk ler
ĠKopf schmerzen
Ġt ausende
ĠT ok
ĠSport wetten
ill s
hle ten
u ge
ĠKom bi
ĠK Ã¶pfe
Ġs etze
ĠH armonie
ĠSym p
ĠBefrei ung
ĠMahl zeiten
fe sten
ĠM ik
ĠEx cel
ĠGesundheits wesen
Ġm at
Ġbesei tigt
I t
techn iken
Ġwo von
H eim
ĠM ot
n ick
ĠY og
T ext
ĠUn sicherheit
her um
o pfer
M art
schl us
ieren der
ĠBr illen
Ġpsych ische
Che ck
Ġzwangsl Ã¤ufig
ĠExempl are
An fang
h unde
Ġvor teil
w andern
ĠBestand teile
st ange
ro g
Ġaufgew achsen
ĠApart ment
Land es
ĠKomp akt
mess ung
ĠDisk rimin
ĠNe on
pert oire
ĠPort rÃ¤t
Ã Ĺ
Man ager
pum pen
ĠCon ne
Ġ eil
ĠGl Ã¼h
ĠÃ¶ff entlicher
atter ie
Ã¤m men
ĠFrei heiten
ĠZeit ungs
fÃ¼ll ten
tent wicklung
et ti
Ġbes p
Ġdarf st
ĠEr t
ĠD reck
Ġp rinzip
Ġmonat lichen
Ġabge holt
ĠStich wort
Jahr e
ĠI ron
ĠAu d
instrum ente
ĠO ri
Ġs itz
liessen d
Adr essen
G estern
Ġwei s
r ale
s weisen
Ġzu einander
ĠBul gar
ĠOn kel
berech tigung
ĠGÃ¼n ther
Ġan ony
Ġpop ulÃ¤r
ver eine
ĠÃľbrigen s
wir k
Ġ08 00
Ġm ont
Ġverring ern
Ġs yr
AL L
Ġf ru
Ġab onn
re fer
ro b
besch Ã¤f
ĠDiagnost ik
Ġaller lei
wander er
geb ogen
Ġerk annte
Ã¤ ÃŁe
Agen tur
U hr
ĠDem nach
ĠInter aktion
Ġbef riedigen
Ġl uft
ĠSign ale
Ġver samm
ĠProt ot
Ġs inkt
mit h
ĠRu der
Ġirgend einer
ang o
k Ã¤mpfe
ĠMit arbeit
ĠN ike
aller y
ĠK uh
Ġverb raucht
tier ungs
ĠCre w
Ġdies el
z es
ĠBundes amt
! ).
ĠdÃ¼n ne
ĠHeim spiel
ĠZusammen stellung
Ġf otos
pro t
wirt scha
B C
A ud
be cher
ech ten
ĠRob in
ĠSp anisch
ĠW unden
Ġ197 2
ĠJ un
Ġherz lichen
sch uhen
ĠVorgehen sweise
ĠSch um
ĠPar tien
ĠLeben sst
ĠTÃ¼b ingen
ĠImmun system
Ġbem erk
Ã ł
ĠWolf sburg
Ġbeg ut
ĠMar athon
ĠPer fekt
prakti ker
Ġgetr enn
L ook
ĠS K
ĠBeispiel sweise
O l
ĠStat istiken
p ots
ver w
r ungen
ĠR ind
f ix
A mer
ĠLei h
Ġwahnsinn ig
ĠJeden falls
b ischen
Ġentdeck te
n ommen
Ġe bay
il ometer
ge stell
Ġheraus fordern
Ġk ul
iker in
Ġr ollen
Ġsp e
ĠEin richten
ĠGesch lechter
ĠKan Ã¤le
ges chenke
ĠP ra
ĠMa is
ĠG G
ĠAus steller
Ġarg umen
ĠK ristall
ĠAl m
ĠSatell iten
hei de
op ft
ĠBl ind
Ġvor zunehmen
Ġnorm aler
ĠS lo
ĠkÃ¶nnte st
Netz werk
ĠDu ell
ĠJahr t
ĠGr at
Ġgel istet
Ġget rieben
ĠAb nahme
spf lichten
ĠTri p
ĠD Ã¼r
sicht liche
ĠT in
ĠA re
ern te
ĠKauf mann
tel ler
Ġintelligen te
Ġhistor isch
F an
ĠKonkur renten
kÃ¤ se
Ġlo cken
Ġre ad
ru d
ĠfÃ¼ gt
ĠSamm lungen
Will kommen
ĠT ische
Ġf emin
Ġqualif izierten
Ġb ig
Mit tel
H el
ĠVolks wagen
it ive
Ġj ust
Ġde ckt
Ġverf assungs
ĠArchite kt
ĠanschlieÃŁen den
beauftrag te
ĠLager ung
Ġirgend etwas
Ġ9 1
rÃ¤ uch
Ġd on
Ġben utzer
Ġanerk annten
Her steller
ĠP ech
ĠkÃ¼ndig te
ĠBauern hof
markt ung
ĠBe quem
Ġprofit iert
ĠAuf wendungen
as inos
glie der
pal ette
Ġerinner te
c odes
Angeb ote
Ġaus nahm
Ġne ur
Ġtem por
Ġtrock nen
ĠUS D
ĠVer gewal
ĠGel tend
ĠRelev anz
W inter
ĠEr den
ĠVern unft
et ischen
ĠEin sicht
ĠR oss
Ġur heber
D ownload
te c
ĠC ho
ĠR ay
ĠSu ppe
ĠR utsch
ĠWhats App
kor de
krank en
ĠN ylon
ĠG Ã¤rtner
ĠTr ik
ĠZigar etten
ĠF L
rie g
k leben
Ġsauber e
Ġm ail
ĠVerteidig ungs
ĠKonfigur ation
o y
ĠAut hen
ĠVi agra
Ġbemer kte
ĠL etzte
mitglie dern
zur eichen
Ġzu viel
Ġp la
forn ien
Ġges endet
Ġhinter en
schaft lich
ĠH Ã¤rte
ĠGegeben heiten
ĠEnt scheiden
Ġne bst
Ã¼ le
ĠK ran
Ġt schech
Ġzahl reicher
ĠF Ã¤r
Ġwieder her
Ġge druckt
Ġbeherr scht
ator ium
ĠOr angen
Ġbenutz e
ein stellung
ĠW arten
mobil ien
o h
steil nehmer
Ġaus suchen
z igen
Ġg if
Ġge merkt
ĠT ruppe
ĠChrist ine
Ġgest richen
ĠRe v
ĠSchwar zwald
ar g
Deut sche
ĠEnergie effizienz
ab kommen
hal l
Ġverpflich ten
L assen
Ġange st
ĠGar n
Ã¤u ber
br icht
ĠGl eit
ĠDie bstahl
... "
Ġauft auchen
ĠF ette
ĠMus lime
Ġfach arbeit
ĠSch lafen
ĠK ater
Ġverk Ã¼r
Ġ197 9
ĠGest ern
ĠMaÃŁ stab
Ġ Ã¤nder
ĠHex en
ĠB at
Ġbas ieren
ĠC ir
Ġbl Ã¼hen
sc ar
ĠGesprÃ¤ch s
Ã¤ k
ĠÃ¼b licherweise
Ġvi agra
spe ktive
Ġsepar at
ĠReisen de
Ġsch malen
g am
ĠWei den
deck el
ĠVerf asser
ĠBus se
K urs
Ġtrocken e
ĠP seud
Ġt or
um feld
ag ina
ĠWohl fÃ¼hl
ĠH Ã¼lle
ĠHoll and
a iss
ĠAn ker
Ġwes entlicher
akti sch
Ġbe absichtig
ra de
ĠBefrag ten
d rei
Ġ ach
Ġpsych ischen
E xt
opp eln
ĠD G
Ġj ahren
ĠHimm els
Ġmus lim
: .
h anden
fr arot
Ġs kepti
gr ab
fer tigte
am as
ĠKap elle
A bt
Ġlern te
ĠT reue
ĠF lieger
Ġaus lÃ¤ndische
Ġverm ein
Ġkorre kte
Ġeur o
los ung
Ġmusikal isch
Ġfl irten
ĠL Ã¼cke
eth od
er innen
ĠH Ã¼nd
Ġgeburt stag
ĠrÃ¼ck t
ĠKost Ã¼m
es a
Aut or
Ġb ro
ĠÃ¼ bel
Ġunter such
C K
ĠÃ¼ber qu
s im
ĠAl u
s burger
aufent halt
Ġauf fallen
k reisen
ĠIntens itÃ¤t
ĠA genda
othe ker
ĠW ille
ĠVari ationen
ĠGeltend machung
men Ã¼
ĠPark s
ĠUrlau ber
o ft
Org anis
Ġlande te
ĠTradition en
ĠLe be
Ġrei che
te u
Ġsorg ten
In d
ungs bereich
ĠAuf sicht
ĠT Ã¶ne
ĠGeschÃ¤fts fÃ¼hrung
ĠHÃ¶ hle
vel op
Ġmod ell
in vest
ĠG abel
Ġpro fil
Ġc am
t raining
D an
ĠHÃ¼ hner
ĠÃ ĺ
ĠZwie beln
l ampen
Ġsch ieÃŁen
Ġ197 5
fÃ¤ll igen
ĠÃ¼bersch reiten
Ġun ternehmer
M ER
w itter
ĠFle ck
ĠG Ã¶r
ĠNachw uch
J an
Ġmei ste
ĠL kw
ĠzÃ¼ gig
Ġm ul
Ġvorzu bereiten
fr ucht
Ġswinger club
wei ht
ĠSp am
S im
fo od
? ,
ĠwÃ¼rde st
ĠSch wie
w Ã¶ch
ĠAn ime
ĠRe prÃ¤sent
7 00
2 12
ĠT ausch
Ġauf bau
is ierter
ĠProp he
ĠChr om
Ġkrank en
ĠIn dust
in kl
Ã¤ck chen
ĠStrÃ¤n de
ĠEx p
l inger
Ã ´
ĠSant a
bl Ã¼ten
pÃ¤dagog ik
ĠSch loÃŁ
spr ungs
Ġb dsm
way s
Ġvorgesehen en
Ġseiten sprung
ĠauÃŁerorden tlich
ĠAttra ktionen
us k
Ġin wie
ĠVor lieben
ĠIll ustr
ĠEint ritts
ĠSch recken
ĠR n
ĠP ens
ĠVerz icht
ĠF rÃ¤
ĠBeruf e
Ġ197 8
ĠVer ab
Ġdar zustellen
o pfen
ograph ischen
ĠWert pap
ĠBe et
ĠTschech ien
Ã¼ss elt
f i
ĠB uffet
ĠRein hard
Ġfair e
lÃ¤uf igen
achte ten
ĠMikro fon
sk rise
Ġwar te
Ġange zogen
Ġblei be
D ein
Ġunber Ã¼hrt
r assen
ĠK FZ
Ġaufge teilt
ĠMel de
st atten
En dlich
ho ckey
ĠKompon isten
bo hr
Ġgeg ner
ĠkÃ¼ chen
ĠS essel
ĠLekt Ã¼re
ĠRoh stoffe
sch rauben
Ġgem Ã¤ss
m isch
Ġfl Ã¤chen
Ein er
uf er
ĠKauf entscheidung
ĠSch er
zell an
Ġes cort
reg ionen
ĠvorÃ¼ber gehend
man agements
ĠE X
Ġbenachbar ten
ĠÃľber trag
Ġab genommen
ĠTele f
ĠPark ett
ĠJahrhunder te
y on
tern acht
ĠRent ner
io us
Ġprim Ã¤r
P DF
ĠrÃ¶m ischen
rad io
skont rolle
ĠBor ussia
Ġeleg anten
ĠE uer
Ġin des
ĠSt rumpf
200 2
ĠGra fen
ik atoren
Ġlie ge
icht ungs
ĠE du
Ġent werfen
chte ten
ĠSamm ler
Ġgebrau chen
Ġun regel
ft ungs
ĠSpezial ist
lieben en
Ġg ay
t aschen
Ġge liebt
ĠPublik ums
Ġaus machen
V I
lie derung
Ġselten en
ĠStand punkt
uÃŁ te
Ġun ges
ĠInnov ations
Ġlie fen
ĠGra ph
Ġkompeten ten
star ken
stÃ¤nd lich
Ġversch ickt
ĠKomplex itÃ¤t
if ikationen
Ġeffizien te
f ick
ĠVers uchen
Ġschlecht es
ĠSens oren
Ġkon kur
Ġunterb rochen
Ġrechts wid
bar em
ĠBam berg
Ġt anz
ĠKl ienten
aus bau
ĠK ampagnen
Ġdies jÃ¤hrige
ĠRad fahrer
ĠPh otos
zeu ger
st eigt
Ġwirk liche
Ġehemal iger
M L
Leben s
Ġeiniger maÃŁen
ĠLehr erin
Ġwechsel te
Ġer richten
H C
Ġauf halten
ĠNieder Ã¶sterreich
durch schnitt
ĠBen ach
re ste
Ġspr achen
Ġreg ulÃ¤ren
ĠBrand schutz
beg eister
gegen stÃ¤nde
iff eisen
Ġmeist ern
und ung
ĠCol or
s ing
al p
Ġerst aunt
Ġverlin kten
Ġed len
Ġfreu te
ik ten
ant on
Ġm astur
utz end
rie t
kreis es
vort eil
Ã¤uÃŁ ert
ĠC hallen
ver sprechen
T ech
b ischof
Ġber Ã¼hr
ĠMigr ations
ĠC our
hin weise
Ġgetr unken
no pf
Ġbedeuten de
Ġmaxim alen
all em
[ âĢ¦]
AR D
Ġfrei gegeben
ĠAn bindung
Mit te
ĠS agen
od ien
ĠLu pe
dat ei
ĠgefÃ¤hr liche
Ġer bracht
M il
ĠSti pend
Ġer lassen
ĠWar s
Ġdigit aler
rech net
Ġgesundheit lichen
ĠMan ip
Ġsch Ã¤r
ĠBen jamin
ĠB arriere
setz ungs
ĠÃľberein stimmung
ĠVerwand ten
ĠBeruf serfahrung
Ġ% .
Ġann Ã¤hern
ĠT ante
ement s
sen sor
ĠChar les
ĠG h
umm i
ren te
ĠErl Ã¤u
ĠWir kungen
Ġf arbe
sch alen
Ġfrank furt
ge heim
Ã ±
ĠSch en
b ell
h Ã¤lfte
zu gang
rÃ¼ m
d rin
j ak
Ġbei ge
polit ischen
ĠKe vin
Ġz zgl
ch arakter
. ________
> <
ĠSt roh
ĠSchiff s
ĠF ieber
Ġge druck
ĠRese arch
ĠKa i
Ġeinzu stellen
etzt eil
ĠRelig ionen
ĠH Ã¤uf
ĠEhe paar
Ġfest halten
ser gebnisse
polit ische
r ett
ĠAutor s
ĠJubilÃ¤um s
ĠKle be
z ieren
Ġb spw
ĠWissen schaften
Ġfol glich
sch ir
pro vis
rie bes
ron ic
de b
ĠRo uter
ĠEinzel heiten
ðŁ ĺ
Ġatt raktiver
r iert
Ġvoraus gesetzt
ĠSÃ¤u len
bl asen
lÃ¤ss igkeit
ĠF len
Ġbe waff
Aus gabe
Ġam Ã¼s
ĠHÃ¶ hlen
ĠjÃ¼d ische
ufakt ur
ĠNieder schlag
ĠC er
ier bare
Ġver lieÃŁ
Ġm uster
ĠEinzel handel
ĠKul isse
ĠV ok
wÃ¤r t
Ġf Ã¶r
wand lung
ĠBe eren
ĠReicht um
ĠstÃ¤rk sten
eu tet
sor gung
Ġabwechslungs reiche
ĠPrior itÃ¤t
Ġhochwer tiges
rÃ¼ mpfe
Ġgra de
Ġschnell es
j an
ĠO d
Ġweiterge leitet
ssystem e
sp osition
B it
Ġsel be
Ġw ort
ĠB arr
Ġsamm elt
Ġweg zu
ĠHor ror
ah ner
ES CO
Ġabgeb rochen
hau ser
Ġp e
ĠF F
sp raxis
or sen
ĠExpl os
ĠRes onanz
ĠCockt ail
ath an
ĠgefÃ¤hr lichen
einer ziehen
ĠG ern
ĠSte cker
f irmen
ĠD il
i dent
Ġbeleg te
ĠBenutz ern
f inder
Man chmal
ĠB rÃ¤
ĠG Ã¶
hostw riting
ĠG reif
Ġnach ge
ĠIn ser
ĠMat ratze
D L
k ennung
Ġein bauen
ra tete
urt eile
ĠCE O
b zw
ĠAufbew ahrung
Ġe ck
ĠV od
Ġjen es
or i
ĠFuÃŁ boden
ĠSt abil
Ġgra v
200 1
ĠL ip
ĠHei den
off iz
Ġbe acht
si bil
Kl ar
ĠHart z
Ġkorrig ieren
Ġbelieb igen
s eit
Ġein gesetzten
Ġnutz bar
Ġpriv ater
r inger
Ġwar nt
in halt
ĠTages licht
ĠGeheim nisse
Ġern euert
ĠT Ã¤nzer
ĠReg ierungen
sproblem e
aus flug
sch mie
ĠI HK
ĠT s
ĠAusser dem
Ġschar fen
ition s
Ġverw Ã¶hnt
mod ul
b ag
ut ung
sp ause
auf gang
Ġzu lassen
ĠKlima wandel
Ġwahl weise
ur v
Ġmun chen
Pro fil
Ġdek o
ĠTechn iker
kat alog
ĠstÃ¼r zen
ĠerhÃ¤lt st
Ġbas ierend
Ġentstanden en
Ġ hr
Ġausges ucht
Ġaus Ã¼ben
ĠÃĸ le
Ġsicher stellen
ĠAp otheken
ĠSp ed
L iste
Ġn ull
ĠSt Ã¼tz
u sten
Ġan wesen
ĠSp ritz
ĠY or
os is
Ġange stre
Ġst eil
Ġunver Ã¤ndert
ĠBast el
D aher
j pg
ĠStadt rat
T ags
ill y
ĠIr rt
ĠB dsm
ĠEin kaufen
S w
ĠSteuer berater
o od
L iefer
ĠUn der
kont roll
ĠBe arbeitungs
ĠSp rit
ĠkÃ¼nst liche
s how
ĠgrÃ¶s ser
ĠRend ite
ĠL ichten
Ġversch m
Ġass ozi
ĠStra hl
e v
Ġh ung
o cker
ĠW end
ĠSp ei
ĠEnt gelt
ĠWart ungs
Ġbe ziehung
Ġtags Ã¼ber
ĠBau stellen
ver sch
ĠC ust
t agen
amb ots
ster ben
H ilfe
haft ung
aur er
ĠG ieÃŁen
Ġo blig
in sen
ĠWeiter bildungs
Ġzu gest
Ġsch eiter
fel dern
ĠSt yl
st ich
ĠL ifestyle
ausschuss es
ĠAx el
it ies
T ex
Ġverlie f
ĠjÃ¤hr liche
ĠAn w
ĠDo sen
ĠFavor it
ĠDr ama
k ru
Ġin ne
Ġk alk
ĠG all
Ġt rÃ¤umen
Ġvor liegende
ĠZy linder
Ġnied rige
Ġkosten loser
Ġko pf
ho u
vor lagen
ĠF Ã¼ll
Ġ !!
Ġgew aschen
ĠGut haben
ĠBem erk
Ġen ormen
ĠVor her
ĠEich e
ĠWer ks
ĠEr le
he um
ĠFac etten
Ġum gew
ĠBesch affenheit
Ġbl ind
ĠRei f
ĠLe o
ĠEnergie wende
ĠNeu jahr
Ġ198 1
kap elle
C amp
s ign
ĠGebrauchs spuren
te ams
P ap
Ġeffe ktiver
Ġlang es
ul ierten
Al b
an ti
ĠWer b
H N
A Z
inder ungen
Ġbequem e
ĠjÃ¼ng ste
ord et
ĠP unk
ĠM Ã¶rder
ĠCann abis
S obald
ĠSozial e
ĠAt hen
) ?
no se
ĠSo uth
ĠS IE
ĠÃ¼ber arbeitet
Ġstabil en
ĠVer an
test s
Ãľ N
ĠD U
Ġz immer
ĠWiderruf srecht
ĠU s
n isch
T ran
T or
Ġkon sum
bro wser
ĠAusflug s
G ott
Ġl asst
Ġkathol ische
Ġeinz ut
ĠV Ã¤ter
er be
verk auft
Ġ10 5
Ġent fÃ¤llt
rÃ¤ dern
ĠDis ney
ok ol
ĠImpul s
S u
Ġkommen tiert
ĠkÃ¼nf tige
ourn alismus
ph ys
freund lichen
ĠRei sel
Ġge forder
ĠStar ter
ĠLe v
pf alz
ĠÃľber weisung
mit arbeiter
ku gel
m ig
h eute
ĠNAT O
Ġorden tlichen
Ġzentr aler
ĠStud ios
Ġschnell st
olley ball
n ik
Ġst illen
Ġge steckt
al ia
gesch ickt
Ġst Ã¶bern
ĠFer r
ĠUnter b
sprodu kt
ell ungen
ĠEth ik
ĠSt opp
Ġra ffin
Ġind irekt
Ġson nen
sen kirchen
k Ã¤ufe
Ġum liegenden
ĠKont inent
ĠjÃ¼nger e
ab les
ĠJ ord
Ġwar tete
sch Ã¤tzen
ĠFo ot
re zept
ĠSauber keit
Ġweiterentwick elt
Ġempf inden
ĠSp ambots
ĠHoch wasser
Ġvert rieben
ĠMar gar
Sch wei
Ġaltern ativ
Ġall jÃ¤hr
g reg
Ġmit teilte
Ġvermein tlich
le gend
ĠAd el
ĠprÃ¤ gen
gesch altet
ĠK eil
ĠEx pert
ĠAus strahlung
ĠMÃ¼ hlen
it Ã¤re
ĠDem enz
Ir gend
sicht lichen
ĠG ardinen
Ġunmittel baren
Ġaussage krÃ¤f
Ġrelev ante
Ġwer ben
ĠAn forderung
ĠKatastrop hen
Ġerg reifen
um satz
Ġeindrucks voll
ĠVerÃ¶ffentlich ungen
Ġfl Ã¼
ber ry
ĠBr at
ĠEk zem
stechn iken
Ġun voll
Ġd rum
and te
ĠMÃ¼ hle
ĠKolle ge
Ġgew inn
ĠC rem
Ġ197 7
ĠThr ombophlebitis
Ãľb rigens
ver fÃ¼
Ġc re
ĠUnter schrift
an fall
ĠGerichts hof
Ġaus zul
Ġausgieb ig
verteidig er
z ed
ĠHoff mann
ĠBundes ministerium
k lin
Ġun zul
ro om
seh er
Ġg ang
Ġent nommen
ĠIden tif
kon zepte
ĠCl ip
ack el
Ġkomp akt
ĠSchrÃ¶ der
P il
ĠAl ben
st iefel
ĠBrosch Ã¼re
Ġbet rÃ¤
ĠDe pression
ĠKomment aren
ĠG a
Ã© s
sch warz
Ġder jenige
Ġgest euert
ĠZ iegen
ĠQu ick
ce pt
ildes heim
ĠTri b
glie d
merk male
Ġgener ieren
Ġsp aÃŁ
N ummer
H olz
d ichtung
ĠCom mun
Ġgr enz
Ġgelungen en
Ġgenutz ten
ĠBe bauung
ĠBi ologie
Ġrichtig er
ess elt
or chester
Ġkomfort able
Ġhoch zeit
men d
Ġer eig
i que
ĠBro wn
R ot
ĠR Ã¶ntgen
ĠFu gen
greif end
ĠZit ronen
gest alten
Ġ arr
Ã ¥
mitt lungs
G et
ĠKamer aden
Ġber eichern
ĠAus legung
Ġaus sen
W under
Ġs ingt
Ġent fallen
Ġgespeicher ten
ĠW ater
ownlo aden
verl ag
ĠMin us
Ġm b
be gl
rock ner
f ranken
ĠS H
ĠT il
ĠCost a
gemein den
ĠFein de
Ġm utter
G R
Ġbl ut
W O
Ġlangsam er
mer s
berech tigt
g ur
Ġim pos
nach richten
Ġanget an
Ġges ungen
is her
Ã¤hr st
F azit
V ideos
ĠkÃ¶n ig
n ie
ĠVf B
f ra
ĠVerschieden e
Ġ4 000
ĠsÃ¤mt licher
str eit
Ġober e
ĠT rieb
spart nern
app t
ĠZul etzt
sper re
ĠNeuse eland
ĠÃ¼berw achen
C asino
ĠBundes rat
b old
ĠDos is
Ġzeit nah
ĠHeil ige
ĠAt hleten
Ġh ing
ho ven
ĠAuf regung
per iode
ĠA alen
zen zen
Ġsch icke
r ike
ĠKl ett
ĠPersÃ¶n liche
Ġgelegen e
ĠÃ¼ber schau
sp rinzip
verfahren s
ĠGrundstÃ¼ck s
Ġad min
Ġherausragen de
fahr zeugen
bet on
Ġnutz te
t ung
ĠLeiter in
ĠGes etzen
T ick
Ġem pir
ĠÃĦst hetik
le f
h ahn
Ġhal f
Tun es
Ġl okal
und s
ĠVer dienst
Ġqu alitÃ¤t
Ġkop ieren
ĠBeding ung
ĠRe pl
ĠAb nehmen
ĠgroÃŁzÃ¼ gig
ost al
op en
o os
ok umente
Ġgest ohlen
Ġp or
Ġerstmal ig
Ġha ften
Ġgewe ckt
Ġbeg reifen
prÃ¤ ch
bin sel
ĠBestand s
ĠVerpack ungs
H Ã¶
Ġgesch ossen
ĠAus ge
I Z
Ġausge zeichneten
Ġst ieÃŁ
ĠTh ese
Ġfr ischer
ĠlÃ¤nger er
Na ja
ĠSte ffen
ĠZukunft s
ĠBaut eile
Ġs agten
stell igen
ĠAd obe
ĠP on
Ġeinfach ste
Ġlie gende
ĠT iger
Ġber g
ĠFeatur e
ĠA er
ĠKon sistenz
ĠW itten
ĠFertig stellung
Ġaus bauen
ĠInstrum enten
miss ionen
ĠnÃ¶r dlichen
ĠKleider schrank
Ġm Ã¼nchen
ĠalltÃ¤ glichen
qu es
zy linder
ĠVerb Ã¤nde
hr o
ut te
Ġvor zeitig
ĠKul issen
spr ess
Ġunheim lich
F amilie
og nit
M y
ĠP utin
Ġerm u
prÃ¤ senz
ad es
ĠTo y
as a
vor lage
ĠHo hl
Ã¼ndig t
wer de
ĠHand arbeit
st Ã¶rung
um pen
techn isch
ĠSicherheit sl
ĠPartner in
ĠWissenschaft s
ĠAuf preis
w atch
ĠLes ern
ĠMark et
schw ester
Ġre ale
ul den
Ġn etz
Ġgen iale
st einer
ĠMittel s
S ing
grÃ¶ÃŁ te
ĠWei ÃŁe
ĠVer pflegung
ĠGe fr
Ġerg onom
Ġstren gen
ĠErl angen
ĠE b
wer bst
ĠgrÃ¶ÃŁer er
Ġbemerk bar
ĠÃľber gangs
ĠMehrwert steuer
and o
ĠUm so
ĠLat ina
Ġres pekt
Ġr Ã¼hren
Ã¶ gen
F D
Ġanzu geben
Ġf euer
Ġman ches
f unden
Ġstrateg ische
ĠBet rug
ĠVor wÃ¼rfe
Ġab holen
M a
f ell
Ġ197 4
kolle gen
t d
ĠSc reens
Ġausgestatte te
eigent Ã¼mer
k ante
ĠC la
Gl Ã¼ck
ĠZu vor
ĠSand ra
ĠPro grammen
ĠÃ¼b liche
Ġperfekt es
Ġangemessen en
ĠJ ones
ĠLok ale
ĠSch ott
ĠAnt eile
ĠS ite
ĠN am
Ġbesch rÃ¤nken
auber t
an ia
je ktiven
Up date
ĠPlan et
ĠK uschel
og gen
ĠJ as
ĠBrun o
ĠN ap
ĠD schungel
ĠBom ben
ab ler
ere cht
Ã¤n ke
ĠSozial es
Ġdrin nen
Ġsp azieren
M obil
t v
ĠParlament s
ivi den
bezogen en
ĠSt Ã¼hle
Ġh Ã¤us
f low
zut eilen
ĠSch la
ĠAb o
an bul
IS S
ĠgroÃŁ artigen
ĠR ussen
Ġbet onen
n Ã¤ck
ĠBest eller
ĠH aufen
Ġunglaub liche
st opp
Ġverl Ã¤ngern
ĠBe auftrag
Ġt herm
C up
varian te
Ġdem selben
an iker
Ġabzum agern
ĠFo und
ĠLebens raum
ĠGn ade
ĠP ers
ĠAll gÃ¤u
Ġ19 30
ĠAd olf
ĠS yl
Ġ, ,
omat ic
con om
ĠLeitungs wasser
fl ikt
ĠÃľber schrift
G ast
Ġh ard
reichen d
ĠKop ien
Ġrespe kti
ĠLiefer ungen
ĠFern bedienung
ĠWeihnachts markt
ĠkrÃ¤f tigen
omet rie
ch ange
Ġgenehm igt
ĠPat ch
ac o
Ġgem ischt
ĠMit hilfe
ĠGetrÃ¤n ken
Ġrest aur
Ġignor iert
ik alien
Ġvor zustellen
ĠP auschal
ĠSu ite
ĠEr Ã¶ff
Ġab lehnen
lig ht
ĠK redite
Ġvorh ers
ĠT alente
ĠAl gor
ĠHaupt sache
Ġreligi Ã¶se
Ġkn ack
ard i
wir te
Ġbeh oben
ĠJÃ¼n ger
N ot
ĠDÃ¶r fer
ĠMar ine
verf assungs
Ges undheit
ĠD ildo
ĠB D
ĠSpark asse
Ġversch Ã¤r
ĠVitam ine
it enk
Ġaus fÃ¼llen
Ġsonder lich
ĠIm port
Ġf Ã¶rder
sch aum
stÃ¤ndig er
In g
vor bereitung
ĠSo ul
sÃ¤ uren
Ġgrundlegen den
Ġfort gesetzt
Ġbef indlichen
mens ionen
Ġli ber
Ġm ak
Ġg rin
Ġan gel
Ġaus zur
ĠSÃ¤ ure
Ġbes uch
Ġbil dete
ĠVertrag spartner
ĠAbteil ungen
ĠZ Ã¤hl
ov ern
ph abet
ord neten
ipp s
o hnen
mittag s
Ð¾ Ð
pla ys
w i
Ġspiel erisch
Ã¤ tigt
at al
Ġ ]
heit lich
Ġgel ben
Ġum her
ĠBlut hochdruck
G old
k Ã¤mpfen
ĠFunktion s
ĠÂ ´
ĠAuf list
w ord
Ġle gal
Ġgegen einander
ĠFl ut
ĠOper ationen
ĠBeh Ã¤lter
rie sen
st agen
roll ing
sch rÃ¤nke
eu f
wer tig
ĠDat ent
ĠBened ikt
por tieren
sch Ã¤d
Ġspr ingt
ĠVer teil
ĠUnterhalt ungs
Ġz B
Ġprofession eller
c raft
Ġr is
Ġumzu gehen
wind igkeiten
ĠC M
u ktion
dien sten
Ġim plemen
rechn ungen
ĠLandes hauptstadt
ĠKarne val
ĠGewinn chancen
Ġgener ika
Ġw ein
ĠsÃ¤mt lichen
ĠCan on
ĠEpis ode
ĠAbl Ã¤ufe
ĠFest e
wick ler
Ã¼ch ter
oo f
gesetz e
Ġchem ische
ĠZ ent
ĠSommer ferien
ograph ische
ĠStr Ã¶
ĠS her
Ġauf fÃ¤llig
Ġs ite
G ibt
ĠT es
A p
stra hlt
ĠM is
ĠÃľber mittlung
Ġnach her
Ġsp Ã¼rt
Ġd ienst
ĠReisen den
Ġklass ischer
ĠD umm
ĠWest falen
ob te
Ġein sehen
ĠEw igkeit
Ġk reis
fest ival
ĠEt age
Ġsch uf
Ġabge deckt
Ġwirk lichen
Ġ197 6
Ġjen em
spiel s
Ġerwei st
ĠS ide
icht liche
Ã¶glich keiten
Ġab schlieÃŁend
rag ung
G arten
heil kunde
ĠSchl uÃŁ
schw anz
be zeichnung
ru hen
ĠB acken
st al
el y
ĠEl be
ĠÃ¤uÃŁer e
Ã¤l tigung
Ġkn all
k appe
Sch au
if izierung
ĠO ben
ĠArbeits losigkeit
ĠzurÃ¼ck kehren
ĠA le
g ard
ei ver
S zene
ĠM ieten
Ġverm ag
ĠTechn ischen
Ġirgendw el
qu en
ĠRa iffeisen
Ġm att
Ġasiat ische
ie m
u gt
Ġeingest uft
rag te
ĠOb ama
ĠstÃ¤r kt
Ġn or
ĠK amp
ĠGewinn linien
Ġdemokrat ischen
ĠHu bert
ĠGewerk schaften
Ġfor men
ĠtÃ¼rk ische
sch ach
ĠAuff orderung
en er
Ġumfassen des
br achte
Ġa ktiver
ad i
ĠBo hnen
ĠL Ã¤den
te au
ĠR ats
Ġman ch
Ġm oll
Ã¼t teln
ĠJ Ã¤nner
bes ucher
st raining
Ġ Ã¤t
ĠWander er
Part y
ĠWh isk
ĠÃ¶k ologischen
bil anz
Sh irts
P e
besch werden
Ġf asst
Ġp osten
IL D
Ġopti sche
Ger Ã¤te
Stud ie
ĠT aufe
Ã¤lt in
ĠB isch
gleich heit
ĠVer stoÃŁ
B Ã¼r
G rad
z heim
Ñ Į
Ġger au
B ack
K an
ĠH ebel
ele ge
Ġanges iedelt
ĠSch Ã¶pfung
Re gel
Ġehrenamt lich
R ein
ĠBar ock
all ye
Ġpreis wert
ĠmaÃŁ geschneider
Ã¶l ler
G ute
Ġle bten
Ġsch Ã¤len
ĠBetreu er
b iss
ĠS av
ĠE P
st ige
ĠN on
ĠM ast
wa ffe
o fer
ĠInszen ierung
Ġnam entlich
K opf
ĠT ausend
ĠAb bruch
gemÃ¤ ÃŁen
ein fl
Ġge lin
ingen ieur
fot ografie
Ġorganis ierte
Ġp ers
ĠLad ung
ĠVen edig
ĠAus zug
ĠK ri
st ig
ĠKosten loser
Ġh ave
Ġinteressant es
ĠGen auso
Ġamb ition
f ragt
ĠK Ã¤mpfe
Grund verordnung
Ġauthen tisch
ĠS Ã¤mtliche
Ġdiesel ben
ĠE valu
sp Ã¤t
ĠhÃ¶her er
sch Ã¼sse
Ġaufwend ig
Ġverm ute
F ot
Ġle gten
Ġanspruchs vollen
ĠAbs icherung
ĠSchwÃ¤ che
ti zen
g sten
fle cken
an schlag
ĠMÃ¤r kten
Mod elle
Ver f
Ġg ame
Ġzeit gleich
ĠD ra
ĠBe er
b rie
ĠE go
Ã¤r men
seh bar
Ġhor izont
ĠÃ¼berw acht
schl auch
H g
Ġaufge tragen
maÃŁ nahme
Ġsa ison
ĠT E
Sch m
Ġvergangen e
Ġaufge treten
ĠMit ternacht
st rÃ¤n
H y
K L
um men
ĠbefÃ¼r chten
Ġsch la
ĠLau ra
st ube
ĠKon stanz
ĠHerunter laden
Ġh ies
ĠStraf ver
ĠKrie ger
Ġstaat lich
ĠSitz ungen
Ġroman tische
ig hlight
S D
Ġpol nischen
ĠH its
Ġerwar tete
ĠB ahnen
Schn itt
ĠK B
bas ierten
ĠPrÃ¤z ision
Ġt ue
ĠSt y
Ġklein sten
k eller
ĠBek Ã¤mpfung
ĠH appy
all es
K abel
Ġeinge leitet
po int
ĠAk zente
be vÃ¶lkerung
ĠG itter
ĠW alt
wÃ¼rdig keit
leb te
Ġcouch tisch
hyd rate
ĠWein gut
Ph il
Ġfaszin ierende
Ġsp eichert
af one
Ġeinz ul
ĠTem p
ĠT olle
Ġsp enden
Ġsystem atisch
stell bare
Ġver folg
ĠE y
ĠIrgend wie
ĠSchnitt stellen
Ġabsolut es
Ġfestge legten
p et
Ġ12 8
det ails
Ġdetaill iert
op le
ĠZu gleich
Ġdokumen tieren
ian ischen
neu e
Ġbeh eben
Ġun gar
athl on
ĠW W
ĠKon ten
ĠDis c
ĠRad i
ĠmÃ¼ hel
ĠAussch reibung
drÃ¼ck e
Ġabsolv ierte
IS T
Ġirgend eine
Ġkat zen
Ġess ay
aus rÃ¼stung
ĠMann schafts
Ġgesch lecht
ver waltungs
ĠPul lover
Ġrepar ieren
nes ium
ĠVerm ietung
ĠHe alth
Ġbetrieb lichen
ei zt
sch iffe
ĠB V
Ġm ethod
Al tern
ĠFrise ur
hÃ¶ fen
Ġsp anische
ĠSied lung
Ġ19 38
ĠP uppen
ĠK ragen
wei ser
Ġreal istisch
ĠLe asing
roh ungen
ĠSal on
Ġdurch gehend
ĠAn tik
ch ain
ĠDien sten
ĠWest e
ĠNutz ers
m ahl
ĠR app
ĠMaschinen bau
l ok
fÃ¶rm igen
Ġextrem e
or ing
ĠEreig nissen
brem se
ĠVersicher er
v ard
ĠKr imi
ĠOrt steil
hÃ¤ fen
l angen
ur se
ĠSport arten
ste cher
k reu
ĠJugend arbeit
b lichen
e per
ĠWie so
ĠDisziplin en
ĠBe cher
ĠTr enn
Ġvert ie
ĠBefest igung
Ġr einer
ĠFinn land
Ġ196 7
ĠP eg
ĠKar ib
Ġchem ischen
ĠQu een
ĠH ay
ĠKar in
Ġbe gab
ĠSol ange
ess a
ĠÃľber wach
un ch
Ġverw altet
âĤ¬ .
ĠAff Ã¤re
Ġun zureichen
v ar
Ġ197 3
Ġsan fte
ĠSa un
Ġheim lich
Ġverf ein
ar tikeln
ĠKandid at
geb rauch
Ġt u
Ġindividu eller
Ger Ã¤t
Ġau stral
ĠKor b
Ġge grÃ¼ndete
ĠG or
Ä ģ
ĠUr sprungs
fil es
ĠSa fe
ser gÃ¤n
ĠH ilfen
ĠOrganis ations
ĠSex ual
olog in
mittel te
Ġfr isches
Ġs ynt
ĠGeschmack s
Ġregel recht
Ġdiplom arbeit
ĠAir port
Ã¤chs ische
Ġern annt
Ġt ages
Ġ oma
Ġunbe w
ĠUN ESCO
ĠOlymp ischen
ĠMo os
Ġst reich
I EL
ĠT alk
b recher
in fektion
G EL
ĠMon ika
ĠSchl Ã¼sseld
Ġ196 9
ungsver trag
h ur
ĠOr den
u alisierung
ĠFil ialen
Ġm ega
ĠGo od
g ungs
kombin ation
b orse
schÃ¼t zer
ĠMar sch
ĠU rin
ĠZer tifizierung
ĠAsp ekten
on ische
ab zug
Ġunter e
ĠKrÃ¤ ften
ĠS A
at men
beg riffen
g raf
Ġad d
ĠTeil nehmen
berg s
L uft
amer ikanische
Ġan einander
ĠAn hand
Aktu ell
ĠEr leich
ĠS ektor
es kop
ĠJahrhunder ten
Ġfund ierte
ĠWarte zeit
Ġrie cht
ĠFrancis co
Ġserv ieren
ĠC ater
st angen
ter ungen
Ġvorder en
Ġaus macht
m eln
Ġor ange
ĠEr ic
Ġerleb te
Ġeinmal igen
ĠSchul ungen
ĠMed i
Ã¤m mung
Ġnach lesen
Ġp unkten
M Ã¤r
Ġmit bekommen
Schn ell
p ension
Ġf un
Ġmut maÃŁ
ĠD utzend
Ġauszu probieren
ĠSp ace
ĠRefer enten
ĠM C
ĠP akete
N utzer
Ġgesch ichte
Ġden selben
ÂŃ ÂŃ
Ġber ichteten
ser ien
stÃ¤n der
ĠR ate
ad rat
Ġf rist
ĠgÃ¶n nen
Ġein setzt
ĠStadt werke
S amm
u es
bau ern
ing o
ĠProgramm ier
ti zip
club s
ĠGer ichten
Ġlin k
Ġabgeb ildet
ĠHilf est
ĠBlut zucker
ĠZwischen zeit
ĠErkenntnis sen
ĠfrÃ¶h lich
t hal
ĠSe el
Ġgar nicht
ĠEr reichen
Ġvert iefen
Ġl Ã¤cheln
ag ramm
ĠDemonstr ation
Ġar omat
us er
ĠGroÃŁ stadt
ĠB uÃŁ
ĠKor ruption
Ġherr schen
Ġst arr
is l
b our
Ġbe grÃ¼nden
ĠAntrag steller
ĠRen aiss
echs eln
ĠStraÃŁen bahn
ĠTra il
Ġwissenschaft licher
ill t
ĠOld timer
Ġabzu geben
Ġseit lich
b on
Ã¡ n
pfl anzt
Ġp ack
be werber
B D
Fl ug
ol as
ief st
Ġein l
eck s
Dis play
Ġausger Ã¼stet
ĠL AN
Ġst reiten
Ġbr as
Ġun ange
ĠCro w
Ġkauf mÃ¤n
Ġdis sertation
ĠAbm essungen
Ġsex uell
Ġverb indlich
Ġweiter geben
sch einen
Ġorden tliche
ant a
im ler
ĠM IT
d ay
sk anzlei
Ġcle ver
ĠNeck ar
Fahr er
Ġautomat isiert
Deut sch
Ġauszut auschen
ĠWochen end
ĠFotograf ien
ĠOste uropa
ĠU nent
kÃ¤ sten
etz ungs
Ġgro sser
ĠGe fallen
m os
Ġ19 00
ĠSchlei m
F it
ĠBo y
ĠLe gende
h ese
ĠAus zeit
sst ruktur
sk rank
rain ings
Ġb Ã¶sen
at her
zuf rieden
ĠHaust ier
ĠL Ã¼gen
besch eid
Ġam azon
ĠSchokol aden
ĠEurope an
B aum
ĠRÃ¼ck gang
ĠSyn chron
ĠOr al
Ġerfolgreich sten
. (
w ollen
ĠÃĦuÃŁer ungen
ĠF alt
ĠDarauf hin
ĠEss zimmer
pass ungen
Ġauf tritt
ĠKÃ¼n ste
ĠFahr rÃ¤der
1 000
S or
Ġk uschel
Ġeffizien ter
ĠL amm
Ġetabl ieren
ĠS is
schn eider
Ġt rÃ¼
ĠTÃ¶ch ter
Ġerm ordet
Ġveranst alten
Ġaus wirken
aut os
ĠAn wohner
ĠWert schÃ¤tzung
Ġzunehmen de
os met
blut ung
e te
Ġh ot
ĠD ance
ĠU K
h ar
Ġelektr isch
ĠModer ator
Ġaus bildung
strate gien
ĠK uss
ĠIrgend wann
sp erson
ĠG ard
Ġt reff
Ġgek ocht
ĠDem okrat
aku um
Ġge fÃ¼t
In ner
Ġevent uelle
ĠSter ben
ĠA telier
Ġhand y
ĠSt offen
Ġgekon nt
h Ã¤u
eb ung
ĠnatÃ¼r licher
Ġneben einander
ĠfÃ¼r chten
Ġgr enzen
ĠRuss ische
Ġgelieb ten
it tern
ĠKaffe em
m Ã¼n
orm on
Ġein bezogen
ĠBÃ¤ der
ĠPhil osoph
ĠFol gende
ĠM ahn
ussen dlich
geb nissen
ĠPlug ins
Ġse c
ynam ik
fer tigten
Cook ies
Ġm or
f Ã¶rder
00 1
ĠDirekt werbung
Ġvor gehen
ĠMahl zeit
Ġles ben
ĠGeb ot
Ġerfolgreich es
utt ons
W en
ĠGl etscher
mm el
ĠW Ã¤hrungs
ĠBir ken
ĠFreu den
ĠV alle
ĠBe kleidung
ĠIns ulin
ĠVor gÃ¤nge
Ġun geh
zei ger
Ġrenomm ierte
Ġle ge
ĠTh ai
ĠDe pot
Ġ+ ++
d on
el ementen
ĠC A
F O
ĠPassag iere
ant eile
ĠV at
ĠFahrzeug s
z Ã¤hler
ge fahren
w ett
........ ........
ĠVal entin
Ġsepar ate
W il
ĠKan inchen
ĠBetr achter
ĠGang bang
og gt
Ġver einen
Ġli zenz
Ġab gebaut
Ġeinzigar tiges
ĠKali fornien
ĠA chten
Z oll
Ġwei ÃŁer
verband s
sst ra
ĠArt hr
ĠAuft ritte
si den
ĠStadt verwaltung
ĠWieder holung
ĠBeam te
bo ards
W ochen
Ġs et
k ohl
ĠL agen
ĠG ent
ĠIn sofern
ĠL etzten
zwe cke
Stel len
Ġstarte ten
" ).
ĠR iver
Ġlangfrist igen
ĠBack up
ĠZÃ¼r cher
Ġskepti sch
D C
ruf e
Po int
ĠB uche
ĠSan ierungs
ier n
Ġb ank
stÃ¤d ten
Ġoblig ator
K or
T err
Ġp utzen
l ange
r ika
lau tern
ĠFir ef
ab wehr
ĠN EU
ĠDu al
ĠProdu ktivitÃ¤t
ĠBuch ungs
Daten schutz
dienst leistungen
d achte
stimm ig
Â® -
ĠBeu tel
ĠPro zessen
Ġd oppelte
ĠF arm
g rÃ¤
Ġso fa
Ġern euten
om i
ĠN O
ĠAktion s
an es
ĠInd iz
ei ft
ien ds
ĠÃ¼ber fordert
stÃ¤d te
itt le
ĠZ a
ĠNe un
Ġna ja
Ġk och
ip e
ĠLes ung
ĠRegen er
ĠL aus
beg leiten
ĠN ow
Ġhin ab
Ġjung es
ĠSie ge
ĠAb wesen
ĠBÃ¼ gel
pfl anze
R ech
Ġpfl anzen
rest aurant
Ġeingeb racht
ĠEnt deck
Ġanspruchs voll
Ġh d
ĠSalz burger
ĠHen ry
ĠT ap
ĠL eine
Ġhier her
ĠSt einen
ĠFl irten
d ire
Ġ11 5
Ġlog isch
ĠS eiden
Ġeinge treten
Ġs auer
Ġmed iterran
bew usste
play er
ĠTit an
ĠKom pression
: :
ĠT reu
ĠR inder
sen dungen
ĠN ett
our ce
schw ein
Ġmonat liche
Ġlag ern
Ġsch liesslich
Ġheraus zu
Ent wicklung
ĠJ Ã¤hr
re ger
me te
Ġbed Ã¼rfen
ĠOrt es
ĠN uss
Ġman gel
er fahrung
ĠProf ile
ĠStadt zentrum
ĠBeh inderten
st our
ĠNorm alerweise
co ut
ĠGrund sÃ¤tze
Ġauf passen
ĠVerein barungen
ĠE id
ĠProgramm ierung
ĠThr iller
ĠSch ar
ĠEnt decke
ĠannÃ¤hern d
ĠAn zug
vor stellungen
ĠSal es
Ġrei st
ass istent
Ġein satz
Ġfl achen
ĠÃ¼bern achten
ĠUnis ex
P sych
ĠWert ung
ĠElef anten
ĠZiel gruppen
Ġbege hrt
ĠEin bindung
ĠH tt
ĠC arbon
m ehl
ĠAn bieters
1 20
ĠHalb finale
Ġkrie gt
Ġer holen
ĠM M
Ġwitz ig
ent zÃ¼ndung
ok e
ĠBo w
schul ung
ĠP interest
Ġan g
ĠTag ungs
ĠBel ange
ĠAnges ichts
Ġerweiter ten
rechn ungs
in ett
Ġsch enkt
ĠC PU
ograf ischen
Ġauf steigen
L ei
vert rÃ¤gen
Shop s
ĠH ur
ar es
ĠBesch leun
Ã¶ geln
ight s
ĠWir ken
l etzten
ĠRoll er
ĠNort h
ĠZeich nung
ĠEner gy
Ein es
R el
programm s
ĠKl icks
B al
Ġmer kte
Ġfotograf iert
ĠKirchen gemeinde
Ġrenov iert
In dustrie
ĠVul kan
ĠCop yright
ĠH Ã¼l
b onus
Ġunters agt
Ġengag ierten
gie ÃŁen
I EN
Ġchar man
G mbH
klÃ¤r ungs
ĠStraÃŁen verkehr
ĠOlymp ia
ĠGeschlecht s
ĠhÃ¶ f
Ġgen Ã¼gen
vis ions
ĠRuhr gebiet
Ġauf rufen
Ļ ¥
W eg
ab satz
lei dung
Sch lag
fÃ¼ll te
ed et
ĠCh irurgie
ĠWohn mobil
sch alt
ĠR in
Ġmiss b
Ġangegeben e
ĠEinfl Ã¼sse
ĠT ip
ĠQu alitÃ¤ten
Ġdaten schutz
der obe
Ġï Ĥ
ĠEvangel ischen
VerÃ¶ffentlich t
Ġg leiten
mÃ¤n ner
D eine
Ġab gem
v orm
Tele fon
Ġsteigen de
spor ter
h on
spro jekte
ĠAktiv ierung
Ġuntern ommen
inn ung
Ġre det
k Ã¼nstler
abil ity
ĠErk Ã¤lt
Ãĸ ff
ĠZ elle
Ur laub
ĠIn frarot
Ġaus drucken
ĠDiplom arbeit
Ġrecht fertigen
ĠS om
Ġpf legt
Ġm eister
ĠFot zen
Ġgebrau chte
[...]
