{"<s>":0,"<pad>":1,"</s>":2,"<unk>":3,".":4,",":5,"Ġund":6,"Ġdie":7,"Ġder":8,"-":9,"Ġin":10,"Ġzu":11,"Ġmit":12,"Ġden":13,"Ġist":14,"Ġvon":15,"Ġdas":16,"ĠfÃ¼r":17,"Ġauf":18,"Ġein":19,":":20,"Ġnicht":21,"Ġsich":22,"Ġim":23,"Ġeine":24,"Ġauch":25,"Ġes":26,"Ġ(":27,"Ġdem":28,"Ġdes":29,"ĠSie":30,"Ġan":31,"Ġich":32,"Ġoder":33,"Ġwerden":34,"Ġaus":35,"Ġsind":36,"Ġals":37,"Ġbei":38,")":39,"ĠDie":40,"Ġsie":41,"Ġdass":42,"Ġwird":43,"Ġwie":44,"Ġnach":45,"Ġeinen":46,"Ġum":47,"Ġhat":48,"Ġ-":49,"Ġeiner":50,"ĠÃ¼ber":51,"Ġwir":52,"Ġeinem":53,"s":54,"Ġso":55,"Ġnoch":56,"Ġzum":57,"Ġkann":58,"ĠâĢŀ":59,"Ġman":60,"Ġnur":61,"Ġhaben":62,"Ġer":63,"Ġaber":64,"Ġam":65,"Ġdurch":66,"Ġwar":67,"Ġvor":68,"ĠkÃ¶nnen":69,"Ġ\"":70,"/":71,"ĠâĢĵ":72,"!":73,"Ġzur":74,"?":75,"es":76,"ĠDas":77,"Ġmehr":78,"Die":79,"ĠDer":80,"Ġwenn":81,"Ġuns":82,"Ġbis":83,"ÂŃ":84,"Ġdann":85,"Ġsein":86,"Ġsehr":87,"\"":88,"Ġwurde":89,"âĢľ":90,"Ġwas":91,"Ġschon":92,"Ġ1":93,"Ġimmer":94,"Ġwieder":95,"Ġdiese":96,"er":97,"de":98,"Ġunter":99,"Ġgibt":100,"Ġhabe":101,"Ġmir":102,"Ġhier":103,"Ġvom":104,"ĠIn":105,"Ġ2":106,"Ġalle":107,"Ġda":108,"e":109,"Ġmich":110,"Ġdieser":111,"Ġab":112,"ĠEs":113,"ĠIch":114,"Ġdu":115,"Ġihr":116,"...":117,";":118,"ĠZeit":119,"in":120,"Ġkeine":121,"a":122,"Ġ3":123,"en":124,"Ġeines":125,"ĠEin":126,"Ġgut":127,"ĠUnd":128,"Ġsowie":129,").":130,"Der":131,"Ġmal":132,"Ġihre":133,"B":134,"te":135,"Das":136,"Ġohne":137,"Ġbeim":138,"Ġganz":139,"Ġmuss":140,"Ġdiesem":141,"Ġhatte":142,"ĠMit":143,"Ġeinfach":144,"Ġetwas":145,"ĠWir":146,"ten":147,"Ġviel":148,"ĠB":149,"2":150,"Ġseine":151,"Ġzwei":152,"Ġgegen":153,"Ġanderen":154,"den":155,"Ġselbst":156,"ĠEr":157,"ĠMenschen":158,"1":159,"d":160,"t":161,"Ġ4":162,"ĠS":163,"ĠJahr":164,"Ġdamit":165,"o":166,"Ġmachen":167,"Ġfinden":168,"Ġdoch":169,"Ġja":170,"),":171,"Ġgeht":172,"ĠIm":173,"ĠJahren":174,"st":175,"ĠE":176,"Ġviele":177,"Ġjetzt":178,"i":179,"ĠIhre":180,"y":181,"Ġ5":182,"m":183,"Ġwurden":184,"Ġ|":185,"z":186,"Ġsondern":187,"Ġlassen":188,"Ġalles":189,"Ġneue":190,"3":191,"Ġwaren":192,"ĠIhnen":193,"Ġzwischen":194,"Ich":195,"Ġnun":196,"Ġdabei":197,"Ġbereits":198,"S":199,"Ġob":200,"h":201,"ĠT":202,"Ġunsere":203,"Ġandere":204,"In":205,"ĠK":206,"ĠAuf":207,"ĠD":208,"Ġbin":209,"Ġersten":210,"Ġdieses":211,"Ġweiter":212,"n":213,"ĠG":214,"ing":215,"k":216,"Ġdenn":217,"Ġseiner":218,"5":219,"ĠKinder":220,"ĠJahre":221,"Ġsoll":222,"Ġseit":223,"ĠM":224,"ĠFÃ¼r":225,"der":226,"Ġ10":227,"Ġsollte":228,"ung":229,"an":230,"ĠBei":231,"Ġ/":232,"ĠDaten":233,"ĠmÃ¼ssen":234,"ĠDu":235,"ĠA":236,"b":237,"ĠL":238,"D":239,"ĠP":240,"ĠH":241,"K":242,"ĠSex":243,"ĠSo":244,"Ġalso":245,"M":246,"ĠIhr":247,"Ġheute":248,"g":249,"ĠR":250,"Ġ&":251,"4":252,"Ġweil":253,"T":254,"Ġunserer":255,"ter":256,"ĠF":257,"ĠWenn":258,"Ġneuen":259,"l":260,"ische":261,"Ġkommt":262,"em":263,"ĠAuch":264,"Ġihrer":265,"ĠC":266,"ĠUhr":267,"Ġdiesen":268,"Ġihn":269,"ĠStadt":270,"ĠDeutschland":271,"Ġdazu":272,"ĠWelt":273,"Ġmeine":274,"Ġihren":275,"F":276,"Ġm":277,"Ġdrei":278,"on":279,"al":280,"ĠAber":281,"ĠDiese":282,"ĠNach":283,"ungen":284,"Ġsteht":285,"ĠEine":286,"Ġ6":287,"p":288,"ĠAn":289,"ĠW":290,"ischen":291,"R":292,"f":293,"Ġseinen":294,"Ġwo":295,"ĠLeben":296,"Ġkein":297,"Ġeinmal":298,"Ġjedoch":299,"Wir":300,"Ġz":301,"ern":302,"ĠTag":303,"ĠSpiel":304,"C":305,"ĠEuro":306,"c":307,"A":308,"at":309,"Ġ20":310,"ungs":311,"Ġallem":312,"H":313,"ĠFrauen":314,"Ġkommen":315,"âĢľ,":316,"ĠUnternehmen":317,"L":318,"P":319,"Ġwill":320,"Ġins":321,"el":322,"ĠAus":323,"ig":324,"ĠN":325,"ĠwÃ¼rde":326,"Ġerst":327,"ĠSeite":328,"Ġihm":329,"Ġwelche":330,"G":331,"Ġwirklich":332,"isch":333,"Ġsei":334,"Ġzusammen":335,"Ġmacht":336,"ĠVor":337,"ĠWie":338,"Ġ18":339,"Ġsehen":340,"Ġ...":341,"ĠWasser":342,"ĠKunden":343,"ge":344,"lich":345,"Ġkonnte":346,"sch":347,"r":348,"Ġdort":349,"iert":350,"u":351,"Ġbietet":352,"w":353,"et":354,"Ġnichts":355,"liche":356,"Ġallen":357,"ĠmÃ¶glich":358,"ĠV":359,"V":360,"is":361,"ĠEnde":362,"W":363,"00":364,"ĠAb":365,"Ġbzw":366,"us":367,"Ġschnell":368,"ĠzurÃ¼ck":369,"ĠnatÃ¼rlich":370,"ĠTeil":371,"ĠArt":372,"Ġf":373,"ĠFrau":374,"ĠInformationen":375,"Ġliegt":376,"Ġver":377,"Ġ.":378,"ieren":379,"6":380,"ĠdafÃ¼r":381,"Ein":382,"Ġwollen":383,"Ġgerne":384,"ĠFall":385,"Ġstehen":386,"ĠSt":387,"Ġ7":388,"Ġgeben":389,"ĠDa":390,"sten":391,"Es":392,"Ġ15":393,"ĠÂ»":394,"Ġdies":395,"ar":396,"ĠVer":397,"Ġ8":398,"be":399,"Ġletzten":400,"E":401,"Ġerhalten":402,"Ġeinige":403,"ĠwÃ¤re":404,"as":405,"ĠAm":406,"Ġseinem":407,"ĠOnline":408,"ie":409,"âĢ¦":410,"Ġvielen":411,"ĠwÃ¤hrend":412,"Ġhin":413,"000":414,"Im":415,"ĠArbeit":416,"Ġdenen":417,"Ġ,":418,"Ġdir":419,"ĠGrund":420,"Ġwohl":421,"Ġk":422,"Ġdirekt":423,"7":424,"os":425,"ver":426,"Ġjeder":427,"Ġgerade":428,"ĠgroÃŁe":429,"Ġbeiden":430,"ĠHier":431,"ĠHaus":432,"Ġweitere":433,"Ġb":434,"Ġgehen":435,"ĠWeg":436,"or":437,"ĠgroÃŁen":438,"N":439,"Ġ30":440,"um":441,"Ġbesonders":442,"lichen":443,"Ġsogar":444,"ĠmÃ¶chte":445,"ĠZ":446,"ab":447,"Ġgleich":448,"Ġd":449,"ĠUm":450,"\",":451,"%":452,"8":453,"Ġgenau":454,"Ġs":455,"Ġgemacht":456,"Ġeigenen":457,"Mit":458,"x":459,"Ġerste":460,"Ġmein":461,"Ġbieten":462,"Ġoft":463,"le":464,"]":465,"Ġlange":466,"Ġrund":467,"ĠBild":468,"ĠI":469,"ĠAls":470,"ĠSch":471,"ĠPreis":472,"Ġp":473,"Ġ12":474,"Ġetwa":475,"Ġgar":476,"chen":477,"ĠThema":478,"Ġun":479,"ĠMal":480,"Ġbesten":481,"Ġunseren":482,"Ġl":483,"ige":484,"Ġeuch":485,"ste":486,"ĠlÃ¤sst":487,"Ġt":488,"ĠGeld":489,"igen":490,"innen":491,"Ġdarauf":492,"Ġjeden":493,"ĠkÃ¶nnte":494,"berg":495,"Ġgute":496,"Ġfast":497,"v":498,"ĠBuch":499,"ĠWas":500,"Ġdavon":501,"ĠUnter":502,"Ġwenig":503,"ĠPlatz":504,"au":505,"ĠBeispiel":506,"Ġsicher":507,".âĢľ":508,"Ġ100":509,"sen":510,"bar":511,"Ġbesser":512,"se":513,"ers":514,"ch":515,"ĠBerlin":516,"ĠInternet":517,"Ġunser":518,"Ġmeiner":519,"Ġca":520,"0":521,"Ġdich":522,"Ġihrem":523,"it":524,"(":525,"Ġunserem":526,"ĠIhrer":527,"ĠHand":528,"ĠâĢľ":529,"ĠLand":530,"Ġh":531,"Ġpaar":532,"ĠÃľber":533,"Ġzwar":534,"Ġhatten":535,"ĠdaÃŁ":536,"ĠJ":537,"gen":538,"ĠZu":539,"ĠProzent":540,"Ġa":541,"Ġkleine":542,"Ġfindet":543,"Wenn":544,"Ġkleinen":545,"Z":546,"9":547,"Ġpro":548,"Ġgab":549,"Ġrichtig":550,"ler":551,"Ġof":552,"ischer":553,"ĠBilder":554,"Ġge":555,"Ġ9":556,"ĠSeiten":557,"ĠO":558,"ierte":559,"und":560,"Ġallerdings":561,"ĠMan":562,"Ġonline":563,"ĠBereich":564,"Ġ16":565,"ĠMusik":566,"ĠIhren":567,"ein":568,"I":569,"ĠMann":570,"Ġgilt":571,"O":572,"Ġaller":573,"ĠFrage":574,"ĠOrt":575,"Ġtun":576,"Ġsollten":577,"ur":578,"Ġ50":579,"Ġderen":580,"Ġper":581,"Ġsex":582,"Ġhoch":583,"ed":584,"ic":585,"ĠDurch":586,"Ġnehmen":587,"Ġ14":588,"Ġn":589,"Ġe":590,"Ġihnen":591,"10":592,"ĠDoch":593,"ĠWer":594,"Ġ17":595,"Ġ2018":596,"Ġ0":597,"Bei":598,"ĠZiel":599,"ner":600,"ent":601,"Ġstatt":602,"Sie":603,"Ġvier":604,"ĠGeschichte":605,"ĠweiÃŁ":606,"ĠFragen":607,"Ġst":608,"am":609,"Ġw":610,"Ġkam":611,"Ġsagen":612,"ĠVon":613,"Ġsch":614,"ĠForm":615,"Ġbekommen":616,"Ġworden":617,"ĠRahmen":618,"j":619,"Ġeigentlich":620,"mann":621,"ĠMÃ¶glichkeit":622,"Ġnie":623,"ia":624,"Ġweniger":625,"Ġkaufen":626,"haus":627,"âĢľ.":628,"Ġkeinen":629,"ik":630,"ĠU":631,"re":632,"Ġebenfalls":633,"ĠPerson":634,"Ġschreiben":635,"ĠBau":636,"Ġzeigt":637,"ĠâĢ¦":638,"Ġverschiedenen":639,"Ġneu":640,"Ġvielleicht":641,"Ġ#":642,"ĠEinsatz":643,"Ġdaher":644,"ien":645,"ĠVerfÃ¼gung":646,"Ġeher":647,"Ġleicht":648,"ĠhÃ¤tte":649,"Ġkannst":650,"ĠKosten":651,"ĠMinuten":652,"Ġg":653,"ation":654,"Ġwissen":655,"Ġr":656,"ĠDies":657,"âĢŀ":658,"Ġ25":659,"Ġmeinen":660,"ier":661,"Ġstellen":662,"ich":663,"ĠNatur":664,"FÃ¼r":665,"ad":666,"Ġneben":667,"licher":668,"end":669,"ĠTage":670,"ei":671,"im":672,"'":673,"Ġsollen":674,"ale":675,"Ġu":676,"ĠSport":677,"Ġkostenlos":678,"Ġspielen":679,"ĠDann":680,"ol":681,"ĠspÃ¤ter":682,"ĠDabei":683,"Ġging":684,".\"":685,"ĠDr":686,"Ġ11":687,"Ġwegen":688,"Ġ13":689,"aus":690,"Am":691,"ĠTeam":692,"ierten":693,"ĠPersonen":694,"ĠStunden":695,"Ġsieht":696,"ĠgehÃ¶rt":697,"\".":698,"11":699,"ĠDenn":700,"Ġwerde":701,"ĠUn":702,"Ġ19":703,"Ġx":704,"ĠArtikel":705,"Ġc":706,"ot":707,"ĠBlick":708,"ĠHotel":709,"Ġsagt":710,"ĠnÃ¤chsten":711,"Ġsagte":712,"Ġ[":713,"Ġbesteht":714,"ber":715,"Nach":716,"ĠWochen":717,"Ġdeutlich":718,"ĠFilm":719,"com":720,"ĠProblem":721,"19":722,"Ġbleibt":723,"un":724,"An":725,"iger":726,"Ġmeisten":727,"30":728,"Ġsofort":729,"Ġjedem":730,"ĠProdukt":731,"ger":732,"Ġje":733,"Ġkurz":734,"zeit":735,"Ġwollte":736,"ĠEntwicklung":737,"âĢĻ":738,"ĠdarÃ¼ber":739,"Ġde":740,"ĠKÃ¶rper":741,"ĠProdukte":742,"ach":743,"Ġganze":744,"ĠFamilie":745,"il":746,"Ġleider":747,"Ġcm":748,"ster":749,"sp":750,"Ġ":751,"Ġrecht":752,"ierung":753,"ant":754,"Ġ24":755,"ĠQualitÃ¤t":756,"ĠAngebot":757,"Ġmeinem":758,"ĠHaupt":759,"ĠschÃ¶n":760,"ĠWoche":761,"Ġdeutschen":762,"ĠGmbH":763,"Ġwichtig":764,"Ġweit":765,"ĠmÃ¶chten":766,"ra":767,"âĢĿ":768,"Ġhast":769,"Ġbe":770,"ĠMarkt":771,"ĠAuto":772,"Eine":773,"zen":774,"ke":775,"ne":776,"Auf":777,"ĠRaum":778,"ĠBe":779,"ĠIhrem":780,"Ġ:":781,"ĠMitarbeiter":782,"Ġdarf":783,"ĠÂ«":784,"Ġbleiben":785,"Ġinnerhalb":786,"Ġstellt":787,"Ġfrei":788,"://":789,"ser":790,"ĠRecht":791,"Ġ2017":792,"ĠAugen":793,"Ġthe":794,"Ġeben":795,"ro":796,"ĠSuche":797,"12":798,"om":799,"J":800,"ak":801,"Ġzeigen":802,"ag":803,"Ġ40":804,"Ġbringen":805,"ĠKunst":806,"Ġwer":807,"Ġher":808,"ĠProjekt":809,"ell":810,"18":811,"Ġnutzen":812,"Ġbekannt":813,"Ġjede":814,"Ġeigene":815,"ĠMÃ¤dchen":816,"ĠHilfe":817,"ĠHolz":818,"ĠNeu":819,"ist":820,"Ġfest":821,"Ġkaum":822,"isches":823,"ĠWahl":824,"Ġsuchen":825,"Ġhab":826,"Ġoben":827,"Sch":828,"Ġguten":829,"auf":830,"ĠNicht":831,"Ġbitte":832,"ĠNamen":833,"Ġhalten":834,"Ġverschiedene":835,"Ġhinaus":836,"ĠEltern":837,"sk":838,"Ġweiteren":839,"bach":840,"ĠgegenÃ¼ber":841,"id":842,"ĠTest":843,"Ġklar":844,"ert":845,"ĠSystem":846,"Ġkonnten":847,"ĠZum":848,"Ġhelfen":849,"ĠEnergie":850,"ĠLebens":851,"ĠVideo":852,"eln":853,"ĠRe":854,"heim":855,"ul":856,"ĠSommer":857,"ĠReise":858,"ĠFach":859,"_":860,"U":861,"ĠMillionen":862,"ĠNacht":863,"Er":864,"ĠAuswahl":865,"ĠLicht":866,"Ġv":867,"ĠGarten":868,"ĠAlle":869,"ĠZukunft":870,"heit":871,"ĠSicherheit":872,".)":873,"Ġhinter":874,"ĠPartner":875,"ĠDesign":876,"Ġlang":877,"ben":878,"land":879,"Ġdessen":880,"alen":881,"ĠSchutz":882,"Mail":883,"op":884,"ĠfÃ¼nf":885,"ĠLandes":886,"Wie":887,"ir":888,"ĠfÃ¼hren":889,"ĠSelbst":890,"Ġsowohl":891,"ĠOber":892,"ine":893,"Ġsomit":894,"ĠWeise":895,"ĠKopf":896,"ĠDen":897,"ĠÂ§":898,"Ġliegen":899,"ĠProgramm":900,"Ġ2016":901,".,":902,"Ġdaran":903,"Und":904,"ĠRegel":905,"die":906,"-,":907,"ĠfÃ¼hrt":908,"Ġmehrere":909,"Ġdeine":910,"ĠAbend":911,"ĠHaut":912,"ĠAnfang":913,"ĠKultur":914,"Ġverwendet":915,"art":916,"ĠFamilien":917,"and":918,"gel":919,"Ġarbeiten":920,"..":921,"Ġgemeinsam":922,"St":923,"ĠAbs":924,"Ġhandelt":925,"liches":926,"ĠMÃ¤nner":927,"Ġmusste":928,"ĠSchul":929,"he":930,"Ġ21":931,"Ġvoll":932,"Ġheraus":933,"Ġdeshalb":934,"ĠLuft":935,"Ġsucht":936,"ĠNeben":937,"ĠThemen":938,"ĠJahres":939,"ĠWert":940,"ĠWebsite":941,"ĠBad":942,"Auch":943,"Ġweg":944,"ĠErfolg":945,"bau":946,"bereich":947,"ate":948,"Ġsolche":949,"Ġschwer":950,"20":951,"ĠKind":952,"Ġanders":953,"ĠLeute":954,"ĠGesellschaft":955,"Ġi":956,"Ġ22":957,"ĠheiÃŁt":958,"ĠMutter":959,"Â»":960,"ĠSp":961,"ĠMedien":962,"Als":963,"feld":964,"ĠLiebe":965,"15":966,"Ġall":967,"ĠPorno":968,"elt":969,"Ġalten":970,"ti":971,"ĠArbeits":972,"ĠSpaÃŁ":973,"ĠBand":974,"ĠLage":975,"ĠDamit":976,"ĠTagen":977,"ĠSpieler":978,"Ġstark":979,"spiel":980,"ĠMehr":981,"zu":982,"Ġzweiten":983,"ĠPro":984,"ĠMai":985,"ĠWinter":986,"ĠHÃ¶he":987,"tem":988,"ĠBoden":989,"Ġjedes":990,"Ġbisher":991,"ĠKauf":992,"Ġfreuen":993,"la":994,"Ġgewesen":995,"Ġganzen":996,"ĠMittel":997,"ĠDruck":998,"Ġerreichen":999,"Ġgefunden":1000,"ĠIst":1001,"Ġ60":1002,"Ġebenso":1003,"ĠHause":1004,"ĠdÃ¼rfen":1005,"ut":1006,"ĠAl":1007,"ĠFoto":1008,"ĠÃ¼berhaupt":1009,"Ġbeispielsweise":1010,"men":1011,"ken":1012,"ĠEU":1013,"ĠDank":1014,"Ġleben":1015,"burg":1016,"Ġmeist":1017,"ĠPolizei":1018,"ĠKontakt":1019,"Ġwelches":1020,"*":1021,"ĠZimmer":1022,"Ġlesen":1023,"Ġaufgrund":1024,"ĠNur":1025,"ĠUSA":1026,"Ġ2015":1027,"nen":1028,"Ġfinde":1029,"ĠSeptember":1030,"ĠBehandlung":1031,"ĠGoogle":1032,"des":1033,"ys":1034,"ĠService":1035,"ingen":1036,"ĠRolle":1037,"ap":1038,"ĠDieser":1039,"Ver":1040,"ĠVergleich":1041,"ĠâĤ¬":1042,"schutz":1043,"Ġ'":1044,"los":1045,"Ġ%":1046,"schen":1047,"straÃŁe":1048,"ĠJugend":1049,"ĠErfahrung":1050,"Ġinsbesondere":1051,"Ġkm":1052,"ĠProbleme":1053,"Ġbefindet":1054,"ĠStelle":1055,"Â«":1056,"ĠUS":1057,"ĠRichtung":1058,"Ġsonst":1059,"Ġanderem":1060,"Ġent":1061,"ĠX":1062,"ĠwÃ¼rden":1063,"ze":1064,"ĠSchule":1065,"Was":1066,"EN":1067,"Ġjeweils":1068,"ĠFotos":1069,"ĠOktober":1070,"Ġ+":1071,"Ġeinigen":1072,"ĠGruppe":1073,"Ġsetzen":1074,"ob":1075,"ĠJuni":1076,"ĠNovember":1077,"ĠNutzung":1078,"est":1079,"Ġ23":1080,"'s":1081,"01":1082,"X":1083,"recht":1084,"ĠCo":1085,"ĠMÃ¶glichkeiten":1086,"elle":1087,"Um":1088,"ĠEuropa":1089,"ĠDeutschen":1090,"Ġgesehen":1091,"ang":1092,"ah":1093,"tern":1094,"ĠSchÃ¼ler":1095,"Ġentwickelt":1096,"age":1097,"Ġerfolgt":1098,"ok":1099,"ĠEnt":1100,"Ġbedeutet":1101,"vor":1102,"ĠStart":1103,"Ġstand":1104,"Y":1105,"Diese":1106,"ss":1107,"Ġaktuellen":1108,"ĠKraft":1109,"od":1110,"ĠStÃ¼ck":1111,"ĠHerz":1112,"ĠGe":1113,"Ġjemand":1114,"ĠMÃ¼nchen":1115,"ow":1116,"ac":1117,"Ġselber":1118,"iges":1119,"isten":1120,"2018":1121,"Ġmag":1122,"Ġbringt":1123,"ĠzunÃ¤chst":1124,"ĠOb":1125,"ĠGott":1126,"Ġkennen":1127,"ĠgroÃŁ":1128,"Ġgeworden":1129,"ĠDir":1130,"ĠMÃ¤rz":1131,"Ġ2014":1132,"Ġtreffen":1133,"Aus":1134,"ĠNÃ¤he":1135,"Ġallein":1136,"ĠCasino":1137,"Ġand":1138,"Ġwarum":1139,"ck":1140,"stein":1141,"Ġsuper":1142,"Ġfand":1143,"mer":1144,"ĠGroÃŁ":1145,"Ġmm":1146,"ĠSpiele":1147,"me":1148,"raum":1149,"aten":1150,"www":1151,"Ġdeutsche":1152,"Ġbeste":1153,"bare":1154,"Ġbraucht":1155,"Wer":1156,"arbeit":1157,"ĠStraÃŁe":1158,"ĠTop":1159,"her":1160,"Ġhohen":1161,"ĠRegion":1162,"Ã¤":1163,"Ġgenug":1164,"Ġmindestens":1165,"weg":1166,"ĠKindern":1167,"Ġ*":1168,"16":1169,"Ġetc":1170,"ĠgehÃ¶ren":1171,"ĠAuÃŁerdem":1172,"ĠschÃ¶ne":1173,"ĠIdeen":1174,"ĠGemeinde":1175,"ĠAugust":1176,"ĠGÃ¤ste":1177,"14":1178,"Ġalte":1179,"als":1180,"ĠDazu":1181,"ĠDieses":1182,"ĠHamburg":1183,"ens":1184,"co":1185,"ĠFarben":1186,"Ġlernen":1187,"ĠBundes":1188,"ĠUnterstÃ¼tzung":1189,"ĠJuli":1190,"io":1191,"Ġhohe":1192,"Ġinsgesamt":1193,"Ġeinzelnen":1194,"Ġo":1195,"ĠtatsÃ¤chlich":1196,"ĠHoch":1197,"ri":1198,"tel":1199,"ĠBeitrag":1200,"ies":1201,"Ġneues":1202,"ĠWald":1203,"ĠMaterial":1204,"So":1205,"Ġdadurch":1206,"ĠGlÃ¼ck":1207,"17":1208,"ĠnÃ¤mlich":1209,"Ġgesagt":1210,"Ġzudem":1211,"Ġendlich":1212,"platz":1213,"dorf":1214,"hen":1215,"Ġbeide":1216,"ellen":1217,"Vor":1218,"sche":1219,"50":1220,"ĠVerarbeitung":1221,"ĠInteresse":1222,"schaft":1223,"ĠDinge":1224,"ĠPflege":1225,"Ġgegeben":1226,"ĠTitel":1227,"Ġnimmt":1228,"mit":1229,"ĠStand":1230,"ĠGrÃ¶ÃŁe":1231,"Ġbist":1232,"Ġscheint":1233,"Ġverwenden":1234,"ĠBÃ¼rger":1235,"Ġ80":1236,"ĠErgebnis":1237,"ion":1238,"ĠWein":1239,"ĠFarbe":1240,"ĠMensch":1241,"ĠJetzt":1242,"ĠEssen":1243,"ĠSoftware":1244,"ĠErfahrungen":1245,"Ġvergangenen":1246,"ort":1247,"Ġbereit":1248,"Ġbevor":1249,"Ġjunge":1250,"form":1251,"ĠPatienten":1252,"ĠApril":1253,"Ġbekommt":1254,"Da":1255,"ĠOder":1256,"Ġwww":1257,"Ġrein":1258,"inger":1259,"ĠMitglieder":1260,"24":1261,"Ġ28":1262,"Ġgeeignet":1263,"Ġre":1264,"ĠVerbindung":1265,"Ġentfernt":1266,"ĠEntscheidung":1267,"Ġ2013":1268,"ĠVerein":1269,"Ġvorbei":1270,"Ġerfahren":1271,"ĠRechts":1272,"ĠMar":1273,"ĠBerg":1274,"ĠPraxis":1275,"baren":1276,"Ġfahren":1277,"ĠSchweiz":1278,"ĠSchritt":1279,"Ġsp":1280,"ations":1281,"ĠBasis":1282,"ĠBank":1283,"Ġerreicht":1284,"len":1285,"ĠWort":1286,"Ġindem":1287,"ĠWohnung":1288,"ĠerklÃ¤rt":1289,"Ġ26":1290,"ĠIdee":1291,"Ġbald":1292,"ĠSeit":1293,"Ġdamals":1294,"ĠBesuch":1295,"ĠKirche":1296,"ft":1297,"&":1298,"Ġdanach":1299,"ĠApp":1300,"hof":1301,"ĠDamen":1302,"ĠAlso":1303,"ĠText":1304,"Ġabge":1305,"ĠunterstÃ¼tzen":1306,"ĠPost":1307,"ĠvÃ¶llig":1308,"Ġsetzt":1309,"ĠWunsch":1310,"werk":1311,"ĠKÃ¼che":1312,"ĠMenge":1313,"Ã©":1314,"ĠhÃ¤ufig":1315,"ĠStein":1316,"ĠY":1317,"ÌĪ":1318,"ha":1319,"ĠThe":1320,"ĠSaison":1321,"13":1322,"ĠVideos":1323,"ĠModell":1324,"ĠAlter":1325,"ĠFolge":1326,"ek":1327,"itz":1328,"ĠGlas":1329,"ff":1330,"ĠSonntag":1331,"ĠUmwelt":1332,"ĠWohn":1333,"ĠAusbildung":1334,"Ġfolgenden":1335,"ĠhÃ¤lt":1336,"ĠLeistung":1337,"Ġsechs":1338,"ĠInhalte":1339,"els":1340,"per":1341,"ĠCh":1342,"ip":1343,"Ġspielt":1344,"ĠWetter":1345,"Ġ27":1346,"ĠunterstÃ¼tzt":1347,"ĠTages":1348,"Ġdar":1349,"Ġunten":1350,"Ġseines":1351,"ren":1352,"ĠAr":1353,"Ġjeweiligen":1354,"Ab":1355,"dem":1356,"tig":1357,"Ġsorgen":1358,"ĠUrlaub":1359,"Ġgestellt":1360,"Ġziemlich":1361,"Ġfrauen":1362,"Ġtragen":1363,"ast":1364,"ĠJanuar":1365,"Ġtrotzdem":1366,"Ġkomplett":1367,"ĠSamstag":1368,"ĠÃĸsterreich":1369,"ĠGedanken":1370,"Ġ2012":1371,"ĠBedeutung":1372,"ĠRÃ¼ck":1373,"ĠErst":1374,"Ġzehn":1375,"Ã¼":1376,"ĠAufgaben":1377,"ĠBesucher":1378,"Ġto":1379,"Ġalt":1380,"Ġweiterhin":1381,"ĠZur":1382,"Ġempfehlen":1383,"Ġwobei":1384,"ĠVater":1385,"ĠschlieÃŁlich":1386,"Ġgleichzeitig":1387,"@":1388,"Ġlaut":1389,"buch":1390,"oder":1391,"stadt":1392,"Ġrichtige":1393,"Ġgern":1394,"ĠzusÃ¤tzlich":1395,"eb":1396,"ĠFacebook":1397,"ĠFirma":1398,"ĠWirtschaft":1399,"Ġwelcher":1400,"ĠAG":1401,"ons":1402,"ĠDezember":1403,"ĠGesundheit":1404,"zer":1405,"ĠLÃ¶sung":1406,"all":1407,"man":1408,"og":1409,"ĠTier":1410,"bl":1411,"ĠUmgebung":1412,"ĠFest":1413,"Ġdein":1414,"ĠBeginn":1415,"Ġzumindest":1416,"ĠMeinung":1417,"ĠPolitik":1418,"Ġderzeit":1419,"Ġletzte":1420,"25":1421,"ĠKlein":1422,"ges":1423,"ĠMonate":1424,"ĠGold":1425,"ER":1426,"ĠBar":1427,"Ġoffen":1428,"dern":1429,"Ġlos":1430,"Ġerkennen":1431,"ĠUnsere":1432,"gruppe":1433,"iere":1434,"ts":1435,"ĠNun":1436,"arbeiten":1437,"stand":1438,"ĠWeb":1439,"ĠFirmen":1440,"ĠGruppen":1441,"ĠGefÃ¼hl":1442,"ĠEx":1443,"up":1444,"che":1445,"Ġjederzeit":1446,"Ġgenommen":1447,"ina":1448,"ĠSache":1449,"uch":1450,"Ġange":1451,"ĠGesamt":1452,"Ã¼ber":1453,"ĠFuÃŁ":1454,"ans":1455,"ĠBetrieb":1456,"ma":1457,"ĠkÃ¶nnten":1458,"ere":1459,"ĠSituation":1460,"ĠAngebote":1461,"Ġseien":1462,"kl":1463,"ĠHerren":1464,"ĠermÃ¶glicht":1465,"Ġerfolgreich":1466,"ationen":1467,"ĠDich":1468,"Hier":1469,"bild":1470,"Ġ200":1471,"ĠTeilnehmer":1472,"....":1473,"Ã¤r":1474,"Ġfunktioniert":1475,"Ġschaffen":1476,"ĠPunkt":1477,"ĠHerr":1478,"fe":1479,"Ġbestimmt":1480,"br":1481,"iz":1482,"ĠReihe":1483,"agen":1484,"ĠgroÃŁer":1485,"ĠFinanz":1486,"mittel":1487,"Ġstets":1488,"Ġ90":1489,"Ġanderes":1490,"Ġverstehen":1491,"ĠDort":1492,"ende":1493,"ard":1494,"ĠPreise":1495,"ĠschÃ¶nen":1496,"ett":1497,"ĠDeutsche":1498,"ĠFehler":1499,"Ġtrotz":1500,"ĠMonat":1501,"Ġzahlreiche":1502,"Ġgleichen":1503,"Ġbeginnt":1504,"ĠStrom":1505,"sst":1506,"Ġzweite":1507,"wert":1508,"Ã¶":1509,"ĠZusammenarbeit":1510,"ĠZwei":1511,"ĠGebÃ¤ude":1512,"rat":1513,"ĠFlug":1514,"ce":1515,"ĠAnbieter":1516,"ĠWien":1517,"ĠNutzer":1518,"Ġ29":1519,"Ġ70":1520,"ĠGast":1521,"li":1522,"ĠBeim":1523,"ĠUniversitÃ¤t":1524,"Ġvorher":1525,"ĠSinne":1526,"Ġunbedingt":1527,"ĠMitte":1528,"ĠTechnik":1529,"ĠWÃ¤hrend":1530,"eg":1531,"ker":1532,"Ġenthalten":1533,"ĠWissen":1534,"ĠStudien":1535,"ĠTelefon":1536,"Aber":1537,"ĠAngaben":1538,"ĠSprache":1539,"ian":1540,"ĠGr":1541,"ĠViele":1542,"ĠNr":1543,"ĠAngst":1544,"ĠlÃ¤nger":1545,"+":1546,"ĠMonaten":1547,"ĠFenster":1548,"fen":1549,"Ġ=":1550,"ĠWind":1551,"Ġ2011":1552,"eren":1553,"ins":1554,"ĠFreitag":1555,"ĠFreude":1556,"Ġhilft":1557,"Ġwichtige":1558,"ĠBeratung":1559,"ĠBitte":1560,"ĠTV":1561,"âĤ¬":1562,"oren":1563,"Ġdurchaus":1564,"Ġgesamten":1565,".-":1566,"ĠFrei":1567,"pf":1568,"ĠMeter":1569,"Ġeinge":1570,"ess":1571,"Ġgeschrieben":1572,"Ġentscheiden":1573,"Ġrichtigen":1574,"Ġsprechen":1575,"ĠHersteller":1576,"ĠGegen":1577,"Ġj":1578,"Ġperfekt":1579,"ĠSitz":1580,"Ġsorgt":1581,"ĠNetz":1582,"40":1583,"Ġ2010":1584,"ĠDe":1585,"ings":1586,"gt":1587,"ator":1588,"ĠLust":1589,"ĠII":1590,"ĠEuch":1591,"ĠZudem":1592,"Ġjungen":1593,"ĠTor":1594,"Ġihres":1595,"Ġweltweit":1596,"ĠBlog":1597,"so":1598,"cken":1599,"ĠFreunde":1600,"Ġvorhanden":1601,"ĠFuÃŁball":1602,"Ġhttp":1603,"ĠIndustrie":1604,"ĠPunkte":1605,"ĠWand":1606,"ka":1607,"ĠZustand":1608,"):":1609,"tet":1610,"Ġunseres":1611,"ĠpersÃ¶nlichen":1612,"ĠFunktion":1613,"ĠKurz":1614,"ĠSicht":1615,"ill":1616,"ĠhÃ¤tten":1617,"ĠSteuer":1618,"Ġknapp":1619,"ĠlÃ¤uft":1620,"ĠLe":1621,"ĠkÃ¶nnt":1622,"mm":1623,"ĠStandard":1624,"Ġtolle":1625,"Ġdarin":1626,"Ġbrauchen":1627,"Ġsolchen":1628,"Ġmanchmal":1629,"bel":1630,"ĠKreis":1631,"ĠUnternehmens":1632,"ĠLeistungen":1633,"ĠgenieÃŁen":1634,"Ġerforderlich":1635,"ĠDeutsch":1636,"ĠEl":1637,"ass":1638,"stellen":1639,"ĠfÃ¤llt":1640,"fest":1641,"ĠFebruar":1642,"Ġgekommen":1643,"ĠPeter":1644,"ĠAufgabe":1645,"ÃŁ":1646,"Ġpasst":1647,"Ġgenutzt":1648,"ĠTÃ¼r":1649,"Ġlediglich":1650,"ĠmÃ¶glichst":1651,"ĠRad":1652,"Ġsah":1653,"Ġfor":1654,"ĠKÃ¶ln":1655,"ĠTisch":1656,"iv":1657,"Ġziehen":1658,"ĠKampf":1659,"ick":1660,"[":1661,"Ġlieber":1662,"ĠVertrag":1663,"ĠSinn":1664,"Ġgebracht":1665,"ĠPersonal":1666,"Ġbesondere":1667,"lo":1668,"ĠausschlieÃŁlich":1669,"ĠStrand":1670,"arten":1671,"ĠnÃ¤chste":1672,"ĠWebseite":1673,"Ġrechts":1674,"ĠAbschluss":1675,"Ġunterwegs":1676,"ĠBÃ¼cher":1677,"Ġselten":1678,"ĠStraÃŁen":1679,"ĠArbeiten":1680,"hausen":1681,"Ġanderer":1682,"ĠZeitpunkt":1683,"ex":1684,"Ġteilweise":1685,"Ġgewinnen":1686,"ĠAllerdings":1687,"Ġgesamte":1688,"ĠHund":1689,"ĠVerwendung":1690,"ĠFahrzeug":1691,"ĠBis":1692,"ĠSozial":1693,"ĠÂ·":1694,"ĠWerk":1695,"Ãľber":1696,"ĠauÃŁerdem":1697,"frei":1698,"Ġaktuelle":1699,"one":1700,"ĠAnzahl":1701,"ĠEinzel":1702,"Ġunterschiedlichen":1703,"Ġversucht":1704,"Ġdennoch":1705,"fl":1706,"ĠComputer":1707,"Ġ?":1708,"Ġmittlerweile":1709,"ĠSchwarz":1710,"esch":1711,"ib":1712,"lage":1713,"Ġdarum":1714,"Ġobwohl":1715,"ĠBlut":1716,"ĠTipps":1717,"Ġgesch":1718,"weise":1719,"ĠAnwendung":1720,"Innen":1721,"ĠRa":1722,"ĠFahr":1723,"ĠVerfahren":1724,"Ġmachte":1725,"Ġbisschen":1726,"cke":1727,"âĢĵ":1728,"ĠStellen":1729,"enden":1730,"Ġneuer":1731,"ismus":1732,"ĠFl":1733,"ĠAnspruch":1734,"ĠverfÃ¼gt":1735,"ĠMoment":1736,"ĠErgebnisse":1737,"Ġne":1738,"Ġaktiv":1739,"ann":1740,"Sp":1741,"ĠVersion":1742,"Ġliebe":1743,"ĠBett":1744,"ĠMein":1745,"ĠVeranstaltung":1746,"Ġ31":1747,"ay":1748,"ĠÃ¶ffentlichen":1749,"ĠHer":1750,"Ġversuchen":1751,"ĠKostenlos":1752,"ĠKarten":1753,"ĠStunde":1754,"ĠFrankfurt":1755,"Ġzuvor":1756,"ĠregelmÃ¤ÃŁig":1757,"ĠDeshalb":1758,"tigen":1759,"Be":1760,"schule":1761,"Ġnachdem":1762,"mal":1763,"Ġusw":1764,"ĠZusammenhang":1765,"ette":1766,"fall":1767,"Ġverbunden":1768,"ĠNord":1769,"Ġentsprechend":1770,"tisch":1771,"Ġeingesetzt":1772,"ĠfrÃ¼her":1773,"zug":1774,"ĠSatz":1775,"ĠZahl":1776,"aler":1777,"Seit":1778,"ĠSchw":1779,"stelle":1780,"anz":1781,"ĠKl":1782,"Ġausge":1783,"Ġ35":1784,"ĠMacht":1785,"ĠSachen":1786,"Ġraus":1787,"ĠAntwort":1788,"ĠtÃ¤glich":1789,"Ġpersonenbezogenen":1790,"ĠenthÃ¤lt":1791,"ĠEis":1792,"kommen":1793,"Ġentwickeln":1794,"ĠDem":1795,"lichkeit":1796,"ĠZeiten":1797,"anlage":1798,"Ġautomatisch":1799,"ĠIT":1800,"Ġerwartet":1801,"Du":1802,"ĠBo":1803,"ĠMichael":1804,"kt":1805,"Ã¶l":1806,"Ġerleben":1807,"ĠKurs":1808,"anten":1809,"preis":1810,"ĠTod":1811,"ĠIhres":1812,"gl":1813,"ĠMaÃŁnahmen":1814,"ĠName":1815,"Zu":1816,"ĠAlt":1817,"ĠKlasse":1818,"ĠChance":1819,"qu":1820,"tige":1821,"Ġsoweit":1822,"Ġdenke":1823,"Ġentgegen":1824,"ĠTh":1825,"Ġkamen":1826,"ĠHintergrund":1827,"are":1828,"ĠFarb":1829,"ĠAnforderungen":1830,"ĠStaat":1831,"Ã¼r":1832,"leben":1833,"ĠInhalt":1834,"Ġgenannt":1835,"ĠTraum":1836,"ĠAlltag":1837,"ĠWochenende":1838,"Ġwenige":1839,"Ġerster":1840,"ĠSee":1841,"Ġerneut":1842,"Ġbestimmten":1843,"Ġbefinden":1844,"ĠKommunikation":1845,"Ġangeboten":1846,"ĠDienst":1847,"ĠSohn":1848,"geb":1849,"markt":1850,"ĠpersÃ¶nlich":1851,"ĠGesicht":1852,"ĠwÃ¤hlen":1853,"Ġentstehen":1854,"ĠProduktion":1855,"fach":1856,"ho":1857,"rad":1858,"ĠPrivat":1859,"ĠRuhe":1860,"Ġwenigen":1861,"Ġ[âĢ¦]":1862,"Ġnotwendig":1863,"Ġzufrieden":1864,"ĠHerbst":1865,"daten":1866,"Ġvergessen":1867,"ĠRegierung":1868,"Ġkleiner":1869,"Ġ500":1870,"ĠMeine":1871,"Ġporno":1872,"ĠAlles":1873,"ĠSonder":1874,"Ġgenauso":1875,"Ġdagegen":1876,"Ġis":1877,"ĠâĢ¢":1878,"ĠNew":1879,"60":1880,"Ġegal":1881,"ĠFeld":1882,"Ġlaufen":1883,"Ġlinks":1884,"ĠArzt":1885,"ĠFreund":1886,"bt":1887,"Ġ2009":1888,"ium":1889,"Ġlangsam":1890,"mÃ¶glichkeiten":1891,"ĠMannschaft":1892,"ĠFÃ¤llen":1893,"ĠSuper":1894,"Ġecht":1895,"das":1896,"ĠMa":1897,"Ġsodass":1898,"Ġwichtigsten":1899,"Ġverlassen":1900,"ĠBr":1901,"lin":1902,".:":1903,"ĠGeschÃ¤fts":1904,"ĠerhÃ¤lt":1905,"ĠBezug":1906,"dienst":1907,"09":1908,"see":1909,"Ġbesonderen":1910,"fÃ¼hrung":1911,"eine":1912,"ĠNatÃ¼rlich":1913,"Ġeinzige":1914,"ĠVerkauf":1915,"ĠPark":1916,"ĠBayern":1917,"Ġwirkt":1918,"Ġgelten":1919,"spiele":1920,"fer":1921,"ĠGerÃ¤t":1922,"ĠDach":1923,"ja":1924,"Durch":1925,"ĠInsel":1926,"Ġverloren":1927,"eil":1928,"ĠWirkung":1929,"Ġacht":1930,"ĠAnschluss":1931,"ologie":1932,"stellung":1933,"alt":1934,"ĠLink":1935,"Ġdenken":1936,"ĠBeruf":1937,"Ġwarten":1938,"ĠbenÃ¶tigt":1939,"ĠMitglied":1940,"Ġdank":1941,"Ġguter":1942,"ug":1943,"wie":1944,"ĠgrÃ¶ÃŁten":1945,"Ġdeinen":1946,"ĠRest":1947,"Ġbesch":1948,"unter":1949,"ĠHunde":1950,"system":1951,"fahrt":1952,"ĠÃ¤ndern":1953,"ĠBall":1954,"ĠSonne":1955,"sel":1956,"Ġ)":1957,"Ġmehreren":1958,"23":1959,"ost":1960,"ĠHeute":1961,"pl":1962,"Ġ>":1963,"Ġlangen":1964,"eh":1965,"Man":1966,"ĠdurchgefÃ¼hrt":1967,"ĠlieÃŁ":1968,"Ġaktuell":1969,"ide":1970,"Ġherum":1971,"etten":1972,"ĠDauer":1973,"Ġgestalten":1974,"igkeit":1975,"Ġfolgende":1976,"ĠGewinn":1977,"Ġlegen":1978,"Ġweder":1979,"ĠSe":1980,"ĠgemÃ¤ÃŁ":1981,"pp":1982,"ĠSucht":1983,"ĠverÃ¶ffentlicht":1984,"Ġirgendwie":1985,"ĠSh":1986,"ĠTraining":1987,"ĠGeschmack":1988,"Ġpassiert":1989,"ĠLehr":1990,"ĠMorgen":1991,"ĠWest":1992,"hr":1993,"sport":1994,"Ġinzwischen":1995,"ĠLauf":1996,"ĠTour":1997,"=":1998,"ov":1999,"90":2000,"ĠhÃ¶ren":2001,"IN":2002,"anlagen":2003,"ĠWege":2004,"Ġhalt":2005,"ĠSk":2006,"itÃ¤t":2007,"ĠVoll":2008,"ĠWeitere":2009,"ĠGer":2010,"welt":2011,"ĠRo":2012,"ĠThomas":2013,"ĠWar":2014,"ĠermÃ¶glichen":2015,"Ġ2008":2016,"az":2017,"ĠDaher":2018,"Ġgefallen":2019,"07":2020,"Ġwahrscheinlich":2021,"Ġrelativ":2022,"ĠDass":2023,"ore":2024,"our":2025,"punkt":2026,"99":2027,"jÃ¤hrige":2028,"ĠGesprÃ¤ch":2029,"05":2030,"eu":2031,"ĠSpielen":2032,"ĠForum":2033,"ĠAuÃŁen":2034,"ĠEUR":2035,"ĠListe":2036,"ĠZeichen":2037,"ĠUnser":2038,"ĠWindows":2039,"cker":2040,"ĠAmazon":2041,"ĠBahn":2042,"45":2043,"ĠGerÃ¤te":2044,"ĠGeschichten":2045,"06":2046,"Ġ45":2047,"Ġzuletzt":2048,"ĠPar":2049,"Ġfallen":2050,"cm":2051,"Ġklein":2052,"Ġlieben":2053,"ĠDatenschutz":2054,"ĠFeuer":2055,"ank":2056,"Ġextrem":2057,"ĠJe":2058,"zentrum":2059,"ĠBer":2060,"ĠHo":2061,"ĠÃĸl":2062,"Ġgest":2063,"net":2064,"ĠSÃ¼d":2065,"Ġkostenlose":2066,"gang":2067,"22":2068,"ĠProzess":2069,"Ġinformieren":2070,"ca":2071,"ĠLive":2072,"ĠAnmeldung":2073,"Ġsieben":2074,"ĠBewegung":2075,"ko":2076,"if":2077,"Unsere":2078,"ĠPC":2079,"ĠTreffen":2080,"bahn":2081,"âĢĺ":2082,"ĠDeine":2083,"org":2084,"Ġschlecht":2085,"Ġbestimmte":2086,"ĠInteressen":2087,"Ġgutes":2088,"ind":2089,"Ġfertig":2090,"ĠKon":2091,"stoff":2092,"ĠStil":2093,"band":2094,"Ġentsprechenden":2095,"ĠâĢĶ":2096,"Ġspricht":2097,"Ġtief":2098,"Ġabsolut":2099,"ĠPflanzen":2100,"Hallo":2101,"ĠTeile":2102,"Ġbeachten":2103,"ĠVielleicht":2104,"ĠInnen":2105,"ĠÃ¼berall":2106,"ĠLÃ¤ndern":2107,"ĠTochter":2108,"Ġzahlreichen":2109,"03":2110,"iss":2111,"wagen":2112,"ĠErde":2113,"ĠJa":2114,"ĠTiere":2115,"th":2116,"Ġentschieden":2117,"ling":2118,"Ġerwarten":2119,"ĠTermin":2120,"ĠZwischen":2121,"ĠOhne":2122,"ĠWaren":2123,"Ġ!":2124,"ĠAktion":2125,"lauf":2126,"Ġkennt":2127,"ĠFunktionen":2128,"ES":2129,"Ġreicht":2130,"ĠLeder":2131,"ĠRot":2132,"Ġtut":2133,"Ġinternationalen":2134,"haft":2135,"Zum":2136,"ĠBildung":2137,"ĠRegen":2138,"ĠHerzen":2139,"ĠSchluss":2140,"Adresse":2141,"ats":2142,"80":2143,"Von":2144,"geschichte":2145,"ĠAll":2146,">":2147,"tische":2148,"ane":2149,"Ġbesuchen":2150,"ĠHandy":2151,"Alle":2152,"08":2153,"ĠMeer":2154,"ĠKÃ¼nstler":2155,"ierter":2156,"ĠHeimat":2157,"Ġentweder":2158,"Ġgenannten":2159,"ĠMontag":2160,"Â°":2161,"ĠQu":2162,"ĠGrundlage":2163,"pro":2164,"Ġbegann":2165,"ĠBonus":2166,"Ġber":2167,"ru":2168,"zeiten":2169,"Ġarbeitet":2170,"Ġbestellen":2171,"hilfe":2172,"ĠSerie":2173,"ĠBl":2174,"Ġschwarz":2175,"04":2176,"ĠTon":2177,"ĠPartei":2178,"ets":2179,"ĠFÃ¼hrung":2180,"ĠSeine":2181,"ĠHotels":2182,"Ġaufge":2183,"ĠKunde":2184,"mt":2185,"ĠJob":2186,"Ġgestern":2187,"pe":2188,"ĠVorteil":2189,"af":2190,"ĠLinks":2191,"ĠAnlage":2192,"ĠauÃŁer":2193,"21":2194,"Re":2195,"Ġger":2196,"Ġglaube":2197,"ĠZweck":2198,"ĠMotor":2199,"ĠMarken":2200,"holz":2201,"ite":2202,"ĠSingle":2203,"kosten":2204,"ĠMon":2205,"Ġschneller":2206,"wasser":2207,"ks":2208,"ĠHaar":2209,"tiert":2210,"ud":2211,"ĠVeranstaltungen":2212,"ĠMartin":2213,"ĠRhein":2214,"ĠErotik":2215,"da":2216,"Ġgratis":2217,"ĠBereichen":2218,"Ġkommenden":2219,"ĠEnd":2220,"arm":2221,"acht":2222,"IS":2223,"ĠBÃ¼ro":2224,"Ġausgestattet":2225,"ĠLÃ¤nder":2226,"ĠbetrÃ¤gt":2227,"ĠGefahr":2228,"ĠEn":2229,"ĠstÃ¤ndig":2230,"ĠKaffee":2231,"ĠBeste":2232,"Ġunterschiedliche":2233,"ĠSchuhe":2234,"zt":2235,"ĠKn":2236,"Ġkeiner":2237,"bo":2238,"ĠGrad":2239,"ĠBedingungen":2240,"schw":2241,"Unter":2242,"ĠKilometer":2243,"seite":2244,"ĠtrÃ¤gt":2245,"ĠNot":2246,"ĠMarketing":2247,"ĠLager":2248,"schl":2249,"Ġal":2250,"ĠRÃ¼cken":2251,"Ġfolgen":2252,"ative":2253,"ĠShop":2254,"ĠLinie":2255,"druck":2256,"ĠbenÃ¶tigen":2257,"technik":2258,"ĠDrei":2259,"ĠMo":2260,"ĠZug":2261,"Â®":2262,"lose":2263,"Ġerscheint":2264,"Ġalleine":2265,"Ġkleines":2266,"Ġgesucht":2267,"Ġbewusst":2268,"Ġerstellen":2269,"ĠWarum":2270,"Ġheutigen":2271,"ĠgrÃ¶ÃŁte":2272,"unternehmen":2273,"Ġ300":2274,"ĠKÃ¶nig":2275,"von":2276,"ĠGewalt":2277,"Ġsicherlich":2278,"sex":2279,"ĠJahrhundert":2280,"Ġgesetzt":2281,"ĠKrampfadern":2282,"ĠMetall":2283,"wand":2284,"Ġkl":2285,"ĠKirchen":2286,"reich":2287,"hal":2288,"av":2289,"Ġlag":2290,"ct":2291,"ĠÃ¼brigens":2292,"Ġbezeichnet":2293,"ĠverfÃ¼gbar":2294,"ph":2295,"ĠDorf":2296,"ĠUmgang":2297,"AL":2298,"Ġkosten":2299,"ĠOrganisation":2300,"voll":2301,"Ġnahm":2302,"ven":2303,"programm":2304,"ĠVersand":2305,"ĠPapier":2306,"wer":2307,"26":2308,"ĠGeschÃ¤ft":2309,"etz":2310,"ĠCookies":2311,"ĠExperten":2312,"ĠBest":2313,"ĠerzÃ¤hlt":2314,"ĠLÃ¶sungen":2315,"istische":2316,"ĠAuftrag":2317,"ĠKern":2318,"leistung":2319,"ĠGen":2320,"ĠKarte":2321,"ve":2322,"Ġverbessern":2323,"berger":2324,"ĠBook":2325,"ĠBaum":2326,"ĠProjekte":2327,"ĠWild":2328,"ĠSchweizer":2329,"ana":2330,"flÃ¤che":2331,"ĠTrainer":2332,"Ġbest":2333,"ĠgroÃŁes":2334,"Ġgespeichert":2335,"Ġmussten":2336,"AR":2337,"Ġ2000":2338,"ĠTheater":2339,"ĠHandel":2340,"ĠSieg":2341,"ĠFreizeit":2342,"ure":2343,"ĠSand":2344,"ĠnÃ¤her":2345,"ĠSein":2346,"ino":2347,"iel":2348,"ĠKombination":2349,"ĠBaby":2350,"ack":2351,"ĠKar":2352,"ĠGrenzen":2353,"ĠSchon":2354,"ĠDafÃ¼r":2355,"ĠLeistungs":2356,"Ġmittels":2357,"35":2358,"ĠDetails":2359,"Ġvorstellen":2360,"ĠZugang":2361,"ĠStuttgart":2362,"ĠWirtschafts":2363,"ĠGottes":2364,"ĠLeser":2365,"ĠGeburtstag":2366,"Â´":2367,"Ġmiteinander":2368,"nach":2369,"eit":2370,"kon":2371,"ĠLiteratur":2372,"ĠInformation":2373,"ĠBus":2374,"ĠAutor":2375,"ub":2376,"ĠMarke":2377,"ĠwÃ¤ren":2378,"ĠGewicht":2379,"Ġbestehen":2380,"ĠServer":2381,"ĠBerliner":2382,"Ġvoller":2383,"auer":2384,"ĠVereins":2385,"2017":2386,"Ġentsprechende":2387,"ark":2388,"Ġle":2389,"27":2390,"istischen":2391,"gebiet":2392,"Ġtoll":2393,"Ġ2007":2394,"ĠerhÃ¤ltlich":2395,"leiter":2396,"ĠGrÃ¼n":2397,"Ġdeiner":2398,"ĠNachrichten":2399,"Ġschauen":2400,"oll":2401,"sh":2402,"ĠSicherheits":2403,"Ġfolgt":2404,"ĠOst":2405,"ĠRisiko":2406,"Ġgeb":2407,"ĠGrÃ¼nden":2408,"Ġzeit":2409,"ĠImmobilien":2410,"ĠgrundsÃ¤tzlich":2411,"ose":2412,"IT":2413,"ĠprÃ¤sentiert":2414,"rei":2415,"AS":2416,"Ġtrifft":2417,"ĠHÃ¤lfte":2418,"fahren":2419,"ĠLeider":2420,"Ġfort":2421,"ĠCar":2422,"Ġ01":2423,"Ġbilden":2424,"ĠfrÃ¼h":2425,"Ġessen":2426,"ĠFC":2427,"ĠSPD":2428,"ĠBeziehung":2429,"Ġfragen":2430,"ĠDoppel":2431,"uss":2432,"yn":2433,"Ja":2434,"Ġdarunter":2435,"ĠMin":2436,"ĠEinfluss":2437,"28":2438,"Ġfl":2439,"ĠWo":2440,"ĠâĢļ":2441,"ĠPosition":2442,"ĠClub":2443,"ĠFrankreich":2444,"enn":2445,"ĠStaats":2446,"Ġbeginnen":2447,"ters":2448,"Ġhabt":2449,"ĠFahrt":2450,"ĠAd":2451,"les":2452,"amt":2453,"ĠZentrum":2454,"ĠDonnerstag":2455,"ĠSchl":2456,"ĠplÃ¶tzlich":2457,"ix":2458,"ĠFeuerwehr":2459,"02":2460,"ĠOriginal":2461,"Ġniemand":2462,"ĠmuÃŁ":2463,"ĠBegriff":2464,"Ġzieht":2465,"aden":2466,"ĠEindruck":2467,"ĠÃ¼bernehmen":2468,"ĠFahrrad":2469,"ĠFree":2470,"ĠAusland":2471,"ĠUmsetzung":2472,"EL":2473,"ĠKur":2474,"ĠKonzept":2475,"Ġmodernen":2476,"ĠHof":2477,"ĠFleisch":2478,"ĠFans":2479,"tieren":2480,"ĠpersÃ¶nliche":2481,"ĠLebensmittel":2482,"Ġsuche":2483,"ĠgefÃ¼hrt":2484,"ele":2485,"Unser":2486,"ĠEigen":2487,"ĠMittwoch":2488,"ĠGas":2489,"erin":2490,"ĠKamera":2491,"ez":2492,"CH":2493,"Ġteil":2494,"ĠerklÃ¤ren":2495,"ase":2496,"Ġgelesen":2497,"ĠStandort":2498,"Ġwichtiger":2499,"ĠIP":2500,"sl":2501,"bei":2502,"Ġgezeigt":2503,"ierungen":2504,"Ġdrauf":2505,"ĠFr":2506,"ĠÃ¤hnlich":2507,"ĠAufbau":2508,"Ġdritten":2509,"sf":2510,"ĠVergangenheit":2511,"ĠWerbung":2512,"ps":2513,"ĠPaar":2514,"ĠTherapie":2515,"ĠNetzwerk":2516,"ĠGeist":2517,"Ġstellte":2518,"ĠwÃ¼nschen":2519,"Ġnahe":2520,"ĠSprach":2521,"hl":2522,"ĠLa":2523,"ĠHimmel":2524,"ĠSonnen":2525,"Ġberichtet":2526,"ĠKrieg":2527,"och":2528,"ron":2529,"ĠProf":2530,"Ġficken":2531,"Ġbauen":2532,"iker":2533,"ĠRechte":2534,"ĠStudie":2535,"ĠMaterialien":2536,"eller":2537,"rie":2538,"ĠTat":2539,"ĠVerhalten":2540,"ĠVerlag":2541,"asse":2542,"Ġwelchen":2543,"jÃ¤hrigen":2544,"ĠHeim":2545,"tiger":2546,"ĠBesonders":2547,"ĠBerufs":2548,"ĠfÃ¼hlen":2549,"Ġon":2550,"ĠÃ¼berzeugt":2551,"Den":2552,"Ġeinfache":2553,"ĠRestaurant":2554,"Ġerlaubt":2555,"ĠHans":2556,"ĠRat":2557,"Ġfrau":2558,"no":2559,"ĠZahlen":2560,"Ġwann":2561,"Ġfindest":2562,"ange":2563,"ĠMark":2564,"bildung":2565,"ĠBrand":2566,"ĠRunde":2567,"ĠAusstellung":2568,"lingen":2569,"wald":2570,"Ġpassende":2571,"Ġspeziell":2572,"ĠDarÃ¼ber":2573,"ischem":2574,"ĠWeiÃŁ":2575,"lei":2576,"ĠLehrer":2577,"ĠRoman":2578,"Ġgew":2579,"Ġzuerst":2580,"ĠBevÃ¶lkerung":2581,"ĠPlan":2582,"ĠBio":2583,"ĠKollegen":2584,"ĠForschung":2585,"Ġprivate":2586,"ĠBrowser":2587,"ĠdÃ¼rfte":2588,"ĠPer":2589,"Ġberaten":2590,"Ġnochmal":2591,"ĠfÃ¼hrte":2592,"Ġindividuell":2593,"Ġdient":2594,"ĠDating":2595,"ĠMir":2596,"ĠEinen":2597,"Ġtotal":2598,"ĠGanz":2599,"Ġgehalten":2600,"ĠanschlieÃŁend":2601,"ĠHerrn":2602,"Ġbegeistert":2603,"ĠMÃ¶bel":2604,"geln":2605,"Ġmoderne":2606,"Ġerstmals":2607,"Ġgedacht":2608,"ĠSchulen":2609,"ĠhÃ¶her":2610,"essen":2611,"ĠNe":2612,"test":2613,"ĠGelegenheit":2614,"ĠVorteile":2615,"ĠFreundin":2616,"Ġaufgenommen":2617,"Ġwichtigen":2618,"ĠBestellung":2619,"ĠSan":2620,"ĠGut":2621,"Dieses":2622,"ĠWieder":2623,"ĠCom":2624,"Ġvertreten":2625,"ĠFilme":2626,"ĠMund":2627,"karte":2628,"ĠPlanung":2629,"ĠSehr":2630,"ĠStoff":2631,"ĠFolgen":2632,"Ġsozialen":2633,"ĠJeder":2634,"ĠZusammen":2635,"garten":2636,"Ġschw":2637,"sb":2638,"plan":2639,"OS":2640,"angebot":2641,"ĠBedarf":2642,"gesellschaft":2643,"ĠKostenlose":2644,"auch":2645,"Ġhinein":2646,"ity":2647,"gesetz":2648,"ĠRock":2649,"ĠWohnzimmer":2650,"ran":2651,"ĠGesetz":2652,"Ġzahlen":2653,"ĠTransport":2654,"Ġdaraus":2655,"ax":2656,"ĠVolk":2657,"cht":2658,"ĠManagement":2659,"ĠBetriebs":2660,"ĠvollstÃ¤ndig":2661,"eilen":2662,"Ġperfekte":2663,"cher":2664,"Ġentsteht":2665,"ade":2666,"ĠHe":2667,"gruppen":2668,"ĠGroÃŁe":2669,"kel":2670,"erk":2671,"Ġkurze":2672,"ĠSchlaf":2673,"ĠUr":2674,"ĠDes":2675,"Dieser":2676,"ĠGl":2677,"ĠBier":2678,"ĠTyp":2679,"ĠGerade":2680,"ĠTr":2681,"Ġpolitischen":2682,"ĠDadurch":2683,"eile":2684,"ĠKatzen":2685,"ue":2686,"Ġverantwortlich":2687,"ĠPf":2688,"ĠWelche":2689,"ĠSmartphone":2690,"ĠzusÃ¤tzliche":2691,"ĠDownload":2692,"ĠInfos":2693,"eien":2694,"licht":2695,"ĠChat":2696,"inen":2697,"ust":2698,"ĠFisch":2699,"Ġgekauft":2700,"ial":2701,"AM":2702,"bert":2703,"Ġgleiche":2704,"Ġblieb":2705,"ĠVerantwortung":2706,"Ġbequem":2707,"Ġschreibt":2708,"bank":2709,"Ġverhindern":2710,"ĠBeitrÃ¤ge":2711,"Ġverkaufen":2712,"ĠFern":2713,"Ġwollten":2714,"Ġdeinem":2715,"ĠPublikum":2716,"spielen":2717,"schaften":2718,"Ġstarten":2719,"du":2720,"gew":2721,"Ġfehlt":2722,"isierung":2723,"ht":2724,"ĠInternetseite":2725,"ĠWechsel":2726,"ĠtÃ¤tig":2727,"ĠEigenschaften":2728,"ĠKlassen":2729,"ĠbeschÃ¤ftigt":2730,"Ġverpflichtet":2731,"ĠRund":2732,"Ġ2006":2733,"Ġ150":2734,"Ġkurzen":2735,"ĠSingles":2736,"Ġhoffe":2737,"ĠOpfer":2738,"Ġversch":2739,"Ġtollen":2740,"ĠBel":2741,"tier":2742,"min":2743,"AN":2744,"ĠVerkehr":2745,"29":2746,"Ġgespielt":2747,"Ġhttps":2748,"ĠGericht":2749,"OR":2750,"ĠBaden":2751,"Ġleisten":2752,"ĠParty":2753,"ĠLeipzig":2754,"ĠKann":2755,"ĠeuropÃ¤ischen":2756,"losen":2757,"Ġinteressant":2758,"AT":2759,"ĠModelle":2760,"ĠProdukten":2761,"ĠWeiter":2762,"zahl":2763,"ĠâĨĴ":2764,"ĠKredit":2765,"einen":2766,"ĠauÃŁerhalb":2767,"gesch":2768,"ĠGel":2769,"ĠKategorie":2770,"ĠÃĸ":2771,"aren":2772,"Ġausreichend":2773,"icht":2774,"Ġachten":2775,"Ġwirken":2776,"ĠKoch":2777,"ai":2778,"ĠMeister":2779,"Ġentspricht":2780,"ĠLÃ¤nge":2781,"ĠLo":2782,"Ġeinzelne":2783,"sver":2784,"ĠSchlÃ¼ssel":2785,"ĠBi":2786,"son":2787,"ĠTanz":2788,"Ġdienen":2789,"ĠVolks":2790,"ment":2791,"ĠTÃ¤tigkeit":2792,"Ġgem":2793,"geld":2794,"Ġentdecken":2795,"ĠBusiness":2796,"Ã¶r":2797,".[":2798,"ĠBildungs":2799,"di":2800,"ĠSchlafzimmer":2801,"ante":2802,"ĠZahn":2803,"gr":2804,"Ġglauben":2805,"ĠGegner":2806,"ĠBericht":2807,"ĠNeue":2808,"ĠschÃ¼tzen":2809,"yl":2810,"lagen":2811,"Ġcasino":2812,"ĠPrÃ¼fung":2813,"ĠAtmosphÃ¤re":2814,"ĠFalle":2815,"ĠPorn":2816,"verfahren":2817,"33":2818,"Ġhingegen":2819,"Ġwesentlich":2820,"we":2821,"ĠCharakter":2822,"Ġabzu":2823,"ĠzÃ¤hlt":2824,"Ġeiniges":2825,"ĠerfÃ¼llt":2826,"Ġerstellt":2827,"ĠStudium":2828,"ĠStimme":2829,"mehr":2830,"Ġch":2831,"att":2832,"Ġbetroffenen":2833,"teil":2834,"ĠChina":2835,"49":2836,"management":2837,"ĠSchrift":2838,"ĠNoch":2839,"Ġfalsch":2840,"ĠStahl":2841,"Ġlebt":2842,"ĠBewertung":2843,"ĠTeilnahme":2844,"ĠPl":2845,"Neben":2846,"Ġpassenden":2847,"ĠGebiet":2848,"Ġinteressiert":2849,"ordnung":2850,"ĠMuster":2851,"ĠgefÃ¤llt":2852,"meister":2853,"US":2854,"jahr":2855,"ativ":2856,"betrieb":2857,"park":2858,"Ġ2005":2859,"ĠMail":2860,"ĠSte":2861,"ĠgewÃ¤hlt":2862,"ĠKritik":2863,"Ġbehandelt":2864,"Ġen":2865,"ĠDienstag":2866,"ĠLern":2867,"Ġzugleich":2868,"Ġweiterer":2869,"gut":2870,"Ġprivaten":2871,"75":2872,"ĠGeschenk":2873,"Ġhinzu":2874,"ĠKarl":2875,"ĠDanach":2876,"laden":2877,"Ġzer":2878,"Ġbesitzt":2879,"ĠMedizin":2880,"verein":2881,"Ġverb":2882,"Ġlohnt":2883,"ĠKontakte":2884,"ĠHinter":2885,"dr":2886,"Ġzeigte":2887,"ĠUnterschied":2888,"ĠChristian":2889,"Ġ36":2890,"ĠSc":2891,"ĠWissenschaft":2892,"Ġentstanden":2893,"ziehen":2894,"Ġgeboren":2895,"ĠWunder":2896,"Ġhergestellt":2897,"ĠSchwanz":2898,"ĠErnÃ¤hrung":2899,"bes":2900,"hm":2901,"ĠZiele":2902,"Ġsehe":2903,"Ġwert":2904,"wir":2905,"ĠHa":2906,"ON":2907,"ĠGestaltung":2908,"ĠRechnung":2909,"ĠNummer":2910,"ĠFerien":2911,"uf":2912,"ĠCon":2913,"gerÃ¤te":2914,"tischen":2915,"Ġmorgen":2916,"ĠMilch":2917,"blatt":2918,"ont":2919,"Ġwirst":2920,"ĠItalien":2921,"ĠAnfrage":2922,"Un":2923,"satz":2924,"Ġgarantiert":2925,"Â²":2926,"Ġvorne":2927,"ĠKom":2928,"amp":2929,"Ã¼n":2930,"Ġkostet":2931,"ĠVielzahl":2932,"ums":2933,"Ġfur":2934,"formen":2935,"Ġ32":2936,"fÃ¼r":2937,"assen":2938,"ĠWorte":2939,"Ġsparen":2940,"schuhe":2941,"ĠZucker":2942,"rechts":2943,"ĠPresse":2944,"Ġmusst":2945,"ath":2946,"ĠzÃ¤hlen":2947,"ile":2948,"ors":2949,"ĠHannover":2950,"ĠFreiheit":2951,"ĠerfÃ¼llen":2952,"ĠNachdem":2953,"ĠHinweis":2954,"ĠWeiterlesen":2955,"schlag":2956,"ĠAnalyse":2957,"ĠAktivitÃ¤ten":2958,"Ġentlang":2959,"Ġgemeinsamen":2960,"ĠMilliarden":2961,"ungsk":2962,"ĠverfÃ¼gen":2963,"ĠFrÃ¼hstÃ¼ck":2964,"uren":2965,"alter":2966,"ĠKonzert":2967,"Ġwahr":2968,"scher":2969,"ĠselbstverstÃ¤ndlich":2970,"2016":2971,"Ġverd":2972,"ĠDeutschlands":2973,"ĠReich":2974,"Ġbekannten":2975,"ĠSchaden":2976,"ĠFormen":2977,"tes":2978,"Ġhervor":2979,"Ge":2980,"ierungs":2981,"ĠWeil":2982,"ĠJung":2983,"Ġinklusive":2984,"tag":2985,"ĠMess":2986,"ĠAusgabe":2987,"Ġumfasst":2988,"igem":2989,"ĠOrts":2990,"ĠMaschinen":2991,"wechsel":2992,"ierende":2993,"ĠSekunden":2994,"legen":2995,"zimmer":2996,"Ġsogenannten":2997,"endes":2998,"mar":2999,"Ġstarke":3000,"ĠÃľberblick":3001,"ĠFlughafen":3002,"ĠZeitung":3003,"ierenden":3004,"The":3005,"rot":3006,"ĠTexte":3007,"ĠZeitraum":3008,"Ġherzlich":3009,"Ġindividuelle":3010,"Q":3011,"70":3012,"ĠKontrolle":3013,"ive":3014,"ĠBrust":3015,"oo":3016,"ĠnÃ¶tig":3017,"ise":3018,"Ġwiederum":3019,"ĠBlumen":3020,"Ġgen":3021,"oc":3022,"Ġgeile":3023,"ĠTechnologie":3024,"ĠAuge":3025,"kraft":3026,"Ġstarken":3027,"ĠDienstleistungen":3028,"ĠverÃ¤ndert":3029,"ĠSol":3030,"ĠMax":3031,"Ġkon":3032,"ĠgÃ¼nstig":3033,"ĠMinute":3034,"ĠInter":3035,"gerÃ¤t":3036,"Ġgewonnen":3037,"ĠGegensatz":3038,"ĠkÃ¶nne":3039,"ĠSu":3040,"Ġpassen":3041,"ĠBet":3042,"sam":3043,"ĠFreunden":3044,"ĠHÃ¤nde":3045,"ĠPol":3046,"!âĢľ":3047,"Mein":3048,"ĠTeams":3049,"Ġex":3050,"ĠBurg":3051,"Ġleichter":3052,"ĠAdresse":3053,"!!!":3054,"nis":3055,"ĠWerbe":3056,"rit":3057,"Ġtechnischen":3058,"ĠLieferung":3059,"Ġpraktisch":3060,"Ġsitzen":3061,"barkeit":3062,"ST":3063,"ĠWÃ¤rme":3064,"ĠTradition":3065,"Ġaufs":3066,"ox":3067,"Ġweiteres":3068,"Also":3069,"ĠChancen":3070,"ĠÃ¼bertragen":3071,"Ġeure":3072,"uk":3073,"ĠIhn":3074,"ĠKo":3075,"wirtschaft":3076,"bst":3077,"Ġangezeigt":3078,"100":3079,"ĠEinfÃ¼hrung":3080,"ĠKÃ¼chen":3081,"ars":3082,"ĠArten":3083,"ĠSalz":3084,"Ġfrisch":3085,"ĠSilber":3086,"ĠEinige":3087,"ĠUnfall":3088,"Ġerfolgen":3089,"wahl":3090,"vers":3091,"ĠÃĸffentlichkeit":3092,"Ġnennen":3093,"ses":3094,"Ġqu":3095,"ord":3096,"ĠMethoden":3097,"Ġdating":3098,"Ġhinten":3099,"Ã¤n":3100,"issen":3101,"Ġfreien":3102,"ry":3103,"Ġbessere":3104,"95":3105,"Al":3106,"werte":3107,"wei":3108,"ĠStaaten":3109,"kom":3110,"Ġschnelle":3111,"klasse":3112,"ĠFahrer":3113,"Ob":3114,"atz":3115,"Ġgeh":3116,"ĠStruktur":3117,"fr":3118,"ĠErlebnis":3119,"ĠMuseum":3120,"funktion":3121,"reise":3122,"ĠHeil":3123,"Zur":3124,"-/":3125,"ĠSpitzen":3126,"Ġklassischen":3127,"ĠReife":3128,"ĠFÃ¶rderung":3129,"ogen":3130,"heiten":3131,"schau":3132,"ĠOrdnung":3133,"Ġeigenes":3134,"Ġanbieten":3135,"ĠFÃ¶rder":3136,"ĠSchloss":3137,"del":3138,"Ġvieles":3139,"Ġverkauft":3140,"angen":3141,"Ġabgeschlossen":3142,"Pro":3143,"ĠDiskussion":3144,"nahme":3145,"Ġvermeiden":3146,"36":3147,"Ġmache":3148,"unden":3149,"Ġvorgestellt":3150,"ĠGo":3151,"Ġgefragt":3152,"Ġ:)":3153,"Ġdachte":3154,"ĠErwachsene":3155,"q":3156,"str":3157,"verkehr":3158,"ĠApple":3159,"ales":3160,"Ġideal":3161,"ĠWerte":3162,"Ent":3163,"ĠWÃ¼nsche":3164,"Ġwenden":3165,"ĠgegrÃ¼ndet":3166,"ĠHat":3167,"ara":3168,"ash":3169,"Ġro":3170,"get":3171,"Ġbislang":3172,"ĠAufnahme":3173,"Ġteilen":3174,"hin":3175,"Ġergeben":3176,"stÃ¼ck":3177,"Ġindividuellen":3178,"Ġerscheinen":3179,"orn":3180,"Beim":3181,"ĠGesundheits":3182,"ika":3183,"ĠBÃ¼hne":3184,"ĠPlus":3185,"ĠAntrag":3186,"Ġpositiv":3187,"ĠJugendliche":3188,"Ġehemaligen":3189,"Ġgeplant":3190,"Ġliefern":3191,"wa":3192,"si":3193,"ĠPS":3194,"ĠJunge":3195,"halten":3196,"Nun":3197,"fte":3198,"alten":3199,"ĠPr":3200,"bilder":3201,"ĠUrteil":3202,"Ġhand":3203,"ID":3204,"Mehr":3205,"ds":3206,"Ġ38":3207,"ĠGrÃ¼nde":3208,"Ġbrachte":3209,"ĠInformations":3210,"Ġgetragen":3211,"ĠAnti":3212,"ĠBrief":3213,"Ġwelchem":3214,"ĠZubehÃ¶r":3215,"ĠprÃ¤sentieren":3216,"rÃ¼":3217,"ĠStrecke":3218,"rÃ¤":3219,"ots":3220,"ĠJan":3221,"Ġmeines":3222,"ĠLang":3223,"achen":3224,"Ġsinnvoll":3225,"ĠSchnitt":3226,"ĠKabel":3227,"Ġsprach":3228,"zahlen":3229,"ĠAnteil":3230,"ĠLeiter":3231,"Ġinformiert":3232,"verband":3233,"ĠElektro":3234,"ĠlÃ¤ngst":3235,"Ġ400":3236,"Ġkg":3237,"Ġsogenannte":3238,"ĠForschungs":3239,"Ġpolitische":3240,"service":3241,"ĠJungen":3242,"Ġgetan":3243,"ĠStar":3244,"ĠLandkreis":3245,"ĠSpiegel":3246,"Ġfree":3247,"Ġvoraus":3248,"erst":3249,"ĠVerbraucher":3250,"ĠKonto":3251,"Ġunbe":3252,"ĠTemperatur":3253,"ĠLED":3254,"ĠmÃ¶glichen":3255,"ĠEuropÃ¤ischen":3256,"TE":3257,"rau":3258,"Ġweiss":3259,"AG":3260,"ĠKein":3261,"ĠSchÃ¶n":3262,"ĠCD":3263,"ĠFor":3264,"ĠauÃŁen":3265,"Ãĸ":3266,"ĠSachsen":3267,"Ġinteressante":3268,"ĠKreuz":3269,"ĠAt":3270,"ĠOr":3271,"Ġans":3272,"Ġfalls":3273,"ĠAbsatz":3274,"schn":3275,"ĠMotto":3276,"ĠMode":3277,"na":3278,"ica":3279,"mel":3280,"ĠDein":3281,"ĠEinrichtung":3282,"ĠgrÃ¶ÃŁere":3283,"itt":3284,"ĠAntworten":3285,"ĠRadio":3286,"ften":3287,"Ġges":3288,"karten":3289,"ĠEnglisch":3290,"bett":3291,"enz":3292,"allen":3293,"ĠReisen":3294,"ĠMesse":3295,"ĠSeele":3296,"Ġtreten":3297,"ĠRussland":3298,"ĠÃ¶ffnen":3299,"ĠDanke":3300,"ĠStudenten":3301,"ĠFett":3302,"ĠLandschaft":3303,"Doch":3304,"Ġbes":3305,"ĠBen":3306,"Ġschwierig":3307,"ĠRegeln":3308,"ĠSal":3309,"rÃ¤ume":3310,"ĠSchnee":3311,"Ġbetroffene":3312,"ech":3313,"flÃ¤chen":3314,"par":3315,"box":3316,"je":3317,"Ġentfernen":3318,"ĠAlternative":3319,"ĠKunststoff":3320,"kreis":3321,"ĠVerkehrs":3322,"esen":3323,"ĠWare":3324,"38":3325,"Ġsofern":3326,"mo":3327,"ĠAlbum":3328,"ĠAmt":3329,"Ġgesetzlichen":3330,"ĠVertrauen":3331,"ĠmÃ¼sste":3332,"ĠVorstand":3333,"ĠTrend":3334,"uck":3335,"Ġinkl":3336,"ĠHomepage":3337,"ĠÃ¼berzeugen":3338,"ĠLesen":3339,"Ġgeschlossen":3340,"yp":3341,"Ġnahezu":3342,"Heute":3343,"Ã¤t":3344,"inn":3345,"Ġbet":3346,"bedingungen":3347,"ĠWei":3348,"gem":3349,"ĠJugendlichen":3350,"TV":3351,"ĠAutos":3352,"Ġentdeckt":3353,"Nicht":3354,"ĠVoraussetzungen":3355,"Ġjedenfalls":3356,"Ġvermutlich":3357,"ĠGemÃ¼se":3358,"Ġfreue":3359,"asch":3360,"ĠWahrheit":3361,"ĠArbeitgeber":3362,"ĠErsatz":3363,"ĠArm":3364,"Ġallgemeinen":3365,"aut":3366,"zeichen":3367,".Â«":3368,"ĠQ":3369,"!!":3370,"fÃ¼hrer":3371,"Ġhochwertige":3372,"Ġverlieren":3373,"ym":3374,"ĠGew":3375,"ĠKrankheit":3376,"ĠRede":3377,"reisen":3378,"|":3379,"ĠStiftung":3380,"gehen":3381,"ĠAbenteuer":3382,"Ġbewegen":3383,"ĠAustausch":3384,"Ġdauert":3385,"ĠFrank":3386,"ĠZusatz":3387,"ativen":3388,"Ġtechnische":3389,"ott":3390,"Ġbl":3391,"ĠBlack":3392,"ĠUnterricht":3393,"ĠRand":3394,"ĠUnion":3395,"ĠAndreas":3396,"Ġinnen":3397,"ĠKr":3398,"Ġnieder":3399,"ĠAnzeige":3400,"ĠDÃ¼sseldorf":3401,"ĠKeine":3402,"ĠPo":3403,"Ġoptimal":3404,"Ġbenutzt":3405,"Ġeignet":3406,"ĠFalls":3407,"ĠAnlagen":3408,"Ġauszu":3409,"Ġgestaltet":3410,"ĠhÃ¤ngt":3411,"ĠMassage":3412,"Ġeins":3413,"ĠgeschÃ¼tzt":3414,"Ġlegt":3415,"ĠBedÃ¼rfnisse":3416,"unde":3417,"Ġgemeinsame":3418,"ĠEinrichtungen":3419,"ĠSind":3420,"ĠEngagement":3421,"Ġ2004":3422,"ĠGes":3423,"Ġwillst":3424,"Ã¶n":3425,"alle":3426,"ĠPaul":3427,"ĠPlattform":3428,"ĠFinger":3429,"ĠglÃ¼cklich":3430,"Ġeinst":3431,"bet":3432,"ĠVerwaltung":3433,"Ġextra":3434,"Ġwith":3435,"amm":3436,"ĠstÃ¤rker":3437,"Ġbezahlen":3438,"Ġsetzte":3439,"Ġfein":3440,"gest":3441,"ders":3442,"ĠAusdruck":3443,"Ġspezielle":3444,"ĠSchn":3445,"ĠProfil":3446,"ĠgrÃ¶ÃŁer":3447,"ain":3448,"ĠVom":3449,"ĠJahrhunderts":3450,"Ġ1000":3451,"ĠerhÃ¶ht":3452,"Ġ75":3453,"ĠFrieden":3454,"Ġverst":3455,"Ġgegangen":3456,"Ġfr":3457,"ĠÃĦnderungen":3458,"ĠVertreter":3459,"Ġirgendwann":3460,"ĠbestÃ¤tigt":3461,"ĠBildern":3462,"ĠunabhÃ¤ngig":3463,"wesen":3464,"Ġmanche":3465,"ĠAndroid":3466,"31":3467,"ĠUmfang":3468,"Ġerlebt":3469,"sa":3470,"ĠNieder":3471,"Ġerinnern":3472,"amen":3473,"ĠDresden":3474,"ĠTe":3475,"Ġbel":3476,"Ġdeutsch":3477,"ĠErd":3478,"ĠSchmerzen":3479,"Ġerinnert":3480,"port":3481,"55":3482,"Ġmeistens":3483,"Ġgef":3484,"bringen":3485,"ĠBauch":3486,"Ġschafft":3487,"ĠausdrÃ¼cklich":3488,"ĠÃ¶ffentliche":3489,"ĠMag":3490,"Ġgetroffen":3491,"ĠPDF":3492,"liste":3493,"ese":3494,"Ġprofitieren":3495,"oten":3496,"2015":3497,"ĠSchiff":3498,"ote":3499,"geben":3500,"ĠZwecke":3501,"halle":3502,"Ihr":3503,"ĠlÃ¶sen":3504,"ĠAlten":3505,"hn":3506,"Ġfehlen":3507,"48":3508,"System":3509,"ater":3510,"ĠBruder":3511,"to":3512,"Ġ34":3513,"ĠZuschauer":3514,"Ġzog":3515,"Ġoffenbar":3516,"ĠRed":3517,"ĠShow":3518,"Ġbegleitet":3519,"ĠSet":3520,"ĠLeitung":3521,"ĠerklÃ¤rte":3522,"ĠAutoren":3523,"Ã¤re":3524,"app":3525,"ĠGesch":3526,"stell":3527,"ĠBlau":3528,"Ġgebaut":3529,"ĠStÃ¤dte":3530,"ĠLaufe":3531,"ET":3532,"Â»,":3533,"ĠJungs":3534,"ĠÃ¼bernommen":3535,"WÃ¤hrend":3536,"ĠRezept":3537,"ĠVerstÃ¤ndnis":3538,"ĠAufmerksamkeit":3539,"ĠBack":3540,"barer":3541,"Ġerstmal":3542,"sein":3543,"scht":3544,"ĠMio":3545,"Ġinternationale":3546,"ĠHochzeit":3547,"Ġladen":3548,"ĠÃ¤uÃŁerst":3549,"rin":3550,"baum":3551,"34":3552,"ĠNational":3553,"material":3554,"ĠSach":3555,"Ġneun":3556,"ĠGeneration":3557,"ĠStimmung":3558,"aber":3559,"beratung":3560,"Ġholen":3561,"Ġvers":3562,"ĠViel":3563,"ĠSexy":3564,"ĠÃ¶ffentlich":3565,"Ġgehe":3566,"Ġunver":3567,"ipp":3568,"Ġgezogen":3569,"Ġbeschrieben":3570,"Ġbilder":3571,"Ġruhig":3572,"ĠStress":3573,"pt":3574,"Ġeinfachen":3575,"tik":3576,"pen":3577,"ĠWaffen":3578,"was":3579,"ĠÃĦrzte":3580,"war":3581,"Ġeinfacher":3582,"urs":3583,"Ġsolltest":3584,"ĠInstitut":3585,"Ġerhielt":3586,"qualitÃ¤t":3587,"Ġrechten":3588,"ius":3589,"ou":3590,"Ġlive":3591,"Ġhistorischen":3592,"ĠZÃ¼rich":3593,"lie":3594,"ĠReg":3595,"Ġ55":3596,"its":3597,"gend":3598,"Ġhoher":3599,"ĠLieblings":3600,"boden":3601,"bericht":3602,"eig":3603,"ĠRestaurants":3604,"ĠSchÃ¤den":3605,"44":3606,"alitÃ¤t":3607,"ĠGemeinschaft":3608,"arb":3609,"Ġrot":3610,"37":3611,"freie":3612,"bedarf":3613,"ĠDetail":3614,"ĠParis":3615,"elte":3616,"ĠVerÃ¤nderungen":3617,"39":3618,"last":3619,"ĠSchwerpunkt":3620,"iertes":3621,"ĠLaden":3622,"Ġtritt":3623,"reichen":3624,"ĠKooperation":3625,"ĠGrill":3626,"hÃ¶he":3627,"ĠMaÃŁ":3628,"ĠHandels":3629,"Ġgelegt":3630,"ĠNutzen":3631,"ĠMedia":3632,"ĠHalle":3633,"Ġeiniger":3634,"ĠMut":3635,"Meine":3636,"Ġkn":3637,"hÃ¤user":3638,"ĠAblauf":3639,"ĠheiÃŁen":3640,"det":3641,"sicht":3642,"ĠGratis":3643,"Ġoffenen":3644,"ĠWander":3645,"weisen":3646,"ĠerhÃ¶hen":3647,"ĠVerhÃ¤ltnis":3648,"ĠPflicht":3649,"ĠFriedrich":3650,"politik":3651,"Ġdahin":3652,"ĠMÃ¼ller":3653,"Ġ2019":3654,"Ġbildet":3655,"ĠCDU":3656,"ĠWird":3657,"Ġgehabt":3658,"Ġsoziale":3659,"ĠsÃ¤mtliche":3660,"ĠKommentar":3661,"ĠMethode":3662,"Ġbef":3663,"ĠAlkohol":3664,"ĠSpitze":3665,"Ġeng":3666,"ĠHigh":3667,"ĠFÃ¤higkeiten":3668,"ĠSV":3669,"gemeinschaft":3670,"ĠfÃ¼hlt":3671,"Ġ48":3672,"ĠHinweise":3673,"Ġse":3674,"ĠArsch":3675,"Ġsauber":3676,"ĠEvent":3677,"ĠGute":3678,"ĠMaster":3679,"ĠHÃ¶r":3680,"onen":3681,"stag":3682,"ĠSortiment":3683,"ĠÃľbersicht":3684,"ĠSchnell":3685,"ĠSomit":3686,"uten":3687,"ĠVielfalt":3688,"atten":3689,"igt":3690,"ĠBanken":3691,"ĠImmer":3692,"Ġverw":3693,"32":3694,"ĠGebrauch":3695,"ĠiPhone":3696,"ĠTipp":3697,"ĠPop":3698,"ĠGhostwriter":3699,"ĠTra":3700,"ĠfÃ¶rdern":3701,"tiges":3702,"besch":3703,"ĠTatsache":3704,"ĠKomfort":3705,"Ġdeswegen":3706,"gelt":3707,"ĠHoffnung":3708,"ions":3709,"linge":3710,"stehen":3711,"ĠKrankenhaus":3712,"Ġ<":3713,"ĠVier":3714,"Ist":3715,"imm":3716,"stoffe":3717,"keit":3718,"Ġgeschaffen":3719,"ĠEinfach":3720,"Ġbesitzen":3721,"Ġsichtbar":3722,"res":3723,"ĠStamm":3724,"ĠTitten":3725,"Ġaufmerksam":3726,"ĠInterview":3727,"Ã¤ren":3728,"ĠFokus":3729,"Ġhaus":3730,"ĠVersuch":3731,"ĠParteien":3732,"ĠJesus":3733,"ĠZoll":3734,"Ġschrieb":3735,"ĠSchreiben":3736,"Ġprivat":3737,"Ġgeschafft":3738,"asche":3739,"ĠMonats":3740,"Ġ2003":3741,"schreiben":3742,"ckt":3743,"Ġwusste":3744,"Ġreden":3745,"ĠLiefer":3746,"Â«,":3747,"siehe":3748,"ĠschÃ¶ner":3749,"Ġreichen":3750,"Ġbenutzen":3751,"ĠYork":3752,"ong":3753,"Ġdesto":3754,"ĠBetreuung":3755,"ĠVariante":3756,"Kon":3757,"ĠDennoch":3758,"Ġbegonnen":3759,"AD":3760,"Ġraum":3761,"Ġhielt":3762,"ĠgrÃ¶ÃŁeren":3763,"Ġbekam":3764,"ĠEbene":3765,"500":3766,"ĠVerlauf":3767,"Ġjene":3768,"Ġhierbei":3769,"ĠGrundlagen":3770,"punkte":3771,"hafte":3772,"Ġ120":3773,"ĠAuswirkungen":3774,"ĠNachricht":3775,"ĠUSB":3776,"Ġklicken":3777,"old":3778,"Ġtesten":3779,"Ġansehen":3780,"ĠHerstellung":3781,"ĠDarstellung":3782,"Ġgebe":3783,"ĠOpen":3784,"Ġanhand":3785,"ĠGleich":3786,"46":3787,"ĠDom":3788,"Ġwider":3789,"ĠerÃ¶ffnet":3790,"ĠVertrags":3791,"leistungen":3792,"ĠBremen":3793,"Ġerstes":3794,"ÃŁen":3795,"Ġspeziellen":3796,"ĠNews":3797,"âĢĿ,":3798,"Ġstanden":3799,"ball":3800,"Ġschl":3801,"RE":3802,"sm":3803,"Ġechte":3804,"ĠWebseiten":3805,"ĠPrÃ¤sident":3806,"Ġ2002":3807,"Ġergibt":3808,"ĠAnt":3809,"Ġnormal":3810,",-":3811,"Ġbesucht":3812,"ĠBeine":3813,"Ġverbringen":3814,"reg":3815,"oss":3816,"Ġgingen":3817,"ĠBenutzer":3818,"ĠWagen":3819,"ĠFront":3820,"ĠWerke":3821,"ĠTrainings":3822,"pfen":3823,"ĠBig":3824,"Ġfiel":3825,"ĠWeihnachten":3826,"ĠBadezimmer":3827,"Ġby":3828,"Fl":3829,"ĠNo":3830,"hand":3831,"orm":3832,"ĠfÃ¼rs":3833,"falls":3834,"ologische":3835,"ock":3836,"ĠZuhause":3837,"Ġ33":3838,"ĠSpezial":3839,"ĠDi":3840,"ĠSam":3841,"ĠHerausforderungen":3842,"ĠHD":3843,"volle":3844,"ĠBin":3845,"Ġdiesmal":3846,"ĠNorden":3847,"ĠKÃ¤ufer":3848,"Ġhart":3849,"ĠMaria":3850,"gericht":3851,"Jetzt":3852,"ĠUnternehmer":3853,"ĠTeilen":3854,"ĠBern":3855,"ĠEm":3856,"Ġsolcher":3857,"ĠBehÃ¶rden":3858,"ame":3859,"rom":3860,"ĠerwÃ¤hnt":3861,"Ġmin":3862,"ĠRom":3863,"ĠgeÃ¶ffnet":3864,"ĠBein":3865,"Ġat":3866,"ĠMain":3867,"Ġeinzu":3868,"Ġaussehen":3869,"ĠverÃ¤ndern":3870,"2014":3871,"ĠCasinos":3872,"Ġverk":3873,"ĠWettbewerb":3874,"UR":3875,"out":3876,"Ġ250":3877,"Nachdem":3878,"ĠPass":3879,"schein":3880,"ĠOberflÃ¤che":3881,"Ġniemals":3882,"ĠPower":3883,"ĠVorbereitung":3884,"ĠBord":3885,"ĠAufenthalt":3886,"ĠIntegration":3887,"bi":3888,"ĠjÃ¤hrlich":3889,"Ġernst":3890,"Ġgel":3891,"Ġbreit":3892,"Ġangenehm":3893,"ĠArchitektur":3894,"ĠTo":3895,"ĠGu":3896,"ĠSchatten":3897,"ĠBund":3898,"Ġ37":3899,"ĠSocial":3900,"kurs":3901,"ĠObst":3902,"ĠPunkten":3903,"kte":3904,"Ã¤u":3905,"Ġeingeladen":3906,"Ġliefert":3907,"Ġverletzt":3908,"gs":3909,"Dann":3910,"Ġgek":3911,"ĠSzene":3912,"nicht":3913,"leitung":3914,"rate":3915,"Ġausgezeichnet":3916,"ĠBalkon":3917,"ĠAir":3918,"ĠFahrzeuge":3919,"ĠHome":3920,"Ġmann":3921,"ĠHerausforderung":3922,"gung":3923,"ĠLondon":3924,"Ġhoffen":3925,"!\"":3926,"ĠUnterkunft":3927,"Ġhell":3928,"ĠHaare":3929,"lichem":3930,"Ġstimmt":3931,"ĠOption":3932,".).":3933,"nummer":3934,"PS":3935,"fern":3936,"istisch":3937,"ĠMitarbeitern":3938,"Ġverzichten":3939,"ĠBeide":3940,"ĠÃ¼bernimmt":3941,"JÃ¤hrige":3942,"ucht":3943,"Ġhalb":3944,"ĠNachmittag":3945,"ĠNiveau":3946,"ĠBrot":3947,"Ġverarbeitet":3948,"ĠSound":3949,"Ġallgemein":3950,"angebote":3951,"200":3952,"ond":3953,"ĠFick":3954,"forschung":3955,"ĠDatei":3956,"film":3957,"Ġfanden":3958,"ĠeinschlieÃŁlich":3959,"Ġla":3960,"Ġvollkommen":3961,"ĠVerbesserung":3962,"ĠmÃ¶glicherweise":3963,"versicherung":3964,"rechte":3965,"Ġgr":3966,"ĠUmfeld":3967,"ĠWachstum":3968,"ish":3969,"Ġfreie":3970,"Ar":3971,"ĠLu":3972,"Ġsichern":3973,"reiche":3974,"Ġausgeschlossen":3975,"Ġdrin":3976,"station":3977,"ĠschÃ¶nsten":3978,"Ġmelden":3979,"asen":3980,"ĠDurchfÃ¼hrung":3981,"spieler":3982,"ĠHaben":3983,"ĠSchau":3984,"ĠTel":3985,"ĠUmsatz":3986,"ppen":3987,"ĠAnleitung":3988,"ĠInsgesamt":3989,"ĠUntersuchung":3990,"ĠMassen":3991,"ĠAktien":3992,"Ġvergleichen":3993,"Ġfreut":3994,"ĠFitness":3995,"ĠKaiser":3996,"ĠHafen":3997,"akt":3998,"Ġintensiv":3999,"Viele":4000,"Ġoptimale":4001,"ĠKeller":4002,"ĠGolf":4003,"ager":4004,"for":4005,"ĠChef":4006,"atur":4007,"Ġdurfte":4008,"ake":4009,"ĠStreit":4010,"einer":4011,"ĠFur":4012,"sprache":4013,"linie":4014,"ĠnatÃ¼rliche":4015,"ĠMicrosoft":4016,"ĠTerrasse":4017,"ĠUser":4018,"ĠPrinzip":4019,"Ex":4020,"Ġleichte":4021,"ĠKapital":4022,"ĠBereiche":4023,"ĠFranz":4024,"bus":4025,"Ġumgesetzt":4026,"ĠTeen":4027,"Ġverdient":4028,"Ġaufzu":4029,"ĠStefan":4030,"fahr":4031,"maschine":4032,"haltung":4033,"65":4034,"Ġmeint":4035,"ice":4036,"ĠmÃ¶gliche":4037,"ance":4038,"ĠNein":4039,"ĠEntwicklungs":4040,"ĠFan":4041,"Spiel":4042,"iet":4043,"ĠschÃ¶nes":4044,"Ġ65":4045,"tierte":4046,"Ġnormalen":4047,"Ġkomme":4048,"OL":4049,"ĠAnlass":4050,"hol":4051,"able":4052,"ĠBÃ¼rgermeister":4053,"Ġverm":4054,"sw":4055,"ĠHin":4056,"Ġrum":4057,"Ġbestellt":4058,"ĠSchwester":4059,"ĠWohl":4060,"Ġwunderbar":4061,"ĠSa":4062,"ĠJapan":4063,"ĠRoll":4064,"Ġverstanden":4065,"ĠEntscheidungen":4066,"ĠKriterien":4067,"Ġmaximal":4068,"ĠGeschÃ¤ftsfÃ¼hrer":4069,"Ġunterschiedlich":4070,"Ch":4071,"ĠSollte":4072,"ĠAk":4073,"ĠMini":4074,"ĠTal":4075,"unt":4076,"ĠMe":4077,"Ġfeiern":4078,"Ġproduziert":4079,"ĠErklÃ¤rung":4080,"Ġdran":4081,"ĠKarriere":4082,"ĠGelÃ¤nde":4083,"ĠHochschule":4084,"ĠhÃ¶here":4085,"ĠfrÃ¼hen":4086,"kopf":4087,"Ġideen":4088,"ĠRennen":4089,"ĠQuelle":4090,"ĠSong":4091,"ĠBesch":4092,"ĠRei":4093,"ĠSysteme":4094,"ĠSchlag":4095,"Ġkeinerlei":4096,"iken":4097,"ĠMittelpunkt":4098,"Ġsitzt":4099,"Ġbehalten":4100,"Ġgrau":4101,"ly":4102,"ĠParkplatz":4103,"ĠerzÃ¤hlen":4104,"Ġor":4105,"Ġversteht":4106,"ĠKleidung":4107,"ĠmÃ¤dchen":4108,"âĢľ-":4109,"Ġsexy":4110,"ding":4111,"ĠGang":4112,"partner":4113,"grund":4114,"\"-":4115,"iten":4116,"Ġgespannt":4117,"ĠDollar":4118,"Ġvermitteln":4119,"ĠErotische":4120,"Ġ000":4121,"Ġbekannte":4122,"ĠAusstattung":4123,"ĠOn":4124,"ĠCity":4125,"elten":4126,"industrie":4127,"ologischen":4128,"Ġget":4129,"Ġkurzer":4130,"ĠBewertungen":4131,"maÃŁnahmen":4132,"ĠAussage":4133,"EG":4134,"Ġ39":4135,"IL":4136,"Ġdigitalen":4137,"Ġwelt":4138,"ĠStr":4139,"Ġsteigt":4140,"nt":4141,"tert":4142,"Ġ08":4143,"ĠgeÃ¤ndert":4144,"blick":4145,"ĠOptionen":4146,"ĠKuchen":4147,"Ġpassieren":4148,"Ġdargestellt":4149,"ĠReifen":4150,"ĠAussicht":4151,"ĠVorstellung":4152,"Ġhandeln":4153,"Ġeigener":4154,"ĠSenioren":4155,"ĠfÃ¤hrt":4156,"ĠPause":4157,"Ġreife":4158,"Ġwillkommen":4159,"AP":4160,"ktion":4161,"ĠWolfgang":4162,"Ġversehen":4163,"ĠGrenze":4164,"ĠAufwand":4165,"Ġstammt":4166,"ĠBereits":4167,"Ġgelangen":4168,"acher":4169,"ĠWM":4170,"Damit":4171,"ĠspÃ¤t":4172,"enk":4173,"Ġ2001":4174,"Ġgelegen":4175,"bad":4176,"Ġsenden":4177,"ĠLaut":4178,"Ġbeobachten":4179,"ĠSchÃ¼lerinnen":4180,"ĠGeb":4181,"ĠTemperaturen":4182,"Ġgebraucht":4183,"Ġklingt":4184,"Ġpl":4185,"Ġnatur":4186,"of":4187,"halter":4188,"Ġvideo":4189,"abel":4190,"?âĢľ":4191,"setzung":4192,"ute":4193,"isiert":4194,"Ġdeutscher":4195,"Ġeingerichtet":4196,"ĠStern":4197,"kauf":4198,"ĠprÃ¼fen":4199,"fÃ¤higkeit":4200,"ĠSchritte":4201,"Ġbetrachtet":4202,"ĠAnzeigen":4203,"ĠFort":4204,"ĠhÃ¶rt":4205,"Ġwarm":4206,"AB":4207,"vollen":4208,"IC":4209,"Ġvia":4210,"ĠObwohl":4211,"Ġform":4212,"dauer":4213,"Ġsammeln":4214,"sie":4215,"kn":4216,"lern":4217,"Ġgenauer":4218,"ache":4219,"schul":4220,"ĠStrategie":4221,"ĠMiet":4222,"ĠschlieÃŁen":4223,"ĠnatÃ¼rlichen":4224,"Ġdritte":4225,"ĠEhe":4226,"lager":4227,"ight":4228,"ware":4229,"Ġpreis":4230,"Ġsozial":4231,"ille":4232,"ĠVerb":4233,"Ġweiterlesen":4234,"pr":4235,"78":4236,"ĠGem":4237,"ĠRohr":4238,"schrank":4239,"ring":4240,"Ġneuesten":4241,"Ã¡":4242,"ĠGemeinden":4243,"ĠWal":4244,"ĠKindes":4245,"Ġberichten":4246,"anden":4247,"Ġpositive":4248,"gst":4249,"Ġunmittelbar":4250,"ĠRing":4251,"ĠElemente":4252,"ĠHÃ¤nden":4253,"Ġschn":4254,"ĠGeburt":4255,"Ġmitten":4256,"ĠRosen":4257,"Ġbisherigen":4258,"Ġbestimmen":4259,"Ġbegleiten":4260,"ĠSuch":4261,"ĠKino":4262,"Ġhierzu":4263,"haften":4264,"Ġverbinden":4265,"minister":4266,"ĠReinigung":4267,"Ġstartet":4268,"Ġkomplette":4269,"ĠBox":4270,"ĠArbeitnehmer":4271,"Ġnochmals":4272,"Ġplanen":4273,"Bitte":4274,"ition":4275,"ĠGlauben":4276,"ĠLiter":4277,"achten":4278,"ĠZusÃ¤tzlich":4279,"ari":4280,"-)":4281,"Ġanzeigen":4282,"ba":4283,"ĠKapitel":4284,"ĠIsrael":4285,"ĠPaket":4286,"ader":4287,"Ġgelernt":4288,"Ġgearbeitet":4289,"ĠVerlust":4290,"ĠQuellen":4291,"steuer":4292,"ĠEisen":4293,"ĠungefÃ¤hr":4294,"ĠNewsletter":4295,"Ġ(âĢŀ":4296,"47":4297,"ĠMed":4298,"geschÃ¤ft":4299,"ĠCor":4300,"Ġrichtet":4301,"ĠGriff":4302,"pol":4303,"Ġproblemlos":4304,"ĠGrÃ¶ÃŁen":4305,"ĠAusnahme":4306,"Ġ;":4307,"ĠLeidenschaft":4308,"ĠVerwaltungs":4309,"2013":4310,"ĠDritte":4311,"ÃĦ":4312,"ĠBro":4313,"ĠAbstand":4314,"ĠTee":4315,"ĠVerantwortlichen":4316,"Ġmehrfach":4317,"Ġschweren":4318,"ĠEingang":4319,"Ġdiverse":4320,"geber":4321,"ĠSeminar":4322,"ĠBeschreibung":4323,"Ġaufgebaut":4324,"Ġnutzt":4325,"ĠDavid":4326,"Ġirgendwo":4327,"ĠTrotz":4328,"pflege":4329,"Ġsobald":4330,"Ġlief":4331,"ĠMÃ¤nnern":4332,"Ġteuer":4333,"Ġbehandeln":4334,"musik":4335,"Ġmeinte":4336,"Ġkenne":4337,"ĠBes":4338,"ĠGrÃ¼nen":4339,"Ġmittel":4340,"schnitt":4341,"ĠLernen":4342,"Ġkennenlernen":4343,"IG":4344,"Ġverg":4345,"Ġwechseln":4346,"ĠWiener":4347,"ĠlÃ¤dt":4348,"ĠhauptsÃ¤chlich":4349,"arte":4350,"ĠMel":4351,"farbe":4352,"ĠdrauÃŁen":4353,"ĠTaschen":4354,"Ġbeschlossen":4355,"ĠGutschein":4356,"Ġschicken":4357,"ĠTasche":4358,"arr":4359,"schafts":4360,"ĠHals":4361,"ĠAnal":4362,"halt":4363,"Ġoffensichtlich":4364,"ĠPferde":4365,"Ġmachten":4366,"Ġeingestellt":4367,"Ġeh":4368,"ĠMor":4369,"grÃ¶ÃŁe":4370,"ĠOne":4371,"Ġbestens":4372,"Ġfunktionieren":4373,"Ġrunter":4374,"ĠHaushalt":4375,"met":4376,"Ġehrlich":4377,"Ġinternational":4378,"ĠPool":4379,"ĠRichter":4380,"Ġhinsichtlich":4381,"swert":4382,"ĠMac":4383,"ĠErinnerung":4384,"maschinen":4385,"ĠKlima":4386,"ĠHar":4387,"Ġerweitert":4388,"Ġbezahlt":4389,"wenn":4390,"ĠSchlieÃŁlich":4391,"verwaltung":4392,"ĠhÃ¶chste":4393,"rÃ¼ck":4394,"ĠRealitÃ¤t":4395,"Ġrau":4396,"orf":4397,"ĠApps":4398,"ĠGroÃŁen":4399,"ĠRessourcen":4400,"ĠÃĦnderung":4401,"ĠGegenteil":4402,"ĠKommentare":4403,"ĠKlaus":4404,"Ġggf":4405,"ĠVersicherungs":4406,"Ãľ":4407,"ĠhÃ¶heren":4408,"Ġgelungen":4409,"Ġanzu":4410,"43":4411,"ĠzusÃ¤tzlichen":4412,"gefÃ¼hl":4413,"ĠAnwendungen":4414,"ĠEck":4415,"ĠMindest":4416,"ĠZugriff":4417,"Ġ07":4418,"Ġnennt":4419,"ĠAlters":4420,"nung":4421,"handel":4422,"ĠAu":4423,"ĠStimmen":4424,"air":4425,"Ġschwarze":4426,"ĠPh":4427,"ĠAusbildungs":4428,"Ġgesprochen":4429,"Ġhochwertigen":4430,"ĠMischung":4431,"artikel":4432,"MS":4433,"ĠGro":4434,"ĠSÃ¼den":4435,"Ġ09":4436,"Ġgelang":4437,"ĠVertrieb":4438,"ĠBoot":4439,"ĠWesten":4440,"ĠRobert":4441,"teln":4442,"Ġbuchen":4443,"ĠÂ°":4444,"Ġunterscheiden":4445,"Ġbeinhaltet":4446,"ĠCO":4447,"go":4448,"ĠBetreiber":4449,"ĠTwitter":4450,"ĠDirekt":4451,"gende":4452,"Ġechten":4453,"ĠKlang":4454,"ĠMontage":4455,"ams":4456,"Ġgesund":4457,"ĠNa":4458,"rieb":4459,"Ġerfolgreiche":4460,"ĠMil":4461,"fahrer":4462,"mark":4463,"ĠAg":4464,"durch":4465,"66":4466,"ĠOster":4467,"ĠLuxus":4468,"Ġspannend":4469,"ĠEgal":4470,"ĠBahnhof":4471,"ĠEdelstahl":4472,"ĠhÃ¶chsten":4473,"Ġhervorragend":4474,"Ġgewisse":4475,"ĠgenÃ¼gend":4476,"Ġalter":4477,"systeme":4478,"ĠFicken":4479,"Ġzunehmend":4480,"ĠBauern":4481,"farben":4482,"flug":4483,"line":4484,"ĠDienste":4485,"Ġsteigen":4486,"ĠHÃ¤ndler":4487,"ander":4488,"ĠObjekt":4489,"ĠEinkauf":4490,"ĠkÃ¼nftig":4491,"ĠAktionen":4492,"Ġselben":4493,"Ġverdienen":4494,"aum":4495,"ĠJohann":4496,"Ġseid":4497,"LE":4498,"Ġweshalb":4499,"ĠJohn":4500,"Ġgeil":4501,"Ġangekommen":4502,"Team":4503,"Ġberlin":4504,"ĠHal":4505,"ionen":4506,"platte":4507,"ĠhierfÃ¼r":4508,"Ġentstand":4509,"ĠVortrag":4510,"Ġunge":4511,"ĠWLAN":4512,"Ġerfolgreichen":4513,"tierten":4514,"ĠMer":4515,"rÃ¤umen":4516,"wort":4517,"uh":4518,"mÃ¤ÃŁig":4519,"ĠBal":4520,"ĠStock":4521,"Ġwachsen":4522,"ĠBeziehungen":4523,"ĠFÃ¤lle":4524,"Ġholz":4525,"ĠSchuld":4526,"wege":4527,"ĠStraf":4528,"!)":4529,"ĠEinstellung":4530,"ĠGeile":4531,"amin":4532,"Ġau":4533,"ĠBeweis":4534,"plÃ¤tze":4535,"ĠVogel":4536,"ĠWolf":4537,"ĠHel":4538,"Ġas":4539,"ĠHabe":4540,"ĠSammlung":4541,"Ġdi":4542,"werke":4543,"Ġsteckt":4544,"ĠAspekte":4545,"Ġeinzigen":4546,"ĠmÃ¶chtest":4547,"Ã¶s":4548,"ĠLes":4549,"ĠSpanien":4550,"Ġangenommen":4551,"ĠKenntnis":4552,"ĠUN":4553,"Ġsingle":4554,"Ġersetzt":4555,"ĠRes":4556,"ĠFrÃ¼hjahr":4557,"ĠAlexander":4558,"ĠRang":4559,"Ġ42":4560,"ano":4561,"bares":4562,"Ġdigitale":4563,"Ġbetrifft":4564,"ĠFlÃ¤chen":4565,"Ġfreundlich":4566,"ĠAufgrund":4567,"ĠDDR":4568,"ĠZahlung":4569,"ya":4570,"ĠPlay":4571,"Ġvermittelt":4572,"Ġeindeutig":4573,"Ġspielte":4574,"ĠPe":4575,"ĠJo":4576,"ĠEhren":4577,"auen":4578,"Ġbitten":4579,"ult":4580,"ĠHauptstadt":4581,"anen":4582,"Ġkostenlosen":4583,"ĠWe":4584,"use":4585,"gef":4586,"ĠKompetenz":4587,"ĠInstallation":4588,"Ġhilfreich":4589,"ĠBranchen":4590,"ĠGeorg":4591,"uhr":4592,"Ġreduziert":4593,"ĠMasse":4594,"ĠBeispiele":4595,"ĠKategorien":4596,"ĠGrau":4597,"Ġverbessert":4598,"IP":4599,"Ġimmerhin":4600,"ini":4601,"ole":4602,"versorgung":4603,"ĠBranche":4604,"Ġoftmals":4605,"ĠVersorgung":4606,"vertrag":4607,"Ġangepasst":4608,"ĠOhr":4609,"ĠGar":4610,"ĠInitiative":4611,"Ġcom":4612,"esse":4613,"Ġlinken":4614,"ics":4615,"Ġgeblieben":4616,"Ġklassische":4617,"ĠSchmerz":4618,"Ġeventuell":4619,"ĠgewÃ¤hrleisten":4620,"Ġgefahren":4621,"Ġbeteiligt":4622,"Ġgelingt":4623,"ĠRÃ¤ume":4624,"IM":4625,"Ġorganisiert":4626,"ĠDatenschutzerklÃ¤rung":4627,"ĠWesen":4628,"ĠAlte":4629,"Ġvorbereitet":4630,"zig":4631,"alisierung":4632,"ĠRein":4633,"ĠBonn":4634,"Ġsolange":4635,"ahn":4636,"ĠDo":4637,"ĠgÃ¼nstigen":4638,"ios":4639,");":4640,"ĠberÃ¼cksichtigt":4641,"ĠZahlungs":4642,"ĠWorten":4643,"eite":4644,"Ġspiele":4645,"ĠSpeicher":4646,"ĠBestimmungen":4647,"kultur":4648,"ĠEcke":4649,"splan":4650,"ĠZuge":4651,"Ġdiejenigen":4652,"eich":4653,"Haus":4654,"beh":4655,"ĠGÃ¤sten":4656,"ĠAusfÃ¼hrung":4657,"Ġ..":4658,"ĠTom":4659,"schrift":4660,"Ġ600":4661,"ĠGeneral":4662,"aner":4663,"ĠDaniel":4664,"Ġverhindert":4665,"Dass":4666,"ĠabhÃ¤ngig":4667,"ĠKor":4668,"ulation":4669,"ĠJohannes":4670,"Ġschwarzen":4671,"Sehr":4672,"strom":4673,"ierend":4674,"ĠTrotzdem":4675,"icken":4676,"ĠAnsicht":4677,"orte":4678,"Ġeinsetzen":4679,"gestaltung":4680,"modell":4681,"ĠFilter":4682,"tiere":4683,"ĠMusiker":4684,"alk":4685,"ĠMuschi":4686,"san":4687,"ĠTurnier":4688,"Ġgeboten":4689,"ĠHÃ¤user":4690,"ĠmÃ¼sse":4691,"ĠBestandteil":4692,"ĠST":4693,"Le":4694,"ĠWohnungen":4695,"ĠspÃ¤testens":4696,"ĠSchÃ¶nheit":4697,"Ġno":4698,"Ġfestgestellt":4699,"ĠPrÃ¤":4700,"Ġbetroffen":4701,"ĠSongs":4702,"ĠWeihnachts":4703,"NatÃ¼rlich":4704,"ĠSer":4705,"rahmen":4706,"mus":4707,"ĠZustimmung":4708,"ĠRollen":4709,"ĠDigital":4710,"bis":4711,"Ġspannende":4712,"ient":4713,"ĠCam":4714,"sprozess":4715,"Ġghostwriter":4716,"ielle":4717,"atoren":4718,"ĠGegend":4719,"ĠKriegs":4720,"ĠMehrheit":4721,"ĠXxx":4722,"ĠDortmund":4723,"ola":4724,"ĠHÃ¶hen":4725,"Ġnotwendigen":4726,"ĠVarianten":4727,"ĠStudio":4728,"Bild":4729,"ĠzwÃ¶lf":4730,"Ġdenkt":4731,"int":4732,"ĠVerkÃ¤ufer":4733,"ĠLiebes":4734,"Ġletzter":4735,"Ġad":4736,"erne":4737,"ĠkÃ¤mpfen":4738,"ĠAngriff":4739,"ĠOsten":4740,"iden":4741,"vgl":4742,"ĠBlock":4743,"TS":4744,"ĠKonkurrenz":4745,"ĠIII":4746,"ĠFigur":4747,"unterricht":4748,"ĠKlinik":4749,"Ġrechnen":4750,"ĠGrenz":4751,"Ġerschienen":4752,"ĠEinheit":4753,"ĠIN":4754,"rum":4755,"ssen":4756,"Ġmodern":4757,"ĠbezÃ¼glich":4758,"ĠPremium":4759,"Ġgerecht":4760,"Ġstolz":4761,"ĠAndere":4762,"zeug":4763,"kunst":4764,"ĠDate":4765,"Ġideale":4766,"ĠHamburger":4767,"uche":4768,"burger":4769,"ĠFlÃ¤che":4770,"ĠHaftung":4771,"Ġverschiedener":4772,"Ġverteilt":4773,"by":4774,"ĠEinstellungen":4775,"ĠVerÃ¶ffentlichung":4776,"ĠMikro":4777,"Ġbeantworten":4778,"Ġporn":4779,"Ġdefinitiv":4780,"zi":4781,"ĠBesitz":4782,"felder":4783,"gar":4784,"ĠHab":4785,"Ã¼l":4786,"ĠHobby":4787,"ĠStÃ¤dten":4788,"ĠÃ¼berprÃ¼fen":4789,"Ġlecker":4790,"atik":4791,"Ġspiel":4792,"ĠðŁĻĤ":4793,"Ġtrocken":4794,"Ġgreifen":4795,"Ġerzielen":4796,"ĠBewohner":4797,"77":4798,"heits":4799,"km":4800,"ĠSerien":4801,"Ã¼t":4802,"ĠGefÃ¼hle":4803,"Ġunglaublich":4804,"Ġfroh":4805,"ĠEd":4806,"bereiche":4807,"Ġbewegt":4808,"ĠKleine":4809,"Nur":4810,"Ġ06":4811,"DE":4812,"weiÃŁ":4813,"ĠDusche":4814,"ĠEuropas":4815,"ĠZutaten":4816,"Ġanschauen":4817,"ink":4818,"Neu":4819,"ĠZwar":4820,"ail":4821,"ĠSil":4822,"ĠMobil":4823,"ĠAluminium":4824,"rich":4825,"ĠNeues":4826,"suche":4827,"Ã¼ren":4828,"ĠTÃ¼rkei":4829,"iens":4830,"ĠPornos":4831,"ziel":4832,"Ġtop":4833,"ungsver":4834,"2012":4835,"dent":4836,"ĠUmstÃ¤nden":4837,"Ġdringend":4838,"ĠZweifel":4839,"ĠNachfrage":4840,"urlaub":4841,"OP":4842,"ĠGarantie":4843,"ĠSpenden":4844,"Ġletztlich":4845,"lt":4846,"ĠGeschwindigkeit":4847,"ĠFernseh":4848,"Ġsowas":4849,"Ġleiden":4850,"ĠkÃ¼mmern":4851,"Ġvergeben":4852,"ĠGanze":4853,"ĠDel":4854,"ĠEbenso":4855,"ĠJuden":4856,"con":4857,"ĠBearbeitung":4858,"ĠDisplay":4859,"Ġteilnehmen":4860,"ED":4861,"Ġbesonderes":4862,"abl":4863,"ĠAnsatz":4864,"ĠTÃ¤ter":4865,"ĠVerd":4866,"sdorf":4867,"iven":4868,"Ġschnellen":4869,"ĠGastgeber":4870,"itten":4871,"unk":4872,"OT":4873,"ĠAnsprÃ¼che":4874,"Ġar":4875,"kten":4876,"ĠArbeiter":4877,"ĠweiÃŁen":4878,"Ġbesseren":4879,"ĠEier":4880,"ĠgeprÃ¤gt":4881,"Dies":4882,"Ġaufnehmen":4883,"ias":4884,"ĠPrivate":4885,"ome":4886,"vo":4887,"ĠFlÃ¼chtlinge":4888,"Ġwenigstens":4889,"glas":4890,"ĠAuflage":4891,"grÃ¼n":4892,"Ġsowieso":4893,"Ġdarstellen":4894,"bruch":4895,"ĠReal":4896,"UN":4897,"ĠFormat":4898,"bern":4899,"Ġschlagen":4900,"ĠFeder":4901,"Ġerotische":4902,"Ġbestehenden":4903,"ahr":4904,"beck":4905,"ĠSituationen":4906,"ĠChrist":4907,"Shop":4908,"ĠSuchen":4909,"Ġehemalige":4910,"Ġansonsten":4911,"ĠNase":4912,"ĠCloud":4913,"ĠMagen":4914,"Ġtrinken":4915,"ĠPolitiker":4916,"ĠAllein":4917,"tens":4918,"zw":4919,"ĠErnst":4920,"ĠSchulter":4921,"eben":4922,"Ġvorgenommen":4923,"Bl":4924,"ossen":4925,"Dem":4926,"ĠSmart":4927,"gegen":4928,"Ġbild":4929,"gern":4930,"frage":4931,"ĠFre":4932,"SV":4933,"ĠDuft":4934,"ĠTheorie":4935,"ĠNRW":4936,"ĠUpdate":4937,"ĠRegionen":4938,"Ġlegte":4939,"Ġgewissen":4940,"ĠHauses":4941,"ĠBesten":4942,"dig":4943,"Ã¶sen":4944,"Qu":4945,"Ġsiehe":4946,"Ġ[...]":4947,"ĠPat":4948,"Ġhinweg":4949,"Ġweist":4950,"Ġnah":4951,"ĠWerkzeug":4952,"ĠFranken":4953,"Ġangegeben":4954,"ĠGenuss":4955,"ĠGrafik":4956,"ĠLeit":4957,"ement":4958,"oph":4959,"Ġquasi":4960,"ĠOrte":4961,"Ġho":4962,"ĠbeschÃ¤ftigen":4963,"ĠKirch":4964,"Ġbeh":4965,"Ġet":4966,"how":4967,"ĠGrÃ¼ndung":4968,"atte":4969,"ls":4970,"ĠFutter":4971,"ĠOl":4972,"Ġ05":4973,"WÃ¼rttemberg":4974,"stens":4975,"Ġfordert":4976,"ĠBlatt":4977,"ĠFischer":4978,"ĠPolen":4979,"ĠSP":4980,"ĠLohn":4981,"way":4982,"ehe":4983,"ĠSchwangerschaft":4984,"dung":4985,"ĠBetrag":4986,"AU":4987,"76":4988,"ĠursprÃ¼nglich":4989,"mitteln":4990,"Ġverlangen":4991,"zel":4992,"spiegel":4993,"ickt":4994,"ĠUrsache":4995,"rand":4996,"Ġnix":4997,"nur":4998,".Â»":4999,"freien":5000,"laufen":5001,"utz":5002,"stÃ¼cke":5003,"42":5004,"ĠEintritt":5005,"Ġoffene":5006,"ĠAnliegen":5007,"Ġvielmehr":5008,"ĠTrÃ¤ger":5009,"Ġmon":5010,"ĠFaktoren":5011,"orten":5012,"ĠMilitÃ¤r":5013,"itzer":5014,"wissenschaft":5015,"tion":5016,"Ġnackt":5017,"ĠWorld":5018,"ĠBreite":5019,"ĠJagd":5020,"ĠMuskel":5021,"iner":5022,"ĠPartie":5023,"Ġmobile":5024,"ĠKatze":5025,"mon":5026,"ĠSchwer":5027,"Ġverz":5028,"ĠEngland":5029,"hofen":5030,"pel":5031,"Ġkinder":5032,"isk":5033,"zÃ¼ge":5034,".âĢĿ":5035,"Ġchat":5036,"Ġmanchen":5037,"âĢľ)":5038,"App":5039,"ĠDemokratie":5040,"ĠAngabe":5041,"Ġentwickelte":5042,"tiv":5043,"ĠManager":5044,"ĠSchuh":5045,"Service":5046,"ĠErste":5047,"Ġpraktische":5048,"ĠAnsprechpartner":5049,"que":5050,"ata":5051,"Ġkombiniert":5052,"Ġgarten":5053,"ĠVorstellungen":5054,"ĠNÃ¼rnberg":5055,"ĠTri":5056,"ĠDatum":5057,"ĠNachbar":5058,"ĠHalb":5059,"Ġzweit":5060,"ĠMaschine":5061,"Ġvollen":5062,"ĠCl":5063,"Ġ:-)":5064,"hren":5065,"ĠCode":5066,"club":5067,"Ġstattfinden":5068,"ĠAss":5069,"ĠSpannung":5070,"Ġbeliebt":5071,"projekt":5072,"kirchen":5073,"ald":5074,"ĠBeh":5075,"ĠGest":5076,"ĠSymbol":5077,"ĠLog":5078,"Ġvideos":5079,".),":5080,"ĠServices":5081,"einsatz":5082,"ĠFluss":5083,"rem":5084,"Ġkalt":5085,"organisation":5086,"ĠmÃ¶gen":5087,"Ġerreichbar":5088,"Ġjemanden":5089,"ild":5090,"ĠMy":5091,"Ġklare":5092,"Ġauftreten":5093,"Ġentsprechen":5094,"rag":5095,"Ġordentlich":5096,"ĠEmail":5097,"ĠVersicherung":5098,"wissen":5099,"produkte":5100,"EM":5101,"ĠfrÃ¼heren":5102,"ĠEinladung":5103,"ĠSorgen":5104,"ĠSlot":5105,"olle":5106,"ĠGalerie":5107,"Ġinstalliert":5108,"eld":5109,"Ġschien":5110,"ĠLos":5111,"ella":5112,"ĠBildschirm":5113,"âĢ¢":5114,"ĠMaÃŁe":5115,"ĠFernsehen":5116,"ichten":5117,"Ġ1998":5118,"Ġroten":5119,"Ġdirekten":5120,"va":5121,"ĠInfrastruktur":5122,"ĠAudio":5123,"ĠÃ¼berlegen":5124,"Ã¤h":5125,"chten":5126,"ĠDreh":5127,"Ġbeziehen":5128,"ĠAusbau":5129,"ĠAmateur":5130,"ĠVordergrund":5131,"Ġ44":5132,"Ġangesehen":5133,"ĠRenn":5134,"yr":5135,"po":5136,"Ġverbindet":5137,"fragen":5138,"genden":5139,"ĠVerÃ¤nderung":5140,"Ġsterben":5141,"ĠLinien":5142,"igung":5143,"ĠgewÃ¼nschten":5144,"ingt":5145,"ĠWiderstand":5146,"ĠÃľbungen":5147,"ĠAnschlieÃŁend":5148,"Ġ46":5149,"ĠKG":5150,"ĠMen":5151,"ĠEinwohner":5152,"ĠergÃ¤nzt":5153,"41":5154,"alte":5155,"ĠPartnersuche":5156,"Ġkontakte":5157,"anne":5158,"ĠMarkus":5159,"uÃŁ":5160,"Ġbeschreibt":5161,"ĠBundesregierung":5162,"Ġprofessionelle":5163,"Ġplus":5164,"ĠSki":5165,"ĠFast":5166,"ras":5167,"ĠKrÃ¤uter":5168,"Ġinteressieren":5169,"#":5170,"bauer":5171,"ĠGrab":5172,"Ġdunkel":5173,"ĠKat":5174,"ĠLeuten":5175,"stoffen":5176,"ĠBade":5177,"Ġur":5178,"Wo":5179,"ction":5180,"GB":5181,"tis":5182,"Ġverl":5183,"UNG":5184,"Ġkeinem":5185,"ĠwÃ¼nsche":5186,"Ġinter":5187,"ĠGeh":5188,"ama":5189,"Ġgeraten":5190,"IE":5191,"leg":5192,"sol":5193,"ĠAlpen":5194,"ĠInd":5195,"Ġkrank":5196,"ull":5197,"itÃ¤ten":5198,"ep":5199,"ĠRuf":5200,"Ġintegriert":5201,"richtung":5202,"zum":5203,"tete":5204,"ĠJede":5205,"Best":5206,"gie":5207,"ĠPlÃ¤tze":5208,"ĠWegen":5209,"Ġ1999":5210,"Ġunteren":5211,"ĠTermine":5212,"ĠOrganisationen":5213,"Ġkleinere":5214,"Ġbi":5215,"planung":5216,"ĠSim":5217,"Ã¤ch":5218,"Ġlautet":5219,"ĠIslam":5220,"zte":5221,"til":5222,"zung":5223,"usch":5224,"ĠÃ¤ltere":5225,"Ġnehme":5226,"ĠHessen":5227,"netz":5228,"ĠBur":5229,"tlich":5230,"aÃŁ":5231,"RA":5232,"frau":5233,"ĠNackte":5234,"Ġdavor":5235,"ĠVoraussetzung":5236,"ĠEntfernung":5237,"ĠAgentur":5238,"sehen":5239,"Ġverlangt":5240,"ĠMulti":5241,"Ġvieler":5242,"Ã¼ck":5243,"ĠErfÃ¼llung":5244,"ĠDar":5245,"ĠArchiv":5246,"ehr":5247,"iff":5248,"ĠPreisen":5249,"Ġwohnen":5250,"eisen":5251,"Ġauseinander":5252,"Ġgewann":5253,"ĠSieger":5254,"ĠGetrÃ¤nke":5255,"Ġwodurch":5256,"Ġums":5257,"ĠAnhÃ¤nger":5258,"ummer":5259,"ĠAuflÃ¶sung":5260,"ĠWichtig":5261,"Ġeinzigartige":5262,"ĠMÃ¼nster":5263,"ĠKloster":5264,"Ġberechtigt":5265,"fÃ¤lle":5266,"ĠtÃ¤glichen":5267,"preise":5268,"zahlung":5269,"deten":5270,"ric":5271,"Ġ49":5272,"ĠVorschriften":5273,"eck":5274,"ĠUni":5275,"ĠMet":5276,"Ġerhoben":5277,"Ġerotik":5278,"Ġwasser":5279,"Ġsichere":5280,"Ġgezielt":5281,"Ġverboten":5282,"folge":5283,"aschen":5284,"hem":5285,"behandlung":5286,"ĠPhase":5287,"ĠFrist":5288,"ĠAllgemeinen":5289,"ĠFiguren":5290,"ĠDateien":5291,"ĠSchmuck":5292,"ĠProzesse":5293,"off":5294,"Ġblau":5295,"ĠForscher":5296,"ĠRos":5297,"hauses":5298,"ÃŁe":5299,"eist":5300,"ĠYoga":5301,"ĠLei":5302,"ike":5303,"ĠVielen":5304,"ĠOma":5305,"team":5306,"medizin":5307,"ĠÃ¼berrascht":5308,"ĠfranzÃ¶sischen":5309,"Ġherunter":5310,"ĠMich":5311,"Ġohnehin":5312,"Ġsicheren":5313,"bewegung":5314,"dete":5315,"ĠZauber":5316,"ĠgewÃ¤hrleistet":5317,"ĠGewerbe":5318,"Ġendet":5319,"isieren":5320,"bÃ¼cher":5321,"ĠRisiken":5322,"zellen":5323,"Ġfuer":5324,"samen":5325,"Ġfragte":5326,"abend":5327,"ĠWissenschaftler":5328,"Ġgeschieht":5329,"ĠWall":5330,"Ġschwere":5331,"Ġreagieren":5332,"Ġmenschlichen":5333,"85":5334,"ĠSub":5335,"\\":5336,"Ġleer":5337,"ĠViertel":5338,"Zeit":5339,"alis":5340,"ĠChor":5341,"ĠLoch":5342,"ĠInfo":5343,"ĠAussagen":5344,"beginn":5345,"Ġbetrachten":5346,"aff":5347,"ĠwÃ¤chst":5348,"ĠSpuren":5349,"ĠIV":5350,"Ġverursacht":5351,"Ġ800":5352,"OM":5353,"struktur":5354,"ches":5355,"Ġgefertigt":5356,"ĠgelÃ¶scht":5357,"ĠTourismus":5358,"ĠWellness":5359,"anzen":5360,"immer":5361,"ĠKranken":5362,"Ġrechtzeitig":5363,"ĠMesser":5364,"Ġpost":5365,"ĠDenken":5366,"Ġzeichnet":5367,"etzt":5368,"ĠDialog":5369,"aufnahme":5370,"Ġfrage":5371,"ĠTÃ¼ren":5372,"ĠgeprÃ¼ft":5373,"stellt":5374,"ĠverstÃ¤rkt":5375,"ĠHol":5376,"rigen":5377,"ĠKa":5378,"ĠEinwilligung":5379,"Ġstammen":5380,"ĠReaktion":5381,"Ġnein":5382,"ĠSterne":5383,"ĠDame":5384,"ĠReligion":5385,"kommt":5386,"ĠNackt":5387,"ĠRabatt":5388,"gÃ¤nge":5389,"Ġyou":5390,"ĠBeschwerden":5391,"Ġ1990":5392,"Ġerkannt":5393,"verl":5394,"arn":5395,"Ġverarbeiten":5396,"kirche":5397,"ĠKlar":5398,"ĠSC":5399,"ĠSymptome":5400,"Ġbetrieben":5401,"AC":5402,"ĠAuftritt":5403,"nehmen":5404,"Ġschneiden":5405,"Ġdiversen":5406,"ĠHomosexuell":5407,"wegen":5408,"cy":5409,"platten":5410,"ĠBlÃ¼ten":5411,"uff":5412,"ĠBetroffenen":5413,"ĠAc":5414,"Ġeigen":5415,"ĠEiner":5416,"gebiete":5417,"ĠTarif":5418,"hlen":5419,"Ġzentrale":5420,"fÃ¼hren":5421,"Mar":5422,"Ġuntersucht":5423,"ĠGrunde":5424,"Schon":5425,"ĠPersÃ¶nlichkeit":5426,"Ġtrat":5427,"ĠBewegungs":5428,"ĠHaltung":5429,"ĠFestival":5430,"68":5431,"ĠGleichzeitig":5432,"ister":5433,"yer":5434,"ĠBMW":5435,"ĠMod":5436,"ĠNov":5437,"âĢĿ.":5438,"Ġentscheidet":5439,"Ġamerikanischen":5440,"ĠsÃ¼d":5441,"ĠKomponenten":5442,"ĠðŁĺī":5443,"ĠBesitzer":5444,"ĠLandwirtschaft":5445,"Ġtraditionellen":5446,"DS":5447,"ĠHitze":5448,"ĠHeinrich":5449,"ĠMotiv":5450,"ĠRepublik":5451,"ĠhÃ¤ngen":5452,"ĠSpielautomaten":5453,"konzept":5454,"Ġ00":5455,"ĠStÃ¤rke":5456,"ĠEffekt":5457,"ĠUnterschiede":5458,"ĠBraun":5459,"ĠExistenz":5460,"ĠWillen":5461,"Ġgetestet":5462,"ĠDatenbank":5463,"ystem":5464,"ĠAbteilung":5465,"ĠSchwierigkeiten":5466,"ĠEngel":5467,"Ġgeliefert":5468,"ĠMetern":5469,"stellungen":5470,"Ġenglisch":5471,"Ġgeschickt":5472,"red":5473,"ĠMitgliedern":5474,"geht":5475,"ĠUrlaubs":5476,"Ġgrosse":5477,"Ġfeststellen":5478,"Kom":5479,"gab":5480,"ĠFlucht":5481,"Ġbrauche":5482,"ĠZentral":5483,"stes":5484,"Ġschlafen":5485,"ĠhieÃŁ":5486,"Kinder":5487,"ober":5488,"Ġvolle":5489,"ĠAnn":5490,"ĠGenau":5491,"ĠRie":5492,"ĠAkku":5493,"ĠLizenz":5494,"nete":5495,"ĠEntwicklungen":5496,"Welt":5497,"Ġgenerell":5498,"2011":5499,"ĠSoldaten":5500,"fÃ¤llen":5501,"ĠFein":5502,"lassen":5503,"Ġem":5504,"stechnik":5505,"lau":5506,"Ġpar":5507,"Ġzweimal":5508,"Ġerwerben":5509,"Ġbeeinflussen":5510,"IR":5511,"ita":5512,"anger":5513,"do":5514,"ĠMotorrad":5515,"ĠVoraus":5516,"Ġspeichern":5517,"âĢ¦.":5518,"Ġverfolgt":5519,"ĠGrundstÃ¼ck":5520,"ĠTief":5521,"Ġfuhr":5522,"Ġallgemeine":5523,"ates":5524,"ĠDVD":5525,"ĠDon":5526,"ĠDesigner":5527,"Ġhalte":5528,"sprogramm":5529,"ĠPferd":5530,"ĠKindergarten":5531,"ĠLied":5532,"ĠOberflÃ¤chen":5533,"Ġbreite":5534,"ĠNie":5535,"Ġscheinen":5536,"Ġweisen":5537,"ĠErwachsenen":5538,"ĠMerkel":5539,"ĠBa":5540,"Ġfern":5541,"SG":5542,"Ġmomentan":5543,"ĠSexkontakte":5544,"ski":5545,"agt":5546,"etter":5547,"ĠKommission":5548,"Art":5549,"behÃ¶rde":5550,"weite":5551,"rop":5552,"ĠProfessor":5553,"ĠUnterlagen":5554,"ĠSchreib":5555,"ĠProblemen":5556,"ĠWeiterbildung":5557,"?\"":5558,"Ġlanger":5559,"Ġ04":5560,"ĠHerkunft":5561,"ĠTouristen":5562,"Ġwerfen":5563,"ĠMat":5564,"Ġtest":5565,"ĠJÃ¼rgen":5566,"iell":5567,"Ġgelassen":5568,"pass":5569,"Ġged":5570,"ĠheiÃŁ":5571,"Ġwissenschaftlichen":5572,"ĠFehl":5573,"sent":5574,"wo":5575,"Ġschriftlich":5576,"ĠMilf":5577,"Ġy":5578,"rechnung":5579,"reihe":5580,"ĠlieÃŁen":5581,"ĠAuskunft":5582,"ĠFrÃ¼h":5583,"Ġdauern":5584,"Ġnette":5585,"ĠErstellung":5586,"tic":5587,"ign":5588,"ĠRechner":5589,"ĠGemeinsam":5590,"ĠGesprÃ¤che":5591,"ĠDis":5592,"Ġschm":5593,"ĠHighlight":5594,"De":5595,"reu":5596,"Ġpositiven":5597,"Ġerkennt":5598,"Ġeinstellen":5599,"Ġoberen":5600,"analyse":5601,"ĠProjekten":5602,"ĠMedikamente":5603,"Ġgetrennt":5604,"ĠStrukturen":5605,"ĠSpur":5606,"betrag":5607,"Ġkurzem":5608,"ĠSwinger":5609,"Ġempfiehlt":5610,"ĠTer":5611,"ĠGegenwart":5612,"Ġrichten":5613,"sberg":5614,"ĠKontaktanzeigen":5615,"ĠErwartungen":5616,"ĠKan":5617,"ĠzugÃ¤nglich":5618,"ĠBed":5619,"ĠVerk":5620,"heimer":5621,"ĠPal":5622,"Ġfragt":5623,"Ġnord":5624,"ĠBach":5625,"Ġra":5626,"ĠGewinne":5627,"han":5628,"Ġbeendet":5629,"ĠPortal":5630,"dert":5631,"Ġgeschehen":5632,"itter":5633,"gabe":5634,"ĠLast":5635,"Seite":5636,"ĠWilhelm":5637,"Ġ;)":5638,"ĠRevolution":5639,"ĠFunk":5640,"ĠGerne":5641,"arbeiter":5642,"ĠGesetzes":5643,"ĠDrogen":5644,"Ġaussieht":5645,"ĠSeitensprung":5646,"ire":5647,"ĠÃ¼brigen":5648,"ĠÃ¤hnliche":5649,"ĠzustÃ¤ndig":5650,"Ġerschien":5651,"ĠFinanzierung":5652,"weit":5653,"Ġschaut":5654,"ĠKalender":5655,"fassung":5656,"Ġeignen":5657,"ĠMieter":5658,"eiten":5659,"ĠWett":5660,"Ġtot":5661,"Ġbekomme":5662,"Ġwartet":5663,"opf":5664,"ads":5665,"ĠÃ¤lteren":5666,"Ġ85":5667,"BA":5668,"Ġglaubt":5669,"hi":5670,"ĠSchwarze":5671,"Ġ47":5672,"setzen":5673,"ĠUrsachen":5674,"ĠFil":5675,"ĠSolar":5676,"ĠSei":5677,"istik":5678,"Ġha":5679,"ĠElement":5680,"ĠNorm":5681,"ĠPart":5682,"Ġzuhause":5683,"Ber":5684,"schluss":5685,"schicht":5686,"gebÃ¤ude":5687,"Ġempfohlen":5688,"ING":5689,"ĠGebÃ¼hren":5690,"Ġgesp":5691,"ĠArbeitsplatz":5692,"produktion":5693,"Ġkontaktieren":5694,"ĠProgramme":5695,"ichte":5696,"ga":5697,"ĠLiga":5698,"opp":5699,"reis":5700,"Ġfliegen":5701,"keiten":5702,"aufen":5703,"Ġabends":5704,"Ġzufolge":5705,"Ġerheblich":5706,"ĠBundesliga":5707,"ĠBon":5708,"Ġdesign":5709,"ollen":5710,"ime":5711,"Ġnormale":5712,"Ġgro":5713,"informationen":5714,"ĠÃ¼berwiegend":5715,"Ġgenaue":5716,"gemeinde":5717,"Ġeinerseits":5718,"ĠWohnungs":5719,"ĠKleid":5720,"ley":5721,"ĠHot":5722,"ĠKnie":5723,"Ġerzeugt":5724,"gangs":5725,"hÃ¤ndler":5726,"ĠRiesen":5727,"Ġhei":5728,"ĠMobile":5729,"ĠBewerbung":5730,"Ġdiskutiert":5731,"also":5732,"ĠmÃ¼ssten":5733,"Ġjung":5734,"Ġperfekten":5735,"Ġbr":5736,"ĠKonflikt":5737,"ĠNachwuchs":5738,"ĠLudwig":5739,"ec":5740,"ĠEdition":5741,"hotel":5742,"Ġreich":5743,"ĠAs":5744,"kur":5745,"Ġnormalerweise":5746,"ĠInnenstadt":5747,"eint":5748,"ĠSprachen":5749,"ĠDIN":5750,"Ġbewerten":5751,"ĠInternational":5752,"ĠReparatur":5753,"anken":5754,"Ġteils":5755,"Ġfordern":5756,"ĠDSGVO":5757,"ĠDS":5758,"Ġpassend":5759,"Ġdauerhaft":5760,"ĠhÃ¤ufiger":5761,"Ġ43":5762,"Ġnett":5763,"anteil":5764,"kern":5765,"ĠTrump":5766,"Ġbeitragen":5767,"reiben":5768,"losigkeit":5769,"Ġgewinnt":5770,"ĠBundesland":5771,"ĠDeinen":5772,"ĠCenter":5773,"abe":5774,"Ġ;-)":5775,"ĠKlick":5776,"ĠOrten":5777,"SP":5778,"hei":5779,"Ġausprobieren":5780,"Ġpraktischen":5781,"ĠButter":5782,"ĠGehirn":5783,"verb":5784,"ĠbestÃ¤tigen":5785,"ĠDrittel":5786,"Sport":5787,"ada":5788,"ĠKommunikations":5789,"ĠFreiburg":5790,"ĠPre":5791,"ĠWirklichkeit":5792,"Ġherunterladen":5793,"MA":5794,"ĠOutdoor":5795,"ĠWebsites":5796,"ĠOhren":5797,"ĠKrÃ¤fte":5798,"Ġwohnzimmer":5799,"Ġreduzieren":5800,"Ġgrossen":5801,"Ġte":5802,"ĠauswÃ¤hlen":5803,"Ġliebsten":5804,"Ġerfasst":5805,"ĠVers":5806,"ĠVorfeld":5807,"html":5808,"kampf":5809,"ĠAch":5810,"ary":5811,"Ġei":5812,"Ġangeblich":5813,"Se":5814,"ĠheiÃŁe":5815,"Ġ02":5816,"bin":5817,"inden":5818,"ester":5819,"ĠSchweden":5820,"ĠSehenswÃ¼rdigkeiten":5821,"ĠPap":5822,"ĠFinale":5823,"gleich":5824,"ĠErkrankungen":5825,"Ġanmelden":5826,"ĠAtem":5827,"ĠEntwickler":5828,"branche":5829,"Ihre":5830,"ĠTablet":5831,"ĠRegierungs":5832,"ĠHart":5833,"Ġlokalen":5834,"ĠVo":5835,"ĠDeiner":5836,"Ġhe":5837,"Ġbar":5838,"Ġvorgesehen":5839,"Ġmenschen":5840,"ĠHierbei":5841,"runde":5842,"Ġtolles":5843,"ĠEreignisse":5844,"prÃ¼fung":5845,"ĠPhilosophie":5846,"ĠHochzeits":5847,"Ġgewohnt":5848,"wen":5849,"Ġfesten":5850,"Ġmax":5851,"Ġhistorische":5852,"ĠÃ¼blichen":5853,"ĠLehre":5854,"freiheit":5855,"Dabei":5856,"Ġ180":5857,"Ã¶se":5858,"ĠWerkstatt":5859,"annt":5860,"Ġumso":5861,"ĠSitzung":5862,"ĠSon":5863,"tr":5864,"yst":5865,"ĠAbschnitt":5866,"iver":5867,"ĠLeicht":5868,"Berlin":5869,"ĠstÃ¤rken":5870,"vert":5871,"Noch":5872,"ĠSollten":5873,"ehen":5874,"ĠStabilitÃ¤t":5875,"ĠFrucht":5876,"fin":5877,"Ġpartnersuche":5878,"ĠHaushalts":5879,"Warum":5880,"Ġdanke":5881,"ĠGibt":5882,"ĠÃĦ":5883,"ĠLau":5884,"ĠFinden":5885,"ĠEntspannung":5886,"ĠTabellen":5887,"ĠDarm":5888,"Ġbetreiben":5889,"Ġvoran":5890,"Ġbezieht":5891,"ktiv":5892,"Ġvorhandenen":5893,"ĠEinkommen":5894,"ĠAltstadt":5895,"ĠdurchfÃ¼hren":5896,"Ġbreiten":5897,"orts":5898,"museum":5899,"ĠLade":5900,"Ġbeschreiben":5901,"Ġwei":5902,"Ġausgesprochen":5903,"ĠLin":5904,"Bahn":5905,"Projekt":5906,"ĠEinstieg":5907,"quelle":5908,"une":5909,"ĠFreien":5910,"ĠStory":5911,"ĠDingen":5912,"UM":5913,"Ġwirtschaftlichen":5914,"ode":5915,"Ġerzeugen":5916,"Ġdrehen":5917,"rick":5918,"Ġ$":5919,"Ġanfangen":5920,"Ġbeziehungsweise":5921,"ĠKÃ¶nnen":5922,"ĠEinblick":5923,"Ġthis":5924,"ierer":5925,"ĠInnovation":5926,"ĠMont":5927,"Ġmorgens":5928,"genommen":5929,"2010":5930,"ĠBrenn":5931,"Ġfolgte":5932,"ala":5933,"Ġpr":5934,"vi":5935,"ĠAudi":5936,"kar":5937,"Ġgarantieren":5938,"ĠPort":5939,"ĠEvents":5940,"ĠPerformance":5941,"verhalten":5942,"ble":5943,"raten":5944,"ĠunmÃ¶glich":5945,"ĠlÃ¶schen":5946,"einheit":5947,"ĠWill":5948,"ĠDurchmesser":5949,"Ġweitgehend":5950,"igte":5951,"Nein":5952,"ĠKnochen":5953,"Ġwichtigste":5954,"Ġtraf":5955,"ĠBeschluss":5956,"baus":5957,"Ġgestartet":5958,"Ġallzu":5959,"ĠAngeboten":5960,"wirkung":5961,"ĠGrÃ¼nder":5962,"ĠLieder":5963,"ĠJustiz":5964,"ĠBerÃ¼cksichtigung":5965,"ĠStrecken":5966,"ĠKrankheiten":5967,"hose":5968,"urm":5969,"Ġ(\"":5970,"lig":5971,"Sh":5972,"Ġmar":5973,"Ġvorsichtig":5974,"ham":5975,"uer":5976,"ÃŁer":5977,"ĠUntersuchungen":5978,"pon":5979,"Ġ@":5980,"Weitere":5981,"Ġoffiziell":5982,"Ġverwendeten":5983,"ĠTechnologien":5984,"Ġleichten":5985,"Ġoffiziellen":5986,"ffen":5987,"bs":5988,"ular":5989,"ĠweiÃŁe":5990,"ĠTrans":5991,"Ġschlechter":5992,"ĠStufe":5993,"Ġ95":5994,"icker":5995,"ĠBeinen":5996,"weiler":5997,"ĠMond":5998,"ĠKrebs":5999,"ĠHandwerk":6000,"Ã¶t":6001,"ĠÃ¶fter":6002,"ĠJedes":6003,"Ã¼m":6004,"Ġuner":6005,"sg":6006,"Ġenorm":6007,"ĠGB":6008,"Ġben":6009,"ider":6010,"\")":6011,"macht":6012,"ĠlÃ¤ngere":6013,"ĠSystems":6014,"nte":6015,"ĠPlatten":6016,"horn":6017,"ĠVerband":6018,"rain":6019,"Ġersetzen":6020,"Ġschlechte":6021,"Ġempfangen":6022,"ĠArme":6023,"ĠAuftraggeber":6024,"nern":6025,"ĠDE":6026,"ĠPa":6027,"mat":6028,"ĠBezirks":6029,"ĠJosef":6030,"Ġjener":6031,"Ġ64":6032,"Ġfrischen":6033,"oth":6034,"ĠFin":6035,"deutschen":6036,"wind":6037,"spolitik":6038,"ĠGefahren":6039,"ĠWin":6040,"Ġversuchte":6041,"stunden":6042,"ĠCommunity":6043,"ographie":6044,"hle":6045,"ĠAnna":6046,"Ġverbreitet":6047,"ĠDiesel":6048,"ĠSE":6049,"Ġverliert":6050,"ĠgrÃ¼n":6051,"ziger":6052,"ĠJazz":6053,"ĠStatus":6054,"Ġnahmen":6055,"nisse":6056,"Ġstelle":6057,"Land":6058,"?!":6059,"fahrten":6060,"ĠHinsicht":6061,"Ġnachhaltig":6062,"Ġbasiert":6063,"ux":6064,"Ġbegeistern":6065,"ĠBezeichnung":6066,"Ġland":6067,"ĠEigentÃ¼mer":6068,"ĠCap":6069,"ĠLassen":6070,"ĠAbwehr":6071,"Ġliebt":6072,"ĠVol":6073,"griff":6074,"Ġbeliebtesten":6075,"ĠzuverlÃ¤ssig":6076,"98":6077,"Ro":6078,"ĠInsbesondere":6079,"zin":6080,"ĠProduktions":6081,"Ġsonstige":6082,"quote":6083,"58":6084,"ĠHandlungs":6085,"pflanzen":6086,"ĠFÃ¼ÃŁe":6087,"ĠStation":6088,"Nr":6089,"ĠÃ¼brig":6090,"tt":6091,"ruf":6092,"Ġgl":6093,"Zwei":6094,"ĠschlÃ¤gt":6095,"Ġsolch":6096,"ĠVeranstalter":6097,"aktion":6098,"utter":6099,"ĠTeig":6100,"inder":6101,"ĠGewinner":6102,"ĠStÃ¼cke":6103,"Ã¼ch":6104,"ĠJahrzehnten":6105,"ĠGames":6106,"ĠPrÃ¤sentation":6107,"gesetzes":6108,"ĠSamsung":6109,"werks":6110,"Ã¤nder":6111,"ĠVerletzung":6112,"Ã¤nge":6113,"].":6114,"ĠDigitalisierung":6115,"ĠÃ¶ffnet":6116,"ĠParlament":6117,"kÃ¶rper":6118,"anischen":6119,"ĠRu":6120,"ĠRechtsanwalt":6121,"IA":6122,"Ġscheinbar":6123,"frist":6124,"Ġbelegt":6125,"ĠSlots":6126,"Ġretten":6127,"ĠHeiligen":6128,"ĠPsych":6129,"anische":6130,"steller":6131,"ĠVW":6132,"stern":6133,"ĠVereine":6134,"Ġag":6135,"ologen":6136,"rohr":6137,"ĠAnerkennung":6138,"ĠSteuern":6139,"ĠRauch":6140,"Leider":6141,"ĠDampf":6142,"ĠSupport":6143,"werken":6144,"neten":6145,"Ġlaufenden":6146,"iat":6147,"aben":6148,"Ġbetont":6149,"ĠBibel":6150,"ĠWiderspruch":6151,"ktionen":6152,"sn":6153,"decken":6154,"ĠBerater":6155,"Ġverf":6156,"eis":6157,"ĠAutobahn":6158,"Ġtechnisch":6159,"ĠspÃ¼ren":6160,"ĠwunderschÃ¶nen":6161,"sitz":6162,"omen":6163,"Ġversorgt":6164,"ĠMaus":6165,"ĠGef":6166,"Preis":6167,"por":6168,"ĠWerden":6169,"ĠLie":6170,"design":6171,"ĠKont":6172,"ĠAnfÃ¤nger":6173,"88":6174,"ĠNoten":6175,"ministerium":6176,"iers":6177,"ĠWalter":6178,"prÃ¤":6179,"ĠMengen":6180,"ahl":6181,"Ġunternehmen":6182,"Ġnot":6183,"Ġverh":6184,"Ġ99":6185,"ICH":6186,"Ġnen":6187,"fallen":6188,"ĠausgefÃ¼hrt":6189,"utt":6190,"ĠMuss":6191,"ĠHandeln":6192,"arbeitet":6193,"ĠLook":6194,"ĠChristus":6195,"Version":6196,"ĠOft":6197,"Ġgesunde":6198,"rÃ¤ger":6199,"ĠLippen":6200,"Ġ41":6201,"Ġgeringer":6202,"64":6203,"Ġweich":6204,"ĠFÃ¤higkeit":6205,"Ġangesichts":6206,"ĠWellen":6207,"ĠAhnung":6208,"Programm":6209,"IV":6210,"Ġverfolgen":6211,"version":6212,"ĠrÃ¼ck":6213,"ĠLaser":6214,"ĠSchÃ¼tzen":6215,"ĠFakten":6216,"ĠgefÃ¶rdert":6217,"ĠschlieÃŁt":6218,"ief":6219,"splatz":6220,"ĠGerÃ¤ten":6221,"ĠTiefe":6222,"ĠBu":6223,"Ġvereinbart":6224,"Bet":6225,"ĠFliesen":6226,"ĠTabelle":6227,"cl":6228,"Ġerweitern":6229,"ĠSen":6230,"kr":6231,"cks":6232,"ĠKe":6233,"ĠBrÃ¼cke":6234,"ĠKol":6235,"Ð":6236,"ĠRem":6237,"ĠBudget":6238,"Ġbesonderer":6239,"lungs":6240,"ĠNeuen":6241,"schiff":6242,"Ġerfolgte":6243,"Ġel":6244,"Ġdeutschland":6245,"bek":6246,"ĠMotivation":6247,"ĠFund":6248,"illen":6249,"ĠAfD":6250,"herapie":6251,"Ġlieb":6252,"Ġmed":6253,"sse":6254,"ĠSm":6255,"ĠKÃ¼hlschrank":6256,"ĠLack":6257,"ĠgefÃ¤hrlich":6258,"ĠDiabetes":6259,"ĠWahrscheinlichkeit":6260,"ĠfÃ¼hrenden":6261,"phase":6262,"ĠSich":6263,"/-":6264,"ĠBrandenburg":6265,"arch":6266,"Ġsteigern":6267,"67":6268,"ĠLogistik":6269,"stÃ¤tte":6270,"ĠVorgaben":6271,"hersteller":6272,"kammer":6273,"lÃ¶sung":6274,"Ġberuflichen":6275,"ĠMiss":6276,"fÃ¤hig":6277,"rige":6278,"Ġfeste":6279,"fenster":6280,"ragen":6281,"ĠKlassiker":6282,"ĠDenk":6283,"anzeige":6284,"ĠStudierenden":6285,"Ġdirekte":6286,"GE":6287,"seiten":6288,"DA":6289,"ĠRegelung":6290,"ĠFrÃ¼hling":6291,"Ġentspannt":6292,"fa":6293,"Ġangelegt":6294,"achte":6295,"ĠDing":6296,"Ġwahren":6297,"Bereich":6298,"gi":6299,"ĠLogo":6300,"ienst":6301,"Ġstecken":6302,"ĠFe":6303,"teten":6304,"Ġlangfristig":6305,"Ġrufen":6306,"ĠberÃ¼cksichtigen":6307,"ĠEM":6308,"ĠFer":6309,"ĠSchÃ¶ne":6310,"ĠSchmidt":6311,"spar":6312,"pper":6313,"TER":6314,"Ġreisen":6315,"lein":6316,"ĠSchauspieler":6317,"woche":6318,"ĠWerner":6319,"Ġandererseits":6320,"ĠVorlage":6321,"orden":6322,"Ġsk":6323,"Ġangefangen":6324,"ĠISBN":6325,"Ġstill":6326,"Ġtelefonisch":6327,"96":6328,"ĠHinblick":6329,"ungsverfahren":6330,"Ġinnovative":6331,"ĠNutz":6332,"verkauf":6333,"Ġinvestieren":6334,"ĠSchÃ¼lern":6335,"Ġinneren":6336,"ĠBotschaft":6337,"ĠgrÃ¼nen":6338,"ĠKnow":6339,"ĠDokumente":6340,"geh":6341,"ĠCent":6342,"chte":6343,"ĠHelfer":6344,"berater":6345,"alismus":6346,"ĠVitamin":6347,"bacher":6348,"ĠPaare":6349,"schulen":6350,"ĠStreifen":6351,"ĠKÃ¼":6352,"ora":6353,"ĠForderungen":6354,"ĠNachbarn":6355,"Jeder":6356,"ĠschÃ¤tzen":6357,"igten":6358,"win":6359,"Ġgesammelt":6360,"ĠTG":6361,"ammer":6362,"ĠAusgang":6363,"ĠIdentitÃ¤t":6364,"portal":6365,"Ġverschiedensten":6366,"ĠTodes":6367,"fonds":6368,"ĠMenÃ¼":6369,"Ġbeg":6370,"menge":6371,"ĠAnd":6372,"ĠSpiels":6373,"ĠHohen":6374,"bein":6375,"weil":6376,"ĠHei":6377,"Ġtiefer":6378,"ĠChristoph":6379,"ĠTim":6380,"Ġspezialisiert":6381,"serie":6382,"ĠBasel":6383,".....":6384,"lungen":6385,"ĠBeschwerde":6386,"ĠTennis":6387,"ĠManchmal":6388,"otten":6389,"ideen":6390,"zy":6391,"leb":6392,"./":6393,"brand":6394,"Ġermittelt":6395,"Serie":6396,"ĠSturm":6397,"ison":6398,"ĠDesigns":6399,"ĠLeinwand":6400,"ĠwunderschÃ¶ne":6401,"Ġgefeiert":6402,"ande":6403,"Ġti":6404,"zone":6405,"ĠRegistrierung":6406,"Ġrasch":6407,"roll":6408,"pa":6409,"sc":6410,"ris":6411,"Alles":6412,"ĠErweiterung":6413,"kul":6414,"ĠGi":6415,"ĠEN":6416,"ĠRheinland":6417,"endorf":6418,"ĠâĢº":6419,"kette":6420,"stil":6421,"ĠPsychologie":6422,"Ã¤l":6423,"ĠbloÃŁ":6424,"gewicht":6425,"ĠgÃ¼nstige":6426,"Ges":6427,"ĠKontext":6428,"ĠGroup":6429,"ĠTricks":6430,"EU":6431,"Ġjeweilige":6432,"ĠNiedersachsen":6433,"isse":6434,"ĠUnterhaltung":6435,"ĠMama":6436,"ĠTa":6437,"ĠNote":6438,"werten":6439,"Ġkostenfrei":6440,"stock":6441,"ĠZÃ¤hne":6442,"ĠGra":6443,"`":6444,"ci":6445,"elles":6446,"ule":6447,"ĠStellung":6448,"Ġfrische":6449,"tigkeit":6450,"ĠQuer":6451,"anbieter":6452,"Ġwand":6453,"ĠWorkshops":6454,"Ġeffektiv":6455,"ohne":6456,"ĠBÃ¤ume":6457,"kti":6458,"Ġvert":6459,"ĠLabor":6460,"akte":6461,"Ġbestehende":6462,"Ġumfassende":6463,"ory":6464,"vent":6465,"uter":6466,"Ġbearbeiten":6467,"ĠKenntnisse":6468,"ĠPerspektive":6469,"Bis":6470,"Ġerfordert":6471,"Ġerzielt":6472,"Dr":6473,"vis":6474,"zo":6475,"text":6476,"kan":6477,"eth":6478,"ĠkÃ¼rzlich":6479,"ĠVollzeit":6480,"messer":6481,"ĠeingefÃ¼hrt":6482,"ffe":6483,"Ġmach":6484,"Funktion":6485,"Ġflexibel":6486,"SE":6487,"Ġhohem":6488,"landschaft":6489,"Ġreagiert":6490,"ĠSpeisen":6491,"ĠPlastik":6492,"ĠScheiben":6493,"ĠRathaus":6494,"Ġbo":6495,"ĠangekÃ¼ndigt":6496,"decke":6497,"ĠErkenntnis":6498,"ĠOperation":6499,"Ġbew":6500,"Ġsage":6501,"ĠErhalt":6502,"Ober":6503,"ĠTieren":6504,"ĠOptik":6505,"Je":6506,"rechtlichen":6507,"artig":6508,"ĠBeratungs":6509,"Vom":6510,"ĠAufnahmen":6511,"schauen":6512,"Ġgemeint":6513,"futter":6514,"Ġeinrichten":6515,"waren":6516,"Ġkonkrete":6517,"gebÃ¼hr":6518,"ĠSebastian":6519,"ĠMannschaften":6520,"Tag":6521,"ĠRÃ¶":6522,"iller":6523,"ĠausgewÃ¤hlt":6524,"86":6525,"Ġ--":6526,"ĠChar":6527,"Ġgebunden":6528,"Ġgeplanten":6529,"Ġfu":6530,"Ġfinanzielle":6531,"En":6532,"Ġhundert":6533,"ĠSorge":6534,"Ġseitens":6535,"Ġkorrekt":6536,"ĠPet":6537,"Ġbedeuten":6538,"ĠRegional":6539,"Ġnackte":6540,"same":6541,"verlust":6542,"Ġrote":6543,"gers":6544,"ĠUV":6545,"machen":6546,"Hoch":6547,"Ġsingles":6548,"ĠApfel":6549,"Kl":6550,"Ganz":6551,"Her":6552,"Ġtat":6553,"Ġcool":6554,"Ġeinzigartigen":6555,"format":6556,"ĠMB":6557,"Ġfunktion":6558,"ĠgewÃ¼nschte":6559,"Ġreg":6560,"Ġth":6561,"Ġinstallieren":6562,"ona":6563,"ĠIs":6564,"Ġstabil":6565,"ĠJu":6566,"gaben":6567,"ĠOf":6568,"ĠKreativitÃ¤t":6569,"spreis":6570,"ĠgÃ¼nstiger":6571,"Ġbewertet":6572,"Ġlocker":6573,"ĠKanton":6574,"ĠSignal":6575,"ĠSendung":6576,"ĠBÃ¼":6577,"urt":6578,"ĠStuhl":6579,"ĠSumme":6580,"eigen":6581,"ĠHandlung":6582,"schlagen":6583,"ĠMercedes":6584,"code":6585,"Ġsol":6586,"abteilung":6587,"ĠHor":6588,"anc":6589,"Ġsog":6590,"ĠBor":6591,"hard":6592,"Ġfa":6593,"ĠQualitÃ¤ts":6594,"ĠModul":6595,"ĠAnnahme":6596,"Ġschlicht":6597,"lehrer":6598,"Ġberechnet":6599,"entwicklung":6600,"ĠKÃ¶nigs":6601,"ift":6602,"ĠEmpfehlungen":6603,"gÃ¤ngen":6604,"ĠDeck":6605,"schriften":6606,"fÃ¼":6607,"ĠspÃ¤teren":6608,"rolle":6609,"forum":6610,"hy":6611,"ĠGehalt":6612,"ĠBre":6613,"Ġdarstellt":6614,"liegen":6615,"Ġprofessionellen":6616,"ĠTore":6617,"Ġbedarf":6618,"Ġbad":6619,"ssystem":6620,"ram":6621,"ĠGeschÃ¤fte":6622,"ĠSchne":6623,"Ġwahre":6624,"ĠÃ¤ndert":6625,"iellen":6626,"ĠZweit":6627,"ĠzustÃ¤ndigen":6628,"Ġaufeinander":6629,"ĠBegleitung":6630,"Ġstimmen":6631,"Ġliest":6632,"ĠStaffel":6633,"Ġ1997":6634,"ĠKÃ¼hl":6635,"inge":6636,"Ġorganisieren":6637,"Ġmassiv":6638,"ohn":6639,"lesen":6640,"ret":6641,"Ġschlimm":6642,"ĠhÃ¶chst":6643,"ĠTelefonnummer":6644,"Ġdick":6645,"ĠErÃ¶ffnung":6646,"bauten":6647,"ruck":6648,"ĠMangel":6649,"ĠBestell":6650,"inner":6651,"Ġ52":6652,"ĠfÃ¶rdert":6653,"ĠNachfolger":6654,"Ġdahinter":6655,"fehler":6656,"Ġstehe":6657,"ĠWÃ¼nschen":6658,"ĠDokumentation":6659,"Ġsolches":6660,"ĠInhalten":6661,"ĠNordrhein":6662,"ĠKonferenz":6663,"Ġvorab":6664,"ĠVilla":6665,"ĠPack":6666,"ĠChristen":6667,"ĠJedoch":6668,"ĠJack":6669,"ĠBas":6670,"Ġgering":6671,"ĠStaub":6672,"Ġzentralen":6673,"back":6674,"Ġevtl":6675,"Ã¼ssen":6676,"ĠSalzburg":6677,"listen":6678,"stÃ¤nde":6679,"Ġgrund":6680,"za":6681,"igkeiten":6682,"emann":6683,"ĠKal":6684,"56":6685,"Ġfalsche":6686,"Ġheim":6687,"ĠBeteiligung":6688,"ĠDeinem":6689,"kasten":6690,"Ġvierten":6691,"Ġgemein":6692,"ĠZeitschrift":6693,"ĠeuropÃ¤ische":6694,"ĠWeltkrieg":6695,"57":6696,"Ġnationalen":6697,"Ġumgehen":6698,"ĠBezirk":6699,"ĠJahreszeit":6700,"ĠKleinen":6701,"ĠKarlsruhe":6702,"set":6703,"ĠHammer":6704,"ĠBeton":6705,"beschreibung":6706,"ĠVerl":6707,"ĠFremd":6708,"ĠIS":6709,"Ġreinigen":6710,"ĠRespekt":6711,"Ġdo":6712,"fluss":6713,"hang":6714,"ĠWil":6715,"Ġlasse":6716,"ĠErinnerungen":6717,"Tra":6718,"Ġaktiven":6719,"EC":6720,"inde":6721,"ĠKonzern":6722,"Ġhalbe":6723,"ĠStich":6724,"ĠNamens":6725,"ĠHose":6726,"ĠBerge":6727,"ĠWorkshop":6728,"Einen":6729,"Ġ03":6730,"Ġsteuer":6731,"ĠAsyl":6732,"gestellt":6733,"Ġkr":6734,"ĠErkrankung":6735,"ĠTre":6736,"ĠNichts":6737,"raf":6738,"ĠdrÃ¼cken":6739,"ied":6740,"ĠBlÃ¤tter":6741,"ĠWohnen":6742,"ĠergÃ¤nzen":6743,"maÃŁ":6744,"ĠMÃ¼he":6745,"ĠBeteiligten":6746,"ĠHochschul":6747,"Ġwohn":6748,"ĠAnsonsten":6749,"zustand":6750,"ĠAp":6751,"IK":6752,"Ġzurecht":6753,"ĠLG":6754,"ĠVorder":6755,"Ġ56":6756,"gas":6757,"ĠTouren":6758,"Ġdurften":6759,"ĠOtto":6760,"ĠDritten":6761,"ĠBegleiter":6762,"Ġbedienen":6763,"ĠAut":6764,"ĠÃľbung":6765,"Ġpersonenbezogener":6766,"ĠAfrika":6767,"aust":6768,"ĠzerstÃ¶rt":6769,"istin":6770,"ĠNeubau":6771,"raining":6772,"Bo":6773,"ĠfÃ¼llen":6774,"ĠKrise":6775,"Ġ0180":6776,"Ġhalben":6777,"Ġerrichtet":6778,"Ġanpassen":6779,"etzen":6780,"macher":6781,"Ġcon":6782,"rollen":6783,"AuÃŁerdem":6784,"Ġfestgelegt":6785,"freunde":6786,"ĠBewusstsein":6787,"Or":6788,"block":6789,"weis":6790,"Ġbek":6791,"zur":6792,"Ġaktive":6793,"ĠSobald":6794,"ĠUp":6795,"ĠAktiv":6796,"ĠAN":6797,"ĠKÃ¤se":6798,"ĠBerichte":6799,"ĠgroÃŁem":6800,"ĠZw":6801,"ieb":6802,"ĠRezepte":6803,"ĠKÃ¶rpers":6804,"kinder":6805,"ĠBeleuchtung":6806,"Ġdreht":6807,"Ġkonkreten":6808,"Ġzusammengestellt":6809,"ĠEintrag":6810,"Gr":6811,"ĠPartnerschaft":6812,"ĠAbsch":6813,"Ġme":6814,"ĠEigentlich":6815,"Westfalen":6816,"Ġerreichte":6817,"filter":6818,"Stadt":6819,"lack":6820,"amb":6821,"ĠKer":6822,"ĠBÃ¼hnen":6823,"ĠverÃ¶ffentlichen":6824,"ĠPR":6825,"ĠbeschrÃ¤nkt":6826,"ĠÃľbersetzung":6827,"Ġkonzentrieren":6828,"ĠAutorin":6829,"ĠInstitutionen":6830,"Ġanti":6831,"ĠlÃ¤ÃŁt":6832,"ĠGriechenland":6833,"ĠKÃ¼ndigung":6834,"ĠFreundschaft":6835,"ĠSmartphones":6836,"ĠMatthias":6837,"ĠTeppich":6838,"upp":6839,"ĠGeheimnis":6840,"lÃ¤nder":6841,"Ġerworben":6842,"ĠAusgaben":6843,"mÃ¶glichkeit":6844,"Ġgenannte":6845,"Ã¶rt":6846,"Ġgeringen":6847,"Ġabnehmen":6848,"Ġfinanziellen":6849,"Ġpartner":6850,"zul":6851,"ausschuss":6852,"ĠschÃ¼tzt":6853,"prozess":6854,"ags":6855,"ĠSchm":6856,"ĠGal":6857,"ĠGeschlecht":6858,"leiten":6859,"muster":6860,"ging":6861,"Ġwissenschaftliche":6862,"ĠAnwalt":6863,"Ġschmeckt":6864,"ĠKurse":6865,"Design":6866,"ĠAnwender":6867,"ĠCal":6868,"Ġumfangreiche":6869,"ĠÐ":6870,"ritt":6871,"ĠPlÃ¤ne":6872,"bereichen":6873,"ĠEmpfang":6874,"ĠTur":6875,"ĠWandel":6876,"ĠCamp":6877,"licherweise":6878,"ĠEi":6879,"Ġkleineren":6880,"ĠAction":6881,"Ġdamaligen":6882,"Ġletztes":6883,"Bereits":6884,"spflicht":6885,"ĠEntwurf":6886,"ĠBogen":6887,"ico":6888,"ĠTests":6889,"ĠMÃ¶":6890,"ĠChemie":6891,"Ġdurchschnittliche":6892,"witz":6893,"ĠErkenntnisse":6894,"Ġsonstigen":6895,"ĠTeilnehmern":6896,"ĠAusgleich":6897,"ĠVorhaben":6898,"iele":6899,"Ġschlechten":6900,"papier":6901,"ĠHeiÃŁe":6902,"ĠEinbau":6903,"ografie":6904,"ikation":6905,"Ġeuer":6906,"ĠHardware":6907,"temperatur":6908,"istischer":6909,"hel":6910,"Ġpo":6911,"Ġehe":6912,"ĠBaumwolle":6913,"Ġdicht":6914,"iziert":6915,"Ġoptisch":6916,"ĠRegelungen":6917,"kunden":6918,"artige":6919,"ichtung":6920,"ĠunverzÃ¼glich":6921,"geschichten":6922,"Ġnamens":6923,"ĠVermÃ¶gen":6924,"ĠKugel":6925,"legung":6926,"Ġober":6927,"ĠInstrument":6928,"dpa":6929,"ĠSw":6930,"ĠSchatz":6931,"ĠAufstieg":6932,"ĠHilf":6933,"ĠGramm":6934,"ĠgemÃ¼tlich":6935,"ĠSprecher":6936,"Ġeingesch":6937,"amer":6938,"ĠwÃ¤r":6939,"nahmen":6940,"ĠSG":6941,"http":6942,"ĠGame":6943,"Ġanstatt":6944,"AV":6945,"deck":6946,"ĠMord":6947,"ĠInstagram":6948,"ĠBGB":6949,"ĠGreen":6950,"ĠFonds":6951,"ĠKleider":6952,"ĠRettungs":6953,"Ġpflegen":6954,"ĠÃľberraschung":6955,"ĠBundesrepublik":6956,"Ġit":6957,"ĠSÃ¤nger":6958,"position":6959,"hnen":6960,"ĠBelastung":6961,"ĠHÃ¶":6962,"ĠPositionen":6963,"ĠmÃ¤nner":6964,"ĠMad":6965,"mail":6966,"wohnung":6967,"Falls":6968,"acken":6969,"Ġdel":6970,"ĠWolken":6971,"ĠMass":6972,"ĠHalbzeit":6973,"ki":6974,"ĠFlugzeug":6975,"Ġwirtschaftliche":6976,"ĠTrocken":6977,"ĠNerven":6978,"Ġabgestimmt":6979,"Ġdefiniert":6980,"Ġangeht":6981,"Ġbegrenzt":6982,"Ġwesentlichen":6983,"grenze":6984,"ĠAussehen":6985,"Ġinnere":6986,"Ġberichtete":6987,"Selbst":6988,"Ġaufgestellt":6989,"Ġangesprochen":6990,"Ġmobilen":6991,"alisiert":6992,"ĠKassen":6993,"aun":6994,"El":6995,"loser":6996,"ĠÃ¶sterreichischen":6997,"hoff":6998,"iter":6999,"ĠAnregungen":7000,"rats":7001,"ĠKindheit":7002,"ĠMauer":7003,"arzt":7004,"ĠReit":7005,"ĠLesben":7006,"Ġlit":7007,"Ġbeobachtet":7008,"ĠDiagnose":7009,"ĠWÃ¼rde":7010,"olf":7011,"Liebe":7012,"Ġsamt":7013,"Ġvertraut":7014,"iste":7015,"HR":7016,"ĠDritter":7017,"stufe":7018,"Ġ1996":7019,"ĠBibliothek":7020,"rist":7021,"ĠFell":7022,"ĠDecken":7023,"ĠÃ¼blich":7024,"low":7025,"stands":7026,"Ġversuche":7027,"Denn":7028,"ĠDachbeschichtung":7029,"tierung":7030,"2009":7031,"Ġheutige":7032,"ĠAmbiente":7033,"ĠIndien":7034,"Ġwarmen":7035,"voller":7036,"ual":7037,"gebÃ¼hren":7038,"sta":7039,"ĠInf":7040,"Ġbezeichnen":7041,"kunde":7042,"ĠYouTube":7043,"ĠHallo":7044,"ĠKlavier":7045,"Ġfit":7046,"ĠRen":7047,"jahres":7048,"halts":7049,"ĠVorschlag":7050,"bund":7051,"Ġerforderlichen":7052,"Bundes":7053,"rischen":7054,"ĠTopf":7055,"ĠMus":7056,"richtungen":7057,"Ġerkunden":7058,"Ġgutem":7059,"Ġhinterlassen":7060,"vel":7061,"Ġgegenseitig":7062,"Ġriesigen":7063,"Ġph":7064,"ĠHÃ¶hepunkt":7065,"ĠFeuchtigkeit":7066,"ĠHeiz":7067,"ĠTrends":7068,"Ġheutzutage":7069,"Hand":7070,"ĠÃ¼bergeben":7071,"elen":7072,"Danke":7073,"ĠerlÃ¤utert":7074,"Ġzeichnen":7075,"ĠPrÃ¤sidenten":7076,"ĠBesuchern":7077,"ĠPhilipp":7078,"ĠRenten":7079,"ĠSchneider":7080,"Ġzeigten":7081,"ĠberÃ¼hmten":7082,"Ġwertvolle":7083,"ĠGroÃŁbritannien":7084,"Ġverschieden":7085,"verd":7086,"ĠJournalisten":7087,"ical":7088,"Grund":7089,"Ġgalt":7090,"med":7091,"ĠErfolge":7092,"ĠGenerationen":7093,"aller":7094,"icke":7095,"Ġfach":7096,"itzen":7097,"ĠVorgÃ¤nger":7098,"scheibe":7099,"Ġproduzieren":7100,"ĠGroÃŁteil":7101,"Ġreine":7102,"gels":7103,"Ġvorn":7104,"izieren":7105,"ĠRunden":7106,"Ġbetreut":7107,"Ġwe":7108,"ms":7109,"Ġqualitativ":7110,"Ġlernt":7111,"Ġco":7112,"Ġpol":7113,"reifen":7114,"lÃ¶sungen":7115,"ĠArchitekten":7116,"UniversitÃ¤t":7117,"ĠTube":7118,"ĠWeiteren":7119,"ĠSchleswig":7120,"namen":7121,"ĠVorsitzende":7122,"schÃ¤den":7123,"Pl":7124,"Ġapp":7125,"Ġabsolute":7126,"ĠGerichte":7127,"ĠIt":7128,"ĠÃľbernahme":7129,"Ġangegebenen":7130,"sphase":7131,"ĠDiesen":7132,"Ġinteressanten":7133,"holen":7134,"ĠProfi":7135,"ĠAbendessen":7136,"Gruppe":7137,"Erst":7138,"ĠCol":7139,"Ġgesetzliche":7140,"Gen":7141,"ĠsorgfÃ¤ltig":7142,"ĠBehandlungs":7143,"ĠAL":7144,"Ġentscheidend":7145,"ĠZelt":7146,"umm":7147,"PC":7148,"Ġklasse":7149,"ĠHÃ¶chst":7150,"Ġwild":7151,"Ġangebracht":7152,"Ġdicke":7153,"ĠVersionen":7154,"ĠPfeffer":7155,"ĠMainz":7156,"Ġerleichtern":7157,"Ġscharf":7158,"Ġverspricht":7159,"ĠSicher":7160,"ĠAkademie":7161,"ĠPayPal":7162,"Ġgep":7163,"ieg":7164,"einrichtungen":7165,"atter":7166,"¼":7167,"59":7168,"inter":7169,"ĠUmzug":7170,"sor":7171,"ĠGet":7172,"euer":7173,"ĠHermann":7174,"pflicht":7175,"bahnen":7176,"ĠAusflug":7177,"ĠObjekte":7178,"ula":7179,"ĠEreignis":7180,"Ġriesige":7181,"ĠTreffer":7182,"ĠBegegnung":7183,"hÃ¶r":7184,"Ġpolitisch":7185,"weiter":7186,"ĠGesichts":7187,"Ġdiskutieren":7188,"ĠBewegungen":7189,"Ġkom":7190,"ĠKontroll":7191,"onn":7192,"winkel":7193,"atin":7194,"ĠToten":7195,"ĠâĢĺ":7196,"Ġbot":7197,"mals":7198,"ĠArmee":7199,"Ġbeliebten":7200,"ĠHall":7201,"ĠGirls":7202,"Mo":7203,"jÃ¤hriger":7204,"eim":7205,"ĠPrÃ¼fungs":7206,",...":7207,"ĠSpar":7208,"ĠAugsburg":7209,"ĠJobs":7210,"dach":7211,"Ġmieten":7212,"CD":7213,"ĠStadtteil":7214,"Buch":7215,"ĠPenis":7216,"Ġanmeldung":7217,"ĠVerordnung":7218,"ĠSteuerung":7219,"ĠModerne":7220,"Ġhervorragende":7221,"ĠBeach":7222,"lock":7223,"erei":7224,"ima":7225,"ĠtÃ¤gliche":7226,"stedt":7227,"ĠHierzu":7228,"ĠMÃ¼ll":7229,"stuhl":7230,"ĠdiesjÃ¤hrigen":7231,"annen":7232,"ĠWissens":7233,"viertel":7234,"itÃ¤ts":7235,"ĠÃĸffnungszeiten":7236,"ĠWeiterentwicklung":7237,"ĠAtom":7238,"ĠVersch":7239,"ups":7240,"ĠNutzungs":7241,"ĠMÃ¤ngel":7242,"ĠAustralien":7243,"quellen":7244,"Fach":7245,"uchs":7246,"Ach":7247,"ĠBestand":7248,"ĠSauna":7249,"brechen":7250,"Ġunterscheidet":7251,"atischen":7252,"ĠKu":7253,"ĠSchicksal":7254,"Ġbehaupten":7255,"Ġspannenden":7256,"Chef":7257,"ged":7258,"Ġjunger":7259,"SS":7260,"ĠMission":7261,"ĠGegenstand":7262,"ĠZufall":7263,"FA":7264,"ĠAmerika":7265,"dienste":7266,"Ġdoppelt":7267,"ĠBeschÃ¤ftigung":7268,"gehalt":7269,"ĠGepÃ¤ck":7270,"ĠGipfel":7271,"iums":7272,"halte":7273,"ĠVersandkosten":7274,"ĠIl":7275,"Ġreichlich":7276,"ĠKin":7277,"ĠFritz":7278,"atische":7279,"kor":7280,"ĠEmpfÃ¤nger":7281,"olen":7282,"ĠReform":7283,"ĠDurchschnitt":7284,"Ġkur":7285,"ĠMÃ¼nchner":7286,"ĠTempo":7287,"press":7288,"ĠAnleger":7289,"ĠGehÃ¤use":7290,"hÃ¶":7291,"Ġtreiben":7292,"ĠKonstruktion":7293,"ĠGrand":7294,"ĠSpielothek":7295,"ĠBegrÃ¼ndung":7296,"ĠMitteln":7297,"ĠverstÃ¤ndlich":7298,"blÃ¤tter":7299,"ĠMenschheit":7300,"ĠTrennung":7301,"board":7302,"ĠMak":7303,"hor":7304,"Ġumfassenden":7305,"ĠvielfÃ¤ltigen":7306,"Ġschwerer":7307,"ĠVenen":7308,"Ġbeantwortet":7309,"isierte":7310,"52":7311,"Ġunterhalten":7312,"Com":7313,"ni":7314,"ĠEnergien":7315,"streifen":7316,"ĠEt":7317,"ĠVermieter":7318,"eiÃŁ":7319,"ĠÃ¼berprÃ¼ft":7320,"Ġbeinahe":7321,"Ġmiss":7322,"stab":7323,"ĠAngel":7324,"Ġrussischen":7325,"ital":7326,"ĠKlim":7327,"mitglieder":7328,"verbandes":7329,"ĠWinkel":7330,"51":7331,"ĠCas":7332,"Ġmoderner":7333,"Ġgreift":7334,"Br":7335,"ĠStandards":7336,"Ġbezogen":7337,"ĠFlexibilitÃ¤t":7338,"Ġeuren":7339,"scha":7340,"Ġgesellschaftlichen":7341,"ĠVerletzungen":7342,"ĠStoffe":7343,"72":7344,"stufen":7345,"ĠBeg":7346,"ĠAbt":7347,"Ġ140":7348,"Ġ1995":7349,"ĠSchlacht":7350,"ĠMomente":7351,"DI":7352,"ĠAnders":7353,"leute":7354,"ĠnÃ¤chstes":7355,"Ġak":7356,"ĠVÃ¶lker":7357,"ĠNachteile":7358,"ĠLi":7359,"ĠGerichts":7360,"Ġsub":7361,"Ġwen":7362,"linien":7363,"ĠJeans":7364,"ĠLob":7365,"reinigung":7366,"ĠÃ¤lter":7367,"ĠOper":7368,"ĠVerbindungen":7369,"ĠmÃ¼sst":7370,"tal":7371,"wehr":7372,"Ã¶hn":7373,"asten":7374,"Ġrei":7375,"Ġarbeitete":7376,"stellte":7377,"Ġind":7378,"ĠMix":7379,"rÃ¤ge":7380,"Jugend":7381,"blog":7382,"ĠKap":7383,"gn":7384,"ĠFar":7385,"elemente":7386,"ĠTechniken":7387,"ĠFormular":7388,"ĠausfÃ¼hrlich":7389,"einrichtung":7390,"gte":7391,"ĠSpielern":7392,"itze":7393,"Ġbestand":7394,"ĠKlage":7395,"ologe":7396,"Ġschade":7397,"ĠbegrÃ¼ÃŁen":7398,"anzeigen":7399,"Ġaktiviert":7400,"ktor":7401,"Ġumgehend":7402,"ĠBraut":7403,"sburg":7404,"Ġherrscht":7405,"bÃ¼ro":7406,"ĠMÃ¤rchen":7407,"ĠIr":7408,"ĠFol":7409,"alisieren":7410,"Kurz":7411,"ĠSchle":7412,"Vielleicht":7413,"ĠAnwendungs":7414,"ĠFÃ¼nf":7415,"ĠFeedback":7416,"StraÃŁe":7417,"strasse":7418,"ĠgefÃ¼llt":7419,"Ġinfo":7420,"Ġtypischen":7421,"teile":7422,"Ġup":7423,"legte":7424,"agte":7425,"nissen":7426,"TR":7427,"ĠEur":7428,"Ġerw":7429,"ĠSchalt":7430,"ĠAusfÃ¼hrungen":7431,"Ġverteilen":7432,"ĠKas":7433,"olog":7434,"ĠBundestag":7435,"Ġbekommst":7436,"ĠManche":7437,"??":7438,"rig":7439,"ĠReiter":7440,"ĠBatterie":7441,"Ġ51":7442,"ĠEuropÃ¤ische":7443,"Ġmehrmals":7444,"stre":7445,"Ġnegativ":7446,"Ġpur":7447,"ĠInvestition":7448,"ausch":7449,"Ġtraditionelle":7450,"ĠAllgemeine":7451,"ĠSCH":7452,"ĠGroÃŁer":7453,"ĠVereinbarung":7454,"ĠDor":7455,"gekommen":7456,"ĠRÃ¼ckkehr":7457,"rainer":7458,"Ġfalschen":7459,"Ġkontrolliert":7460,"gelegt":7461,"ĠDokument":7462,"ĠReihen":7463,"ĠGemein":7464,"ĠVorgehen":7465,"ĠgewÃ¼nscht":7466,"ĠGesetze":7467,"Ġtrafen":7468,"van":7469,"mÃ¼hle":7470,"achtet":7471,"auswahl":7472,"Ġbaut":7473,"ĠHaft":7474,"SC":7475,"ĠSl":7476,"ĠInseln":7477,"strecke":7478,"ichts":7479,"Ġseitdem":7480,"ĠFa":7481,"rÃ¤gen":7482,"ĠWasch":7483,"Ġ110":7484,"ĠDeswegen":7485,"ĠMeeres":7486,"ĠSprung":7487,"ta":7488,"ĠFrÃ¼chte":7489,"ĠWeile":7490,"ĠWahrnehmung":7491,"ĠLab":7492,"Ġ130":7493,"ĠPotenz":7494,"Ġschlafzimmer":7495,"DR":7496,"ĠProbe":7497,"ĠStiefel":7498,"Ġ1994":7499,"ĠHonig":7500,"Ġelektronischen":7501,"under":7502,"ĠArmen":7503,"ĠAnfragen":7504,"ĠTro":7505,"ĠGrÃ¼ÃŁe":7506,"ĠUhren":7507,"gesprÃ¤ch":7508,"gy":7509,"Ġ(Â§":7510,"Ġgegebenenfalls":7511,"92":7512,"ĠEigentum":7513,"ĠMS":7514,"wohn":7515,"Ġgeholfen":7516,"ĠTÃ¤tigkeiten":7517,"Ġabgegeben":7518,"ĠEtwas":7519,"ĠBay":7520,"Ger":7521,"ĠSchulden":7522,"Ġmg":7523,"wart":7524,"Ġstieg":7525,"Ġerkennbar":7526,"rik":7527,"ĠFassung":7528,"Ġdemnach":7529,"Ġschul":7530,"2008":7531,"ĠKÃ¤lte":7532,"ĠGenehmigung":7533,"ĠAnkunft":7534,"star":7535,"54":7536,"antrag":7537,"ĠPlaneten":7538,"neu":7539,"schlÃ¤ge":7540,"ĠBrÃ¼ste":7541,"ĠEntstehung":7542,"79":7543,"ĠIdeal":7544,"nitz":7545,"rock":7546,"grad":7547,"ĠDM":7548,"ĠContent":7549,"ĠVision":7550,"ĠKaufen":7551,"Ġgeschlagen":7552,"hu":7553,"Ġwunderbare":7554,"Geb":7555,"Ġ54":7556,"Ġbau":7557,"aufgaben":7558,"herr":7559,"tragen":7560,"ĠErhÃ¶hung":7561,"glich":7562,"luft":7563,"ĠFormel":7564,"Ġeinander":7565,"ĠBass":7566,"ĠGross":7567,"ĠTomaten":7568,"ĠUkraine":7569,"gebieten":7570,"info":7571,"ĠAB":7572,"SA":7573,"ĠfÃ¼hlte":7574,"ĠHell":7575,"aser":7576,"ĠFrankfurter":7577,"eiter":7578,"spitze":7579,"ero":7580,"ĠSternen":7581,"Ġkochen":7582,"ĠJubilÃ¤um":7583,"ĠNiederlage":7584,"ĠSpass":7585,"ĠBetriebssystem":7586,"ĠTSV":7587,"werfen":7588,"ĠHilfs":7589,"RO":7590,"53":7591,"ĠZell":7592,"ĠTrauer":7593,"beitrag":7594,"Ġgebucht":7595,"Ġgefordert":7596,"ĠRichard":7597,"eid":7598,"treten":7599,"ĠInvestitionen":7600,"Ġschreibe":7601,"ĠAuseinandersetzung":7602,"gelÃ¤nde":7603,"Ġprofessionell":7604,"sinn":7605,"Ġerledigt":7606,"folie":7607,"Ġangeschlossen":7608,"Ġfeine":7609,"ĠSchuss":7610,"ĠLim":7611,"ĠAmts":7612,"richter":7613,"ĠOfen":7614,"ĠZeugen":7615,"stÃ¤rke":7616,"Ġfrom":7617,"ĠMach":7618,"Ġgeringe":7619,"ĠLÃ¶schung":7620,"atisch":7621,"Ġbeeinflusst":7622,"<":7623,"Ġdunklen":7624,"Ġern":7625,"ĠgehÃ¶rte":7626,"ologisch":7627,"Ġbearbeitet":7628,"ĠLaufzeit":7629,"ĠDecke":7630,"ĠFlasche":7631,"Ġdurchschnittlich":7632,"Ġklappt":7633,"ros":7634,"asst":7635,"Ġ66":7636,"ĠHalt":7637,"IF":7638,"anter":7639,"Ġfeiert":7640,"87":7641,"ĠAR":7642,"ĠSel":7643,"Ġerlauben":7644,"Ġbeweisen":7645,"Ġabgeben":7646,"ĠSpielzeug":7647,"ĠBestimmung":7648,"tor":7649,"Ġant":7650,"Ġumfangreichen":7651,"igungen":7652,"Ġsystem":7653,"Per":7654,"ĠDJ":7655,"Ġoptimieren":7656,"Ġexistieren":7657,"ungskosten":7658,"ĠHard":7659,"ĠLange":7660,"Bau":7661,"Ġ700":7662,"Ġbester":7663,"irn":7664,"ĠGraf":7665,"Deutschland":7666,"cc":7667,"region":7668,"Ġeigentlichen":7669,"82":7670,"ĠWa":7671,"este":7672,"ĠNachhaltigkeit":7673,"ĠFDP":7674,"ĠDeutscher":7675,"ĠEmpfehlung":7676,"Ġdankbar":7677,"Ġregionalen":7678,"Ġliebevoll":7679,"ĠvielfÃ¤ltige":7680,"ages":7681,"Ġanerkannt":7682,"ĠBoots":7683,"lers":7684,"ĠForderung":7685,"ĠMas":7686,"frauen":7687,"Ġgesichert":7688,"gg":7689,"ĠLas":7690,"Ġwaschen":7691,"ĠNahrung":7692,"97":7693,"ĠMannheim":7694,"ĠBegeisterung":7695,"Ġzumal":7696,"ĠHan":7697,"ura":7698,"ĠFernseher":7699,"zent":7700,"ausbildung":7701,"ĠKanal":7702,"Ġletztendlich":7703,"appen":7704,"staat":7705,"Ġbachelorarbeit":7706,"Ġmithilfe":7707,"74":7708,"ĠVorjahr":7709,"steine":7710,"ĠAS":7711,"Ġbedanken":7712,"ĠEp":7713,"eits":7714,"Ġmedizinischen":7715,"Ġbraun":7716,"ĠOffice":7717,"Ġrunden":7718,"wissenschaften":7719,"Ġmedizinische":7720,"Software":7721,"ĠStreet":7722,"ĠBewerber":7723,"tischer":7724,"ĠRichtlinien":7725,"ĠExtra":7726,"ĠSender":7727,"Ġerleichtert":7728,"ĠBilanz":7729,"becken":7730,"nahm":7731,"Ġzugelassen":7732,"Ġlustig":7733,"ĠTab":7734,"ĠHom":7735,"Ġoptimalen":7736,"Ġunterschiedlicher":7737,"Ġabgesehen":7738,"ausgabe":7739,"Ġsanft":7740,"Ġgewachsen":7741,"Ġwirksam":7742,"hagen":7743,"ĠPfarr":7744,"ĠKam":7745,"ĠGegenstÃ¤nde":7746,"ĠBÃ¼r":7747,"Ġperson":7748,"pfer":7749,"lang":7750,"Ġleise":7751,"Ste":7752,"ĠDat":7753,"Ġ53":7754,"jo":7755,"ĠKletter":7756,"ĠÃ¼berraschend":7757,"ĠMagazin":7758,"gu":7759,"ĠSoll":7760,"ĠKir":7761,"ĠBevor":7762,"Ġmenschliche":7763,"Ġexistiert":7764,"ĠRel":7765,"ali":7766,"Ġausgehen":7767,"Ġwollt":7768,"Ġelf":7769,"rÃ¶":7770,"ray":7771,"Ġmo":7772,"Ġgeilen":7773,"Ġhinterher":7774,"ĠHeizung":7775,"Ġgeltend":7776,"ĠAnruf":7777,"Ġdaraufhin":7778,"aufnahmen":7779,"ĠMathematik":7780,"Ġsolle":7781,"videos":7782,"Ġheisst":7783,"hne":7784,"Ġdr":7785,"lung":7786,"ĠSchrank":7787,"ĠAlternativen":7788,"ĠAllgemein":7789,"kreuz":7790,"Ġgerufen":7791,"Ġgesetzlich":7792,"Ġhilfe":7793,"halb":7794,"ĠAugenblick":7795,"bestand":7796,"wein":7797,"Kreis":7798,"Ġml":7799,"ton":7800,"Ġbesetzt":7801,"ĠaufgefÃ¼hrt":7802,"rib":7803,"srecht":7804,"73":7805,"Ġechter":7806,"ĠgelÃ¶st":7807,"Ġteilte":7808,"ĠGeschenke":7809,"ĠKollektion":7810,"ĠLieben":7811,"Ġeinverstanden":7812,"Ġhoffentlich":7813,"mÃ¶bel":7814,"Ġausgesetzt":7815,"onnen":7816,"Ġverleihen":7817,"Ġnachhaltige":7818,"ĠErwerb":7819,"Sex":7820,"ĠTonnen":7821,"Ġquer":7822,"bte":7823,"verbot":7824,"hÃ¤usern":7825,"bro":7826,"ĠAuff":7827,"ĠEinsch":7828,"Ġausgeb":7829,"ĠKammer":7830,"ĠVerkaufs":7831,"ĠFlaschen":7832,"wohl":7833,"Ġnotwendige":7834,"ĠEure":7835,"ĠDan":7836,"uchen":7837,"ĠStd":7838,"Ġverhalten":7839,"ĠTuch":7840,"ĠKÃ¶lner":7841,"Ġklaren":7842,"Ġintensive":7843,"ĠCreme":7844,"ĠRÃ¼ckseite":7845,"steuerung":7846,"schuss":7847,"las":7848,"ĠGlanz":7849,"spannung":7850,"Ġtiefen":7851,"Ġverzichtet":7852,"filme":7853,"ĠHass":7854,"ĠSofern":7855,"familie":7856,"leich":7857,"Ġoffizielle":7858,"Gegen":7859,"Ġenglischen":7860,"besuch":7861,"ĠBuches":7862,"ĠKiel":7863,"Ġmerkt":7864,"Box":7865,"Ġrief":7866,"ĠhÃ¶rte":7867,"Mir":7868,"gewinn":7869,"ĠPerspektiven":7870,"Ġkurzfristig":7871,"wurf":7872,"ĠVorbild":7873,"ĠZurÃ¼ck":7874,"manns":7875,"ĠSpektrum":7876,"ĠRÃ¤umen":7877,"ĠTrinkwasser":7878,"Kann":7879,"ĠEv":7880,"kg":7881,"ey":7882,"VG":7883,"stÃ¤nden":7884,"itis":7885,"ĠwÃ¼nscht":7886,"sicher":7887,"lan":7888,"Daten":7889,"ĠRum":7890,"ĠAC":7891,"ĠStra":7892,"achter":7893,"ĠISO":7894,"bung":7895,"ĠAspekt":7896,"Ġeinzigartig":7897,"ĠSem":7898,"ehren":7899,"ĠBerufung":7900,"Ġitalienischen":7901,"ĠMittag":7902,"ĠSanierung":7903,"Ġexakt":7904,"ĠLevel":7905,"ĠFax":7906,"Ġunkompliziert":7907,"Ã¼cken":7908,"Ġmessen":7909,"hoch":7910,"ĠKandidaten":7911,"ĠInternetseiten":7912,"ĠTempel":7913,"ĠStat":7914,"ĠUmfrage":7915,"ĠFeier":7916,"83":7917,"gibt":7918,"Ġferner":7919,"insel":7920,"Ġspontan":7921,"adresse":7922,"brÃ¼cke":7923,"ĠBachelor":7924,"ines":7925,"gerÃ¤ten":7926,"ĠLieferanten":7927,"schie":7928,"Ġblieben":7929,"ĠSofort":7930,"Ġgelangt":7931,"Ġ1980":7932,"Ã¼nd":7933,"err":7934,"ĠLÃ¤cheln":7935,"ĠSchwimm":7936,"job":7937,"hafter":7938,"steht":7939,"Ġgibts":7940,"Ġrechtlichen":7941,"ĠTun":7942,"icher":7943,"ĠFÃ¼hrungs":7944,"Ġunterschiedlichsten":7945,"ĠVorsitzender":7946,"gesp":7947,"Ġgesunden":7948,"mg":7949,"Ġwolle":7950,"mangel":7951,"ĠWC":7952,"ĠRekord":7953,"ĠErgÃ¤nzung":7954,"haut":7955,"ĠNeur":7956,"ĠMu":7957,"ĠberÃ¼hrt":7958,"ĠNachweis":7959,"Ġmy":7960,"hop":7961,"ĠprÃ¤":7962,"rid":7963,"ĠausgewÃ¤hlten":7964,"ĠNagel":7965,"aur":7966,"ĠBedienung":7967,"ĠSky":7968,"ĠDiskussionen":7969,"lichkeiten":7970,"ĠÂ©":7971,"ness":7972,"ĠEinmal":7973,"ĠLine":7974,"ĠAbends":7975,"ĠSzenen":7976,"angaben":7977,"ĠMale":7978,"Markt":7979,"Ġbrauchst":7980,"ĠPartnern":7981,"Ġvorliegenden":7982,"ĠMP":7983,"anst":7984,"Ġabgesch":7985,"ĠModern":7986,"iegen":7987,"ĠPan":7988,"ĠBecken":7989,"veranstaltung":7990,"ĠKÃ¼ste":7991,"Ġwiederholt":7992,"ĠKonsum":7993,"termin":7994,"ĠStrategien":7995,"grenzen":7996,"Ġeinzeln":7997,"ĠNet":7998,"ĠOptimierung":7999,"arts":8000,"ĠGesang":8001,"Ġ1945":8002,"All":8003,"Kunden":8004,"Ġverein":8005,"ĠBernd":8006,"fle":8007,"ĠKoalition":8008,"ÃŃ":8009,"Ġmaximale":8010,"ĠZellen":8011,"ĠTickets":8012,"ĠzufÃ¤llig":8013,"Ġbehauptet":8014,"ĠAutomobil":8015,"ĠDrucker":8016,"ĠProtest":8017,"ĠFot":8018,"mut":8019,"produkt":8020,"rieben":8021,"ado":8022,"Ġeingehen":8023,"ĠNovoline":8024,"versammlung":8025,"ĠÃ":8026,"center":8027,"Schw":8028,"Ġkonkret":8029,"Habe":8030,"Ġumgeben":8031,"Ġaufweisen":8032,"Ġanal":8033,"ĠMc":8034,"Ġgeeignete":8035,"Ġeigentliche":8036,"ĠKonzentration":8037,"300":8038,"tur":8039,"ĠGebÃ¼hr":8040,"wachsen":8041,"pack":8042,"ĠAbstimmung":8043,"ĠPrÃ¼f":8044,"ĠWiesen":8045,"rang":8046,"Ġ160":8047,"saison":8048,"Ġgesorgt":8049,"ĠSchreibtisch":8050,"ĠDek":8051,"He":8052,"ĠCarl":8053,"ĠendgÃ¼ltig":8054,"altung":8055,"ĠGrafiken":8056,"ĠSchicht":8057,"ĠPasswort":8058,"Ġreal":8059,"sammlung":8060,"ĠVerf":8061,"Ġgemessen":8062,"ĠMur":8063,"ĠBÃ¼chern":8064,"volles":8065,"nd":8066,"ool":8067,"SCH":8068,"Ġstellten":8069,"ĠTransfer":8070,"ĠLeber":8071,"Ġprobieren":8072,"seh":8073,"eier":8074,"ĠBienen":8075,"Ġunterliegen":8076,"osen":8077,"ĠSaal":8078,"lass":8079,"ĠLaptop":8080,"ĠAachen":8081,"ĠlangjÃ¤hrige":8082,"Ġstetig":8083,"ĠMisch":8084,"ĠWiesbaden":8085,"Ã¤m":8086,"ĠComp":8087,"Ã¤tz":8088,"ae":8089,"hardt":8090,"Weiter":8091,"ĠRam":8092,"Ġvorkommen":8093,"TC":8094,"ĠAuftakt":8095,"sicherheit":8096,"ith":8097,"ĠErsten":8098,"ehl":8099,"tigung":8100,"ĠMuseums":8101,"ĠBrasilien":8102,"hier":8103,"kehr":8104,"ĠÃ¼berlassen":8105,"Ġvan":8106,"weisung":8107,"ĠvielfÃ¤ltig":8108,"TA":8109,"icks":8110,"eter":8111,"ĠBenutzung":8112,"ĠSportler":8113,"fahrzeug":8114,"testen":8115,"Ġvereint":8116,"Co":8117,"ĠBra":8118,"ĠAnton":8119,"kund":8120,"tigt":8121,"vereins":8122,"Ġ....":8123,"ĠChe":8124,"ĠVerpackung":8125,"denken":8126,"ĠWurzeln":8127,"ffer":8128,"ritten":8129,"ringen":8130,"ĠCheck":8131,"ĠZinsen":8132,"Ġok":8133,"61":8134,"ĠSchokolade":8135,"ĠHut":8136,"Ġattraktive":8137,"hab":8138,"agentur":8139,"bu":8140,"illa":8141,"heil":8142,"ĠSalat":8143,"ĠHelden":8144,"Unternehmen":8145,"Ġaufgehoben":8146,"Herr":8147,"ĠHumor":8148,"Ġsorgte":8149,"Ġkombinieren":8150,"ĠSymbole":8151,"Ġparallel":8152,"Ġunsicher":8153,"Ġbegegnen":8154,"Ġerk":8155,"Ġstehenden":8156,"ĠUngarn":8157,"ape":8158,"ĠTank":8159,"oli":8160,"ĠNotfall":8161,"Ġumsetzen":8162,"ĠVorschlÃ¤ge":8163,"ĠGastronomie":8164,"Ġgold":8165,"Ġangewiesen":8166,"ĠDomain":8167,"ĠSoft":8168,"funktionen":8169,"ĠCat":8170,"ĠDisk":8171,"TEN":8172,"ĠPoly":8173,"ĠSyrien":8174,"Ġverschwunden":8175,"Ġrestlichen":8176,"Sc":8177,"ĠUfer":8178,"ĠBuchung":8179,"verlauf":8180,"ĠMarc":8181,"ĠTrag":8182,"ĠAussch":8183,"Startseite":8184,"ĠBody":8185,"Ġkontakt":8186,"Ġgaben":8187,"Ġ58":8188,"Ġlangweilig":8189,"Ġverstehe":8190,"69":8191,"Super":8192,"ĠStatt":8193,"ĠMagnet":8194,"fort":8195,"ĠPflanze":8196,"Ġgener":8197,"ĠUmbau":8198,"Ã¼sse":8199,"methoden":8200,"ĠWeihnacht":8201,"Ġstarb":8202,"Ġsahen":8203,"Reg":8204,"Ġattraktiv":8205,"uz":8206,"ĠklÃ¤ren":8207,"gau":8208,"ĠWÃ¼rmer":8209,"ĠOrdner":8210,"ĠInsolvenz":8211,"ĠTreppen":8212,"the":8213,"rech":8214,"ĠButton":8215,"ĠInvestoren":8216,"ierst":8217,"Ġyour":8218,"ĠBeamten":8219,"itzt":8220,"jacke":8221,"berichte":8222,"Ġhausarbeit":8223,"Ġkompletten":8224,"Ġbeliebte":8225,"Partner":8226,"ĠFotografie":8227,"ĠregelmÃ¤ÃŁigen":8228,"ĠiPad":8229,"Ġirgendwelche":8230,"ĠPoker":8231,"Ġbemerkt":8232,"Ġ72":8233,"ĠWatt":8234,"Ġfremden":8235,"yd":8236,"Ġbritischen":8237,"Ġschau":8238,"nah":8239,"ĠBegriffe":8240,"dom":8241,"lings":8242,"Ġzahlt":8243,"ĠfÃ¼hle":8244,"kabel":8245,"ĠRechnungs":8246,"Ġ68":8247,"ĠCover":8248,"ĠEffizienz":8249,"Ġentspannen":8250,"ĠVerdacht":8251,"ĠCoach":8252,"Ġrechte":8253,"ĠgewÃ¤hrt":8254,"ĠRatgeber":8255,"Ġtr":8256,"wenden":8257,"ĠSolche":8258,"lag":8259,"fel":8260,"ĠzurÃ¼ckzu":8261,"Ġharten":8262,"ĠInspiration":8263,"Ġbelegen":8264,"ĠdÃ¼rften":8265,"Ġstattdessen":8266,"Ġpdf":8267,"ĠPotenzial":8268,"Ġkreative":8269,"ĠAngehÃ¶rigen":8270,"Ġworauf":8271,"Ã¼re":8272,"Ġgezwungen":8273,"ĠWillkommen":8274,"ĠCafÃ©":8275,"ĠVermittlung":8276,"Ġermitteln":8277,"ĠTerror":8278,"ichter":8279,"ĠLaune":8280,"ĠBetten":8281,"kind":8282,"Ġechtes":8283,"stehende":8284,"bÃ¼rger":8285,"ĠlÃ¤ngeren":8286,"ĠEinhaltung":8287,"Ġweb":8288,"Ġerfahrenen":8289,"ĠAlltags":8290,"ĠZunÃ¤chst":8291,"ĠLande":8292,"Ġ1992":8293,"shop":8294,"Ġenge":8295,"erv":8296,"AF":8297,"ĠursprÃ¼nglichen":8298,"ĠKissen":8299,"tive":8300,"scheid":8301,"ĠVersorgungs":8302,"KE":8303,"Aut":8304,"Ġdownload":8305,"ĠNationen":8306,"Ġeingegangen":8307,"Musik":8308,"ĠZivil":8309,"spruch":8310,"Ġziel":8311,"ĠTrau":8312,"ĠMitteilung":8313,"93":8314,"Ġgebildet":8315,"ĠkrÃ¤ftig":8316,"aufwand":8317,"ĠAkten":8318,"Ġersch":8319,"Stand":8320,"Ġverleiht":8321,"ĠfranzÃ¶sische":8322,"Ġnachts":8323,"Â».":8324,"Ġregistriert":8325,"ĠSMS":8326,"Ġeingetragen":8327,"Ġverschwinden":8328,"ĠGeburts":8329,"Ġakzeptieren":8330,"Ġgeeigneten":8331,"blau":8332,"ĠLeg":8333,"hart":8334,"ĠSchuppenflechte":8335,"ĠBit":8336,"schild":8337,"arbeits":8338,"ĠVerfÃ¼gbarkeit":8339,"ĠCHF":8340,"ĠJÃ¤ger":8341,"ĠregelmÃ¤ÃŁige":8342,"ĠGÃ¼ter":8343,"Ġlokale":8344,"ĠBart":8345,"ĠPfarrer":8346,"ĠIran":8347,"paket":8348,"haben":8349,"Ġart":8350,"ĠÃľbergang":8351,"Ġamerikanische":8352,"ĠRedaktion":8353,"Ġtrainieren":8354,"ĠStimm":8355,"ĠAufklÃ¤rung":8356,"scheiben":8357,"ĠWÃ¤nde":8358,"stunde":8359,"ĠPapst":8360,"ĠVerm":8361,"eins":8362,"Ġlo":8363,"63":8364,"Dollar":8365,"Ġ360":8366,"leder":8367,"ĠWehr":8368,"wirt":8369,"Ġexternen":8370,"ĠSegel":8371,"ĠKompetenzen":8372,"gesellschaften":8373,"ĠLÃ¼":8374,"ĠenttÃ¤uscht":8375,"ĠRoulette":8376,"ĠRasen":8377,"Ġmerken":8378,"Online":8379,"ump":8380,"ĠKetten":8381,"ĠÃ¼ben":8382,"ĠTurm":8383,"reiten":8384,"Ġumwelt":8385,"sentwicklung":8386,"ĠOrgan":8387,"ĠBill":8388,"ĠMill":8389,"orientierte":8390,"ĠLok":8391,"ĠsÃ¼ÃŁ":8392,"71":8393,"Ġgebeten":8394,"Ġmore":8395,"ĠWettkampf":8396,"ĠgleichermaÃŁen":8397,"ĠDeckel":8398,"ĠLiebling":8399,"tent":8400,"ĠWel":8401,"ush":8402,"Ġjemals":8403,"Ġstartete":8404,"ĠUl":8405,"Ġwichtiges":8406,"Ġaufbauen":8407,"ĠPriester":8408,"Ġelektronische":8409,"ĠCharme":8410,"Immer":8411,"ĠRitter":8412,"ĠzukÃ¼nftig":8413,"Ġlog":8414,"ĠAller":8415,"Ġerf":8416,"isierten":8417,"Ġarbeits":8418,"brief":8419,"ĠKohle":8420,"Ġsport":8421,"feier":8422,"Ġ1993":8423,"fil":8424,"ĠSofa":8425,"ĠOrientierung":8426,"gten":8427,"schmerzen":8428,"ĠAusÃ¼bung":8429,"essel":8430,"ĠOP":8431,"let":8432,"ĠKassel":8433,"Ġverlor":8434,"Ġfeinen":8435,"ĠBÃ¶":8436,"Gerade":8437,"datum":8438,"raut":8439,"ĠLeague":8440,"ĠLokal":8441,"ĠWÃ¤hlen":8442,"Ġleitet":8443,"ĠZer":8444,"pat":8445,"ĠMÃ¼tter":8446,"Ġgekennzeichnet":8447,"Besonders":8448,"ĠCre":8449,"ĠErb":8450,"ĠAnbau":8451,"gezogen":8452,"Ġinner":8453,"ĠPrint":8454,"ĠCH":8455,"Ġbereitet":8456,"haupt":8457,"Ġentnehmen":8458,"uc":8459,"ĠNotwendigkeit":8460,"zwei":8461,"Tour":8462,"Ġausgerichtet":8463,"Mails":8464,"nit":8465,"ua":8466,"ĠbemÃ¼ht":8467,"Ã¤d":8468,"ĠEscort":8469,"Ġschwach":8470,"ĠCall":8471,"zie":8472,"Ġrussische":8473,"ĠTauch":8474,"uster":8475,"iertem":8476,"gerechte":8477,"Ġikea":8478,"ĠAv":8479,"Ġangebotenen":8480,"ĠKommunen":8481,"schuh":8482,"nacht":8483,"ĠEisenbahn":8484,"gelassen":8485,"Ġsicherzustellen":8486,"Ġres":8487,"OG":8488,"Teil":8489,"ĠKampagne":8490,"ĠJames":8491,"ĠZweiten":8492,"Ġeingeb":8493,"over":8494,"Ġhamburg":8495,"fotos":8496,"ĠBestÃ¤tigung":8497,"ĠHen":8498,"zell":8499,"ĠEbenen":8500,"ĠTransparenz":8501,"ĠImmobilie":8502,"ĠMaler":8503,"ichtet":8504,"ĠVerpflichtung":8505,"ĠStufen":8506,"ĠGerman":8507,"Ġtrug":8508,"ĠDiÃ¤t":8509,"ĠNight":8510,"ĠbegrÃ¼ndet":8511,"ĠErziehung":8512,"ĠAlex":8513,"Ġwien":8514,"ĠVis":8515,"ĠVereinigten":8516,"Ġanfangs":8517,"Shirt":8518,"Ġunterhalb":8519,"ĠAuswertung":8520,"rechtliche":8521,"ĠMinister":8522,"ĠErnÃ¤hrungs":8523,"mie":8524,"ĠMand":8525,"pert":8526,"ĠMÃ¤dels":8527,"ichen":8528,"ĠNah":8529,"wetter":8530,"Ġlebens":8531,"ĠRoute":8532,"grÃ¼nden":8533,"uelle":8534,"Ġangemeldet":8535,"Ġverraten":8536,"ĠNutzern":8537,"Ġinvestiert":8538,"uft":8539,"sprung":8540,"ĠBakterien":8541,"ĠFlÃ¼gel":8542,"stat":8543,"ĠHP":8544,"ĠÃ¤hnlichen":8545,"werb":8546,"Ġvorge":8547,"igsten":8548,"Ġannehmen":8549,"ĠDeko":8550,"Ġna":8551,"ĠBuchstaben":8552,"ĠRet":8553,"ĠVert":8554,"ĠSimon":8555,"auff":8556,"Holstein":8557,"62":8558,"ĠStartseite":8559,"Ġproblem":8560,"graben":8561,"ĠGras":8562,"ĠAbmagerung":8563,"sÃ¤tze":8564,"ĠgrÃ¼ne":8565,"PrÃ¤sident":8566,"VO":8567,"ĠMeinungen":8568,"Wasser":8569,"BS":8570,"sicherung":8571,"Ġgeltenden":8572,"Ġbunten":8573,"rip":8574,"gesetzt":8575,"Ġleiten":8576,"Ã¤ndern":8577,"ĠInhaber":8578,"ĠBenzin":8579,"Ġgepflegt":8580,"\":":8581,"ĠAusblick":8582,"vin":8583,"ĠLese":8584,"ĠBetriebe":8585,"Ġschlimmer":8586,"ĠSehen":8587,"ĠsaÃŁ":8588,"ĠMobilitÃ¤t":8589,"ace":8590,"Ġganzes":8591,"schte":8592,"Ġsteuern":8593,"annte":8594,"ĠStÃ¤rken":8595,"ee":8596,"ĠGefÃ¤ngnis":8597,"Ġwiderrufen":8598,"link":8599,"ida":8600,"ppe":8601,"Ġkonzentriert":8602,"ĠwunderschÃ¶n":8603,"ĠZeilen":8604,"ĠhÃ¤ufigsten":8605,"ĠRE":8606,"boot":8607,"ĠSperma":8608,"ĠVolumen":8609,"ĠMannes":8610,"ĠDistanz":8611,"zentren":8612,"stÃ¤tten":8613,"Ġ1989":8614,"ĠTicket":8615,"ĠKleinanzeigen":8616,"Ġweh":8617,"ktive":8618,"ĠBehinderung":8619,"ĠStore":8620,"gegeben":8621,"Ġaufgefallen":8622,"vern":8623,"ĠErfolgs":8624,"ĠlÃ¶st":8625,"ĠTran":8626,"ĠMittlerweile":8627,"Ġhohes":8628,"motor":8629,"hÃ¤n":8630,"Ġmod":8631,"Ġbereiten":8632,"Ġeinzig":8633,"igungs":8634,"Ġzustande":8635,"Technologie":8636,"Gut":8637,"ĠPay":8638,"ĠKomplett":8639,"Ġdis":8640,"Ġed":8641,"Ġglas":8642,"Foto":8643,"kleid":8644,"enten":8645,"ĠDebatte":8646,"Ã¼b":8647,"ĠStadion":8648,"ous":8649,"Ġgeld":8650,"ĠSpeed":8651,"ĠHeinz":8652,"ĠKonsequenzen":8653,"sendung":8654,"ĠDefinition":8655,"ĠWeber":8656,"ĠTextil":8657,"ĠPussy":8658,"Ġwerdet":8659,"ichtige":8660,"ye":8661,"aar":8662,"ĠKing":8663,"ĠbehÃ¤lt":8664,"ips":8665,"Ġgenossen":8666,"Modell":8667,"schlÃ¼ssel":8668,"bogen":8669,"esser":8670,"Ġarbeite":8671,"ĠTool":8672,"ĠTypen":8673,"ji":8674,"hler":8675,"kontakt":8676,"ĠBrÃ¼der":8677,"Ġkeineswegs":8678,"ĠDieter":8679,"ĠFerienwohnung":8680,"kontrolle":8681,"Ġkulturellen":8682,"klassen":8683,"Recht":8684,"ĠReis":8685,"Ã¤hr":8686,"ĠIns":8687,"ĠVen":8688,"Ġheran":8689,"ĠerfÃ¤hrt":8690,"ĠGutes":8691,"enne":8692,"mund":8693,"ĠNaturschutz":8694,"skraft":8695,"ĠAlbert":8696,"ĠFlecken":8697,"ktions":8698,"leiste":8699,"ĠZielgruppe":8700,"ĠSchmutz":8701,"ĠÃľbertragung":8702,"Ġvertrauen":8703,"ĠAntrieb":8704,"ĠIsland":8705,"gegangen":8706,"81":8707,"ĠKreditkarte":8708,"ĠFerienhaus":8709,"wÃ¼r":8710,"tra":8711,"ĠvollstÃ¤ndige":8712,"ĠTurn":8713,"ĠVeranstaltungs":8714,"ĠVal":8715,"bit":8716,"liga":8717,"ĠVide":8718,"ĠGran":8719,"ĠHeck":8720,"bew":8721,"ament":8722,"ĠKalk":8723,"spunkt":8724,"ĠKonzepte":8725,"?)":8726,"ĠGR":8727,"ami":8728,"Ġetliche":8729,"ĠHallen":8730,"Ġglatt":8731,"ĠMachen":8732,"ĠBlitz":8733,"bas":8734,"ĠPla":8735,"Ġbetonte":8736,"Ġverursachen":8737,"ĠOut":8738,"ĠSeen":8739,"Hrsg":8740,"Ġversp":8741,"ierbar":8742,"Ġare":8743,"ĠHunger":8744,"lad":8745,"ĠeBay":8746,"ĠVerbreitung":8747,"Ġerledigen":8748,"arl":8749,"Ã¶ll":8750,"Ã¤nd":8751,"ĠLangen":8752,"ĠPlatte":8753,"ĠNebenwirkungen":8754,"behÃ¶rden":8755,"Ġmobil":8756,"ĠLaufen":8757,"ente":8758,"Ġgesperrt":8759,"ĠdurchzufÃ¼hren":8760,"titel":8761,"ĠBehÃ¶rde":8762,"acker":8763,"Ġpersonenbezogene":8764,"fol":8765,"ĠMonster":8766,"treffen":8767,"Ġsprich":8768,"ĠLieb":8769,"ĠLautsprecher":8770,"Ġir":8771,"Ġtypische":8772,"saal":8773,"Ġkalten":8774,"Ġbas":8775,"ĠModellen":8776,"ĠiOS":8777,"Ġgeplante":8778,"ĠEingabe":8779,"ĠElektronik":8780,"ĠExtrem":8781,"olt":8782,"Ġ57":8783,"Ġwestlichen":8784,"ikt":8785,"Ġnunmehr":8786,"verzeichnis":8787,"ef":8788,"Ġwahrgenommen":8789,"ĠJury":8790,"ĠAccount":8791,"ĠÃ¼bernahm":8792,"ĠSchrauben":8793,"Artikel":8794,"sucht":8795,"utzt":8796,"ĠKontaktdaten":8797,"Ġbeenden":8798,"ĠEhr":8799,"iler":8800,"ĠGutachten":8801,"Ġbetreibt":8802,"Ġ69":8803,"ĠKochen":8804,"ĠPatient":8805,"ĠMicro":8806,"ĠBezahlung":8807,"ĠwÃ¼r":8808,"richt":8809,"ĠSamen":8810,"Datei":8811,"ĠFazit":8812,"ĠInteressenten":8813,"ĠSoweit":8814,"ĠStatistik":8815,"Ġpf":8816,"Â«.":8817,"ĠSÃ¤":8818,"Ġniedriger":8819,"ĠProvinz":8820,"Ġkonsequent":8821,"ĠerÃ¶ffnen":8822,"Ã¤lt":8823,"Ġlei":8824,"Ġbedient":8825,"legt":8826,"Ġabend":8827,"ĠWeine":8828,"Ġrealisieren":8829,"ĠEmotionen":8830,"Ġvern":8831,"Ġgross":8832,"ĠSowohl":8833,"Test":8834,"gro":8835,"Aufgrund":8836,"ĠHighlights":8837,"ĠBerechnung":8838,"ĠEinnahme":8839,"studium":8840,"',":8841,"atch":8842,"Ġsoviel":8843,"Ġruft":8844,"Platz":8845,"Ġhinauf":8846,"rennen":8847,"ĠZeug":8848,"ĠReferenz":8849,"gerichts":8850,"Ġengagiert":8851,"ĠHeft":8852,"ĠGrundschule":8853,"ĠHinzu":8854,"Ġoriginal":8855,"ĠanlÃ¤sslich":8856,"Ġtausend":8857,"ĠVerhandlungen":8858,"ĠMay":8859,"Ġniedrigen":8860,"Ġ59":8861,"otte":8862,"ĠCa":8863,"Ġrealisiert":8864,"oto":8865,"ml":8866,"Ġweichen":8867,"kurse":8868,"ĠMittelalter":8869,"Ġanscheinend":8870,"Ã¤ss":8871,"ĠGottesdienst":8872,"punkten":8873,"ĠSat":8874,"alz":8875,"ĠTelekom":8876,"sprÃ¼fung":8877,"lÃ¤nge":8878,"probe":8879,"ĠCamping":8880,"Ġbreites":8881,"ĠEbenfalls":8882,"ĠBew":8883,"Å":8884,"ĠMitgliedschaft":8885,"tl":8886,"ĠBR":8887,"ĠAlb":8888,"ĠEL":8889,"ĠModel":8890,"mannschaft":8891,"zieht":8892,"roman":8893,"rol":8894,"ĠBergen":8895,"raft":8896,"ĠKlÃ¤ger":8897,"Ġkunden":8898,"CO":8899,"ĠSicherung":8900,"sky":8901,"Ġdroht":8902,"Ġgelaufen":8903,"ĠjÃ¼ngsten":8904,"video":8905,"ĠWanderung":8906,"bal":8907,"Ġkaputt":8908,"Ġentscheidende":8909,"Ġeingebaut":8910,"Ġengen":8911,"ĠSau":8912,"Ġbeider":8913,"rel":8914,"Ġsozusagen":8915,"brett":8916,"ĠGerhard":8917,"ĠKamin":8918,"ĠWann":8919,"ĠDonau":8920,"Ġsc":8921,"book":8922,"ĠÃ¼beraus":8923,"werbung":8924,"Ġfreiwillig":8925,"Ġgemeldet":8926,"2007":8927,"Ġverschaffen":8928,"Inter":8929,"schm":8930,"Ġverbundenen":8931,"ĠGeistes":8932,"ĠCup":8933,"ĠBeck":8934,"ĠAsien":8935,"Ġfe":8936,"ĠgemÃ¼tlichen":8937,"Ġdicken":8938,"dass":8939,"iche":8940,"ĠDreier":8941,"ĠTexten":8942,"ĠverfÃ¼gbaren":8943,"ĠAusrÃ¼stung":8944,"Ġangemessen":8945,"post":8946,"marke":8947,"Ġentschied":8948,"work":8949,"Ġbestehend":8950,"Ã":8951,"Star":8952,"Ġstattfindet":8953,"ney":8954,"ĠArzneimittel":8955,"ĠVerhÃ¤ltnisse":8956,"Ġumzusetzen":8957,"âĦ¢":8958,"gast":8959,"ochen":8960,"Schn":8961,"ĠAust":8962,"ĠVar":8963,"ĠInsekten":8964,"Ġkritisch":8965,"ĠUlrich":8966,"ĠProfis":8967,"ĠOliver":8968,"Ġausgelegt":8969,"uth":8970,"Ġberechnen":8971,"ĠLen":8972,"wÃ¤sche":8973,"kont":8974,"weiten":8975,"ĠPen":8976,"Ġnachfolgenden":8977,"Ġwirft":8978,"Ġ1991":8979,"ĠOnlineshop":8980,"Ġderart":8981,"Ġvoneinander":8982,"ĠSteine":8983,"atis":8984,"Form":8985,"ĠVaters":8986,"ausstattung":8987,"ĠMeldung":8988,"ĠgenÃ¼gt":8989,"ĠGeduld":8990,"ĠUmstÃ¤nde":8991,"sehr":8992,"Ġ62":8993,"Ġbett":8994,"ĠMuskeln":8995,"ĠBisher":8996,"gerecht":8997,"chef":8998,"eut":8999,"ĠAdressen":9000,"ĠWikipedia":9001,"kuchen":9002,"ĠInternationalen":9003,"ĠZo":9004,"Ġstreng":9005,"ĠImage":9006,"ĠSAP":9007,"ĠkÃ¶rperliche":9008,"ĠEinzahlung":9009,"Ġgeladen":9010,"ĠfÃ¼hrten":9011,"Ġstil":9012,"ĠRichtlinie":9013,"Ġap":9014,"tigten":9015,"zeitung":9016,"ĠFabrik":9017,"atives":9018,"ħ":9019,"ativer":9020,"ĠCyber":9021,"Ġliegenden":9022,"mitglied":9023,"Ġvorbehalten":9024,"ĠAnpassung":9025,"89":9026,"ĠKost":9027,"ĠBischof":9028,"ĠSpann":9029,"Ġwohin":9030,"enner":9031,"ĠnÃ¶tigen":9032,"ĠDIE":9033,"Ġmittleren":9034,"ammen":9035,"ĠWÃ¤hler":9036,"lade":9037,"online":9038,"dorfer":9039,"ĠUnterrichts":9040,"ĠAbwechslung":9041,"Ġberuht":9042,"ĠWohnraum":9043,"Ġteilt":9044,"ĠKatalog":9045,"Ġgeschichten":9046,"spr":9047,"84":9048,"car":9049,"reif":9050,"ĠEinkaufs":9051,"Ġstudierte":9052,"Ġentschlossen":9053,"ĠHeidelberg":9054,"Ġ96":9055,"ĠER":9056,"ĠShops":9057,"betreiber":9058,"keln":9059,"ii":9060,"Beg":9061,"stellungs":9062,"ĠQuartal":9063,"ĠDicke":9064,"Ġversteckt":9065,"irt":9066,"ĠMittagessen":9067,"ĠbÃ¶se":9068,"Ġwesentliche":9069,"ĠRau":9070,"Con":9071,"ĠTeenager":9072,"ĠSorten":9073,"ĠBÃ¶rsen":9074,"aktionen":9075,"ĠHelmut":9076,"beln":9077,"ĠDienstleister":9078,"Ġerheben":9079,"ĠAbsicht":9080,"Ġsingen":9081,"Ġkontinuierlich":9082,"ĠLeib":9083,"Ġakzeptiert":9084,"Ã¤nderung":9085,"Ġpornos":9086,"ĠOS":9087,"Ġempfehlenswert":9088,"ĠSeelen":9089,"Ġlagen":9090,"ausstellung":9091,"Ġwarme":9092,"Ġderselben":9093,"Ġkontrollieren":9094,"ĠImmerhin":9095,"itsch":9096,"cen":9097,"ĠFaust":9098,"zahlungen":9099,"ĠForen":9100,"ĠÃľberprÃ¼fung":9101,"Ġ1970":9102,"ĠNull":9103,"ĠFeatures":9104,"Ġ63":9105,"Ġrelevanten":9106,"sprach":9107,"deutsche":9108,"ones":9109,"Ġregionale":9110,"achtung":9111,"ĠSelbstverstÃ¤ndlich":9112,"ausen":9113,"ĠCr":9114,"Ġff":9115,"mein":9116,"ĠEinnahmen":9117,"ĠTouch":9118,"ĠJacke":9119,"ĠStÃ¶rungen":9120,"ĠWÃ¶rter":9121,"Ġintegrieren":9122,"Ġverliebt":9123,"rt":9124,"ĠErholung":9125,"Ġtrennen":9126,"ĠGalaxy":9127,"tisches":9128,"ĠArbeitsmarkt":9129,"ibel":9130,"Besch":9131,"fit":9132,"ĠKlicken":9133,"fre":9134,"Ġschlug":9135,"tre":9136,"Jahr":9137,"Ġfertigen":9138,"Ġfassen":9139,"ĠMehl":9140,"ĠLKW":9141,"Obwohl":9142,"ĠSchriften":9143,"Ġenger":9144,"Ðĵ":9145,"ui":9146,"hÃ¤ngen":9147,"Ġandern":9148,"ĠSchild":9149,"Ġumfassend":9150,"ĠVertrÃ¤ge":9151,"ĠStaatsanwaltschaft":9152,"Haben":9153,"ĠPor":9154,"Ġxxx":9155,"Ġtiefe":9156,"ĠdemnÃ¤chst":9157,"ĠBlutdruck":9158,"altet":9159,"gasse":9160,"Ġfuhren":9161,"ĠTu":9162,"ĠBlogs":9163,"Ġlese":9164,"Ġgo":9165,"Ġgestiegen":9166,"ĠAuÃŁer":9167,"ork":9168,"ĠTeufel":9169,"Ġteurer":9170,"ĠAuffassung":9171,"sprecher":9172,"fÃ¼hr":9173,"fÃ¶rderung":9174,"ĠBrÃ¼cken":9175,"Ġheimischen":9176,"Ġanzusehen":9177,"ĠKulturen":9178,"ĠHeu":9179,"leitungen":9180,"besitzer":9181,"Ġausgebaut":9182,"ĠFakultÃ¤t":9183,"tigte":9184,"ĠRecherche":9185,"dlich":9186,"ĠStift":9187,"werden":9188,"Allerdings":9189,"Ġkannte":9190,"fÃ¤l":9191,"ĠVerg":9192,"Ġabsch":9193,"plÃ¤tzen":9194,"ĠForst":9195,"Ġglobalen":9196,"Ġfix":9197,"Ġmarkt":9198,"ĠKÃ¼sten":9199,"ĠverÃ¶ffentlichte":9200,"ĠQualifikation":9201,"Ad":9202,"offen":9203,"ani":9204,"ĠhinzufÃ¼gen":9205,"ĠerhÃ¶hte":9206,"Ġbedingt":9207,"UT":9208,"Ġfilm":9209,"94":9210,"ĠInneren":9211,"Ziel":9212,"ĠLight":9213,"wellen":9214,"Ġsh":9215,"Ġinnovativen":9216,"Ġzwingend":9217,"Ġmonatlich":9218,"ĠBeute":9219,"acke":9220,"rage":9221,"uhl":9222,"Ġ2020":9223,"ĠReichweite":9224,"yk":9225,"ĠSpÃ¤ter":9226,"Wert":9227,"speicher":9228,"ĠGemeinschafts":9229,"ĠKoffer":9230,"stoÃŁ":9231,"dest":9232,"Ã¼s":9233,"Dank":9234,"FF":9235,"zÃ¼gen":9236,"Ġjegliche":9237,"Ġversorgen":9238,"ĠUND":9239,"ĠKommen":9240,"ĠGestalt":9241,"name":9242,"ĠTrÃ¤nen":9243,"schirm":9244,"Ġmassage":9245,"Ġzweiter":9246,"unge":9247,"etzung":9248,"ĠBauer":9249,"Ġ(=":9250,"ĠJÃ¶rg":9251,".):":9252,"ĠEinschrÃ¤nkung":9253,"digen":9254,"ĠFetisch":9255,"Ġbed":9256,"ĠMerkur":9257,"geschwindigkeit":9258,"Ġherstellen":9259,"Ġdurchs":9260,"Ġsexkontakte":9261,"Ġtraurig":9262,"kissen":9263,"Fans":9264,"Par":9265,"Ġverurteilt":9266,"rÃ¤n":9267,"ĠBochum":9268,"hÃ¼tte":9269,"Ġanzubieten":9270,"ĠStudierende":9271,"ĠBir":9272,"ĠGlaubens":9273,"Ġherz":9274,"ĠSeh":9275,"aktiv":9276,"veranstaltungen":9277,"ĠHorn":9278,"Up":9279,"Ġveranstaltet":9280,"Klasse":9281,"Ġthat":9282,"wiesen":9283,"urch":9284,"eiden":9285,"stem":9286,"Ġkar":9287,"ĠMillion":9288,"modelle":9289,"ĠHorst":9290,"ommen":9291,"ĠSwingerclub":9292,"ĠÃľberwachung":9293,"ĠEines":9294,"ĠCookie":9295,"ĠGermany":9296,"%.":9297,"ĠGewebe":9298,"Ġausser":9299,"--":9300,"ĠAlternativ":9301,"Ġgefolgt":9302,"ĠEinzelfall":9303,"ĠÃ¼bermittelt":9304,"anien":9305,"Des":9306,"Ġgestorben":9307,"ĠInstrumente":9308,"welle":9309,"ĠDrachen":9310,"ĠBescheid":9311,"HL":9312,"eta":9313,"anspruch":9314,"Ã¶nen":9315,"ĠWesentlichen":9316,"ĠPolizisten":9317,"manager":9318,"Laut":9319,"ĠReaktionen":9320,"ilt":9321,"ĠEhre":9322,"ces":9323,"ĠPin":9324,"Ġtoller":9325,"ĠFaktor":9326,"Ġzentral":9327,"ĠJulia":9328,"Trotz":9329,"ikan":9330,"ĠBruch":9331,"hÃ¶ren":9332,"Ã¶ren":9333,"ĠHandbuch":9334,"kam":9335,"Ã³":9336,"ĠDez":9337,"ĠGerechtigkeit":9338,"ĠFranzÃ¶sisch":9339,"Ġgelegentlich":9340,"Ġbinnen":9341,"ĠfÃ¤ngt":9342,"mÃ¤ÃŁige":9343,"ĠDarmstadt":9344,"zeuge":9345,"ĠCross":9346,"Top":9347,"Ġdecken":9348,"rein":9349,"Ġgerechnet":9350,"ĠVerteidigung":9351,"ĠDay":9352,"ĠAbl":9353,"ĠKanada":9354,"ĠBedÃ¼rfnissen":9355,"leuchten":9356,"zten":9357,"ĠmuÃŁte":9358,"verbrauch":9359,"bauen":9360,"PA":9361,"ĠNebel":9362,"ĠEinschÃ¤tzung":9363,"Book":9364,"wende":9365,"ĠWach":9366,"Pfalz":9367,"row":9368,"Ġbeides":9369,"ĠAuszeichnung":9370,"index":9371,"ave":9372,"Ġeurer":9373,"Welche":9374,"Ġhingewiesen":9375,"Ġblauen":9376,"Ġcan":9377,"ĠGeheim":9378,"ĠSM":9379,"ĠAutomaten":9380,"aw":9381,"zusammen":9382,"ĠSekunde":9383,"eitung":9384,"ĠAchtung":9385,"ĠSchach":9386,"Ġmu":9387,"ĠLÃ¶wen":9388,"feste":9389,"ĠGlÃ¼cksspiel":9390,"Ġheil":9391,"Ġelegant":9392,"ĠEcken":9393,"Ġgrob":9394,"Ġschenken":9395,"ĠHau":9396,"bereitschaft":9397,"ĠGeschÃ¤ftsbedingungen":9398,"materialien":9399,"reffen":9400,"Ġfreier":9401,"Ġhiermit":9402,"ĠStationen":9403,"ĠAcht":9404,"ĠMotive":9405,"aker":9406,"Ã¼nst":9407,"riv":9408,"wn":9409,"nes":9410,"Ġvorliegen":9411,"Ð°":9412,"setz":9413,"Ġ->":9414,"ĠDarum":9415,"Ðµ":9416,"ene":9417,"reten":9418,"ĠHir":9419,"ello":9420,"ĠTOP":9421,"Ġbeteiligten":9422,"ilen":9423,"Ġuntersuchen":9424,"Na":9425,"Ġzuge":9426,"Ġ350":9427,"aul":9428,"ĠSpaziergang":9429,"yt":9430,"Î":9431,"ĠHam":9432,"ziele":9433,"wick":9434,"ritz":9435,"Ġlass":9436,"ĠVerbrechen":9437,"Ġsetzten":9438,"fache":9439,"QualitÃ¤t":9440,"ĠDesktop":9441,"ĠKids":9442,"ĠChr":9443,"Ġerstaunlich":9444,"ĠInzwischen":9445,"Ġplant":9446,"aming":9447,"grÃ¶ÃŁen":9448,"ĠWerkzeuge":9449,"ĠDekoration":9450,"ĠReiÃŁverschluss":9451,"ĠKurt":9452,"ĠVerw":9453,"ĠMul":9454,"Ġentwickelten":9455,"verkehrs":9456,"ĠMillimeter":9457,"Ġmitnehmen":9458,"ĠKongress":9459,"mb":9460,"ĠDienstleistung":9461,"ĠRucksack":9462,"âĨĳ":9463,"Ġhaut":9464,"ĠIM":9465,"ĠunzÃ¤hlige":9466,"ĠCro":9467,"ĠVerbrauch":9468,"ĠLady":9469,"Ġplatz":9470,"Ġfolgten":9471,"ĠSpezialisten":9472,"Ġerhielten":9473,"ĠSony":9474,"ĠSin":9475,"Ġewig":9476,"ĠFriedhof":9477,"creme":9478,"ĠEC":9479,"andt":9480,"tage":9481,"ĠPKW":9482,"Ġbewerben":9483,"ĠTalent":9484,"ĠÃľbungs":9485,"ĠverÃ¶ffentlichten":9486,"Produkt":9487,"ĠEinheiten":9488,"Ġmusikalische":9489,"Ġincl":9490,"ĠFÃ¼ÃŁen":9491,"zern":9492,"zeugen":9493,"ĠPhysik":9494,"Ġmeldet":9495,"profil":9496,"gendes":9497,"ĠInc":9498,"NE":9499,"ĠKerzen":9500,"Ġeffizient":9501,"ilder":9502,"zuf":9503,"cer":9504,"aster":9505,"Ġgeschnitten":9506,"legten":9507,"Port":9508,"izierte":9509,"ĠspÃ¤ten":9510,"91":9511,"paar":9512,"wÃ¤rts":9513,"urn":9514,"ĠVÃ¶gel":9515,"Ġintensiver":9516,"stermin":9517,"uchten":9518,"Ġaktualisiert":9519,"ĠBetracht":9520,"Ġaut":9521,"ĠSpa":9522,"ĠAnstieg":9523,"ĠMerkmale":9524,"Ġbeteiligen":9525,"ĠIndex":9526,"fter":9527,"Ġgeregelt":9528,"ĠFal":9529,"steck":9530,"ĠFilmen":9531,"Video":9532,"ĠBM":9533,"ĠAnalytics":9534,"ĠAccessoires":9535,"ĠverlÃ¤ngert":9536,"ĠWagner":9537,"Ġschweiz":9538,"ĠProstata":9539,"liebe":9540,"ĠChampions":9541,"ĠCan":9542,"ĠMr":9543,"Ġbundesweit":9544,"iale":9545,"ĠDeluxe":9546,"ziehung":9547,"Ġehr":9548,"400":9549,"Ġkonzipiert":9550,"einheiten":9551,"ĠAdvent":9552,"spro":9553,"Ġvorhandene":9554,"ĠSchuljahr":9555,"ĠLinux":9556,"ĠzukÃ¼nftige":9557,"ĠBabys":9558,"ĠNachteil":9559,"ĠCSU":9560,"Frei":9561,"schten":9562,"ĠIntelligenz":9563,"ĠHosen":9564,"projekte":9565,"Ġbefand":9566,"Ġerg":9567,"ĠKupfer":9568,"ĠWohlbefinden":9569,"aps":9570,"ĠTiefen":9571,"ĠFolgenden":9572,"ns":9573,"ĠDirektor":9574,"Weil":9575,"Ã¼cke":9576,"euert":9577,"Ã¤nger":9578,"Ġwach":9579,"ĠgÃ¼ltig":9580,"Ġuntereinander":9581,"Med":9582,"tif":9583,"annten":9584,"lands":9585,"ĠBluetooth":9586,"ĠFelder":9587,"ĠFrisch":9588,"],":9589,"aft":9590,"Ġberufliche":9591,"hilfen":9592,"mÃ¤ÃŁigen":9593,"Ġflach":9594,"ĠFavoriten":9595,"ĠGraz":9596,"ĠSupermarkt":9597,"rates":9598,"Ġdeines":9599,"Ġ125":9600,"ĠAbitur":9601,"ĠSpeicherung":9602,"swerte":9603,"ĠSextreffen":9604,"ument":9605,"rische":9606,"ĠgetÃ¶tet":9607,"Ġfind":9608,"Ġherrlich":9609,"ĠRande":9610,"regeln":9611,"Ġaktivieren":9612,"Ġstaatlichen":9613,"ĠNor":9614,"stieg":9615,"Ġfahr":9616,"ĠWelten":9617,"ĠPhÃ¤nomen":9618,"ĠKontaktformular":9619,"Ġaufzubauen":9620,"ĠHochschulen":9621,"Ġac":9622,"ku":9623,"anleitung":9624,"ĠLÃ¶sungs":9625,"OK":9626,"ible":9627,"inken":9628,"ĠKrisen":9629,"ĠErz":9630,"rechten":9631,"ackt":9632,"sches":9633,"ĠRegisseur":9634,"Ġholte":9635,"ĠFel":9636,"Ġgestattet":9637,"ĠZucht":9638,"ĠFlorian":9639,"Ġruhiger":9640,"ĠGE":9641,"ĠRahmenbedingungen":9642,"ĠRÃ¤umlichkeiten":9643,"ĠzulÃ¤ssig":9644,"ĠHeilung":9645,"aute":9646,"Ġbillig":9647,"oben":9648,"ĠAnderen":9649,"ĠVergnÃ¼gen":9650,"Zudem":9651,"emm":9652,"Ġlachen":9653,"mach":9654,"schaden":9655,"Ġfick":9656,"Ġvereinbaren":9657,"ĠPlanungs":9658,"ĠgefÃ¼hlt":9659,"ĠZe":9660,"Ġchinesischen":9661,"Mann":9662,"ĠSieben":9663,"ennt":9664,"ĠInformatik":9665,"Ne":9666,"setzt":9667,"Set":9668,"Ġwomit":9669,"ĠMatch":9670,"ĠDavon":9671,"ĠAufruf":9672,"korb":9673,"Ġausgeglichen":9674,"Rund":9675,"ĠgÃ¤be":9676,"aste":9677,"zugs":9678,"isa":9679,"ĠJahrzehnte":9680,"glichen":9681,"sprozesse":9682,"ĠgerÃ¤t":9683,"Schule":9684,"kann":9685,"Frau":9686,"ĠEdel":9687,"ĠBot":9688,"ĠHy":9689,"ĠFuss":9690,"ĠKonzerte":9691,"iefer":9692,"Ġaufgerufen":9693,"ĠStell":9694,"ĠVerfahrens":9695,"ĠJesu":9696,"Ġson":9697,"Ġkreativ":9698,"abschluss":9699,"Ġlauter":9700,"Ġwirtschaftlich":9701,"produkten":9702,"ĠGedanke":9703,"ender":9704,"ĠHil":9705,"Ġgegessen":9706,"Ġumsonst":9707,"Ã¼ckt":9708,"ĠZus":9709,"ĠJens":9710,"ĠSemester":9711,"ĠGeruch":9712,"ĠTools":9713,"ĠAbwicklung":9714,"Ġgeleistet":9715,"Ġgeholt":9716,"Ġzuzu":9717,"mode":9718,"haber":9719,"ll":9720,"JÃ¤hrigen":9721,"ĠÃ¤hnliches":9722,"Ã¶ck":9723,"ĠÃ¼berlegt":9724,"schÃ¶n":9725,"DarÃ¼ber":9726,"ĠDuisburg":9727,"software":9728,"val":9729,"Ã¤f":9730,"Ġattraktiven":9731,"ĠKre":9732,"ĠGewichts":9733,"ĠCharaktere":9734,"ĠBlue":9735,"ĠThÃ¼ringen":9736,"Ġkommende":9737,"loch":9738,"heft":9739,"BB":9740,"HD":9741,"Ġnegativen":9742,"sweise":9743,"aka":9744,"una":9745,"schneiden":9746,"ĠAndrea":9747,"ĠmÃ¼de":9748,"born":9749,"ĠFlÃ¼chtlings":9750,"SÃ¼d":9751,"Ġdaneben":9752,"uell":9753,"reden":9754,"ids":9755,"anze":9756,"ĠverwÃ¶hnen":9757,"esh":9758,"ĠFahrzeugen":9759,"medien":9760,"isen":9761,"ĠSS":9762,"Ġtra":9763,"gemacht":9764,"Ġexterne":9765,"ĠKosmetik":9766,"log":9767,"Ã¤ng":9768,"Vert":9769,"dens":9770,"auftrag":9771,"nehmer":9772,"bewertung":9773,"ĠKontrast":9774,"ĠErnte":9775,"ĠErmittlungen":9776,"ĠZufriedenheit":9777,"ĠVi":9778,"Ġerteilt":9779,"Ġdorthin":9780,"Ġbeurteilen":9781,"ĠFertigung":9782,"ĠSteck":9783,"ĠMi":9784,"ĠBeschÃ¤ftigten":9785,"wal":9786,"ĠFeind":9787,"cel":9788,"Ġstarker":9789,"ĠReiz":9790,"ĠCoaching":9791,"ĠeingeschrÃ¤nkt":9792,"Ã¼ten":9793,"ĠNeuer":9794,"fÃ¼llung":9795,"haar":9796,"ĠSchriftsteller":9797,"Ã¼ss":9798,"Ġkomfortabel":9799,"ĠJoachim":9800,"ĠJean":9801,"ģ":9802,"Ġwandern":9803,"???":9804,"Ġregistrieren":9805,"Ġausprobiert":9806,"Ph":9807,"Ġplan":9808,"OB":9809,"Ġverliehen":9810,"ĠWeiterhin":9811,"nten":9812,"start":9813,"Ġjahr":9814,"risiko":9815,"ĠselbststÃ¤ndig":9816,"kamp":9817,"ĠGewissen":9818,"ĠbegrÃ¼ÃŁt":9819,"ĠAlarm":9820,"oni":9821,"iti":9822,"Ġtypisch":9823,"Ġschwieriger":9824,"Ġfinanziell":9825,"ĠWÃ¼r":9826,"gelesen":9827,"Oder":9828,"Ġkulturelle":9829,"oter":9830,"ĠBereitstellung":9831,"ĠStars":9832,"Ur":9833,"Car":9834,"rÃ¼cken":9835,"rÃ¤der":9836,"2006":9837,"ĠGegenÃ¼ber":9838,"ĠLife":9839,"Ġfing":9840,"ĠHardcore":9841,"ctor":9842,"ĠOlymp":9843,"systems":9844,"ypen":9845,"dige":9846,"ĠEg":9847,"ĠFels":9848,"ĠSchwein":9849,"ior":9850,"ĠLabel":9851,"tere":9852,"ĠAktuell":9853,"Ġvorliegt":9854,"Ġeigenem":9855,"West":9856,"Ġvornehmen":9857,"Ġwieso":9858,"ĠHyper":9859,"ĠAnbietern":9860,"strÃ¤ger":9861,"ĠTau":9862,"ards":9863,"ĠRose":9864,"werkstatt":9865,"Ġzumeist":9866,"ĠprÃ¤zise":9867,"kleider":9868,"Dazu":9869,"ĠHirn":9870,"ĠBohr":9871,"Ġdunkle":9872,"ĠSho":9873,"teilen":9874,"Ġlau":9875,"ĠBernhard":9876,"ĠEss":9877,"ova":9878,"uchte":9879,"ĠData":9880,"ĠKohl":9881,"ĠErhebung":9882,"FC":9883,"ĠfrÃ¼here":9884,"Ġentscheidenden":9885,"lebens":9886,"ĠSir":9887,"Ho":9888,"betriebe":9889,"ĠLow":9890,"PR":9891,"tels":9892,"ĠMaÃŁnahme":9893,"utsch":9894,"ĠHunden":9895,"porno":9896,"ĠEich":9897,"Ġaufzunehmen":9898,"ĠJur":9899,"Ġnebenbei":9900,"Ġansprechen":9901,"ĠPartnervermittlung":9902,"Ġlust":9903,"ĠpersÃ¶nlicher":9904,"hÃ¤lt":9905,"gold":9906,"Ġangeb":9907,"Ģ":9908,"ĠAusrichtung":9909,"ĠBundeswehr":9910,"ĠLampen":9911,"schalten":9912,"ĠStirn":9913,"ĠArbeitszeit":9914,"sÃ¤ure":9915,"zus":9916,"ĠFun":9917,"Į":9918,"Ã¢":9919,"ĠGruÃŁ":9920,"ĠGummi":9921,"Band":9922,"ofen":9923,"Ġtitten":9924,"ĠVerzeichnis":9925,"Web":9926,"ĠAufenthalts":9927,"ĠDraht":9928,"Ġgefangen":9929,"ĠCur":9930,"aub":9931,"ĠStephan":9932,"ĠFried":9933,"endem":9934,"Ġ67":9935,"hafen":9936,"ĠHyp":9937,"Ġweite":9938,"strahl":9939,"ĠAusgangspunkt":9940,"fahrzeuge":9941,"ĠÃ¼bersetzt":9942,"Ġtag":9943,"ĠFreie":9944,"TM":9945,"Ġnegative":9946,"Ġzweier":9947,"Ġharte":9948,"ĠRegie":9949,"ĠFertig":9950,"ĠKab":9951,"Ġtraditionell":9952,"ĠnÃ¶tige":9953,"Ã¼ll":9954,"Ġangewendet":9955,"ĠAbschied":9956,"ais":9957,"leitet":9958,"ĠPension":9959,"ĠApotheke":9960,"vergleich":9961,"ikationen":9962,"wel":9963,"messe":9964,"Ġangenehme":9965,"noch":9966,"dar":9967,"Ġvorbereiten":9968,"ministerin":9969,"ĠÃľberleben":9970,"sbe":9971,"heizung":9972,"ĠMrd":9973,"Ġwem":9974,"ĠLeiden":9975,"vermÃ¶gen":9976,"Ġmachst":9977,"ĠBeurteilung":9978,"ĠDÃ¤nemark":9979,"Â":9980,"KT":9981,"Ġstudieren":9982,"ĠBauen":9983,"steigen":9984,"ĠKnoblauch":9985,"ĠBitcoin":9986,"rÃ¤um":9987,"eiler":9988,"ĠDunkel":9989,"ĠEinzug":9990,"statt":9991,"Ã¤ter":9992,"ĠTrÃ¤ume":9993,"ral":9994,"ĠDamals":9995,"Ġma":9996,"Ġgrad":9997,"Ã¨":9998,"Sk":9999,"ĠSchwarzen":10000,"ĠVerfassung":10001,"Ġspielten":10002,"Ġrezept":10003,"wettbewerb":10004,"ĠWider":10005,"Ġ1988":10006,"Ġheilen":10007,"Ġbestanden":10008,"ĠInternationale":10009,"Ġinternet":10010,"tasche":10011,"vol":10012,"ĠLebensjahr":10013,"Ġempf":10014,"ĠVR":10015,"Ġteen":10016,"Stiftung":10017,"niveau":10018,"ION":10019,"links":10020,"ĠhÃ¶chstens":10021,"ĠÃ¼bers":10022,"ehn":10023,"Ã¼st":10024,"Ġfreund":10025,"ĠVorsicht":10026,"pern":10027,"ĠBetroffene":10028,"rank":10029,"Ġverbracht":10030,"ĠzukÃ¼nftigen":10031,"Ġste":10032,"ĠTropfen":10033,"Frauen":10034,"Ġkauft":10035,"Ġnachgewiesen":10036,"Ġneuem":10037,"Ġschwierigen":10038,"ĠIngenieur":10039,"Ġmus":10040,"vier":10041,"ils":10042,"ĠKinderzimmer":10043,"denk":10044,"Ġsinn":10045,"Ġfair":10046,"zogen":10047,"Ġenergie":10048,"Ġbiete":10049,"bef":10050,"ĠKoll":10051,"dy":10052,"ĠKette":10053,"eingang":10054,"vention":10055,"Ġsiehst":10056,"ĠPreisvergleich":10057,"Drei":10058,"ĠSor":10059,"Ã¶pf":10060,"Insgesamt":10061,"ĠFull":10062,"schalter":10063,"âĢī":10064,"fleisch":10065,"Ġko":10066,"Ġantworten":10067,"wÃ¤nde":10068,"ĠLandtag":10069,"ĠSur":10070,"Peter":10071,"ĠMuseen":10072,"Ġbefreit":10073,"ĠBbw":10074,"Ġruhigen":10075,"organisationen":10076,"arische":10077,"Ġlangem":10078,"Ġqm":10079,"ĠGebieten":10080,"Ġbacken":10081,"ĠAM":10082,"ĠBesonderheiten":10083,"ĠRoh":10084,"Ġinternen":10085,"ĠReinigungs":10086,"verhÃ¤ltnis":10087,"ĠÃĦgypten":10088,"stete":10089,"Ġjenen":10090,"ĠSchein":10091,"Ġgeradezu":10092,"Out":10093,"ĠBd":10094,"mod":10095,"Ġ978":10096,"ĠKerl":10097,"ĠAusstellungs":10098,"ĠPflichten":10099,"ĠLÃ¤rm":10100,"Mon":10101,"Ġmusikalischen":10102,"Ġerfassen":10103,"ĠDritt":10104,"Eigentlich":10105,"rages":10106,"ĠBelgien":10107,"Ġser":10108,"Ġwunder":10109,"EST":10110,"ĠKlÃ¤gerin":10111,"ĠfrÃ¼hzeitig":10112,"ĠMecklenburg":10113,"Do":10114,"ĠGedÃ¤chtnis":10115,"ress":10116,"ĠVersuche":10117,"ĠErlebnisse":10118,"Ġbevorzugt":10119,"ato":10120,"Ġgeschenkt":10121,"ĠListen":10122,"zeichnung":10123,"modus":10124,"Ġverpasst":10125,"ĠLÃ¶cher":10126,"Ġweiten":10127,"ĠSauerstoff":10128,"ĠÃ¼berraschen":10129,"ĠFashion":10130,"ĠDre":10131,"Ġgenauen":10132,"ĠBedien":10133,"º":10134,"anda":10135,"Ġangeben":10136,"Ġeinzelner":10137,"ĠKenn":10138,"ĠVorsitzenden":10139,"ĠHast":10140,"ĠkÃ¼mmert":10141,"ĠMeisterschaft":10142,"BE":10143,"ĠAuslÃ¤nder":10144,"ĠKeramik":10145,"Ġ3000":10146,"ĠRauchen":10147,"spartner":10148,"ysteme":10149,"ĠAktivitÃ¤t":10150,"milch":10151,"urg":10152,"Ġangemessene":10153,"Ġrel":10154,"utzen":10155,"ĠRezensionen":10156,"ĠKontaktaufnahme":10157,"ĠLÃ¶":10158,"ĠOrchester":10159,"Ġgefickt":10160,"ĠFra":10161,"ĠMigration":10162,"ĠFlÃ¼ssigkeit":10163,"Ġfremd":10164,"Ġschriftliche":10165,"Ġfre":10166,"Ġbritische":10167,"ried":10168,"Ġumgekehrt":10169,"ĠJoseph":10170,"Ġdeutschsprachigen":10171,"On":10172,"DF":10173,"typ":10174,"Ġ98":10175,"Ġzweites":10176,"Ã¤ngen":10177,"orgen":10178,"ĠSL":10179,"ĠColl":10180,"ĠAuszahlung":10181,"ĠFelix":10182,"brot":10183,"ĠMitgliederversammlung":10184,"Ġbefreien":10185,"ĠGestalten":10186,"Ġmet":10187,"ĠausgelÃ¶st":10188,"Server":10189,"ĠUniversity":10190,"ĠBab":10191,"ĠRÃ¤tsel":10192,"schloss":10193,"Ġkritisiert":10194,"Ġide":10195,"ĠPrÃ¤senz":10196,"Ġvoraussichtlich":10197,"itionen":10198,"arf":10199,"heben":10200,"ĠWhite":10201,"mung":10202,"ĠHandlungen":10203,"ĠJakob":10204,"ĠOutfit":10205,"ĠKanzlei":10206,"WE":10207,"ĠMario":10208,"Â§":10209,"ĠRente":10210,"fÃ¼hrungen":10211,"ĠRichtige":10212,"ĠAbfall":10213,"Verlag":10214,"ĠFlirt":10215,"ĠAGB":10216,"ĠUniversitÃ¤ten":10217,"ł":10218,"schlÃ¤gen":10219,"ĠDaumen":10220,"wendet":10221,"Ã¤tzen":10222,"ĠFunktionalitÃ¤t":10223,"ĠBrunnen":10224,"ĠWelpen":10225,"Ġlie":10226,"ĠPornofilme":10227,"ĠHd":10228,"ampe":10229,"plus":10230,"Ġdeutliche":10231,"aufbau":10232,"ĠEinblicke":10233,"ĠDusch":10234,"aks":10235,"Gesch":10236,"ĠDER":10237,"ĠpersÃ¶nliches":10238,"massage":10239,"ĠTar":10240,"Ġeingebunden":10241,"Ġbewahren":10242,"ĠTragen":10243,"ĠPotsdam":10244,"Ġlanden":10245,"ĠSti":10246,"fo":10247,"Viel":10248,"Ġweibliche":10249,"ĠSeil":10250,"volumen":10251,"Ġirgend":10252,"ĠFerienwohnungen":10253,"Th":10254,"ĠHaken":10255,"ĠGre":10256,"Ġreinen":10257,"Ġminimal":10258,"Arbeits":10259,"OW":10260,"sprech":10261,"Ġsportlichen":10262,"skosten":10263,"ĠMusic":10264,"handlung":10265,"Ġeinladen":10266,"ĠWeit":10267,"anschluss":10268,"ores":10269,"tend":10270,"eige":10271,"ĠTafel":10272,"ĠTreppe":10273,"uni":10274,"iser":10275,"ĠManfred":10276,"bezogene":10277,"Ġrobust":10278,"ĠOp":10279,"Ã¼ÃŁ":10280,"ĠLeid":10281,"Fest":10282,"basis":10283,"ĠRoten":10284,"ĠFood":10285,"Zusammen":10286,"ekt":10287,"ĠTasten":10288,"Keine":10289,"ĠHu":10290,"Ġgenial":10291,"Karte":10292,"Ġniedrig":10293,"Neue":10294,"ĠPir":10295,"Ġeinsch":10296,"ĠMwSt":10297,"uro":10298,"Ġabgew":10299,"jugend":10300,"spe":10301,"ĠHahn":10302,"Ġmitunter":10303,"Ġbekamen":10304,"ĠMatt":10305,"ĠInvestment":10306,"nummern":10307,"ĠFelsen":10308,"Ġzugrunde":10309,"ĠjÃ¼dischen":10310,"Ġerzielte":10311,"AND":10312,"ĠÃ¶rtlichen":10313,"ĠEffekte":10314,"person":10315,"ritts":10316,"Ġbetreffenden":10317,"auchen":10318,"ĠmaÃŁgeblich":10319,"ĠChaos":10320,"masse":10321,"Ġus":10322,"Ġabgelehnt":10323,"ĠStre":10324,"anis":10325,"ĠVel":10326,"DER":10327,"Oh":10328,"ĠIntern":10329,"ĠFord":10330,"dl":10331,"ĠRegensburg":10332,"Ġlebendig":10333,"ĠClubs":10334,"ĠAug":10335,"ĠBachelorarbeit":10336,"ĠVorgang":10337,"beutel":10338,"anke":10339,"Ġchristlichen":10340,"Ġholt":10341,"Ġbesuchte":10342,"ĠRubrik":10343,"ĠHollywood":10344,"ĠSchweiÃŁ":10345,"Ġfinanziert":10346,"Ġkomplexe":10347,"Ã¶st":10348,"Ġlinke":10349,"ĠLiege":10350,"Ġdanken":10351,"ĠLungen":10352,"mand":10353,"ĠErziehungs":10354,"ĠVan":10355,"ahrung":10356,"Ġgleicher":10357,"vertrÃ¤ge":10358,"ĠDatenverarbeitung":10359,"ĠSchauspiel":10360,"braun":10361,"will":10362,"Ġhaftet":10363,"ĠWoll":10364,"Ġausger":10365,"ĠgÃ¤ngigen":10366,"Ġ61":10367,"Ġ77":10368,"ĠSchwule":10369,"ĠBlogger":10370,"Ã¼bungen":10371,"Ġzusammengefasst":10372,"ĠEingriff":10373,"ĠTeller":10374,"Ġerfahrene":10375,"Ġerl":10376,"ĠMarien":10377,"ĠWitz":10378,"Ġvielfach":10379,"Ġneugierig":10380,"ringe":10381,"freundlich":10382,"bindung":10383,"ĠMeyer":10384,"ikanische":10385,"Dar":10386,"Ġ89":10387,"ĠHerrschaft":10388,"zei":10389,"ahnen":10390,"ĠdÃ¼nn":10391,"morgen":10392,"Ġbrachten":10393,"samkeit":10394,"auern":10395,"ĠBeauty":10396,"ĠAusstellungen":10397,"ĠGener":10398,"Haupt":10399,"Ġert":10400,"ĠBarbara":10401,"ĠWartung":10402,"Einige":10403,"Ġbekanntesten":10404,"Produkte":10405,"programme":10406,"leiterin":10407,"ĠStattdessen":10408,"ĠSteigerung":10409,"Ġbunte":10410,"Ġboden":10411,"Ġanbietet":10412,"institut":10413,"oper":10414,"ĠNieren":10415,"ĠTerrassen":10416,"ĠFotografen":10417,"ĠgeklÃ¤rt":10418,"kompetenz":10419,"ĠausgewÃ¤hlte":10420,"ologischer":10421,"unst":10422,"ĠHandhabung":10423,"osse":10424,"nutzung":10425,"ĠProben":10426,"ĠWahlen":10427,"Ġout":10428,"stÃ¶rungen":10429,"ple":10430,"Ġgeschm":10431,"ehlen":10432,"Ġgesellschaftliche":10433,"Ġerarbeitet":10434,"ĠOpposition":10435,"itor":10436,"ĠweiÃŁt":10437,"ĠgroÃŁartige":10438,"ĠWut":10439,"ĠEinklang":10440,"folgen":10441,"ĠJahrgang":10442,"trag":10443,"auber":10444,"OC":10445,"!Â«":10446,"Ġzahl":10447,"ĠFÃ¼lle":10448,"ĠKalorien":10449,"Ġfarb":10450,"angs":10451,"eide":10452,"Ġanonym":10453,"Ġsicherer":10454,"ĠFinanzen":10455,"ĠWende":10456,"gÃ¤nger":10457,"ĠVerfassungs":10458,"mi":10459,"ĠZumindest":10460,"Sollten":10461,"omat":10462,"ĠBrÃ¼ssel":10463,"Ġseite":10464,"undes":10465,"leit":10466,"Ġter":10467,"Ġherbei":10468,"gehende":10469,"Ġtrau":10470,"bur":10471,"ĠWerken":10472,"erte":10473,"ĠProtokoll":10474,"ĠerzÃ¤hlte":10475,"))":10476,"Ġnetten":10477,"Ġles":10478,"ĠTruppen":10479,"fabrik":10480,"ĠFraktion":10481,"ĠLad":10482,"Ġintensiven":10483,"arischen":10484,"Ġarbeit":10485,"ĠEhefrau":10486,"ĠBielefeld":10487,"Ġsenken":10488,"strich":10489,"Ġschmecken":10490,"ĠBedenken":10491,"ĠAkt":10492,"Ġspart":10493,"Ġgehandelt":10494,"onie":10495,"rix":10496,"pfel":10497,"Ġbunt":10498,"ĠKlimaanlage":10499,"ĠReihenfolge":10500,"ĠBesser":10501,"ĠBull":10502,"ĠDick":10503,"II":10504,"rah":10505,"akten":10506,"beteiligung":10507,"Ġheftig":10508,"betreuung":10509,"ĠIhm":10510,"herz":10511,"ĠDB":10512,"verbÃ¤nde":10513,"Ġrechtliche":10514,"Ġbem":10515,"krÃ¤fte":10516,"Ġbinden":10517,"leuchte":10518,"ĠLE":10519,"Ã¼cher":10520,"digt":10521,"geschlagen":10522,"klass":10523,"ĠKÃ¶":10524,"lim":10525,"Ġverlegt":10526,"ĠFriedens":10527,"ĠerwÃ¤hnen":10528,"ohl":10529,"ĠVerlÃ¤ngerung":10530,"ĠMiete":10531,"ischt":10532,"onne":10533,"Ġzwischendurch":10534,"spur":10535,"kunft":10536,"Ġentworfen":10537,"Ġwunderbaren":10538,"ĠRas":10539,"ĠImpressum":10540,"ĠSattel":10541,"ĠWeiss":10542,"Ġvorerst":10543,"ĠSuchmaschinen":10544,"ĠverlÃ¤uft":10545,"tex":10546,"konferenz":10547,"Ġlebte":10548,"ĠRainer":10549,"Ġelektrische":10550,"verarbeitung":10551,"FS":10552,"ĠArbeitsplÃ¤tze":10553,"Ġschwimmen":10554,"Ġversetzt":10555,"methode":10556,"ĠNÃ¤gel":10557,"ĠGPS":10558,"lieb":10559,"ĠMobilfunk":10560,"ĠFÃ¼hrer":10561,"Ġpass":10562,"ĠMoskau":10563,"ĠMake":10564,"ĠOff":10565,"Park":10566,"gefahr":10567,"kamera":10568,"BER":10569,"ucken":10570,"Ġschloss":10571,"Ġ1960":10572,"Ġgeleitet":10573,"ĠEigenschaft":10574,"verhÃ¤ltnisse":10575,"ĠLebensqualitÃ¤t":10576,"ĠgrÃ¼ndlich":10577,"ĠRudolf":10578,"Ġsau":10579,"Fe":10580,"ĠGaming":10581,"Ġbeeindruckt":10582,"ĠUwe":10583,"ĠZins":10584,"ession":10585,"ĠRechten":10586,"ĠHÃ¼tte":10587,"ĠbewÃ¤ltigen":10588,"Ġtier":10589,"Ġtrainiert":10590,"ĠKron":10591,"php":10592,"Ġerfreut":10593,"ĠSpitz":10594,"ĠWor":10595,"ĠStau":10596,"ĠKey":10597,"ĠVortrÃ¤ge":10598,"Modus":10599,"Ã¼hl":10600,"ĠPortfolio":10601,"aya":10602,"ĠRead":10603,"ĠAst":10604,"WeiÃŁ":10605,"Ġfrag":10606,"zonen":10607,"Ġlecken":10608,"here":10609,"ĠSammel":10610,"Ġverlaufen":10611,"ĠHi":10612,"Ġdigital":10613,"ĠNormal":10614,"ĠAnfangs":10615,"achsen":10616,"ĠRechtsprechung":10617,"Spiele":10618,"ws":10619,"folg":10620,"ĠPhil":10621,"ĠExport":10622,"ĠFu":10623,"ĠChemnitz":10624,"ĠFische":10625,"Ġbisherige":10626,"ĠPatrick":10627,"Vielen":10628,"Ġexklusive":10629,"Ġankommt":10630,"ĠPolyester":10631,"Ġ[*":10632,"Ġbefestigt":10633,"ĠFlach":10634,"Ġclub":10635,"inne":10636,"ĠLebensdauer":10637,"Ġsportliche":10638,"lehr":10639,"oberflÃ¤che":10640,"ĠSpieltag":10641,"packen":10642,"echte":10643,"serklÃ¤rung":10644,"ĠGebÃ¤uden":10645,"ĠKult":10646,"Zimmer":10647,"Ġnationale":10648,"ĠBraunschweig":10649,"ĠSun":10650,"Ġzw":10651,"ĠFerner":10652,"ichtig":10653,"ĠWirksamkeit":10654,"ays":10655,"banken":10656,"ĠSign":10657,"Ġfett":10658,"ĠSchwei":10659,"ĠBands":10660,"Plattform":10661,"faktor":10662,"ĠHeraus":10663,"ĠAngela":10664,"ĠKorrektur":10665,"ĠJavaScript":10666,"ĠAktuelle":10667,"ĠÃ¤ltesten":10668,"Ġfamilien":10669,"ĠDarauf":10670,"Ġanalysiert":10671,"Ġ74":10672,"sert":10673,"ĠFortschritt":10674,"ĠLeucht":10675,"ĠMid":10676,"Ġsu":10677,"ĠDeb":10678,"Ġabgelegt":10679,"Ġdruck":10680,"act":10681,"ĠNacken":10682,"ieten":10683,"ĠWurzel":10684,"part":10685,"bezug":10686,"Hotel":10687,"ĠBil":10688,"ĠLor":10689,"ĠHum":10690,"eigenschaften":10691,"ĠUrsprung":10692,"ĠMetal":10693,"ĠGab":10694,"party":10695,"Ġtipps":10696,"dliche":10697,"ĠÃľbrigen":10698,"ĠPremiere":10699,"âĢĭ":10700,"iegel":10701,"Sind":10702,"Ġdokumentiert":10703,"Ġspr":10704,"ĠTatsÃ¤chlich":10705,"mil":10706,"ĠOkt":10707,"ĠBrÃ¼":10708,"probleme":10709,"Ġneueste":10710,"esp":10711,"Ġversprochen":10712,"ĠvollstÃ¤ndigen":10713,"ĠVerteilung":10714,"Ġzwanzig":10715,"kleidung":10716,"Ġerhebliche":10717,"ĠBestseller":10718,"Nord":10719,"ĠTabletten":10720,"note":10721,"ĠBalance":10722,"Ġminder":10723,"Kultur":10724,"ners":10725,"fÃ¼hrt":10726,"ĠPlattformen":10727,"Ġstreichen":10728,"reform":10729,"Ġkreativen":10730,"hre":10731,"kÃ¼che":10732,"ĠWebcam":10733,"VA":10734,"staaten":10735,"Ġbetragen":10736,"Ġweiblichen":10737,"ĠUpdates":10738,"ĠUns":10739,"ĠHang":10740,"gefÃ¤hr":10741,"Ġengagieren":10742,"fangen":10743,"ĠWettbewerbs":10744,"Ġbrechen":10745,"Hat":10746,"}":10747,"Ġeint":10748,"ahren":10749,"ĠZusammenfassung":10750,"Ġzugreifen":10751,"ilde":10752,"ĠZahlungen":10753,"Ġkind":10754,"ĠDeal":10755,"verschluss":10756,"Ġeingeben":10757,"Ã¼nden":10758,"ĠHeiÃŁ":10759,"Ġ900":10760,"ĠSchritten":10761,"Film":10762,"Ġlohnen":10763,"Home":10764,"Ġwohnt":10765,"Ġbekannter":10766,"ĠBayer":10767,"Ġumfassen":10768,"wÃ¼rdig":10769,"ĠHein":10770,"War":10771,"ĠLangzeit":10772,"kat":10773,"iva":10774,"ehm":10775,"hain":10776,"ĠMineral":10777,"oe":10778,"Ġfolgendes":10779,"=\"":10780,"emen":10781,"Leistungs":10782,"Ġhochwertig":10783,"ĠRuhr":10784,"lust":10785,"ĠDerzeit":10786,"Ġschwanger":10787,"mitte":10788,"ĠFlÃ¼ge":10789,"ĠAussen":10790,"usst":10791,"Ġlas":10792,"logen":10793,"standes":10794,"oma":10795,"wÃ¤r":10796,"ĠArgument":10797,"Ġkatholischen":10798,"Sollte":10799,"ĠFilms":10800,"ĠHill":10801,"Ġidentifizieren":10802,"Ã¶ff":10803,"ĠPiraten":10804,"Ġinmitten":10805,"Ġ88":10806,"ĠKliniken":10807,"ĠNehmen":10808,"ĠPalette":10809,"Ġversprechen":10810,"ĠSchall":10811,"ĠYou":10812,"ĠIntensiv":10813,"Ġglaub":10814,"Ġsportlich":10815,"ĠEinschrÃ¤nkungen":10816,"ĠAward":10817,"ĠSaft":10818,"fal":10819,"Ġnet":10820,"ĠKlo":10821,"ĠVermÃ¶gens":10822,"ĠSÃ¤tze":10823,"hs":10824,"ĠstÃ¶rt":10825,"Ġmontiert":10826,"ides":10827,"ĠFrÃ¼her":10828,"Ġpartnervermittlung":10829,"Quelle":10830,"Ġfol":10831,"Ġverpassen":10832,"Ġstaatliche":10833,"Ġsach":10834,"ĠherkÃ¶mmlichen":10835,"ĠBlowjob":10836,"Ġgames":10837,"Ġverwandelt":10838,"eiche":10839,"ĠHarry":10840,"Ġdasselbe":10841,"Ġintegrierten":10842,"ĠÃ¼berwinden":10843,"ĠEindrÃ¼cke":10844,"Institut":10845,"ĠSD":10846,"Wieder":10847,"ĠlangjÃ¤hrigen":10848,"sper":10849,"ĠberÃ¼hmte":10850,"Ġmitgeteilt":10851,"Ġche":10852,"Ġbeachtet":10853,"Ġforderte":10854,"ĠBrau":10855,"Ġleidet":10856,"Ġenorme":10857,"Ġdementsprechend":10858,"ĠWachstums":10859,"ĠOrgasmus":10860,"ĠStandorten":10861,"ĠErsatzteile":10862,"verteilung":10863,"ves":10864,"stimmen":10865,"Management":10866,"tigungs":10867,"ĠGeschehen":10868,"Ġuntergebracht":10869,"ĠAlp":10870,"Ġvo":10871,"ĠRh":10872,"wanderung":10873,"ĠSGB":10874,"zungen":10875,"izierten":10876,"ĠGeht":10877,"Ġfinanz":10878,"Egal":10879,"ĠZentimeter":10880,"Ġverwendete":10881,"gra":10882,"Ġgefreut":10883,"ĠBÃ¤r":10884,"ĠGÃ¤rten":10885,"ĠInstituts":10886,"ĠGlÃ¼cks":10887,"ielen":10888,"Ġinnenarchitektur":10889,"ĠRundfunk":10890,"ĠGT":10891,"Ġanalysieren":10892,"ĠErgebnissen":10893,"atsch":10894,"ĠGutscheine":10895,"ĠKonditionen":10896,"Ġherzustellen":10897,"ĠSeminare":10898,"ĠTrink":10899,"gefÃ¼hrt":10900,"feuer":10901,"Ã¤hlt":10902,"ĠBE":10903,"Seiten":10904,"ĠAnsichten":10905,"ĠwÃ¤hlt":10906,"Ġhinweisen":10907,"ĠDoktor":10908,"ĠGelb":10909,"grau":10910,"Ġnutze":10911,"Schul":10912,"ĠES":10913,"ĠZwecken":10914,"Ġgelb":10915,"ĠFlex":10916,"ĠNationalpark":10917,"ĠBuchen":10918,"ĠFlash":10919,"hund":10920,"ĠFingern":10921,"ĠIG":10922,"ĠGrundsatz":10923,"Ġleg":10924,"Ġgedreht":10925,"ĠtatsÃ¤chlichen":10926,"ĠAff":10927,"ĠBestellungen":10928,"ĠWiderruf":10929,"ĠFortsetzung":10930,"ĠPausen":10931,"ĠNetzwerke":10932,"lehre":10933,"ĠPolit":10934,"ĠUhrzeit":10935,"ĠNÃ¤chte":10936,"Ġserviert":10937,"Ġzukommen":10938,"ĠHagen":10939,"ĠFlur":10940,"ĠEchtgeld":10941,"Ġanlegen":10942,"ulen":10943,"ĠkÃ¼hl":10944,"Ġinspirieren":10945,"ĠEinleitung":10946,"zieh":10947,"ĠHub":10948,"verse":10949,"ĠFR":10950,"lieder":10951,"į":10952,"ĠStoffwechsel":10953,"ĠVorsorge":10954,"Ġbesseres":10955,"zentrums":10956,"Ġernsthaft":10957,"ĠReichs":10958,"ĠMarco":10959,"gener":10960,"Ġzugeordnet":10961,"Ġexklusiv":10962,"Ġzurzeit":10963,"ĠBars":10964,"Ġbrauch":10965,"Zwischen":10966,"zend":10967,"Ġabsoluten":10968,"artigen":10969,"Ġunbekannt":10970,"Ġfile":10971,"allt":10972,"ĠGeorge":10973,"ĠMotoren":10974,"ĠEva":10975,"Ġumzu":10976,"Ġhervorragenden":10977,"ĠMagdeburg":10978,"Ġgerichtet":10979,"Ķ":10980,"IER":10981,"verordnung":10982,"ĠgewÃ¶hnlich":10983,"ĠWÃ¤sche":10984,"affen":10985,"Ġenthaltenen":10986,"Arbeit":10987,"ĠGirl":10988,"Ġsexuelle":10989,"rede":10990,"ĠKennenlernen":10991,"ĠZunge":10992,"zut":10993,"ĠSprech":10994,"ĠPul":10995,"Ġintegrierte":10996,"ĠBrett":10997,"ĠTechnische":10998,".;":10999,"ĠVerz":11000,"ĠRostock":11001,"stÃ¤ndig":11002,"Ġbetriebs":11003,"ĠVereinigung":11004,"ĠVerst":11005,"ckte":11006,"ĠPrÃ¤vention":11007,"ĠAz":11008,"ĠAnordnung":11009,"Ã¤nde":11010,"unn":11011,"IB":11012,"Ġbeantragen":11013,"ĠTeich":11014,"ĠKro":11015,"ĠFussball":11016,"ĠEtwa":11017,"ature":11018,"ĠKundenservice":11019,"direktor":11020,"Ġvereinbarten":11021,"ĠSter":11022,"wissenschaftler":11023,"ĠPhasen":11024,"âĢľ:":11025,"Ġverglichen":11026,"sab":11027,"ĠSolo":11028,"Ġerh":11029,"ĠTode":11030,"ialen":11031,"Ġzeige":11032,"schef":11033,"archiv":11034,"ause":11035,"Ġ//":11036,"bÃ¤ume":11037,"erung":11038,"ĠMedium":11039,"reife":11040,"ĠHelm":11041,"ĠUnabhÃ¤ngigkeit":11042,"ĠnÃ¼tzlich":11043,"ĠBayerischen":11044,"schluÃŁ":11045,"ĠStrafe":11046,"Ġvielseitig":11047,"tigkeiten":11048,"ĠProjekts":11049,"Ġkont":11050,"ĠPlayer":11051,"lÃ¶":11052,"ippe":11053,"Ohne":11054,"sÃ¤":11055,"Format":11056,"ĠZuerst":11057,"ĠBestehen":11058,"breite":11059,"Ġbedeckt":11060,"ĠHit":11061,"ĠRoland":11062,"Ġbrauchte":11063,"GroÃŁ":11064,"ĠKonzeption":11065,"Ġaltes":11066,"ĠInnovationen":11067,"ĠkÃ¶rperlichen":11068,"ĠWandern":11069,"auft":11070,"ĠRoboter":11071,"bie":11072,"proben":11073,"Ġleckeren":11074,"ĠKfz":11075,"gemÃ¤ÃŁ":11076,"ĠVersicherungen":11077,"ĠBÃ¼ndnis":11078,"belastung":11079,"Ġausgerechnet":11080,"ĠKasse":11081,"urz":11082,"Reihe":11083,"ĠÎ":11084,"800":11085,"mes":11086,"Ġbeinhalten":11087,"Fr":11088,"Ġmuschi":11089,"ĠBegleit":11090,"ĠStÃ¤rkung":11091,"tigungen":11092,"runden":11093,"ĠbeschÃ¤digt":11094,"omin":11095,"ĠSonst":11096,"ĠHerzog":11097,"vertreter":11098,"Ġinfolge":11099,"ĠTirol":11100,"Ġseiten":11101,"arkt":11102,"ĠGebÃ¤udes":11103,"Vers":11104,"alisierten":11105,"ĠJul":11106,"Ġerhobenen":11107,"ucher":11108,"Ġauto":11109,"rug":11110,"beleuchtung":11111,"ĠKorn":11112,"ĠWE":11113,"Ġabsolviert":11114,"ĠGift":11115,"umfang":11116,"Ġweitergegeben":11117,"steten":11118,"Ġverabschiedet":11119,"ĠDarin":11120,"ELL":11121,"ĠPfanne":11122,"ĠGitarre":11123,"ĠRalf":11124,"Ġherab":11125,"ĠHouse":11126,"ĠNS":11127,"Ġexklusiven":11128,"Ġautomatische":11129,"gien":11130,"skom":11131,"ĠÃľberlegungen":11132,"Ġhinunter":11133,"onder":11134,"kk":11135,"Ġitalienische":11136,"ĠShopping":11137,"lassung":11138,"Ġanwenden":11139,"ĠGleichgewicht":11140,"ĠEinzelnen":11141,"fÃ¼llt":11142,"lies":11143,"Ġsign":11144,"Ġgeschlossenen":11145,"Ġleckere":11146,"ĠEbenholz":11147,"besitz":11148,"Ġmilf":11149,"house":11150,"PU":11151,"ĠStaates":11152,"Ġzugunsten":11153,"ĠflieÃŁen":11154,"rund":11155,"Ġeinzusetzen":11156,"ĠChem":11157,"ĠGlobal":11158,"ĠTechn":11159,"ĠYoutube":11160,"ĠRichtigkeit":11161,"Ġzeitlich":11162,"Ġarsch":11163,"ĠPkw":11164,"ĠAllen":11165,"ĠPotential":11166,"End":11167,"Ġ76":11168,"ĠVarizen":11169,"Netz":11170,"Wichtig":11171,"Ġfremde":11172,"Ġgebrochen":11173,"aturen":11174,"Ġpreise":11175,"ĠGeschichts":11176,"Ġantreten":11177,"ĠAuss":11178,"ĠLebenslauf":11179,"Mag":11180,"Ġenglische":11181,"Ġnannte":11182,"ĠÃ¼berleben":11183,"Ġbrach":11184,"plÃ¤ne":11185,"straÃŁen":11186,"Ã¼tz":11187,"ĠZDF":11188,"Rad":11189,"ĠTaxi":11190,"Ġvirtuellen":11191,"ĠNavigation":11192,"ĠScience":11193,"immen":11194,"ĠHaushalte":11195,"TP":11196,"hallen":11197,"ĠGebiete":11198,"ĠAktie":11199,"ĠArmut":11200,"samer":11201,"abschnitt":11202,"ĠInnsbruck":11203,"Ġswinger":11204,"BM":11205,"bilden":11206,"Ġschwanz":11207,"ĠSchalter":11208,"ĠauÃŁergewÃ¶hnliche":11209,"automaten":11210,"ĠVertriebs":11211,"KA":11212,"cor":11213,"ĠSven":11214,"At":11215,"ĠZeitschriften":11216,"ielt":11217,"kontakte":11218,"lÃ¤ufer":11219,"entlich":11220,"ĠMehrwert":11221,"ĠPharma":11222,"ĠBock":11223,"ĠMexiko":11224,"freier":11225,"ĠgroÃŁartig":11226,"chn":11227,"Google":11228,"Ġend":11229,"Ġleistet":11230,"ĠPizza":11231,"Ġvergleich":11232,"reiter":11233,"ĠURL":11234,"ĠAngebots":11235,"Ġtreibt":11236,"ĠDiplom":11237,"ĠBeklagten":11238,"$":11239,"ĠFalten":11240,"usen":11241,"ĠFaden":11242,"szeit":11243,"ĠBlu":11244,"kum":11245,"ĠMeist":11246,"kap":11247,"skon":11248,"ĠLieferumfang":11249,"ĠFlo":11250,"!!!!":11251,"Ġkompetent":11252,"ĠAuft":11253,"Ġangesagt":11254,"view":11255,"ĠFahren":11256,"Ġentgehen":11257,"ĠPant":11258,"ĠKameras":11259,"kredit":11260,"Ġkomplexen":11261,"ĠSensor":11262,"ĠHandwerker":11263,"ĠPapa":11264,"ĠMÃ¤rkte":11265,"ulator":11266,"Ġvorwiegend":11267,"Material":11268,"ĠPi":11269,"Ġabges":11270,"ĠElisabeth":11271,"âĢ¹":11272,"Ã¤hrt":11273,"amil":11274,"usion":11275,"genau":11276,"laub":11277,"ĠZulassung":11278,"ĠAf":11279,"SchÃ¶n":11280,"Ġkonfrontiert":11281,"eichen":11282,"ĠStall":11283,"stehenden":11284,"funk":11285,"ĠVielmehr":11286,"ĠPromotion":11287,"iar":11288,"Ġeinziges":11289,"ĠOstsee":11290,"Ġtreu":11291,"ĠBell":11292,"ĠMol":11293,"ĠDaneben":11294,"ĠDog":11295,"ĠEro":11296,"aÃŁt":11297,"ĠAbhÃ¤ngigkeit":11298,"aa":11299,"Ġkommunizieren":11300,"Kar":11301,"ĠBillig":11302,"ĠSchaum":11303,"Ġkonstant":11304,"ĠWahnsinn":11305,"ĠStyle":11306,"Ġoptimiert":11307,"ĠBlech":11308,"ĠInst":11309,"ĠFestplatte":11310,"ĠMarktplatz":11311,"ĠUnterkÃ¼nfte":11312,"Ġgelebt":11313,"ĠStrassen":11314,"ĠÃľberzeugung":11315,"â":11316,"otter":11317,"basierte":11318,"Ġenden":11319,"Ġalternative":11320,"ĠkÃ¶rper":11321,"Ġverheiratet":11322,"ĠKlimaschutz":11323,"ĠfÃ¤llig":11324,"Pf":11325,"Ġkontaktanzeigen":11326,"Ġaustauschen":11327,"Ġmancher":11328,"Link":11329,"ĠPutz":11330,"marsch":11331,"presse":11332,"ops":11333,"ĠKÃ¼r":11334,"ati":11335,"ĠFachkrÃ¤fte":11336,"bearbeitung":11337,"ames":11338,"suchen":11339,"Ġfreundlichen":11340,"Ġirgendwas":11341,"Ġreifen":11342,"Ġeinig":11343,"ĠÃ¼bersichtlich":11344,"begriff":11345,"Ġunklar":11346,"ĠgenieÃŁt":11347,"Ġleid":11348,"Ġaufgeben":11349,"ĠFac":11350,"viel":11351,"Ġtelefon":11352,"ĠPoster":11353,"ĠKick":11354,"Ġkennenzulernen":11355,"antes":11356,"ansprÃ¼che":11357,"Ħ":11358,"ĠÃĸffnung":11359,"ĠDemo":11360,"ĠGewÃ¤hr":11361,"ĠHTML":11362,"ĠPrÃ¼fungen":11363,"Main":11364,"ny":11365,"ĠfÃ¼nften":11366,"ally":11367,"Ġumge":11368,"ĠTR":11369,"tell":11370,"ĠWork":11371,"ersatz":11372,"bÃ¶rse":11373,"2005":11374,"ĠEng":11375,"ĠNorwegen":11376,"ĠSing":11377,"ky":11378,"Ġwidmen":11379,"Fahr":11380,"ĠGeben":11381,"ope":11382,"ĠPress":11383,"urf":11384,"ĠSchiffe":11385,"Ġorientieren":11386,"Ġpraxis":11387,"grÃ¼nde":11388,"ienen":11389,"ĠWeitergabe":11390,"ĠBef":11391,"ĠFair":11392,"ĠLeistungsfÃ¤higkeit":11393,"Ġversichert":11394,"ĠLachen":11395,"ĠHausarbeit":11396,"ĠBetrachtung":11397,"alien":11398,"ision":11399,"ĠhÃ¶re":11400,"Ġtechnischer":11401,"Ġwies":11402,"sern":11403,"ira":11404,"ĠsÃ¼dlich":11405,"bergen":11406,"ĠAroma":11407,"Ġverp":11408,"Ġrosa":11409,"Ã¤umen":11410,"ĠSorte":11411,"ĠLong":11412,"ĠGenieÃŁen":11413,"Technik":11414,"Ġunmittelbarer":11415,"ĠPoppen":11416,"¸":11417,"PrÃ¤":11418,"ĠBeliebtheit":11419,"Ġwinter":11420,"Ġbegegnet":11421,"amerikanischen":11422,"uns":11423,"Sa":11424,"problem":11425,"ĠServ":11426,"partei":11427,"Ġangenehmen":11428,"fÃ¼hrte":11429,"ĠKalt":11430,"finden":11431,"ĠAkteure":11432,"¤":11433,"ĠFolie":11434,"rupp":11435,"ĠStick":11436,"ilien":11437,"ena":11438,"studien":11439,"ĠAnsÃ¤tze":11440,"Ġnachzu":11441,"col":11442,"600":11443,"ĠComic":11444,"ĠTem":11445,"ĠBesondere":11446,"ĠHack":11447,"ĠKratzbaum":11448,"lÃ¤ndern":11449,"ĠHÃ¼gel":11450,"ĠGarage":11451,"Ġkeinesfalls":11452,"ĠzustÃ¤ndige":11453,"ĠInterviews":11454,"Ġunverbindlich":11455,"ĠNachbarschaft":11456,"Ġmodernes":11457,"Ġleute":11458,"Ġeingeschaltet":11459,"ĠWobei":11460,"Ġweltweiten":11461,"ollt":11462,"deckung":11463,"ĠbenÃ¶tigten":11464,"ĠWarenkorb":11465,"ĠAutomat":11466,"ĠRosa":11467,"mutter":11468,"ĠWalzen":11469,"ĠStrahlen":11470,"Ġmotiviert":11471,"ĠHausfrauen":11472,"ĠKartoffeln":11473,"Ġgriff":11474,"geist":11475,"iko":11476,"ĠMeiner":11477,"ĠRichtig":11478,"obel":11479,"Ġgucken":11480,"ments":11481,"west":11482,"Ġtraum":11483,"ograph":11484,"ĠSabine":11485,"ĠLandschafts":11486,"VP":11487,"ĠSyn":11488,"ĠMarx":11489,"ĠEinsteiger":11490,"Ġregel":11491,"ĠDorn":11492,"Ġdauerte":11493,"Ã¶ffnung":11494,"Ġorientiert":11495,"oms":11496,"ĠZuverlÃ¤ssigkeit":11497,"ĠPublikation":11498,"Ġwiederholen":11499,"ĠEhemann":11500,"gert":11501,"Ġmulti":11502,"bildungs":11503,"VerhÃ¤ltnis":11504,"ĠBÃ¶rse":11505,"ĠBÃ¼rgern":11506,"ĠerhÃ¶hten":11507,"ĠBackofen":11508,"Ġregen":11509,"Ġbemerken":11510,"Ã¤tze":11511,"ĠQuadratmeter":11512,"Ġbestimmter":11513,"ĠBan":11514,"ĠFrequenz":11515,"Ð¸":11516,"ĠEinem":11517,"ĠHÃ¤usern":11518,"Ġinteressierte":11519,"ĠVerpflichtungen":11520,"ĠWarn":11521,"Ġprima":11522,"worte":11523,"ĠZwangs":11524,"ĠSar":11525,"ufen":11526,"ĠSchool":11527,"ometer":11528,"Ġvergangen":11529,"treff":11530,"schale":11531,"Ġmass":11532,"ĠBlasen":11533,"information":11534,"Ġarm":11535,"Ã¤cher":11536,"ĠArtikeln":11537,"optionen":11538,"ĠAV":11539,"Ġentf":11540,"ĠÂŃ":11541,"ĠSystemen":11542,"verstÃ¤ndnis":11543,"Ġsinken":11544,"Gel":11545,"ĠAP":11546,"Ã¼len":11547,"ĠProtein":11548,"Ġerarbeiten":11549,"Ġinternationaler":11550,"fuÃŁ":11551,"reicher":11552,"Ġkor":11553,"ĠMarie":11554,"ĠmÃ¤chtig":11555,"ĠDienstleistungs":11556,"ĠWÃ¤re":11557,"ĠsÃ¼ÃŁe":11558,"TL":11559,"Bar":11560,"uhren":11561,"ĠBald":11562,"ĠMedikamenten":11563,"Ġgeworfen":11564,"ĠVER":11565,"Ġslots":11566,"ĠAbbildung":11567,"stru":11568,"uckt":11569,"agten":11570,"sprechen":11571,"Ġsuchte":11572,"Ġausgegeben":11573,"cs":11574,"angeboten":11575,"Ġ82":11576,"ART":11577,"2000":11578,"ĠGeister":11579,"Ġnich":11580,"ĠOrgel":11581,"chor":11582,"ĠpÃ¼nktlich":11583,"zelt":11584,"ampf":11585,"Ġseht":11586,"Ġraten":11587,"wig":11588,"Ġvierte":11589,"ĠTastatur":11590,"ĠPic":11591,"schung":11592,"ĠÃĦrger":11593,"Prof":11594,"ĠBrems":11595,"ĠBereitschaft":11596,"ĠBrille":11597,"ĠVertrauens":11598,"splanung":11599,"Ġabseits":11600,"reibung":11601,"ĠAcker":11602,"ĠIde":11603,"Ġwind":11604,"ĠStrich":11605,"ĠStrick":11606,"ĠBL":11607,"Kont":11608,"Me":11609,"tags":11610,"ĠSy":11611,"ĠReserv":11612,"Ġwa":11613,"Ġerstreckt":11614,"Ġendete":11615,"uppe":11616,"ĠSurf":11617,"furt":11618,"ĠAbgabe":11619,"ĠNat":11620,"ĠZoo":11621,"Ġfilme":11622,"ĠVernetzung":11623,"Bevor":11624,"ennen":11625,"ĠGehen":11626,"ergie":11627,"ĠPrim":11628,"Stil":11629,"zentrale":11630,"ĠNiemand":11631,"TH":11632,"spunkte":11633,"sender":11634,"ĠEchtzeit":11635,"verbindung":11636,"schÃ¼ler":11637,"Ġgeistigen":11638,"Ġgez":11639,"We":11640,"ĠgemÃ¼tliche":11641,"Ġ78":11642,"ungssystem":11643,"Ġderartige":11644,"ĠBw":11645,"Ġmitge":11646,"ĠClassic":11647,"schmuck":11648,"ĠAK":11649,"not":11650,"ĠGÃ¼rtel":11651,"Ġabsoluter":11652,"ido":11653,"Â©":11654,"ĠInteressierte":11655,"ĠHeide":11656,"Ġgelingen":11657,"ĠBarcelona":11658,"ragt":11659,"Ĳ":11660,"Ġsen":11661,"RÃ¼ck":11662,"Ġerreichten":11663,"sheim":11664,"ĠTunnel":11665,"ĠPublikationen":11666,"ĠContainer":11667,"leicht":11668,"ij":11669,"ammt":11670,"Schl":11671,"sache":11672,"Ġvermieden":11673,"GVO":11674,"Ġbreiter":11675,"ĠSiegen":11676,"ĠFix":11677,"GH":11678,"ĠAnschrift":11679,"Ġerfolgreicher":11680,"ĠInn":11681,"Ĥ":11682,"ĠkÃ¼che":11683,"Ġeinher":11684,"ĠgÃ¤nzlich":11685,"zentr":11686,"ony":11687,"PM":11688,"Ġspanischen":11689,"ĠTransformation":11690,"Ġ86":11691,"technologie":11692,"ĠkW":11693,"zucker":11694,"Ġfehlende":11695,"echt":11696,"Ġeinkaufen":11697,"gleichen":11698,"wiese":11699,"ĠSchal":11700,"ĠBedÃ¼rfnis":11701,"schieÃŁen":11702,"Kein":11703,"ĠFremden":11704,"setzungen":11705,"ĠZeitalter":11706,"rio":11707,"EIN":11708,"unen":11709,"ĠPorsche":11710,"ĠRÃ¶mer":11711,"ĠEcht":11712,"Ġfreundliche":11713,"ĠGymnasium":11714,"cess":11715,"ĠNation":11716,"lieferung":11717,"ĠgÃ¼ltigen":11718,"camp":11719,"Ġblog":11720,"rost":11721,"ĠProduzenten":11722,"ĠSchultern":11723,"Ã¶ten":11724,"Ġschick":11725,"finanz":11726,"ĠSchnÃ¤ppchen":11727,"ĠZeitungen":11728,"ĠZahlreiche":11729,"fast":11730,"ĠErn":11731,"marken":11732,"ĠSwiss":11733,"ĠPixel":11734,"stationen":11735,"ĠPatent":11736,"ela":11737,"Ġdreimal":11738,"ĠVerbands":11739,"ĠBreiten":11740,"ĠHypertonie":11741,"versand":11742,"ĠstÃ¶ren":11743,"web":11744,"aga":11745,"ating":11746,"ĠErfassung":11747,"ĠLÃ¶sch":11748,"Ġbetreffen":11749,"ĠFantasie":11750,"2019":11751,"ĠMega":11752,"geschrieben":11753,"ĠAnreise":11754,"ĠMedikament":11755,"Ġetabliert":11756,"ĠKaffe":11757,"ĠKlin":11758,"Ã¤rzte":11759,"ĠDarlehen":11760,"ĠWÃ¼rzburg":11761,"Ġaufgegeben":11762,"Ġstudiert":11763,"Ġerwischt":11764,"Ġtisch":11765,"zweck":11766,"ymp":11767,"ĠjÃ¼ngeren":11768,"tÃ¤":11769,"drÃ¼cken":11770,"ferien":11771,"Ġvermehrt":11772,"Ġzugeben":11773,"ĠFreispiele":11774,"fu":11775,"ĠDur":11776,"hat":11777,"firma":11778,"Ġheiligen":11779,"Ġintern":11780,"Ġmitzu":11781,"ĠFotze":11782,"Ġberufen":11783,"Ġzogen":11784,"ĠSorgfalt":11785,"emmt":11786,"ĠHÃ¤":11787,"ĠAnhang":11788,"Ġteilzunehmen":11789,"beruf":11790,"ĠIC":11791,"odes":11792,"ulieren":11793,"ĠSig":11794,"dien":11795,"ĠHierfÃ¼r":11796,"ĠDol":11797,"ĠhinzugefÃ¼gt":11798,"stÃ¼cken":11799,"ove":11800,"kommission":11801,"ĠSÃ¼ÃŁ":11802,"Ã¤um":11803,"sal":11804,"Ġmitbringen":11805,"ĠRÃ¼":11806,"Ġjenseits":11807,"ĠFliegen":11808,"ĠgewÃ¤hlten":11809,"ĠZeichnungen":11810,"ĠWol":11811,"ĠÃĸsterreichs":11812,"ĠEinsÃ¤tze":11813,"irm":11814,"Ġdate":11815,"ĠClaudia":11816,"Ġfotocommunity":11817,"ĠZÃ¼ge":11818,"âĢ":11819,"hau":11820,"ĠMA":11821,"PD":11822,"ĠTrick":11823,"ĠKommt":11824,"Ġmitteilen":11825,"ĠSchauen":11826,"ĠWiese":11827,"Ġinteressanter":11828,"Ġniemanden":11829,"ĠKiefer":11830,"Ã¤nderungen":11831,"Ġausfallen":11832,"Ġbegeben":11833,"ĠAuftreten":11834,"wÃ¼rdigen":11835,"ĠHead":11836,"ĠDirk":11837,"cam":11838,"Ġfehler":11839,"ĠLinden":11840,"Ġbeantragt":11841,"kus":11842,"rac":11843,"ĠPil":11844,"ĠExpress":11845,"ĠKonflikte":11846,"auben":11847,"Nacht":11848,"ĠNrw":11849,"ĠFinanzamt":11850,"liegenden":11851,"pla":11852,"grÃ¼ndung":11853,"Ġjeglicher":11854,"indet":11855,"Ġunterm":11856,"ĠAnblick":11857,"Ġwieviel":11858,"ĠdrÃ¼ber":11859,"ĠWaffe":11860,"Verfahren":11861,"ville":11862,"ĠgeschÃ¤tzt":11863,"Kunst":11864,"ĠschÃ¶nste":11865,"ted":11866,"Post":11867,"Ġverschl":11868,"Ġergab":11869,"sem":11870,"ĠgrÃ¶ÃŁter":11871,"ated":11872,"ĠRezeption":11873,"steiger":11874,"Ġâ":11875,"mu":11876,"ĠâĤ¬.":11877,"Ġherrlichen":11878,"Ġgestaltete":11879,"ĠSchlauch":11880,"ĠSperr":11881,"ĠGed":11882,"ĠMittelmeer":11883,"Ġbedroht":11884,"Ã¤us":11885,"ĠWeltmeister":11886,"horst":11887,"stÃ¼r":11888,"ĠNICHT":11889,"Ġveranlassen":11890,"ĠUntergrund":11891,"ĠMitglieds":11892,"mÃ¶glich":11893,"Ġhellen":11894,"ĠImpulse":11895,"boy":11896,"itiv":11897,"Ġstirbt":11898,"ĠMeg":11899,"Ã¤ne":11900,"ĠSenat":11901,"Druck":11902,"Ġgebacken":11903,"ĠLasten":11904,"ĠAusnahmen":11905,"eht":11906,"ĠWell":11907,"vorgang":11908,"Ġbefasst":11909,"front":11910,"ĠKlapp":11911,"La":11912,"dere":11913,"ĠSonnenschein":11914,"ĠVorsprung":11915,"ĠNu":11916,"Ġmittlere":11917,"klar":11918,"ĠID":11919,"Ġwonach":11920,"betten":11921,"ĠKrankenkassen":11922,"ĠKi":11923,"leger":11924,"Ġfeierte":11925,"Ġstraf":11926,"Ġblaue":11927,"Ġnachhaltigen":11928,"beitrÃ¤ge":11929,"ĠAdd":11930,"ĠVertrages":11931,"Ġ1950":11932,"eilt":11933,"immel":11934,"ĠMitarbeiterinnen":11935,"ĠTit":11936,"ĠFÃ¼rsten":11937,"Karten":11938,"Schutz":11939,"Ġnachweisen":11940,"ror":11941,"fÃ¼llen":11942,"ĠDisziplin":11943,"gier":11944,"schlieÃŁen":11945,"schutzes":11946,"ĠPrinz":11947,"ĠScheibe":11948,"kle":11949,"loses":11950,"ĠJh":11951,"ĠErster":11952,"Ġstadt":11953,"top":11954,"ĠnÃ¶rdlich":11955,"ĠAnkauf":11956,"vertretung":11957,"ĠSchade":11958,"ĠDomin":11959,"gÃ¤ste":11960,"ĠLÃ¤ufer":11961,"ĠAnschaffung":11962,"Ġrealen":11963,"ĠAuftrags":11964,"Ġvergleichsweise":11965,"Ġinterne":11966,"Ġschaffte":11967,"Ġaufrecht":11968,"Ġeinfaches":11969,"ĠSchaf":11970,"ĠwomÃ¶glich":11971,"bed":11972,"Ī":11973,"orientierten":11974,"ĠausfÃ¼hrliche":11975,"Ġoberhalb":11976,"Fil":11977,"Ġbricht":11978,"Club":11979,"oller":11980,"cle":11981,"meldungen":11982,"ĠVerbesserungen":11983,"ĠViren":11984,"ĠDunkelheit":11985,"ĠOstern":11986,"ĠShirt":11987,"ĠÃľ":11988,"ĠKanten":11989,"ĠWeich":11990,"ĠThailand":11991,"noten":11992,"Deshalb":11993,"Ġwarf":11994,"Ġfester":11995,"itu":11996,"magazin":11997,"ĠZehn":11998,"For":11999,"bier":12000,"ĠGlaube":12001,"ĠOpti":12002,"Ġerlangen":12003,"Ġ73":12004,"ĠStempel":12005,"afel":12006,"ruppe":12007,"Ġvergleichbar":12008,"ĠParadies":12009,"reckt":12010,"Ġbewiesen":12011,"fertig":12012,"Ġbelastet":12013,"owski":12014,"Bez":12015,"Ġgelegenen":12016,"osh":12017,"ĠBargeld":12018,"ĠstÃ¼r":12019,"stÃ¤nd":12020,"ĠRisik":12021,"Ġtrag":12022,"Ġausgebildet":12023,"Ġbekanntlich":12024,"ĠHR":12025,"Te":12026,"Ġgast":12027,"Ġentsprechender":12028,"ĠRob":12029,"Ġ92":12030,"reihen":12031,"Ġ).":12032,"ĠBesonderes":12033,"Ġdenkbar":12034,"ĠLiebhaber":12035,"Ġeurem":12036,"leiden":12037,"Ġempfehle":12038,"Ġaufgeb":12039,"ĠSpÃ¤t":12040,"Ã¼h":12041,"sichtig":12042,"ĠStellungnahme":12043,"ĠSpende":12044,"ĠGitarren":12045,"such":12046,"sozial":12047,"PO":12048,"Ã¼tt":12049,"Trainer":12050,"ĠWashington":12051,"ĠAnne":12052,"ĠParameter":12053,"unterlagen":12054,"Ġdefinieren":12055,"Ġuni":12056,"Ġrundum":12057,"Ġdurchsetzen":12058,"ĠAusflÃ¼ge":12059,"Mus":12060,"Ġschriftlichen":12061,"rab":12062,"ĠSiehe":12063,"Ġgemeinsames":12064,"Anhalt":12065,"Hey":12066,"ĠKlass":12067,"ĠGelenk":12068,"Ġparty":12069,"regierung":12070,"Ġtau":12071,"jahre":12072,"Ġ450":12073,"ĠHaltbarkeit":12074,"ladung":12075,"bÃ¤nder":12076,"Ġdrehte":12077,"Ġzugeschnitten":12078,"Angebot":12079,"figur":12080,"ĠVerbot":12081,"Ġgeklappt":12082,"ĠHerstellern":12083,"ĠZy":12084,"ĠSchwert":12085,"ĠWaschmaschine":12086,"ĠKÃ¼nstlern":12087,"Ġelektrischen":12088,"ograf":12089,"ĠMigranten":12090,"Ġkultur":12091,"CC":12092,"ĠGewinnspiel":12093,"utzung":12094,"ĠInnerhalb":12095,"ĠWelle":12096,"ĠSpruch":12097,"ĠLichter":12098,"ĠHorizont":12099,"ĠKnopf":12100,"Ġaust":12101,"ĠUmstand":12102,"ĠMiteinander":12103,"fÃ¤hige":12104,"Ġbasteln":12105,"reue":12106,"ĠLandgericht":12107,"ĠDates":12108,"Ġweiche":12109,"ĠKim":12110,"Ġformuliert":12111,"Ġschief":12112,"konto":12113,"ehrt":12114,"ĠMalerei":12115,"Ġwirkte":12116,"ĠARD":12117,"ĠBewerbungs":12118,"ĠFreiwilligen":12119,"ĠZitat":12120,"AA":12121,"ĠErk":12122,"Ġverpackt":12123,"ienten":12124,"ĠGanzen":12125,"ĠVerstand":12126,"ĠVin":12127,"pause":12128,"ĠEurop":12129,"ĠAdam":12130,"ĠSecurity":12131,"ĠBeitrags":12132,"kes":12133,"ĠunabhÃ¤ngige":12134,"zusetzen":12135,"nehm":12136,"Ġ(âĢ¦)":12137,"wendung":12138,"ĠGesetzgeber":12139,"berechtigten":12140,"Ġvorherigen":12141,"ĠTagung":12142,"hes":12143,"ĠGrundsÃ¤tzlich":12144,"Ġeinmalige":12145,"ĠBÃ¤umen":12146,"Ġdomin":12147,"unternehmer":12148,"gangen":12149,"ĠkÃ¼hlen":12150,"ĠAutofahrer":12151,"reiber":12152,"ĠGrÃ¼ne":12153,"Fern":12154,"tist":12155,"Ġverteidigen":12156,"kasse":12157,"ĠwofÃ¼r":12158,"adt":12159,"ĠTreff":12160,"ĠCont":12161,"hosen":12162,"Ġport":12163,"Ġ79":12164,"ĠMeinungs":12165,"strategie":12166,"Ġkalte":12167,"ĠZwang":12168,"Ġbenannt":12169,"ĠGewÃ¤sser":12170,"aku":12171,"ĠTobias":12172,"stimmung":12173,"Ġspringen":12174,"sbach":12175,"schritt":12176,"ĠHerbert":12177,"ĠKaum":12178,"lecht":12179,"peln":12180,"othek":12181,"orientierung":12182,"ĠGuten":12183,"Ġueber":12184,"gebung":12185,"bundes":12186,"stamm":12187,"Ġverwalten":12188,"ĠFÃ¼hrerschein":12189,"ĠPrin":12190,"ĠVit":12191,"ĠSchÃ¤fer":12192,"ube":12193,"Kommission":12194,"add":12195,"ives":12196,"ĠStandorte":12197,"ĠHandball":12198,"mas":12199,"anstalt":12200,"Ġeinladung":12201,"ĠAngelegenheit":12202,"handlungen":12203,"ĠFÃ¼hrungskrÃ¤fte":12204,"ĠDonald":12205,"ĠDynamik":12206,"zÃ¼":12207,"ila":12208,"Ġeigens":12209,"ĠBGH":12210,"ĠGesprÃ¤chen":12211,"ĠRezension":12212,"ĠAuftrÃ¤ge":12213,"!.":12214,"ĠKompl":12215,"Marketing":12216,"ĠgrÃ¼ndete":12217,"ĠVormittag":12218,"ĠDebÃ¼t":12219,"ĠStille":12220,"Ġsm":12221,"ĠHohe":12222,"hundert":12223,"ĠMem":12224,"ĠShemale":12225,"spann":12226,"ĠÃ¤uÃŁeren":12227,"LÃ¶sungen":12228,"ippen":12229,"flÃ¼gel":12230,"Ġtran":12231,"ĠDimension":12232,"ĠMÃ¼hl":12233,"ĠFeststellung":12234,"Ġsilber":12235,"ĠSilvester":12236,"ĠBob":12237,"ĠZul":12238,"strecken":12239,"samt":12240,"psych":12241,"wertung":12242,"aro":12243,"ĠKapitÃ¤n":12244,"helfer":12245,"asser":12246,"spezifische":12247,"mittlung":12248,"ĠAmtsgericht":12249,"zene":12250,"Ġ101":12251,"ĠLandesregierung":12252,"Ġdrucken":12253,"Ġmehrerer":12254,"aufgabe":12255,"itte":12256,"Ġ220":12257,"Ġ1500":12258,"ĠProdu":12259,"Ġbook":12260,"ĠSchimmel":12261,"OD":12262,"Ġsexuellen":12263,"Ġvermuten":12264,"Ġthem":12265,"Bilder":12266,"schreibung":12267,"FL":12268,"ĠBesichtigung":12269,"rechtlich":12270,"ĠAufsatz":12271,"ĠLebensmitteln":12272,"egt":12273,"ĠKÃ¶nigin":12274,"zehn":12275,"ĠRast":12276,"Ġblicken":12277,"ĠGrÃ¤":12278,"Ġreichte":12279,"sser":12280,"ĠNadel":12281,"amts":12282,"sack":12283,"To":12284,"Ġmoder":12285,"Ġbelohnt":12286,"ablauf":12287,"Ġjapanischen":12288,"fon":12289,"Ġverschoben":12290,"ĠResultat":12291,"Ġerfreuen":12292,"ĠÃ¼b":12293,"vision":12294,"Ġsuchst":12295,"aria":12296,"ago":12297,"schon":12298,"Ġslot":12299,"ĠNahrungsmittel":12300,"kaufen":12301,"ĠÃ¶sterreichische":12302,"Ġbelasten":12303,"ĠSogar":12304,"Ġran":12305,"Ġshort":12306,"kung":12307,"ĠFuchs":12308,"ĠNetzwerken":12309,"ĠMenschenrechte":12310,"Ġbuch":12311,"ĠRouten":12312,"ĠLayout":12313,"ĠSaar":12314,"ĠTreffpunkt":12315,"Ġkunst":12316,"Ġinspiriert":12317,"massen":12318,"ussen":12319,"ĠGemeinderat":12320,"ĠArgumente":12321,"Ben":12322,"Dis":12323,"Ġbetreffend":12324,"Red":12325,"ĠNick":12326,"landes":12327,"Ġfairen":12328,"Ġorg":12329,"pumpe":12330,"rÃ¤te":12331,"ĠErfurt":12332,"Ġhochwertiger":12333,"ĠKreativ":12334,"ĠallmÃ¤hlich":12335,"oÃŁ":12336,"selbst":12337,"ĠCard":12338,"ĠÃ¶sterreich":12339,"FT":12340,"ĠgefÃ¤hrdet":12341,"olz":12342,"schieben":12343,"Symbol":12344,"Blog":12345,"Chr":12346,"ĠZusammenhÃ¤nge":12347,"freund":12348,"Ġdurchge":12349,"Ġgriechischen":12350,"ĠErscheinung":12351,"ĠSarah":12352,"ĠKÃ¶nigreich":12353,"ĠBA":12354,"ĠAT":12355,"ĠChris":12356,"ĠVerluste":12357,"pal":12358,"ĠAbfahrt":12359,"Ġerfolg":12360,"ĠRote":12361,"inst":12362,"ĠselbstÃ¤ndig":12363,"ĠMonte":12364,"sohle":12365,"Ġstimm":12366,"ĠInfektion":12367,"Ġpsych":12368,"Ġ94":12369,"Ġerlernen":12370,"Ġflexible":12371,"ward":12372,"ĠSchwestern":12373,"uld":12374,"ĠBÃ¼rgerinnen":12375,"ĠGir":12376,"ĠMallorca":12377,"NA":12378,"Ġverwende":12379,"ĠGeschirr":12380,"auten":12381,"ĠFantasy":12382,"ĠPortugal":12383,"ĠZusammenspiel":12384,"ĠSW":12385,"ĠAbgeordneten":12386,"Ã¼nde":12387,"ĠGÃ¶ttingen":12388,"Titel":12389,"ĠzurÃ¼ckge":12390,"ĠEntscheidungs":12391,"Ġbesorgt":12392,"einstellungen":12393,"ĠFinal":12394,"Ġpunkt":12395,"Gerne":12396,"ĠCast":12397,"wieder":12398,"ĠRegister":12399,"ĠProjektes":12400,"</":12401,"Ġverbreiten":12402,"Ġsatt":12403,"Ġep":12404,"bedingt":12405,"Ġbesprechen":12406,"Ġkriegen":12407,"faser":12408,"ĠFlu":12409,"bereit":12410,"ĠAbstieg":12411,"ĠAlfred":12412,"Ġwachsenden":12413,"Ġumfangreiches":12414,"zettel":12415,"Ġbesprochen":12416,"ĠPraktikum":12417,"Ġsolltet":12418,"ĠGeschwister":12419,"Ko":12420,"ĠRetro":12421,"ĠPlÃ¤tzen":12422,"wirken":12423,"ĠStrasse":12424,"automat":12425,"EX":12426,"zieher":12427,"ĠLeon":12428,"ĠAnalysen":12429,"ĠUniversal":12430,"Ġweiterempfehlen":12431,"praxis":12432,"ĠHamm":12433,"ĠRÃ¤der":12434,"ĠBeat":12435,"ĠHÃ¤ufig":12436,"ĠWuppertal":12437,"Ġcont":12438,"ĠGesellschafter":12439,"ĠSenior":12440,"Ġwenigsten":12441,"ruhe":12442,"ĠFahrten":12443,"istr":12444,"arren":12445,"zubehÃ¶r":12446,"ĠKilometern":12447,"ĠSab":12448,"Fraktion":12449,"Ġdazwischen":12450,"ĠVollstÃ¤ndigkeit":12451,"zucht":12452,"ĠRegal":12453,"Ġtauchen":12454,"ĠOrdnungs":12455,"ĠKreditkarten":12456,"Ġ^^":12457,"ĠKÃ¼rze":12458,"risch":12459,"ouren":12460,"2004":12461,"versuch":12462,"senden":12463,"konzert":12464,"ĠÂ§Â§":12465,"Ġklang":12466,"waffen":12467,"BL":12468,"Ġspezifischen":12469,"Ġkompetente":12470,"kalender":12471,"bot":12472,"ĠEiweiÃŁ":12473,"ĠdrÃ¼ckt":12474,"ĠHitler":12475,"FR":12476,"ĠCra":12477,"Ġhomosexuell":12478,"ĠAngehÃ¶rige":12479,"Ġgeteilt":12480,"ĠOsnabrÃ¼ck":12481,"belt":12482,"ĠAusdauer":12483,"Ġriesig":12484,"Ġnachvollziehen":12485,"Ġeinnehmen":12486,"Ġausgestellt":12487,"ĠRoyal":12488,"Bel":12489,"ĠSpecial":12490,"ault":12491,"Ġbonus":12492,"ĠDokumenten":12493,"Ġwidmet":12494,"Ġhol":12495,"pool":12496,"Ĵ":12497,"Ġ1987":12498,"ĠðŁ":12499,"ĠzurÃ¼ckzufÃ¼hren":12500,"Ġgehts":12501,"ĠPosten":12502,"ĠRoth":12503,"ĠBrun":12504,"iana":12505,"Ġanzupassen":12506,"cast":12507,"aris":12508,"sson":12509,"ĠtÃ¶ten":12510,"Ġ71":12511,"ĠGumm":12512,"Ġrelevant":12513,"ieden":12514,"ĠHoll":12515,"Ġdetail":12516,"vorsitzende":12517,"ĠKasten":12518,"ĠStolz":12519,"ĠÃľbernachtung":12520,"ĠAngelegenheiten":12521,"ĠZier":12522,"fachen":12523,"meter":12524,"ĠPrime":12525,"WS":12526,"gig":12527,"studio":12528,"ĠKapazitÃ¤t":12529,"ĠDA":12530,"ĠThread":12531,"Ġ97":12532,"Ġ84":12533,"Ġvol":12534,"olin":12535,"ĠLind":12536,"ketten":12537,"ĠSEO":12538,"ĠBenz":12539,"Ġangegriffen":12540,"Start":12541,"Natur":12542,"ĠAqu":12543,"ĠAbbau":12544,"Ġfehlte":12545,"uel":12546,"Energie":12547,"Ġbilliger":12548,"forderungen":12549,"ĠWÃ¤nden":12550,"ĠtatsÃ¤chliche":12551,"ĠPanik":12552,"Ġtanzen":12553,"Ġtransparent":12554,"ĠDam":12555,"ban":12556,"antrieb":12557,"Ġtrans":12558,"obi":12559,"Ġbeauftragt":12560,"ĠGrÃ¼ndungs":12561,"ĠDFB":12562,"ĠPortion":12563,"edel":12564,"roh":12565,"alltag":12566,"ĠBesetzung":12567,"Ġ170":12568,"ĠKantons":12569,"ĠJeden":12570,"ĠMau":12571,"ĠDR":12572,"âĢĶ":12573,"ĠKita":12574,"Ġbesuchten":12575,"kirch":12576,"Ã¼tzen":12577,"achse":12578,"Ġsymbol":12579,"Ġrunde":12580,"ĠStÃ¶r":12581,"eng":12582,"ĠGesichter":12583,"ĠEntdecken":12584,"Ġplatziert":12585,"Ã¶ch":12586,"Pass":12587,"Ġjahre":12588,"verbindungen":12589,"Ġlustige":12590,"ĠGam":12591,"ĠPerlen":12592,"ĠzuverlÃ¤ssige":12593,"etik":12594,"rer":12595,"ĠHelligkeit":12596,"ĠZusammensetzung":12597,"ĠLuther":12598,"Bin":12599,"lichter":12600,"ernt":12601,"ĠBatterien":12602,"ĠBelastungen":12603,"Ġbeleuchtet":12604,"ĠBehandlungen":12605,"ĠauÃŁergewÃ¶hnlich":12606,"ĠInterpretation":12607,"wend":12608,"ĠEG":12609,"ĠKarton":12610,"ppel":12611,"ASS":12612,"Bad":12613,"ĠÃĸffnen":12614,"ĠSports":12615,"ĠMagie":12616,"ĠErleben":12617,"Pol":12618,"wall":12619,"Ġ1986":12620,"Ġbewundern":12621,"ĠNest":12622,"ĠPRO":12623,"ĠunzÃ¤hligen":12624,"olo":12625,"Ġausgezeichnete":12626,"ĠArena":12627,"stra":12628,"Ġfarben":12629,"Ġfangen":12630,"ĠungewÃ¶hnlich":12631,"ĠNasen":12632,"ĠSchichten":12633,"Ġfestgehalten":12634,"ĠLukas":12635,"Leben":12636,"ĠAufkleber":12637,"Ã¤nglich":12638,"assten":12639,"Ġprobiert":12640,"Ġbesticht":12641,"Ñ":12642,"ĠZerstÃ¶rung":12643,"ĠfÃ¼hrende":12644,"gelte":12645,"page":12646,"ĠAusmaÃŁ":12647,"ĠmÃ¤nnlichen":12648,"Ġdumm":12649,"forderung":12650,"ĠDro":12651,"teils":12652,"ĠverlÃ¤sst":12653,"Ġchinesische":12654,"kost":12655,"ĠAnzeichen":12656,"Beschreibung":12657,"Ġklingen":12658,"ĠErdgeschoss":12659,"Wohn":12660,"Ġverdammt":12661,"ĠCouch":12662,"ĠSeitdem":12663,"steil":12664,"heater":12665,"ĠNeustadt":12666,"ĠPsoriasis":12667,"ĠAD":12668,"ĠLandschaften":12669,"ĠFrÃ¼hlings":12670,"Ġbeispiel":12671,"ĠSchulz":12672,"fans":12673,"rechner":12674,"ĠOmas":12675,"ĠSilikon":12676,"stau":12677,"Ġbegangen":12678,"Ġ230":12679,"jagd":12680,"Ġ\\":12681,"ĠÃ¤lteste":12682,"bildern":12683,"ĠPie":12684,"ĠAdress":12685,"ĠPanorama":12686,"ĠTasse":12687,"Ġzubereitet":12688,"ĠKrieges":12689,"ĠBoard":12690,"Ġverstecken":12691,"itation":12692,"ĠÃ¶fters":12693,"ĠSeg":12694,"Ġzart":12695,"ĠBeachtung":12696,"ĠModus":12697,"ĠFundament":12698,"ĠNormen":12699,"ĠAbgaben":12700,"Ġexperimen":12701,"ĠAngriffe":12702,"Ġausgel":12703,"Ġmetall":12704,"ĠVI":12705,"Mal":12706,"ĠverrÃ¤t":12707,"ĠLaub":12708,"ĠKratz":12709,"Motor":12710,"gesehen":12711,"dis":12712,"rung":12713,"Sicherheit":12714,"Hi":12715,"ĠAmerikaner":12716,"Ġwissenschaftlich":12717,"beg":12718,"deckt":12719,"ĠGesellschaften":12720,"vorstand":12721,"ĠWahlkampf":12722,"Ġsan":12723,"ĠSchwimmen":12724,"wil":12725,"ĠGetrÃ¤nk":12726,"euern":12727,"ĠEber":12728,"gefallen":12729,"usse":12730,"fisch":12731,"ĠSU":12732,"Ġerfordern":12733,"schaltung":12734,"aj":12735,"Ġkritische":12736,"HE":12737,"aki":12738,"Ġschuld":12739,"Ġstoppen":12740,"ĠRÃ¼cksicht":12741,"ĠBeklagte":12742,"ĠNass":12743,"ĠKonsumenten":12744,"ĠAsiatische":12745,"WM":12746,"izer":12747,"ĠÃ¼bermitteln":12748,"Ġwahrnehmen":12749,"Essen":12750,"ichtigen":12751,"Gl":12752,"Di":12753,"optik":12754,"Ġpermanent":12755,"Ġnass":12756,"ĠErhaltung":12757,"rath":12758,"Ġausgetauscht":12759,"Code":12760,"ĠAbsprache":12761,"Ġmanuell":12762,"Tipp":12763,"Ġbereitgestellt":12764,"Ġabsolvieren":12765,"Bi":12766,"jÃ¤ger":12767,"Ġ1984":12768,"hlt":12769,"Ġvollem":12770,"Ġbecause":12771,"etze":12772,"ungszeit":12773,"ĠTreiber":12774,"imi":12775,"ĠAnsprÃ¼chen":12776,"jÃ¤hriges":12777,"ĠGlÃ¤ser":12778,"Ġbegannen":12779,"TO":12780,"ĠKrankenversicherung":12781,"Ġeinwandfrei":12782,"ĠVereinen":12783,"holt":12784,"Ġaufger":12785,"Standard":12786,"Go":12787,"Ġhielten":12788,"ĠStill":12789,"ĠNeuigkeiten":12790,"ĠLinz":12791,"ĠMist":12792,"istisches":12793,"ĠLinke":12794,"ĠKÃ¤":12795,"ĠgewÃ¤hren":12796,"ĠPrag":12797,"riff":12798,"ĠGoethe":12799,"mission":12800,"ĠBandbreite":12801,"Ġjetzigen":12802,"obil":12803,"ĠBefehl":12804,"KG":12805,"Ġbrennen":12806,"ÑĤ":12807,"ĠHerstellers":12808,"ĠWww":12809,"sprojekt":12810,"anal":12811,"ahlen":12812,"Ġkredit":12813,"idee":12814,"ĠBike":12815,"situation":12816,"Ġnational":12817,"ĠRaub":12818,"wegs":12819,"teste":12820,"Ġmotor":12821,"ĠErlaubnis":12822,"ĠWahr":12823,"ĠAnkÃ¼ndigung":12824,"Ġhal":12825,"Ġras":12826,"vater":12827,"Ġfliesen":12828,"dienstes":12829,"Ġ::":12830,"Ġgewidmet":12831,"quar":12832,"Ġschaden":12833,"anisch":12834,"Ġerschaffen":12835,"ĠunabhÃ¤ngigen":12836,"Ġkap":12837,"ĠSpielzeit":12838,"ebene":12839,"lieÃŁ":12840,"ĠgrÃ¶ÃŁtenteils":12841,"Ġanf":12842,"Ġbedenken":12843,"ĠKnoten":12844,"Ġungew":12845,"Ġsolide":12846,"betrieben":12847,"ĠLeer":12848,"Ġbetreten":12849,"ĠGay":12850,"CDU":12851,"Ġpart":12852,"ĠunÃ¼ber":12853,"krebs":12854,"bol":12855,"figuren":12856,"Ġunangenehm":12857,"tz":12858,"ĠKommunal":12859,"ĠFachbereich":12860,"eum":12861,"tionen":12862,"ĠOpern":12863,"ĠGehÃ¶r":12864,"ĠHilfsmittel":12865,"ĠLass":12866,"ĠSchwung":12867,"lebt":12868,"pan":12869,"ĠLampe":12870,"Ġvorgelegt":12871,"parks":12872,"deutsch":12873,"Ġmischen":12874,"ocken":12875,"ĠFassaden":12876,"Sol":12877,"ĠBemÃ¼hungen":12878,"uen":12879,"sende":12880,"kin":12881,"Lauf":12882,"Ġdieselbe":12883,"stiftung":12884,"ĠPick":12885,"ĠSpezialitÃ¤ten":12886,"Ġsozialer":12887,"ĠBegegnungen":12888,"ĠGebet":12889,"Ġhierzulande":12890,"ĠTausende":12891,"Ġ1985":12892,"KW":12893,"szene":12894,"Ġ~":12895,"Ġerwachsene":12896,"ĠRich":12897,"Ġankommen":12898,"ĠUnterhalt":12899,"drÃ¼ck":12900,"redit":12901,"Ġ5000":12902,"bÃ¼r":12903,"eman":12904,"regelung":12905,"ĠBoxen":12906,"ĠFinanzierungs":12907,"ĠDC":12908,"teilten":12909,"ĠbrÃ¼":12910,"ĠProvider":12911,"ĠArtikels":12912,"ĠToiletten":12913,"steinen":12914,"oppen":12915,"augen":12916,"Ġrenommierten":12917,"bem":12918,"Ġbadezimmer":12919,"tech":12920,"Ġhom":12921,"Ġpolitischer":12922,"gru":12923,"ĠPuls":12924,"Hab":12925,"ĠFrische":12926,"ĠjÃ¤hrlichen":12927,"su":12928,"zufÃ¼hren":12929,"ĠFotograf":12930,"Ġbeherrschen":12931,"Ġaufgefordert":12932,"hrt":12933,"Ġfahre":12934,"ĠDiesmal":12935,"Ġverwandeln":12936,"ĠMichel":12937,"Ġstra":12938,"Ġverbaut":12939,"Ġfasziniert":12940,"ĠTrage":12941,"ĠRettung":12942,"ĠAnschlag":12943,"AK":12944,"Ġsichergestellt":12945,"kenntnisse":12946,"ĠModule":12947,"Ġschwarzer":12948,"ĠTrier":12949,"Ã¤ger":12950,"ĠDichter":12951,"ĠSocken":12952,"ĠOver":12953,"ĠOffen":12954,"ĠMessen":12955,"Ġjapanische":12956,"orientiert":12957,"anna":12958,"ĠmaÃŁ":12959,"ĠRuh":12960,"merk":12961,"ĠverrÃ¼ckt":12962,"Systeme":12963,"ĠWarentest":12964,"ĳ":12965,"ansicht":12966,"ĠtÃ¤tigen":12967,"Genau":12968,"verk":12969,"ĠEntweder":12970,"ĠGau":12971,"ĠSpring":12972,"ĠBrut":12973,"liegende":12974,"hofer":12975,"Ġerb":12976,"down":12977,"Ġherauszufinden":12978,"zins":12979,"formular":12980,"utet":12981,"card":12982,"erz":12983,"Ã¼rt":12984,"Forum":12985,"ĠStark":12986,"ĠRoad":12987,"hung":12988,"Ġinteressierten":12989,"sto":12990,"Ġgrundlegende":12991,"ĠZubereitung":12992,"lav":12993,"ĠLuxemburg":12994,"bewegungen":12995,"mÃ¼":12996,"Ġwagen":12997,"gehenden":12998,"reck":12999,"lay":13000,"ĠBod":13001,"ĠFlyer":13002,"ĠMissbrauch":13003,"Ġelegante":13004,"sieg":13005,"stÃ¤dter":13006,"ĠInnere":13007,"tÃ¼r":13008,"ĠEIN":13009,"Ġantwortete":13010,"ĠEntdeckung":13011,"ĠBeitrÃ¤gen":13012,"ĠbestÃ¤tigte":13013,"Ġeinmalig":13014,"initiative":13015,"ĠgrÃ¼nden":13016,"ĠFlair":13017,"ĠErbe":13018,"rak":13019,"ĠLinken":13020,"standen":13021,"ĠHeld":13022,"Ġbeeindruckend":13023,"fang":13024,"ĠWid":13025,"alog":13026,"ĠParkplÃ¤tze":13027,"ĠDÃ¼n":13028,"alls":13029,"Ġschickt":13030,"ĠSchnÃ¼r":13031,"sprachen":13032,"ĠSche":13033,"ĠTumblr":13034,"alisierte":13035,"ĠBann":13036,"ĠCampus":13037,"Ost":13038,"ĠThr":13039,"mÃ¤rkte":13040,"ĠAllianz":13041,"Ġhelle":13042,"ĠHerausgeber":13043,"Menschen":13044,"ĠLove":13045,"lu":13046,"Sen":13047,"IX":13048,"mÃ¤dchen":13049,"Ġunbesch":13050,"ĠLeipziger":13051,"sy":13052,"Ġkomisch":13053,"Hinweis":13054,"¹":13055,"pti":13056,"Ġlangfristige":13057,"ĠTagesordnung":13058,"pos":13059,"ĠBadewanne":13060,"Ġdurchschnittlichen":13061,"beeren":13062,"INE":13063,"Ġtechn":13064,"Ã©e":13065,"Ġheuer":13066,"arme":13067,"cal":13068,"guss":13069,"Ġkennengelernt":13070,"ĠChristi":13071,"ĠRhythmus":13072,"tim":13073,"Ġplay":13074,"ĠSchock":13075,"sei":13076,"Ġklin":13077,"Cl":13078,"Ġanzuwenden":13079,"mÃ¤n":13080,"objekt":13081,"Ġerbringen":13082,"PG":13083,"ĠSingleborse":13084,"rechen":13085,"Suche":13086,"ĠWeiÃŁen":13087,"ĠVintage":13088,"Ġ87":13089,"ria":13090,"ĠBol":13091,"geschÃ¤fte":13092,"gent":13093,"Ġschlank":13094,"lach":13095,"ĠQuad":13096,"Ġidentisch":13097,"ĠTotal":13098,"ĠtÃ¼rkischen":13099,"Ã¼te":13100,"Ġschaute":13101,"ĠHirsch":13102,"Ġerfunden":13103,"Ġcirca":13104,"ĠZuf":13105,"Ġprogramm":13106,"brÃ¼che":13107,"ĠBriefe":13108,"ĠBesonderheit":13109,"ĠLeuchten":13110,"Ġlebenden":13111,"ĠStab":13112,"ĠGabriel":13113,"ĠGaumen":13114,"serv":13115,"anforderungen":13116,"Ã¶d":13117,"rechnen":13118,"Ġemotional":13119,"ĠKopie":13120,"ĠThematik":13121,"ĠSankt":13122,"ĠToilette":13123,"Ġentfalten":13124,"ĠRichtungen":13125,"ĠSchÃ¼ssel":13126,"Min":13127,"reitet":13128,"ĠKart":13129,"ĠOpel":13130,"Ġsim":13131,"reiniger":13132,"ĠReichen":13133,"Fi":13134,"ĠKy":13135,"Ġmitmachen":13136,"Ġwertvoll":13137,"Ġstein":13138,"Ġbeschriebenen":13139,"personen":13140,"kal":13141,"ĠRechen":13142,"Ġdescription":13143,"ries":13144,"vorschriften":13145,"max":13146,"Kur":13147,"ĠDev":13148,"ĠIrland":13149,"ĠPrivatsphÃ¤re":13150,"Ġrechtlich":13151,"Ġverborgen":13152,"ĠChip":13153,"Ġtrage":13154,"ĠParallel":13155,"ĠAustria":13156,"ĠHuman":13157,"ĠIrak":13158,"ĠSchwÃ¤chen":13159,"schafter":13160,"ĠBag":13161,"tran":13162,"ĠhÃ¶chster":13163,"ĠprÃ¤sentierte":13164,"ĠTischtennis":13165,"Ġprodu":13166,"Jedes":13167,"ĠMÃ¼n":13168,"Gleich":13169,"ĠReligions":13170,"ĠGetreide":13171,"ĠBug":13172,"brunn":13173,"ĠauslÃ¶sen":13174,"ĠVerhandlung":13175,"ĠTÃ¼rk":13176,"ĠZimmern":13177,"ĠSchauspielerin":13178,"ĠTeilzeit":13179,"ĠHektar":13180,"abor":13181,"Ġvorzu":13182,"ĠHem":13183,"ĠreligiÃ¶sen":13184,"aring":13185,"https":13186,"ĠEnsemble":13187,"mengen":13188,"Ġwendet":13189,"Ġsal":13190,"abil":13191,"liessen":13192,"ĠAnge":13193,"ĠEndlich":13194,"amtes":13195,"ĠMietwagen":13196,"Ġfil":13197,"Sommer":13198,"ĠVorsatz":13199,"riebe":13200,"geladen":13201,"ĠTC":13202,"Ac":13203,"ĠDifferenz":13204,"groÃŁ":13205,"ants":13206,"Ġgereinigt":13207,"ĠHauptbahnhof":13208,"bling":13209,"kanal":13210,"pers":13211,"ĠPflanz":13212,"ĠStellenwert":13213,"Ã¤ufen":13214,"ĠCC":13215,"Ġumfangreich":13216,"ĠBÃ¼ros":13217,"ĠÃł":13218,"ĠArn":13219,"Ġ>>":13220,"Ġfickt":13221,"Ġforum":13222,"ĠWeiber":13223,"ĠKamer":13224,"Ġherein":13225,"ĠBucht":13226,"Ġnacht":13227,"ĠAusschluss":13228,"ĠRod":13229,"ĠMonitor":13230,"Ġ(+":13231,"forscher":13232,"ausweis":13233,"Ġbez":13234,"meier":13235,"wor":13236,"gewebe":13237,"akademie":13238,"Ġeingereicht":13239,"SPD":13240,"Wien":13241,"Klein":13242,"Lehr":13243,"Studien":13244,"Ġunendlich":13245,"ĠVerhaltens":13246,"iÃŁ":13247,"Ġruhige":13248,"ĠMinisterprÃ¤sident":13249,"ESS":13250,"klÃ¤r":13251,"Ã¶hnen":13252,"ĠSubstanz":13253,"Mitglieder":13254,"stel":13255,"altungen":13256,"bleiben":13257,"well":13258,"gin":13259,"ĠOlivenÃ¶l":13260,"Ġwertvollen":13261,"gesetzte":13262,"ĠLounge":13263,"sfÃ¤hig":13264,"ĠSO":13265,"ĠKreise":13266,"schlÃ¼sse":13267,"ĠOrg":13268,"ĠEnkel":13269,"Ġmotiv":13270,"Typ":13271,"Mitarbeiter":13272,"ĠStoÃŁ":13273,"Sterne":13274,"ĠSchadens":13275,"steuern":13276,"Ġeingehalten":13277,"Ġunvor":13278,"rÃ¤nkt":13279,"ĠAromen":13280,"ĠÃ¼bersehen":13281,"Ġweitaus":13282,"ĠZahnarzt":13283,"Ã¼tter":13284,"Ã¶ses":13285,"ĠÃľberraschungen":13286,"ausgaben":13287,"Ġline":13288,"MP":13289,"sprÃ¤":13290,"ĠWurst":13291,"Ġwechsel":13292,"ĠBrem":13293,"ĠauslÃ¤ndischen":13294,"ĠDarunter":13295,"DP":13296,"Ġaufkommen":13297,"rauen":13298,"Ġgeachtet":13299,"indel":13300,"Ġmarkiert":13301,"ersdorf":13302,"eifen":13303,"stall":13304,"ĠAmerican":13305,"ĠAngestellten":13306,"ENT":13307,"ĠSpr":13308,"ĠDSL":13309,"geordneten":13310,"ĠPfad":13311,"ĠbewÃ¤hrt":13312,"ĠTsch":13313,"Ġalkohol":13314,"bers":13315,"Ġdetaillierte":13316,"sau":13317,"ikon":13318,"welten":13319,"ĠhÃ¼bsche":13320,"ĠgefÃ¼hl":13321,"ĠBaustelle":13322,"Ġ81":13323,"ĠspÃ¤tere":13324,"Ġunivers":13325,"ĠÃ¼bert":13326,"Ġberuhigen":13327,"Ġeingenommen":13328,"Ġkommst":13329,"tigem":13330,"ĠOberbÃ¼rgermeister":13331,"ĠFehlen":13332,"ĠðŁĺ":13333,"ĠTatsachen":13334,"ĠWord":13335,"Ġhel":13336,"ĠSchwerpunkte":13337,"ĠWen":13338,"ĠSprechen":13339,"ĠErfahrungs":13340,"ĠElementen":13341,"ĠGlÃ¼ckwunsch":13342,"Ġtransportieren":13343,"flasche":13344,"ĠInitiativen":13345,"unken":13346,"ĠanschlieÃŁen":13347,"derung":13348,"eise":13349,"ĠÃ¼bersch":13350,"ĠTU":13351,"Ġdauerhafte":13352,"any":13353,"ĠspÃ¼rbar":13354,"ahm":13355,"Ã¤mmer":13356,"Sofern":13357,"Ġlebe":13358,"ĠsÃ¼ÃŁen":13359,"ĠStud":13360,"Ġwozu":13361,"Ġanspruchsvolle":13362,"Ġost":13363,"Ġheben":13364,"osten":13365,"osa":13366,"ĠKopfhÃ¶rer":13367,"ĠXbox":13368,"ĠErfahren":13369,"Sti":13370,"Gesellschaft":13371,"strukturen":13372,"ĠMah":13373,"Ġdiente":13374,"ĠBosch":13375,"vorschlag":13376,"Ġeinger":13377,"ĠRec":13378,"ĠUrheber":13379,"Ġ!!!":13380,"ĠZeile":13381,"Ġunbekannte":13382,"ĠausfÃ¼hren":13383,"Ġhob":13384,"Ġseltsam":13385,"Ġinf":13386,"ĠSpe":13387,"iene":13388,"ĠsouverÃ¤n":13389,"ĠElite":13390,"ĠverknÃ¼pft":13391,"ollte":13392,"ĠSchale":13393,"LÃ¶sung":13394,"ĠwÃ¶chentlich":13395,"ĠAufl":13396,"vertrages":13397,"Ġbaden":13398,"habe":13399,"Gew":13400,"bÃ¶den":13401,"eres":13402,"ĠHerd":13403,")-":13404,"Ġbeseitigen":13405,"austausch":13406,"ĠBaumwoll":13407,"Ġverschieben":13408,"einander":13409,"ĠÃ¼berschritten":13410,"Ġwechselt":13411,"Ġgelungene":13412,"KK":13413,"Ġmark":13414,"otor":13415,"Ġwohnung":13416,"element":13417,"Alt":13418,"bibliothek":13419,"Ġtaucht":13420,"brunnen":13421,"Ġstabile":13422,"xx":13423,"Kat":13424,"alteten":13425,"ĠKrone":13426,"Jede":13427,"aire":13428,"ĠFab":13429,"ĠEmpf":13430,"Ġverfasst":13431,"ĠHerzens":13432,"nahe":13433,"ĠSponsoren":13434,"ĠPulver":13435,"alm":13436,"beer":13437,"Ġstudium":13438,"ĠEssay":13439,"Ġschwei":13440,"mente":13441,"Ġdat":13442,"ĠlegendÃ¤ren":13443,"Ġpflege":13444,"Ġunbekannten":13445,"Ġverbundene":13446,"BR":13447,"Ġwur":13448,"ĠfÃ¼ndig":13449,"gespielt":13450,"ĠPink":13451,"Meister":13452,"Ġoffener":13453,"sens":13454,"leistungs":13455,"Ġinhaltlich":13456,"ĠLam":13457,"ĠLÃ¼beck":13458,"ĠverhÃ¤lt":13459,"ĠBeendigung":13460,"ĠRolf":13461,"Ġrezeptfrei":13462,"Ġblasen":13463,"Ġversenden":13464,"Hei":13465,"Ġdeutlichen":13466,"Ġwussten":13467,"Ġâľĵ":13468,"ĠErscheinungsbild":13469,"Ġpoppen":13470,"lÃ¤":13471,"own":13472,"ĠBusch":13473,"ĠDankeschÃ¶n":13474,"ĠForex":13475,"Ġbestimmtes":13476,"ĩ":13477,"ĠFit":13478,"ĠPokal":13479,"ĠJerusalem":13480,"etts":13481,"ĠgestÃ¤rkt":13482,"saft":13483,"jahren":13484,"shausen":13485,"mantel":13486,"Ġgeniessen":13487,"Ġaussch":13488,"Â·":13489,"ĠBecker":13490,"ï»¿":13491,"ĠArmband":13492,"ĠBindung":13493,"ĠFÃ¤cher":13494,"ritte":13495,"ĠSahne":13496,"Ġvs":13497,"ochten":13498,"geordnete":13499,"dt":13500,"fÃ¤higen":13501,"ĠTextur":13502,"foto":13503,"ĠnachtrÃ¤glich":13504,"ĠCL":13505,"ÃŁt":13506,"staats":13507,"ĠArch":13508,"Ġfall":13509,"onien":13510,
[...]
